#version: 0.2 - Trained by `huggingface/tokenizers`
t h
i n
e r
a n
th e
i s
r e
o n
a t
e n
in g
o u
o r
s t
i t
an d
a l
t o
e s
a s
e d
a r
o f
m o
l y
c h
l e
v i
c t
s e
b e
i l
o m
v e
T h
vi e
th is
o w
o t
l i
u t
v er
a d
w h
mo vie
i c
th at
w as
a ct
f or
en t
y ou
m e
i on
g h
s h
a y
k e
e l
o o
er e
Th e
i th
. .
u n
on e
i d
l d
a b
h a
w ith
a re
p e
b ut
c e
ou t
s o
f il
m a
n ot
fil m
g e
al l
s u
r i
al ly
om e
i r
d e
u st
er s
r a
u l
o p
ou ld
n e
f e
t er
at ch
ha ve
c om
d i
ver y
r o
il l
oo d
e x
w atch
I t
s c
l a
th ing
i m
c k
a m
li ke
p o
l o
s ome
an t
n o
gh t
an y
sh ow
se e
d o
en d
or y
j ust
a st
el l
w or
in t
th er
es s
re at
r om
Th is
h e
t i
g ood
u s
m y
ch ar
p l
st ory
t r
ar t
c on
the y
i f
p er
n d
t a
u r
p re
c an
char act
wh o
w e
g o
f rom
v en
ab out
is t
e p
a p
u p
ou s
a u
ge t
wh at
mo re
w ay
h as
i ve
m ent
o l
ou gh
at ion
i g
in e
b y
ti me
in d
q u
re ally
m an
j o
oo k
g reat
a g
at e
t e
w ill
.. .
i es
r it
w ould
ab le
p ro
n ow
s a
ar d
d id
vie w
op le
f ul
on g
th ere
d er
o ther
in k
d on
pe ople
ou r
w ere
p t
u m
e t
wh i
h ow
f un
s er
e very
it y
b ad
it e
b le
u ch
o ver
you r
th an
h is
h ad
be c
e ven
u re
be t
vi es
c i
e ver
g u
s s
h er
p le
th ink
ir st
mo vies
act ing
m uch
charact ers
w ell
b o
mo st
ou nd
au se
s p
d is
c ould
f a
W h
it s
ad e
sc en
pe ct
on ly
ma ke
to o
f irst
en ce
i ght
l l
th r
re al
bec ause
n y
p r
k es
k ing
po int
ar s
do es
k now
l ow
l ook
! !
w rit
d es
be en
s ay
jo y
p p
re ct
se l
pl ot
or s
is h
a ck
f f
o re
w ant
the ir
t y
whi ch
1 0
I f
watch ing
re view
m ade
is o
a c
a in
wh en
en joy
a ge
bet ter
id e
l it
ow n
v ed
m in
f ter
ep iso
v es
as on
lo ve
act ion
ta in
fe ct
of f
se en
fe el
i e
the m
charact er
or t
t w
y e
di rect
ser ies
in to
m any
v ing
be st
as s
f in
h o
a w
sel f
at ed
ic al
r u
p art
ve l
B ut
li e
l ess
pl ay
the n
sh ould
A nd
m is
d u
fun ny
i ous
I n
ex pect
t le
p h
c es
ic e
c ast
ne w
ou ght
er tain
Th ere
an s
at ing
tr y
l ot
ic k
re ad
st and
m at
a me
b r
g r
a fter
h i
ne ver
b ack
S t
re d
act ors
h or
wor k
some thing
en se
t ra
un der
t ing
thr ough
c l
or ig
li fe
orig in
u d
see m
al so
o ld
en s
d ay
a ch
ere st
go ing
scen es
ar y
u gh
w on
p la
be lie
e f
int erest
h ere
r y
be ing
com m
origin al
did n
t im
la ugh
ha pp
wh ere
ag ain
d ra
an ce
n t
u ally
ct ion
o se
com ed
g i
b or
u e
sh e
l ine
g en
th ought
b er
su r
t al
pe ci
no thing
ch e
.. ..
ex c
o g
l ong
is e
g ot
ar k
st er
st art
film s
w ast
as e
g ive
lit tle
c ent
i ly
hi gh
a k
t en
m er
C h
i re
episo de
ut e
per for
f ore
c re
ne ed
review s
wh y
ri ble
th ough
tim es
tw o
su ch
e st
wor th
watch ed
m ay
z ing
ap point
ri ght
ent ertain
st ill
n ing
the se
di ff
sc re
bor ing
Y ou
ma kes
p a
perfor man
ri pt
dis appoint
th ose
il d
p s
la ck
s im
e m
d one
pre t
) .
an g
a ma
sa me
h im
o b
c ou
comed y
t ur
ment s
b l
m ind
does n
b it
f ind
se ason
com ple
r or
sc ript
c ine
a ve
d own
b ig
f ar
fe w
one y
s it
act ually
interest ing
f an
p ers
S o
ion s
pro du
b ook
n g
se t
N o
f am
show s
ation s
com p
su re
r ong
Wh at
o d
re e
who le
ut es
c o
comm end
h u
way s
w ard
h um
k ed
m oney
i z
ver s
so l
min utes
h ard
be fore
wor ld
w ood
u al
ab ly
v is
ta ke
ef fect
il li
scre en
a ut
r an
en ough
ce pt
an other
diff er
w a
c ra
m us
ma in
t ri
h our
sa w
le t
re commend
under stand
f i
ic s
ama zing
su per
wast e
as h
c reat
g in
la st
any thing
per fect
c ed
thing s
f li
t ell
f t
ul t
k ind
l es
r ating
ra ph
m ust
with out
k id
c ome
ke ep
mo t
oo l
v o
2 0
ye ars
comple te
y s
scen e
pers on
su b
H e
T V
A l
The y
wor st
A s
fin ite
ri end
di al
at er
whi le
i al
lo ved
H ow
p ut
won der
pret ty
f el
ho pe
N ot
hor ror
s ense
differ ent
f riend
tur n
finite ly
pre ss
- -
sur pr
sol ute
wa it
end ing
con t
happ en
in s
m ed
ol ly
if ul
f act
R e
c le
to p
be aut
direct or
st e
b as
s ing
p ie
po or
belie ve
au di
episo des
i p
li ght
J o
ir l
in ce
fel t
ar ly
w om
every thing
A mer
for t
Amer ic
w ar
con d
vi ous
d y
at ive
re l
in es
olly wood
D on
ma king
enjoy ed
W e
jo b
le ad
re n
mus ic
every one
writ ing
v ent
effect s
b u
is n
ye ar
re me
we en
qu ite
tr u
ist ic
al ways
f ound
A ll
s m
re ss
c are
was n
s ed
fam ily
M y
al e
bet ween
e mot
ad d
beaut iful
s peci
ab solute
s low
i an
p or
ion al
look ing
c ar
us ed
ic ally
n ess
le ast
ell ent
ic ul
J ust
x t
g irl
re ason
up id
seem s
any one
hum or
D e
r is
de finitely
a way
st ar
al f
se qu
c ess
c or
vi l
F or
me an
l ed
k ill
di ct
m ess
al most
er y
ar ound
on s
ter rible
pie ce
a th
cl ass
audi ence
gu e
b ably
try ing
st upid
k s
S e
le ft
ate ly
dra ma
w ent
ex t
m ight
M o
) ,
n a
ch ild
see ing
y ing
c li
p i
se cond
v al
per i
ing s
H ollywood
performan ce
Th at
h alf
f ant
s ince
s ound
bo th
el se
entertain ing
ne xt
u se
surpr is
raph y
f ol
tr ue
" .
com es
disappoint ed
exc ellent
B e
un t
ig n
li ked
ro le
se x
f l
i ble
writ ten
vel op
st u
de c
s ent
at t
h el
v ol
il ar
id er
dial o
her o
h ist
aw ful
pro bably
al ity
r id
speci al
s on
c rit
ma g
c all
n er
m s
ent ire
de velop
kid s
po ss
e ach
sc i
he art
peci ally
one st
y et
fa v
St ar
ste ad
c ri
es pecially
p ort
i a
re st
sa id
get s
ul l
A n
er a
complete ly
j e
w rong
ser ious
i le
thr ill
hu man
absolute ly
pre dict
ide a
act or
on d
ith er
S ome
st op
g l
ful ly
cine mat
c am
n ice
illi ant
l ines
p ly
you ng
1 9
o th
ge ther
c lo
des er
hour s
sh ot
ap pe
re s
be gin
ne y
sh o
E very
to gether
o c
T H
gen er
b re
could n
ist s
m ar
some one
is m
m on
tr ay
b ly
en ces
f re
want ed
on es
wor d
r un
lo g
ful l
read y
n ight
h and
c ut
f ight
og raphy
mo ments
cre di
an im
po lit
li c
M ar
o s
te m
c ap
s ad
I M
con s
c ame
m or
fol low
it ed
st y
br illiant
u su
li g
y es
in ter
jo kes
c ur
dialo gue
!! !
performan ces
pla in
pla ce
U n
por tray
t it
tru ly
predict able
i x
gu y
he ad
un i
Americ an
c ol
P e
je ct
ex peri
p ow
re g
c ertain
may be
n on
ra ther
T o
d ark
bo dy
cine ma
? ?
p ed
al s
v able
h onest
sim ply
g g
O ne
g ave
en g
A fter
ir d
fa il
L e
for m
de li
story line
it ing
g ar
ur ing
vi ol
pr op
b ud
su p
e as
um b
s ide
ar r
op in
c r
t ed
w al
t ic
h op
s pe
h n
produ ction
ast ic
c our
get ting
L o
ha ving
sup po
com ing
so ci
look s
W ell
c ing
r on
on ce
bas ed
ch o
es ome
G reat
fav or
E R
s y
gu ess
my self
re le
play ed
for ward
Wh en
in stead
b ra
the ater
expect ed
i ch
vers ion
n or
ta kes
r ated
am es
S he
p ar
ob vious
h ate
qu e
m ber
st ars
al ready
pre sent
f ans
m en
h y
R o
ma ster
to t
tal ent
w ish
L i
your self
D o
D is
pro ble
tot ally
N O
st rong
e le
p are
Jo hn
e ither
s po
go es
l and
ch an
O n
hor rible
cinemat ography
direct ion
it self
sh ort
opin ion
I N
How ever
s at
op en
su sp
l ist
tra il
wor se
belie vable
f all
pow er
wom en
end ed
et c
in credi
cour se
ex cept
an e
an no
real istic
gi ven
i o
tem pt
do ing
n ed
bud get
a h
oth ers
s ch
m ale
" ,
hist ory
It s
im press
p u
think ing
qu ality
ro ss
de cent
con f
mis s
cra p
A t
k en
or ies
us ing
ext reme
w it
all ow
wonder ful
cont in
ck s
Ch ris
E ven
Wh y
te en
IM D
t s
ure s
start ed
friend s
N e
icul ous
ge st
le vel
fa ce
fant astic
part s
fort un
f er
c y
p ast
day s
st ru
ex p
int el
writ ers
sty le
begin ning
class ic
aw esome
W ith
O ver
fin ish
act ress
al ong
surpris ed
unt il
gu ys
through out
expect ing
de p
m ing
A r
re t
ke pt
pi ct
su l
experi ence
li ve
fli x
c u
la w
un ch
poss ible
at tempt
feel ing
qu est
ent ion
wom an
p ass
e k
sc ore
cam era
sh ip
ne g
v in
child ren
rid iculous
suppo sed
can not
l er
s k
W atch
cou ple
fre sh
N et
c op
gi ving
re nt
gen re
ou ch
e vent
at es
stu ff
d uring
vis ual
C G
writ e
fa ir
ch ance
M ay
as ed
f ine
st ories
are d
I s
th ree
sequ el
hu ge
u ck
hel p
cons ider
bo y
V ery
w i
act ed
it ies
ot e
ou se
t on
b lack
su c
sch ool
Y es
S T
h ilar
g ra
tra ck
vi d
om b
um p
st ay
G od
su pp
play s
ing ly
cli ch
d ri
b age
g er
ty pe
over all
p op
say ing
Al so
susp ense
po sit
expect ations
seem ed
anno ying
enjoy able
clo se
lo st
p ot
G ood
or ry
in vol
0 0
e ar
n at
im port
pre ci
A N
z y
a king
or d
al i
a ce
l an
Net flix
f ast
ar ing
* *
gar bage
f ut
re k
R E
extreme ly
vo id
IMD b
t ouch
high ly
gr ound
c er
p ay
B r
m as
b ro
an k
ant ly
how ever
iz e
mess age
feel s
G o
. "
too k
reme mber
il ly
d ou
ple ase
hilar ious
p ain
thrill er
viol ence
n ame
CG I
trail er
f ran
develop ment
A ct
happen ed
es e
h ome
ent ial
pare nt
in cl
supp ort
is su
ot s
br ing
tell ing
re am
c ool
l ing
neg ative
ou d
ty p
ck ed
F irst
bo red
d r
to day
O K
sc ar
le ave
d en
ag es
vi de
l ish
m it
favor ite
sel ves
C an
real ity
fortun ately
Dis ney
vis ion
M an
we ak
S c
sim ple
a f
cou n
ul ar
a ke
w in
bec ome
spo il
polit ical
ta il
K e
certain ly
id ent
c red
entertain ment
s ong
Over all
fli ck
att ention
sa ve
sp ir
p ac
sing le
m id
May be
serious ly
in ed
fut ure
C ar
wi fe
look ed
gi ves
rel ation
di e
D V
d ist
sc ary
end s
a ver
in o
play ing
crit ics
S u
il ity
ment ion
tw ist
de ep
ha ps
pl an
O N
a v
ha ven
mat ter
S h
ad ult
my ster
se ver
would n
the at
m ark
ap preci
ro ll
h it
i gh
y ond
d am
mo der
ex act
tri ed
S p
ple as
sit u
3 0
intel lig
b b
A ny
need s
he ard
r ate
c ult
U S
m al
N ow
ch ang
c ase
P le
le g
E x
master piece
A T
I S
emot ional
pr of
happ ens
W ars
bu ild
w ise
i ma
DV D
o k
it ion
view er
pa ce
com ic
!! !!
P er
ant ic
z z
for get
le a
cou nt
ne cess
con cept
pre vious
i mag
re mind
chan ge
k er
e yes
wh ite
er ed
C om
c as
mo ment
moder n
ta king
al though
again st
proble m
call ed
Ple ase
book s
de tail
le ct
happ y
usu al
turn ed
res pect
id ed
to ld
r ist
A L
su m
c over
sm all
lo c
g ame
work s
h ind
Wh ile
wast ed
we ek
M ich
be yond
aver age
c ause
li d
dou b
ex am
le y
us s
s pect
a ir
le ar
le ep
W or
f oc
f ic
iz ed
part icul
Mar vel
te ch
word s
i er
st ra
fe male
vil la
J ack
Ch ar
w n
S er
wait ing
of ten
rating s
Mo vie
in ess
m ix
d ull
import ant
ard s
ut ter
M c
i red
mo ve
laugh ing
deser ves
p ur
ho ld
T rek
mis e
au gh
ef fort
sh ame
li ves
con ne
C on
co st
D a
direct ing
view ers
et y
D i
la me
if ic
sever al
deli ver
s ort
ast er
ro les
mat ic
1 5
suc cess
d umb
ag ree
mis try
pot ential
writ er
j or
b i
b ing
O scar
be hind
sim ilar
at or
ag ed
S te
H ar
read ing
mean ing
che mistry
fran ch
bl ood
T om
emot ion
tw ists
direct ed
fe at
dial og
IN G
lot s
clich é
W ill
ke t
usu ally
Wh o
them selves
exact ly
0 s
p ri
de ad
ne t
ure d
exp lo
the tic
ver se
qu ick
a go
F rom
tr ash
super b
al one
ta ken
anim ation
cast ing
poor ly
incredi ble
E ng
as y
g s
p ick
k new
lo ck
pre mise
tit le
NO T
honest ly
d le
ar ch
h ell
sound track
cle ver
s we
an i
lit er
for ced
some times
B rit
so lid
B ad
know n
uni que
p rom
p ite
u es
invol ved
re make
gl ad
S ha
com ment
ck ing
a el
f law
it ch
ps y
k y
tal king
are n
fa ther
franch ise
ward s
H o
h ol
dep th
turn s
hum our
ma jor
r ic
re cent
A b
worth y
y p
so on
hop ing
che ap
T er
fin ally
In di
fi ction
O h
posit ive
M r
en n
Re ally
bra in
as pect
s orry
ex e
de al
er ing
om in
stand ing
eas y
sul t
h ouse
b at
j ud
min ute
g re
and a
gr ou
ens ion
ran ge
P o
cle ar
dec ided
Chris ti
ex plain
n one
we ird
perfect ly
l ate
c ry
ro om
keep s
ter ri
s illy
sci ence
bre ak
L O
O f
de st
Mich ael
No thing
p ure
in st
start s
laugh s
laugh ed
Pe ople
er o
i b
him self
c a
necess ary
te am
b low
th or
eas ily
I T
at s
act ual
po st
Li ke
de ath
te le
l oud
sub ject
TH E
k ers
tru th
doub t
Ne w
p il
is ed
ex ist
obvious ly
b other
f o
ation al
ab o
typ ical
f ig
sequ ences
event s
u de
vide o
.. ...
b ur
ima gin
exam ple
e vil
th y
issu es
f ell
exc ited
f it
id es
O r
w er
es y
sm art
g on
are ly
J ames
b and
su ff
n arr
set ting
l ater
ur al
disappoint ing
cle arly
girl s
ag on
ap t
Al though
E n
lan gu
B o
re pe
ast e
jo ke
ent y
stra ight
ou nt
sat is
int ri
s ou
disappoint ment
emot ions
M e
coun try
to tal
con st
Th en
c la
fl at
b unch
h an
F il
st ick
surpr ise
vo ice
incl ud
most ly
tr ans
in a
hist or
du e
d ing
need ed
person al
con vin
G er
g an
p ack
point s
ke y
20 1
exe cut
e arly
pa thetic
mo ving
exc iting
st un
L u
fant asy
g ri
ci al
creat ed
t reat
g y
li ce
pict ure
n um
O R
a void
L et
myster y
want s
T r
pp ed
Mo st
is ing
re de
sp ent
mid dle
fam il
l ar
un d
st ere
r ow
B lack
p at
che esy
z e
ad mit
cr ing
el s
ang er
quest ion
ro du
w o
appreci ate
tal k
list en
c ru
id i
abo ve
g raph
interest ed
re f
ar ant
i v
ed ge
com ments
grou p
f ree
liter ally
B l
show ing
pil ot
sh i
augh ter
tele vision
H is
mo sp
langu age
on y
.... ....
b al
tri es
sp ace
stere ot
back ground
am p
c ers
r ing
C o
us es
g one
9 0
Ch rist
r ide
fil led
ag ing
soci ety
at mosp
am ount
Americ a
li m
ti v
me et
oo se
fin al
se at
Eng lish
is on
E m
mis sed
5 0
d aughter
intellig ent
A R
n ie
des cri
crit ic
V ER
b ust
the me
20 0
or ge
ide as
say s
mo ther
ele ments
che ck
us ion
br ought
gr ow
p y
B at
su g
Lo ve
b all
er ial
go d
per haps
re fer
n am
Every thing
no vel
ed iting
W ar
ad vent
go re
ac cept
sug gest
G u
b ar
screen play
ma kers
L E
10 0
ber t
sex ual
car to
incredi bly
Se ason
ex press
Su per
ra c
set s
s light
ne ar
log y
des ign
Brit ish
R ob
mat erial
St ory
h ar
season s
appe ar
g ust
M a
super hero
s ick
dra matic
Un fortunately
power ful
point less
st ud
vi ce
ious ly
appe al
H a
bo x
creat e
soci al
m ur
sp end
po se
view ing
b ed
be comes
action s
ent s
mus ical
i bly
d ru
or der
shot s
any more
g un
s ign
prop ag
as k
ch ed
F ran
l ad
open ing
pac ed
med io
hy pe
re lig
m i
relation ship
ac cent
val ue
cur rent
nat ural
j ump
support ing
d ream
bas ically
ri ed
fa ke
ab ility
me ans
G r
m es
song s
pp ing
P a
g ed
im pro
C l
ve st
visual s
imag ine
hol es
ell ing
V E
ot ic
produ cers
log ical
J e
ad apt
u ine
-- --
spe ak
pa id
ic ult
with in
m b
are s
lear n
diff icult
tal e
T ur
rom ance
ac ross
a il
review ers
me mor
cont ent
show n
cap t
p ull
watch able
h ook
gener al
p ho
s l
rele ased
comple x
b lic
propag anda
un ity
portray ed
wal ked
cult ure
Q u
Christi an
h ot
Act ing
E d
stun ning
z omb
rom antic
do cu
he ar
K ing
T oo
f ying
ic es
st ate
fe st
gen uine
e ye
ou n
fail ed
work ed
cre w
some what
bb ish
intri gu
el d
bad ly
Di rect
n i
s ite
atmosp here
thr ow
e qu
ti red
cra zy
S am
cor rect
peri od
deser ve
non sense
l in
sho ot
ex tra
th ird
beautiful ly
dr op
cre ep
wh e
mis sing
rede em
w r
st re
em b
en e
A d
un like
know s
O U
out standing
ra ge
8 0
Th ank
medio cre
an ks
re nd
sh ed
s ens
s la
B y
t ension
great est
pr ot
o h
ac cur
cri me
fight ing
includ ing
li k
g ay
convin cing
docu ment
f our
ce i
proble ms
gon na
v ar
ep ic
ho st
ren ch
S im
E N
happen ing
talent ed
cred its
me ant
br ings
conne ct
Da vid
a z
at ta
ent ly
view s
villa in
L Y
B ro
H igh
m illi
se arch
rele ase
is ter
li ving
' .
B est
se ll
ro y
ri ch
impress ed
so ld
des pite
sur vi
contin ue
particul arly
ce ed
C ap
w an
is s
A S
r ound
On ly
parent s
entertain ed
contin u
com b
F i
re fresh
c ant
m il
ou th
in ing
direct ors
arr ass
p ing
film ed
R a
i val
u g
lik able
ur y
dis gust
int rodu
ru bbish
sub tle
c ute
in vest
st range
F in
P r
b an
int ense
W as
con cl
? !
t ill
some how
lead s
th ers
sp ot
un less
G e
g ress
t aste
r al
creat ive
quick ly
poss ibly
ber g
stereot yp
O ther
adult s
pl enty
i us
or ing
Fil m
N or
to wards
cho ice
emb arrass
ord in
im p
h us
A li
bu y
for ce
ough ly
num ber
pur pose
re c
what ever
bre ath
situ ations
fl u
shi ps
ens ive
B en
S ure
gu es
i k
hus band
1 2
D id
scen ery
de press
bec ame
col le
ant i
run ning
B C
fo ot
re present
H or
long er
ic a
ur t
pain ful
ok ay
un believable
cring e
st ep
im m
lea ves
B ra
ap pro
um es
po lice
dist ur
S m
S ch
cla im
pro gra
plot s
stru gg
c atch
pro ject
j our
ap art
P l
d ate
i ed
Th ese
in sp
kill ed
Ho pe
W al
con tain
portray al
advent ure
add ed
m ass
De finitely
foc us
H er
pu blic
h ood
c al
impress ive
M on
finish ed
quest ions
just ice
I E
i ar
un k
wor king
ul a
R uss
to wn
prof ess
ne arly
ad v
carto on
cra ft
ur ther
I I
ster n
aw k
, "
t v
reg ard
anim ated
fail s
pack ed
reg ret
mur der
S ci
an ces
screen ing
develop ed
p ra
ter n
real ize
cont ro
fl ash
situ ation
wr ote
ri es
di m
ab y
so ph
viol ent
1 3
histor ical
f ron
can c
C ol
to m
nor mal
< /
om en
Pe ter
Indi an
whe ther
un necessary
eng aging
G re
P ro
re main
ma x
ct or
uni verse
f ra
produ ced
od d
t able
be l
prot agon
do g
am ong
D es
O M
i ans
accur ate
st ri
tr act
comp ared
ant s
refresh ing
A w
Sp ider
in di
famil iar
pre s
C he
psy cho
want ing
got ten
lead ing
b ot
n el
sub st
ap parent
chang ed
recommend ed
sou l
pho to
: )
au ght
b us
f r
i ally
un realistic
S and
lo ad
og y
detail s
E l
con tri
spect ac
ordin ary
ul ti
B ig
T ru
mag ic
Every one
A ma
De ad
J u
s leep
ag er
mar vel
. )
com fort
f ive
L ook
st r
belie f
hop es
li es
old er
gen ius
A ng
u b
z ed
end er
i ves
te st
conf using
h at
h ated
arant ino
D ark
fig ure
re w
theat re
un fortunately
comed ies
comp are
V i
z ero
k ick
og n
in no
re ve
pe t
D an
G O
hor ri
hook ed
than k
dec is
in spir
ot t
T arantino
g ain
C H
A dam
S how
cons ist
re sp
as c
ous ly
cost umes
don t
comm on
wonder ing
deli vers
wal k
ct ive
thor oughly
u c
st al
M el
Ser iously
gg ed
any way
b es
ra ce
gr y
big gest
av y
iv ity
st ers
Wh ere
cop y
en er
il ogy
creep y
f ire
fa ith
ers on
u ro
gr and
care er
and om
ly ing
other wise
document ary
t ort
A no
as leep
I L
4 0
s n
m ulti
re ach
F ar
s es
c ul
er on
rec ogn
Ano ther
mo ved
utter ly
N ever
ind ust
R y
ay s
In stead
person ally
el ess
man aged
re qu
ra p
progra m
I m
W ow
comp elling
stu di
awk ward
no re
ach ie
sy m
cred it
t one
med i
if er
Ro bert
v ot
ru ined
fall s
in c
rel ate
polit ics
M O
th s
bo ys
Se e
it al
swe et
bo ard
S ad
ha m
r up
l uck
B O
re sult
Pa ul
pro gress
lack s
wer en
de pict
show ed
tell s
redeem ing
sho ck
ent ious
pop ular
m ad
narr ative
m ir
be at
pac ing
slight ly
M us
kill s
bat tle
S E
c at
te ach
de ed
bo ot
off ice
ti es
com plain
sit ting
nat ure
f ool
not e
mo od
te ars
reason s
pie ces
fe ar
st ream
S orry
w ater
ut ion
fi ed
Christ mas
D C
ad es
Ab solute
B ar
g raphy
up on
comed ic
cei ved
li kes
do ll
dis aster
ear th
H onest
P ark
kind a
prop er
E VER
b arely
op port
illi am
intrigu ing
tr ilogy
cinemat ic
f low
en ing
insp ired
tr ust
i ent
L ast
h en
Be cause
R ed
touch ing
1 1
im possible
J im
li ber
S a
f urther
des per
pu sh
ag end
theat ers
F e
ch all
ter ror
lar ge
mo te
cor n
r andom
speci ally
wit ch
M any
R i
ph ys
pers pect
Per haps
pro vo
descri be
ne ither
t ar
dialo gues
A D
Lo ved
Bat man
O k
op po
A M
n omin
dra w
pla ces
execut ed
indust ry
f asc
u sh
in ation
b la
c ity
particul ar
F o
amp ire
Ke vin
p an
br ut
bas ic
sh allow
su cks
follow ing
lea ving
ri e
ive ly
TH IS
i or
de m
A ust
M ore
jour ney
Honest ly
fair ly
ul tim
qu ir
1 st
d ed
u do
di es
actress es
dis h
young er
on der
vi ct
g rit
not ch
know ing
na il
pret entious
3 D
fil l
distur bing
ell ed
now here
M ur
Ry an
bl and
wit ty
' ,
S ave
? "
M ad
a po
p ul
B ond
should n
n ames
adapt ation
M or
g ers
b lock
hero es
concl usion
be ar
comm er
relation ships
tw ice
b ul
s en
jud ge
G ive
sc ares
like ly
em pt
gener ation
H ere
scre am
mo ves
wan na
zomb ie
g ang
ac count
Sm ith
aspect s
e ch
tr ad
stand ard
em p
consider ing
mb ers
memor able
?? ?
i me
bre aking
dam n
flaw s
fron t
g ent
ab sur
T ra
kill ing
scen ar
con cer
s mo
every body
conf used
Wor ld
ate ur
Y e
that s
ment al
comp ar
remind ed
laugh ter
issu e
St ill
d el
if y
ri ous
feel ings
med ia
Le e
milli on
B ill
g ing
pl us
mention ed
imagin ation
it ary
ir rit
M en
let s
M art
pa int
ins ide
Americ ans
dest roy
dra wn
a ther
r are
hard ly
th in
col or
intellig ence
dim ens
a a
he avy
rele v
W illiam
g ory
mis take
s w
W ood
t ough
them es
i zing
form ula
B er
M at
N ight
fe min
B ru
J ason
sequ ence
E D
is es
P ar
go ver
appro ach
O ut
an gry
deliver ed
B S
H O
dep end
entire ly
Sc ott
l eng
tr ou
ali en
except ion
absur d
T im
wal king
d read
dec ide
ter ms
prop ri
c ore
s il
appe ars
hand s
b omb
remind s
reve al
min or
agend a
R om
high er
stru ct
conne ction
Ha ving
H ard
lo se
an ced
spir it
Char act
P at
tra vel
d s
sm ile
sel ess
St ep
audi ences
Ex c
dis c
v ote
im ent
fi eld
ra id
thr own
bro ther
Ger man
A f
ver t
terri fic
am ateur
W il
mix ed
E uro
f la
su it
kill er
T wo
we stern
ap p
think s
ou rit
as su
disgust ing
n u
ap propri
graph ic
perspect ive
! "
a im
c ross
ri p
aw ard
subst ance
spectac ular
a pe
m atch
oc cas
refer ences
mor al
b a
d ry
pa th
human ity
un g
E nd
st em
story telling
consider ed
F rench
ash ing
sound s
comfort able
7 0
B et
Th r
miss ion
be ha
in y
oo oo
const antly
profess ional
dimens ional
on ic
lo ss
AN D
build ing
y ed
lack ing
ven ge
b s
protagon ist
st ood
chang es
dis cover
beaut y
val ues
me mbers
ac c
J ones
J enn
m ally
m m
t ers
surpris ingly
fav ourit
vi r
un expected
who se
ci ous
off er
spoil ers
g ic
ic ed
de light
ans w
gr ab
! )
tech no
in sult
recent ly
6 0
se cre
over rated
feat ure
ani me
Bru ce
opport unity
w ed
teen age
T O
cri min
V IE
n umb
new s
Absolute ly
L aw
aw are
fam ous
form ation
im medi
Br ad
success ful
fli ct
tit les
trail ers
re mark
add s
suppo se
const ant
E p
W ould
cap tiv
gra ce
ph en
Jenn ifer
g ames
and er
c ir
C am
sure ly
S ar
ap an
E S
ha ir
pp y
laugh able
wast ing
cr ow
High ly
apparent ly
Ge orge
char ming
fol ks
Direct or
e en
lo ving
S pi
b ase
so ever
lo ves
act s
stu ck
in deed
n s
th us
in sul
ir ty
la zy
S O
un funny
Cap tain
W ay
af raid
m bl
il o
what soever
fa ces
A le
M i
ish ed
sk ip
phen omen
pleas antly
enjoy ing
sa ke
nie st
intel lect
o st
understand ing
car ry
P h
z a
sy stem
D r
od y
present ed
stre et
f ash
qu al
B re
mo tiv
af fect
relig ious
pre fer
slow ly
l ay
tr an
put ting
d a
Any way
photo graphy
S uch
g es
vi du
me mber
bus iness
e per
B ur
li er
attempt s
C ine
I C
L it
w ow
re cor
Th ose
mat ure
p unch
suc ceed
G et
c aught
il t
than ks
gr at
vis ually
mot ion
fasc in
relev ant
aw ards
spe c
vict im
over ly
i ers
cou rage
Jack son
fr ust
d an
v an
sho cked
J es
h om
forget table
f old
ex per
orge ous
a vi
n ud
man ages
Fran k
f u
not ice
differ ence
Li fe
n ical
re boot
off ic
rup t
en ced
Ama zing
re ck
out side
thrill ing
Ter rible
Russ ian
indi vidu
A c
b its
produ ct
19 9
beha vi
favourit e
ex plan
exc use
W onder
w ind
ar c
so ap
com ics
girl friend
Be aut
su cked
creat ing
hel d
En joy
mil itary
fa ult
gener ally
sum mer
fash ion
fun niest
deser ved
Ste ve
blow n
Euro pe
ed uc
wood en
gre w
meet s
empt y
A C
D ay
comp ut
surpris ing
A ction
B E
J apan
p se
Ro ck
A void
explo s
dru g
ac y
On ce
B oring
ag ger
w ars
LO VE
multi ple
me t
less ly
Mart in
v ampire
as ha
off ensive
stereotyp es
block bust
F un
or k
sp in
min s
tur ning
D ra
u be
sci ent
contro l
y n
person ality
D ani
be low
ge m
min ator
stop ped
pop corn
k ish
w el
re mote
film ing
w all
was h
j u
as ide
sc ared
v ul
some where
satis fying
? )
s our
tra in
K id
re y
sad ly
Any one
H an
genuine ly
appropri ate
G host
e th
impro ve
Exc ellent
st age
follow s
at tract
tar get
C ould
it es
gr ade
depress ing
g orgeous
s al
cent ury
d den
int ended
art istic
ade my
led ge
sho cking
m outh
t re
con flict
if ied
Ang el
nud ity
2 nd
ad vert
ma ch
fact s
I D
s ess
ant ed
pleas ant
prom ising
immedi ately
j um
at ter
ag ers
ass ic
comp any
cli max
no stal
ag ue
ven gers
S al
b um
d ance
ð Ÿ
as ked
h id
pra ise
provo king
Y OU
cliché s
w ide
tort ure
H ol
gh ost
log ic
canc el
G irl
D O
a x
li ved
A m
T ot
de te
Des pite
S un
ag a
s ix
ar th
char m
exc ite
p en
Th ough
psycho logical
lo ver
ell ar
A Y
f ab
sing ing
de f
allow ed
bring ing
loc al
h ang
con vers
add ition
H ouse
ye ah
de fin
ak ed
mon ster
pla ced
fore ver
au then
bal ance
dru gs
var ious
b aby
s ister
ch ill
has n
ele ment
pleas ure
and s
Th anks
mis er
imp act
> <
st o
T ime
in v
pr act
high light
cle an
S aw
ser v
gr ad
.... ..
surpris es
pass ion
Ju li
E ast
Watch ing
MO VIE
k a
gr own
child hood
gri pping
d anger
g ross
man ner
c ate
t un
cho ices
Sand ler
G ar
gover n
b ri
c old
su dden
C ra
re vol
prom ise
Po or
C U
in ner
ch ick
stand s
back s
ear lier
re ceived
H ad
ren ce
AL L
O ff
re search
ab s
chan nel
---- ----
u ff
su spect
up s
won t
bl ind
authen tic
st ret
real ism
start ing
pa thy
deep ly
R ay
r arely
ic king
un fold
nice ly
al d
iz ation
it t
su ck
ill er
ru shed
loc ations
O ld
wh el
ill a
love ly
sit com
Tur kish
Fin ally
P O
on to
as es
, ,
8 0s
A re
e e
be coming
brilliant ly
achie ve
comput er
excite ment
ro b
ro ad
ro ck
tr ick
posit ion
at ic
Do es
g a
an a
teen agers
B oth
j unk
s li
and y
w w
4 5
re venge
rel ated
pi le
cry ing
human s
ref lect
l oose
it ive
un interesting
impress ion
ug ly
T it
v a
dra gged
find ing
care s
contin ues
level s
sold iers
in flu
di g
ch ase
il dish
ma ker
no body
T or
her self
m ary
Be ing
fight s
dr ink
E ach
in it
co her
phenomen al
suspense ful
resp ons
O b
h ill
p un
r d
are nt
plan et
explain ed
repe tit
f ly
inspir ing
techno logy
U p
real ized
ru in
major ity
Step hen
coun ter
sla p
w art
D am
pr ison
H ave
J on
th o
il ities
ul ous
am using
ted ious
scenar io
irrit ating
e ks
ph ilo
With out
F est
ch ore
ce le
m ine
r ad
int ed
hi p
tri p
gg ing
sequel s
fran k
ines e
F ant
a head
no ld
C ast
U T
go ld
te ens
ins ight
st unt
sh are
ro ot
find s
ad vice
bor n
pick ed
w il
leng th
G old
original ity
feat ures
net work
ca pe
b iz
dread ful
F am
gl ing
ultim ately
Af ric
ali ens
studi o
brut al
Spi el
antic ip
strugg le
liber al
R I
S at
in formation
re turn
put s
d ress
s kills
min im
ak y
B as
d ad
f its
w ild
ig nore
ON E
H BO
M ag
P ol
war ming
ch ildish
int s
dis tr
pr oud
hy ped
i et
the s
ent ially
any where
sur round
villa ins
graph ics
k i
at ro
St re
big ger
philo soph
r ick
had n
K ore
sex y
w ing
wh om
comp lic
leg end
fascin ating
ar ily
ir o
quir ky
Q ue
v or
pro ves
rel at
follow ed
B la
H am
Y ork
nor mally
W W
pow ers
al ive
if f
sa fe
mon ths
stay ed
ch op
Indi a
secre t
E li
P lot
es cape
cli che
dri vel
P ri
u des
produ ce
Har ry
relig ion
B ob
ed y
chall eng
L on
v s
R am
in vent
sp ort
aw n
cri ed
E specially
e vol
pre pare
heart ed
av ail
T ake
ch oose
el le
ction s
govern ment
s pl
sc ars
ama zed
keep ing
M al
tic ket
Ri char
explan ation
C age
he y
shoot ing
pres ence
st on
humor ous
F X
G i
N ic
colle ge
ke ts
pl es
19 7
Spiel berg
D en
sh ad
Wh ich
em s
00 0
M ark
lo y
part y
spe aking
rac ist
crow d
war m
oppo site
S y
h urt
bl ed
spe ech
Wor st
J ur
it ude
un ting
will ing
des c
cra ppy
mag n
TH ING
M CU
Y et
h h
h its
ar re
Th or
guess ing
Ye ah
U N
se mbl
of t
ob sess
Ep iso
un comfortable
Can ad
hat ers
Beaut iful
st ink
mo m
pla us
dra g
produ cer
Bo y
G ame
al le
ar ies
min is
f at
h es
or m
Ale x
R id
char is
pre mi
main ly
dy nam
anim als
bro thers
Jes us
b ought
ex agger
comm it
contain s
e vid
en ed
st ellar
RE AL
asha med
low er
Ch inese
creat ors
Lo st
grit ty
ad ays
not iced
fic ial
Sha me
contri ved
th ous
hope fully
ins ane
pass ed
Fo x
com pla
art s
comm un
** **
connect ed
Sad ly
ere ly
de eper
pre view
pre ach
mind less
Aust ral
the less
sk i
pul led
B ollywood
S k
il st
ri ve
O F
di ed
stand ards
cor ny
US A
F er
film makers
bla h
Charact ers
vers ity
par ody
dri ven
b right
f ood
ans wer
crit ical
mon sters
3 rd
K ate
Ch an
typ es
emotion ally
satis fied
commer cial
1 8
L ots
c ars
gi a
wit ness
Japan ese
ch er
ti ght
dri ve
imag es
equ ally
Lon don
N one
R us
S pace
int ent
IMD B
c up
r ay
r ors
ed i
Th om
requ ire
C ru
f al
ob ject
Rob in
ener gy
U K
an u
effect ive
second s
Fest ival
c ash
ib ility
for mer
foc used
compar ison
Dani el
F l
J ess
K han
re lie
udo s
blockbust er
P re
R u
g ag
ph one
event ually
head s
Fam ily
u it
fun n
loc ation
lin ers
avail able
L au
t or
2 5
execut ion
H u
en vi
sat ire
pain fully
a i
p al
in depend
be long
Ma x
Richar d
y a
D ep
op era
por n
inst all
Ali en
decis ion
pay ing
G al
h ur
k ins
pre h
ap py
review er
ac com
blood y
stud ent
A bra
for d
all ing
tra ged
foot age
craft ed
dete ctive
for gotten
pro ved
wonder fully
Ter minator
har sh
remote ly
fli cks
mar ke
for mat
co ck
Some times
P i
The ir
lo vers
terri bly
biz arre
I r
L A
script s
gl or
M ir
b lame
ch uck
con ve
Gre en
d ated
under stood
fall ing
desper ate
intellect ual
A vengers
G E
M ary
R ose
c ell
g ut
an ity
Wh ite
A my
S ince
S outh
know ledge
lack ed
lim ited
P erson
me m
fore ign
Ke ep
Pl us
bot tom
t ense
it ional
bo re
add ing
polit ically
Gu y
Ok ay
frank ly
1 4
H en
ser vice
grow ing
as p
idi ots
P an
any body
he al
myster ious
fra me
Lit tle
I ron
th reat
pa ir
19 8
trou ble
mem ory
b ian
ent er
week end
mass ive
c able
Pro bably
dan cing
sour ce
Jur assic
envi ron
friend ship
nam ed
coher ent
L a
z en
E arth
captiv ating
I G
g ate
h on
ex ic
mind ed
gre en
Hope fully
Cam eron
we ight
sk y
V an
ti re
portray ing
M exic
ch ur
bu ilt
win ning
famil ies
rac ism
extra ordinary
z il
st ore
inter pret
t ext
ou l
Mo vies
cap able
accom pl
M ac
au thor
zz zz
lad y
explos ions
roll ing
bi ased
bing e
stre ng
William s
C le
m ble
sa ved
mind s
sub titles
Watch ed
ific ent
en a
ad dict
pre qu
Ste ven
appeal ing
complic ated
H el
v ate
cor por
Tr ump
O scars
embarrass ing
C ha
P ac
b oo
n ational
de mon
lo l
co very
fest ival
decis ions
pro vid
und red
bust ers
funn ier
O O
W H
h r
x ious
light ing
gener ic
remark able
K at
N az
f ing
ap pla
now adays
Se cond
John son
ho mo
hel ps
except ional
V is
t rek
ste al
shad ow
A gain
L ord
W est
d ers
an al
de vil
sc are
gun s
Other wise
comm unity
appear ance
colle ction
1 6
C ity
c ow
dra mas
accent s
invest ig
en cy
super ior
hel ped
breath taking
st a
do or
go of
pr ote
John ny
J ane
W itch
k no
ch os
un watchable
ra w
umb s
cir c
fab ulous
B BC
a the
it ation
ar gu
thought s
top ic
mess ages
suff er
P ix
b en
n ation
ster day
stupid ity
idi otic
H ell
re ll
at ure
as king
we b
og raph
ip ul
fair y
but e
tim ing
allow een
comb ination
vir t
u seless
portray s
Act ually
tech nical
state ment
plaus ible
g lo
ab lish
pro cess
C ome
h undred
de pi
int ention
even ing
bur n
luck y
Sar ah
H un
ir th
bl ing
comment ary
P art
com pe
qual ities
ur s
strong ly
inno cent
fin ale
hold s
grat uit
relat able
M ust
T R
as ing
Jo e
traged y
P al
R on
po sed
man ipul
meaning ful
insul ting
W AT
sa ving
super natural
twist ed
L ars
f right
n al
Se th
dec ade
behavi or
Jess ica
st ated
ser ial
est ablish
ign or
remain s
Episo de
t end
z on
qu iet
sp y
survi ve
Bra zil
repetit ive
C or
J ud
U ST
W a
ar a
vi a
me ta
op er
pr ice
reg ular
lear ned
A W
s aga
creat ivity
bored om
nomin ated
ind ul
fi x
capt ure
fal se
P ret
Y our
we eks
dis like
experi enced
B ay
belie v
late st
atta ck
attract ive
end less
fail ure
bri ef
b ound
war ned
All en
oc cur
Un i
appreci ated
bes ides
Ac ademy
d run
oo per
com pet
zomb ies
bear able
I F
N ice
v ast
st ic
g gling
de ter
sign ific
N Y
j a
me lo
sent iment
blow ing
cru de
P itt
g al
j er
p ark
s ides
ie st
phys ical
disc uss
P C
r ul
v it
ad ing
de part
ach el
appe ared
S her
t t
off ers
fl op
K ill
man age
Ste wart
cru el
K rist
c ise
r ation
or gan
ed om
il es
half way
H alloween
N ol
a ven
op t
some body
dis agree
Char lie
introdu ced
ed ited
An na
Bet ter
B a
M id
S tr
mis takes
chang ing
2 4
M uch
c gi
m ild
N ick
re sol
sh ine
cont ext
bro ken
Har ris
........ ........
R un
pro vide
T y
ne igh
con tem
off ended
premi ere
s in
perfect ion
n ic
un known
invol ving
suff ering
Tr ans
destroy ed
numb ers
Hen ry
Pix ar
e at
mag ical
sh ar
win ner
Hor rible
sudden ly
Person ally
H ill
be th
pe ace
ti ve
cl ue
bl es
sk in
( "
M att
g le
an ne
f lo
tra gic
main stream
cor rupt
Aw ful
acc ident
gratuit ous
begin s
Br illiant
necess arily
idi ot
horri bly
F rid
W rit
ish ing
" )
g ender
s ight
vi be
less on
hid den
l ust
m ill
ri x
tur al
wait ed
hop ed
whel ming
fe t
capt ured
Mus ic
independ ent
ach e
AN Y
stereotyp ical
om an
deli very
repe ated
c ris
an n
re la
it ions
In t
form ers
comb ined
doll ars
Wood y
d um
ad y
vil le
magn ificent
Abra ms
A P
fortun ate
vul gar
U nd
ch ose
ye sterday
seem ingly
Per fect
deal ing
contro vers
Fant astic
B el
F ull
f y
r ina
ch a
he aring
assu me
chos en
ir k
ang le
cept ion
20 19
star ring
cu rious
En ter
ra m
every where
she er
fact or
Wor th
M iss
st om
com preh
ast y
ag ent
script ed
run s
pict ures
consist ent
. ,
Ch uck
Chris top
bro ad
pat i
E L
P ot
n ut
pl ane
ple te
Off ice
b ag
f are
expect ation
relie f
in die
teen ager
prof ound
marke ting
T ER
d irty
credi ble
memor ies
Law rence
D u
S ta
w reck
at ors
ol f
call ing
ted ly
h ic
y r
ri an
under rated
19 6
S ky
la m
Lu cas
scream ing
recor d
WAT CH
Frid ay
1 7
d om
n es
is sa
complain ing
K en
in cre
he ck
gu arant
answ ers
East wood
p ity
be gan
li ed
It al
up set
pr in
comp aring
Lu ke
B UT
N iro
l on
t ons
ino sa
M ars
vi des
pro ve
Super man
Hor ror
mach ine
depi ction
c ard
il ing
vo ices
Jo ker
repe at
Ob vious
Christop her
A pp
g ru
h ide
meaning less
rela x
b ond
for got
do ctor
bl ue
sy n
Ab out
Tru ly
concer ned
I g
K a
L ong
P ho
l or
re action
cost s
re sul
ort ion
Com edy
cas es
K night
O li
V in
w is
en de
ar my
u ed
pa per
Al most
For d
cam p
anno yed
j ay
n ers
u el
re sembl
ima ge
milli ons
nostal gia
us er
ser ved
!! !!!
thrill ers
Tru e
d are
fre edom
col our
incl ude
dream s
B ack
b on
n ap
te ar
every day
femin ist
environ ment
H op
sh aky
ab or
treat ed
critic ism
prepare d
circ um
M er
N at
t rend
de b
wor ry
ple ased
pr ay
r ous
oo p
ta ck
ser ve
illi on
opin ions
var i
L yn
S R
as soci
you th
out s
if t
iz es
bother ed
express ion
stud ents
oun tain
apo cal
O ri
jo inted
or able
to ler
ma int
h ating
th ro
en ge
Some one
ton ight
al tern
stunt s
M in
v y
lead er
bu ff
fig ured
flash backs
Bas ically
and on
de mo
ac cu
clo thes
hand ed
fine st
Ke anu
R achel
S ur
re ed
ut ed
pre views
ind u
ho le
embarrass ed
Spider man
b ang
hy ster
includ ed
c ook
so le
pro vides
Re y
Bat tle
streng th
B T
W all
for th
tri pe
spoil er
express ions
strugg les
stret ch
9 9
F ree
M A
S hi
h all
re makes
ex pl
des ire
cent ral
class ics
hand le
inter net
Un like
ich ol
stom ach
wh ilst
individu al
li king
dis belief
roll er
B es
B rie
R es
u ous
re ly
there fore
ph y
att itude
sens itive
Bre aking
Afric an
T wil
j i
s witch
po ster
no on
we ap
ll en
ang les
maint ain
S il
T op
as ure
un usual
As ian
Re e
Que en
circum st
es cap
St one
land sc
flaw less
wel come
B ul
D ou
M oo
N ichol
O D
s qu
Obvious ly
Twil ight
eng aged
Com plete
current ly
Ghost busters
R og
S us
de but
ro g
night m
Will is
fiction al
201 8
install ment
F ire
S an
V al
W oman
as her
sp ending
sc ale
he avi
St an
rel ative
spe ed
Pret ty
B illy
F r
e y
on line
li f
ud d
mar ket
capt ures
Mel issa
Ph il
Moo re
P LE
ol es
sa cri
TH AT
h un
z illa
fun ction
dark er
cop s
depict ed
occas ion
atro cious
ic ide
exc ess
bl at
count ries
Em ma
Look ing
G en
b ab
f if
an o
ot ten
sh ines
int e
art ist
touch es
R od
gi ant
cate gory
B ef
VER Y
B or
p ool
s kept
if i
dis jointed
ons ens
bra ve
slap stick
Bef ore
' '
b att
r op
lo sing
peci al
col ors
Pat rick
J am
m end
s oft
v ac
perfor med
creat ures
war ning
experi ences
gag s
B LE
G ib
r ant
gu est
right s
Se an
spo of
bb ed
pri or
proper ly
dem and
H as
U L
be ll
dec ades
accept able
stud y
Je ff
A p
R ick
ous y
creat es
effort s
Mi ke
G ra
I ON
t ast
ra cial
intri gue
Bl ood
ben ef
P ic
Th ink
amazing ly
clich es
Christi ans
R ight
p age
it iz
view ed
pt ion
co aster
Some thing
tech ni
invest ed
Che ck
Wil son
aim ed
Kore an
Krist en
P G
h ab
ha ck
C ons
g ment
s end
in ct
le ction
ir ing
light s
flaw ed
pat ri
descri bed
Tot ally
danger ous
Und er
H A
f ed
m um
il ed
stru ggling
sl asher
soph istic
cul tural
Par is
fe ed
no xious
ti al
perfor m
De ath
allow s
Rus sell
Th ings
tic kets
Sim ply
SE E
Mur phy
Eli za
add ress
Dan ny
Nol an
H ugh
K udos
c andy
d inosa
war n
An ne
stay s
import antly
onsens ical
D el
T ri
T ry
k o
l ink
r out
ur ge
tw enty
Fun ny
heavi ly
E vil
J edi
P ow
st one
ad o
has h
Act ors
IL L
S op
W aste
se par
sp ider
Ar th
God zilla
Sat ur
shar p
C la
N E
W O
th umbs
ed it
K ar
S pecial
mo b
down hill
dou ble
Cl int
miser ably
F red
g as
at o
ma id
came o
se y
ve hic
for ces
ti e
hor rend
creat ion
came os
** *
Gib son
u ra
er ous
un original
art ed
Re al
prote ct
H ero
b ank
the w
sh all
set t
Le on
D E
S cre
U P
r at
con tra
For ce
Ad d
crimin al
H itch
ed gy
ri o
bo ss
gener ous
spoil ed
cancel ed
G ree
b ow
s un
dis grace
pret end
exist ence
amateur ish
Ori gin
F u
T F
n ia
ri val
ass ion
pop ul
respons ible
J er
g ig
n asty
ar on
op s
int ens
au to
tal ks
?? ??
boy friend
stereot y
Ree ves
A u
m erely
after noon
ob noxious
talent s
personal ities
intrigu ed
canc elled
arent ly
Ig nore
Satur day
C a
ess ence
br and
touch ed
Sh ould
chall enge
rul es
P rodu
w ra
ir m
qu it
mar ried
supposed ly
exist ent
sexual ity
inno v
wor ried
we aring
ble w
sum mary
victim s
Lars on
s ar
s pre
y er
sh ut
ri ver
score s
dialog s
b ill
n onsensical
didn t
worth while
car ic
res ident
dri ving
Ser ies
terri fying
T e
vis it
preci ous
Per ry
Austral ian
drun k
Lyn ch
R ating
l ately
no ir
dra gs
roll ed
regard ing
trad itional
N a
f lying
ex ceed
fin ity
In ter
cor ding
stu me
roll s
convin ced
believ ably
Pot ter
b ic
sc r
compet ent
C r
K y
en ix
un bearable
out ing
ro bot
ast on
over done
cr ash
!!!! !!!!
represent ation
chur ch
> </
D ar
G RE
re minis
st at
and ering
for med
gh ter
de als
pro of
vers ions
cover ed
move ment
cliché d
refer ence
regard less
Bes ides
9 0s
C ooper
M ake
S ing
l s
m ate
n aked
re ward
Ar nold
requ ired
thus i
b last
make up
ear ned
psy ch
break s
Rom an
N ext
d ama
sp ark
got ta
ak s
Dep p
D og
s inc
pre d
go ers
bas is
stru ction
Aw esome
hom age
Europe an
J J
T S
b ull
s le
appla ud
B I
Z omb
f le
li ft
qu ot
ense mble
production s
Car thy
trans l
EVER Y
H ome
L ist
e ight
s kill
dy ing
fell ow
Cru ise
circumst ances
contra st
f les
z el
di versity
con serv
ru sh
exp lic
ident ity
design ed
J ake
e ager
g ard
How ard
Jo sh
favor ites
speak s
Sun day
C I
C K
T al
ess entially
jump ing
vot ed
reveal ed
tre mend
Canad ian
App arently
V o
ste als
car ing
Mc Carthy
B AD
C W
L ou
i mo
k in
comp an
wo ke
answ ered
cele br
B u
P S
S ound
g ree
be loved
point ed
enjoy ment
comp elled
na ive
build s
contri but
Ama zon
fool ed
Mor gan
desc ript
Eliza beth
to i
original s
top ics
car ried
survi val
Cine mat
P E
p lo
un predictable
part ner
ele ct
horri fic
commer ci
convers ation
Pic ard
e ase
p ic
po ign
can cer
kind s
cut s
pu zz
Je an
Jam ie
A nt
is her
.... ...
drop ped
Thr ones
Pi ct
S w
d ar
are a
ind ic
produ cing
swe aring
push ing
dynam ic
A sh
I mag
R O
t ly
min i
less ons
St ay
ridiculous ly
A part
es que
old s
super ficial
thrill s
mal es
Eng land
listen ing
continu ed
Fi ction
provid ed
M ind
b rit
at ives
le m
fe e
us ive
tr op
Juli a
is land
al right
ra in
con sc
we st
great ly
ris k
Did n
Pho enix
Arth ur
B rid
e er
p in
p it
film maker
con vent
what s
down right
imag ery
Mat rix
exagger ated
goof y
S pe
S top
an cy
se es
pt ic
og ical
cra ck
por ary
clo ser
dest ro
lad ies
sym pathy
emp has
ju ven
horrend ous
L ady
R os
b irth
w s
at tr
che cking
car ries
Stre et
N BC
S car
g am
en thusi
vi li
ve ter
ad m
mat ters
co stume
friend ly
AN T
S G
an ish
ig no
ore d
hold ing
protagon ists
REAL LY
M ade
ste am
bu ying
Dis covery
num erous
introdu ction
intens ity
B ird
K u
L D
re sc
re place
Th ree
cut ting
struct ure
rob ots
d ys
ra ised
fa cial
201 7
Qu ite
skept ical
ab use
br ick
tra ve
tri bute
creat ure
gl ued
hand led
histor ically
carto ons
equ al
formula ic
pse udo
loy al
meta ph
I ran
to ward
el ly
cl ub
pri me
sym pathetic
inc ident
Mat thew
init ial
Thom as
toi let
B aby
C ent
H alf
S ame
a we
c ies
fe et
He y
se ven
dra mat
leg al
Sha kes
D ON
H ist
H anks
ab ilities
ri age
du de
da ily
frust rating
charis ma
GRE AT
T ay
T ony
dis play
part ic
cam py
Le g
cour t
ket ch
teach er
fles h
D ial
F all
r ise
th ony
or ter
am bit
lo vable
fa ced
No ah
convers ations
compla int
Pac ino
K E
ag reed
pure ly
mes mer
Ital ian
M s
ar ti
ir t
bor der
par alle
Mich elle
Bra vo
Bur ton
Cinemat ography
: /
C row
W OR
b ility
e ating
s now
il ty
ill ogical
bo dies
hor se
We stern
remember ed
setting s
Sal man
mild ly
OM E
SR K
G ot
H all
M is
T ed
_ _
ha unting
out rage
bl end
An thony
rent ed
continu ity
Nor th
Bla ir
Trans formers
A k
M il
N G
om ed
we ar
ho li
mon th
anim al
incl udes
narr ation
C lo
P lan
g lim
m ut
en courage
ar ter
mark s
Lu c
nail ed
commun ic
compe tit
Shakes pe
J ord
S wed
g n
h unt
Un less
Rid ley
batt les
n ause
tr ite
reason able
Co st
Park er
fet ched
lif ting
A V
m u
for ms
con struct
go al
ard ed
ie f
sad ness
spo ken
HO W
drink ing
g or
t our
ad ed
ps on
bit ter
For get
influ ence
minim um
distr acting
interpret ation
commerci als
7 0s
U l
me h
And erson
Re commend
heart warming
fav our
arr ow
ali ke
pull s
F OR
r ough
com ical
aw a
high est
val u
gl ass
fre qu
col lect
net flix
exper iment
G reg
K im
l oo
l ousy
st ain
st ress
con cent
thought ful
Al an
sophistic ated
A v
D own
ab ortion
Ro y
clich Ã
Car rey
Bro thers
wind ow
Free man
G y
I R
t ick
w ick
re call
sh ark
ce ive
um ph
les bian
AC T
abs or
Hitch cock
Imag ine
B ang
H ot
b ath
o le
p lic
Se ems
Ed die
ultim ate
spec ific
ignor ant
th am
fil ler
ac le
mor ning
reminis cent
F ast
J en
R en
W he
W AY
c ket
n it
v ince
v ague
es on
ap es
qu es
real ise
imm ers
nail s
jum ps
Hol mes
C are
C ong
D or
E r
G ener
n ically
v ity
om y
sh op
ci a
br ow
inter action
Sp anish
-------- --------
depart ment
S H
o e
al co
un likable
if ically
gen res
cap tain
desper ately
juven ile
H aw
L ight
W at
b ie
Dis appoint
scient ific
Cra ig
poign ant
partic ip
" ?
" ...
re port
ad er
com bat
ther n
our ne
fall en
af fair
foot ball
doll ar
sil ent
WO W
re vel
as sa
ter m
tal ked
bu cks
concept s
Ir ish
signific ant
Sher lock
do gs
ene my
End game
G l
L ind
un able
de gree
int ro
bal anced
adv ise
sen seless
tho logy
Int erest
E ver
F re
H it
M I
S low
s oo
out come
watch es
ur ally
ud ic
19 5
exp ensive
bb ing
Way ne
opt ion
B ased
C all
i os
at ar
te a
poss ess
obsess ed
Fl ash
C E
O ur
V er
W ashing
b ashing
el and
un fortunate
ang ers
eng ross
Tot al
relative ly
Shakespe are
B ot
C li
D ie
d d
s que
il ton
life time
ext ent
pu shed
novel s
recogn ize
Dam on
accompl ish
M iller
P en
re du
ar rog
ad ap
am ir
ol l
Re member
pick s
adv anced
A ST
L es
a ired
d omin
g ap
m ic
s or
ch ap
ma gin
bor row
mar tial
foc uses
delight ful
Wa it
guarant ee
Washing ton
st um
ch air
treat ment
rede m
Jord an
) :
. '
D un
R ep
e go
an ic
mo del
sur real
em pathy
cli ff
An im
NO THING
thous ands
2 50
C BS
p up
s ne
ab les
ist ers
sty lish
depict s
gang ster
miser able
Naz i
Uni verse
+ +
B ell
o v
r ical
se a
film making
art sy
sim pl
cond ition
credi bility
Ex cept
Direct ion
sold ier
b lo
m ile
ra cy
lo re
good ness
ep t
ci vili
gu ilty
-- -
care d
dark ness
201 6
mb ol
Charact er
tun e
indul gent
Tay lor
I Q
c ence
s ink
ex as
lo ses
ti ed
who ever
our selves
ors ese
Do ctor
Cine ma
prequ el
contem porary
vehic le
A BC
X X
re hash
ad orable
sound ed
throw ing
individu als
s ketch
is ms
qu in
man s
ser ves
review ed
enjoy s
origin ally
ak ens
ash ed
rent al
gra ve
ball s
OM G
smo oth
offic er
scr atch
s oooo
un believably
ab omin
ha ha
great er
sp ital
ide o
br illi
Who ever
Vi et
chore ography
fright ening
consc ious
F BI
h int
sh ell
ra ve
over whelming
sur face
kid ding
deliver ing
imm ense
U su
j ack
ra pe
ment ally
being s
let ting
Don t
philosoph ical
sentiment al
M aster
f ish
l atter
we al
ru le
back drop
polit ic
Sam uel
Thr ough
innov ative
udic rous
F an
i um
ind er
bo ld
play ers
che er
Ch ild
sy mbol
pass es
Sc orsese
adv ance
improve ment
kno ck
descript ion
:/ /
; )
M UST
W ater
ci ent
ff le
after wards
fit ting
motiv ation
pract ically
: -
d ut
s me
ad mir
un inspired
direct ly
cap ital
hop eless
require s
deter min
W ick
d b
r um
th rew
in appropriate
re placed
al ot
sh aking
ant agon
pr ise
off ered
mar riage
ib ilities
recogn ition
occas ional
evid ence
thous and
W ent
f oul
or ient
it a
ex er
con vince
lear ning
fing er
brilli ance
D ick
H ul
h tt
l u
y ptic
ad s
aw ake
wish ed
God father
slight est
surround ing
virt ually
C ertain
F O
S S
S ab
T ube
c is
t iny
st ation
dis respect
low ing
review ing
Mo on
Li am
EN T
vampire s
Ty ler
Fr ance
C as
S on
un convincing
di verse
thr u
med ical
Don ald
import ance
swe ar
yp se
claim ed
sto le
sport s
flo or
Enter tain
D ow
P la
n ine
at ory
el f
cent er
You ng
ran k
vol uted
und ance
educ ated
philosoph y
Ram bo
is a
al a
vi ces
up lifting
mis leading
tra cks
comed ian
job s
Em ily
Hard y
Harris on
A X
w en
no ise
ru ins
rel ent
care fully
dist ri
minim al
Sta tham
A ir
I ra
J ar
V eron
u ght
Wh ate
cy cl
vide os
bi as
ather ine
conve y
redem ption
A Z
D y
P ul
as ks
be it
like able
pre jud
che cked
impro ved
LOVE D
intention ally
resul ts
L I
P ort
in coherent
re put
mo ck
ha unt
hard er
develop ing
Br own
bro ke
progress es
stereoty pe
Whate ver
E ither
F ol
G ames
i que
the t
vi le
su icide
ex ists
mess ed
uni magin
sl op
atta ched
hat red
emp lo
gent le
nostal gic
establish ed
neigh bor
E xt
G un
I d
P resident
c ake
l one
se mi
be tray
li ze
sh it
And rew
res ist
Gr and
ende aring
nightm are
G ri
ent in
ant a
fun d
sp ite
20 20
else where
previous ly
Ger many
Mur ray
bum ps
controvers ial
a ust
re new
el o
br id
creat or
20 15
Le wis
prof anity
smo king
rive ting
apocal yptic
Rey nold
occasion ally
e ars
e vo
ly n
me th
low est
ass ass
mon ot
honest y
cu ri
Da vis
200 1
discover ed
Wonder ful
blat ant
tremend ous
Bot tom
er ic
ill ness
con voluted
My ster
uni vers
Bo ys
inspir ation
app alling
gut s
Pict ure
A RE
M ed
N L
S et
l udicrous
v om
en ess
ound ing
Bl ue
wanna be
lust er
associ ated
B ale
M E
P red
re di
mo d
all ed
ir on
im mature
os ity
belief s
corpor ate
hundred s
D ad
b id
as ion
li fel
su its
vol ta
inter actions
At l
pri vate
explo re
pres ident
ax y
Sk ip
pati ence
H U
T NG
t ones
ch ases
se c
ir relevant
end ure
10 00
ins on
Un ited
conf ron
accu racy
L in
l ord
st ale
id ence
just ify
pre de
belie ved
em power
heart felt
inter national
present s
ident ify
inst antly
Fran co
Pl ay
Mexic an
anal y
Veron ica
F riend
L an
S um
o id
for given
ul ations
la id
do zen
story lines
ur ban
St all
ste in
De ep
prop s
Tr ust
Bl ade
hang ing
on se
un fair
un forgettable
de void
con sequences
our s
ade qu
che ese
wonder ed
Ne ed
imagin ed
adv ant
faith ful
Jim my
suit able
Reynold s
! ).
H appy
J r
T exas
W ish
Z ero
en counter
ing redi
al beit
con spir
pro mot
sent ence
Ar t
Br ook
suff ers
unlike able
depress ed
ded ic
wash ed
Kid s
belong s
wra pped
Dial o
G ary
d inner
w ig
en cies
le an
se am
op les
ast s
pre vent
And y
tal es
You Tube
IM AX
open ed
correct ness
unlike ly
imm ick
igno red
prede cess
S ex
S ony
W AS
b less
j am
t ube
ti an
pro mo
sp ell
ac cording
scre w
inst ance
Sim on
mass es
revol ution
charis matic
S n
a id
se cur
im ate
if ying
bo at
mer it
As ide
bud dy
pass ing
post ed
Russ ia
succeed s
preach y
vari ety
2 1st
B uff
g immick
r ates
in n
se ats
ab ys
te eth
St upid
comp assion
xt ure
present ation
plan ned
sever e
prin ci
D ian
p oo
re actions
ar ri
su ited
He ath
pat ient
AS E
GO OD
stret ched
Tit le
Oli ver
E ric
in i
re moved
en thr
ar di
ch ant
ri pped
de cl
ho spital
mis cast
comp li
tri umph
invol ve
Em p
Ed ward
load ed
ba ff
street s
Dra ma
Fer rell
j aw
No body
develop s
eng age
detail ed
suff ered
Col in
Gree k
conserv ative
3 00
C at
E X
J ac
S in
h ollywood
re bel
ot a
hi re
fol k
disgust ed
Ira q
4 th
A amir
b one
c low
e c
st iff
me l
sc ifi
wa ke
kid nap
fre aking
miss es
Ne eson
imagin ative
mi xture
load s
See ing
scenar ios
hr s
expl or
Cons ider
chap ter
G or
V e
but t
jo in
dec ides
Gr ant
vot es
Tra volta
ww w
init ially
Den zel
weap ons
itiz en
A ward
B ourne
F ight
f rench
in accurate
il s
ad oles
he aven
ind ing
gg er
ific ation
spirit ual
cele brit
thro at
Hist ory
Interest ing
2 2
B ook
D ream
F UL
b ird
u k
for give
ra unch
ul tra
qu ote
your selves
ph r
Ro ber
stru ck
oun ce
terror ist
large ly
fashion ed
legend ary
WW II
C rit
L ed
a while
el la
di ction
tra pped
Ch ina
bra ins
hy po
Qu entin
spec ifically
anticip ation
trop es
B ible
B rian
D river
G lad
K ind
L and
T IM
p ir
art ists
ru ining
St u
hero ine
ron ic
Sc ript
Cap rio
Bar ry
color ful
achieve ment
Emp ire
K in
L uck
S to
t act
pe oples
su s
po lish
et te
last ed
port ra
deser ving
success fully
Wal king
crimin als
RI BLE
Chan nel
Pan ther
sta ff
hyster ical
dinosa urs
Zomb ie
Stall one
K ong
L ow
f fect
g ro
is ol
ic onic
de ar
back story
cl um
pla ins
master ful
count less
Char lize
explo red
Je wish
sell ing
Sand ra
Tor o
? ).
S I
m ountain
r hy
im db
ist an
fi red
Star gate
gener ations
Br ing
201 4
superhero es
resp onse
jum ped
Girl s
IG H
Ku brick
Pul p
L og
S U
W omen
l abor
mo on
self ish
conf usion
Jack ie
achie ved
unfold s
simpl istic
r ink
er rors
the ory
se lect
gu ard
ru de
St ates
belie ving
cri mes
cam er
nat urally
jud ging
Mus lim
affect ed
dress ed
heal th
landsc ape
Origin al
popul ation
exer cise
N EVER
P enn
R ings
c ab
f ate
p icking
s no
z es
is ation
om er
ext ended
exp and
myster ies
stream ing
function al
Scar let
H ay
M ul
R em
T A
sh ape
im plausible
po ses
king s
when ever
Car ol
explain ing
drop ping
aught ers
Adam s
studi os
Cle arly
PLE ASE
D are
R et
m und
us ers
if ies
ac cess
hor rors
cou ra
bl ur
inst ant
ca used
stun ned
advent ures
femin ism
adm ire
trave sty
htt p
P ure
S NL
a es
m ash
de struction
pl at
worth less
cam pa
attempt ing
similar ities
bat man
accept ed
stat us
abys mal
T re
l ly
w are
re lies
as er
se ction
ment ed
qu is
under lying
20 00
fel d
clo sed
stay ing
Con st
grou ps
LO T
atmosp her
search ing
chore ograph
commit ted
indu cing
abomin ation
A po
d aughters
li mit
ad a
em bra
tur key
Is land
plan ning
hit ting
Com m
four th
represent ed
draw s
Kid man
ffle ck
H ood
J ere
m ier
w olf
li ever
ab andon
ra ise
am i
do se
tra ining
che ek
fan cy
sol ve
wood s
super bly
por no
mess y
mor ons
scient ist
B oo
B ry
C R
S ho
z o
at on
st ro
ch oo
ch ain
vi g
ut ch
pe ts
ine vit
ci ating
Wh it
hard core
Jo a
EN D
marvel ous
reach ed
minor ity
disc us
challeng ing
Mexic o
excess ive
competit ion
A A
H ems
Z e
e mer
s i
t in
ar m
sa v
In finity
cine mas
na h
gl ory
res our
head ed
enn is
musical s
among st
sli ck
CI A
curi osity
Hems worth
P ut
a ff
g oose
r ational
re cei
ic ing
ne at
am al
my th
dis gu
off ering
star ing
deli ber
help ing
bur st
Hol land
prequ els
campa ign
D er
p enter
al leg
es h
sh ake
lo s
... "
ac ademy
hi red
differ ences
vent ure
leg acy
Sha w
gru esome
Usu ally
advant age
P sy
S ix
b are
f art
n ib
or c
po et
embarrass ment
Sci ence
Gre y
advert ising
Gold en
tire some
Ky le
: (
F ore
th ick
an cient
ex ter
no se
great ness
um ber
fli ght
mor ality
wal ker
theat rical
zzzz zzzz
Vis ually
Scre en
resc ue
Rober ts
B R
C T
G race
c ali
n ar
vi ch
are as
ex plains
go er
Jo lie
Be lie
subject s
claim s
mir ror
sil ence
convent ional
A ffleck
K elly
f ice
p itch
in ch
vie t
ill s
read s
far ce
vis ible
different ly
poss ibility
thrill ed
Ar ab
loc aust
GO T
AM AZ
bab ies
reput ation
meth od
F ro
M other
W ed
a vid
le st
vi c
be ating
be ats
li a
over come
har m
flu ff
YOU R
ghost s
construct ed
Viet nam
Pred ator
D ennis
V ampire
W i
b ble
t ong
an or
al ter
op ens
cent ric
ang st
Just in
hero ic
deser t
head ache
imm ig
consist ently
challeng es
hon or
Pow er
Crow e
holi day
Sab rina
unimagin ative
Buff y
and al
he ight
sp ots
play er
ER S
susp end
typ ically
ON G
represent s
Aw akens
vul ner
benef it
eer ie
K urt
V FX
om or
ir a
op ic
happ iness
audi o
bu ck
leg it
villa ge
subtle ty
IL M
Could n
trick s
Gy llen
Led ger
! ?
$ $
I nd
P op
T en
a per
r otten
w ins
on de
ent ry
ess ential
char ge
pl ess
ble ak
belie ves
heart s
attempt ed
II I
frust rated
accompl ished
corrupt ion
card board
explic it
adap ted
C oun
C OM
F our
F urther
H off
R ome
o lo
t z
ch asing
un pleasant
ant e
pro mote
sp are
ide al
In tern
night s
inter views
fail ing
sort s
Brad ley
chill ing
Bul lock
metaph or
G os
M ain
s isters
be liever
om i
om s
Th eron
fil ling
comp ens
Ro ad
project s
kick s
terror ists
root ing
Nic ole
Run ner
Cost ner
B OR
K irk
le ague
ha al
ri or
con ceived
exc ru
co s
sm iling
call s
wish ing
strong er
Ne il
cy nical
weak ness
Vi ctor
reve als
motiv ations
Certain ly
Ext reme
Hoff man
S ir
W TF
b ollywood
c ities
g ift
w rench
ce an
up coming
min us
ud ed
Ch ic
diff icul
ile y
Every body
fig ures
insp ire
chuck le
Av atar
excru ciating
3 5
A G
L ar
L os
S ong
d ump
f irm
g la
h ence
re ceive
re cycl
al ie
mo ti
ve y
ic ient
ir ony
no d
over acting
gr ate
hor rid
hu b
effect ively
LO L
ref lection
OU T
spre ad
arrog ant
AMAZ ING
G il
H art
S up
s ons
ul arly
has e
ac ity
pla gue
dra gging
gi an
Sc en
Tur key
contain ed
phys ically
Gi ven
stink er
Rose anne
melo drama
hab it
Whe ther
ingredi ents
Joa quin
anor mal
2 1
C ri
L ef
S po
S hel
g ie
h ates
t ro
w ound
in ser
in cess
ke ys
un e
ge ek
am an
lo ser
fa me
che st
ak a
ak in
pull ing
complex ity
sens ational
Bro ad
Fin al
nomin ations
educ ation
gold en
Austral ia
TIM E
. </
T een
u eless
jo ker
cop ied
Car penter
Look s
trad ition
Stre ep
evid ent
Jere my
F ILM
N ar
b ia
th a
ad ore
ent al
bad ass
fi a
Go ing
Char les
step s
inno cence
nomin ation
dig ital
Recommend ed
secur ity
D em
T a
sp ook
ens ible
clo sing
Le o
arr ing
Car ter
feat uring
clever ly
avoid ed
cal m
sleep ing
glo bal
choreograph ed
H ob
K ings
h il
ar l
be have
il ted
me asure
recommend ation
wal ks
Ali ens
mad ness
Ham ilton
sole ly
destro ying
outrage ous
G ene
d ge
g oo
m ere
t ask
on a
on t
en light
wor n
pl ed
pre mier
dis sa
cast s
pla stic
comm and
Be y
Ro gen
cas ual
Gr anted
Complete ly
Clo oney
distri but
F UN
L ion
N T
i ven
t rolls
it er
ac es
ak en
person s
ending s
ah l
spoil ing
Let s
Lit er
sto ck
explor ation
7 5
D uring
f ond
st ol
di re
ex tr
am bi
tr ade
hum ble
ran ks
press ed
res ort
gener ated
eng ine
hy per
fortun e
mas k
appreci ation
Po int
sou th
oun ced
jour nal
hes it
hur ts
Hun ger
Jer ry
glim pse
tong ue
C ali
f x
ha ust
ant ics
see king
ig er
ort on
cent ered
set up
cli ps
exam ples
oppo sed
ung le
lay ers
Ap ple
arti ficial
D ia
e li
de finite
ro cks
ag an
et t
writ es
ak er
world s
Not e
Re ad
First ly
foc using
gre ed
Me an
path ize
revol ves
Thom pson
exceed ed
lone ly
adoles cent
atmospher ic
B al
B ush
E aster
J W
K ane
M AN
T on
c and
ex haust
see k
ta x
ol ves
does nt
De vil
ele v
Is ra
Tom my
satis fy
ik a
Str ong
raunch y
stol en
C u
C ur
p ants
ser ving
happ ily
allow ing
ban ter
Does n
caric at
Chic ago
C amp
P att
d un
f ist
s and
act ic
for cing
am eric
sa ves
ins ist
ren ting
fant ast
hand some
mor als
201 2
mil es
Sch ool
succeed ed
discuss ion
veter an
mund ane
A lice
G H
H unt
V en
d re
k h
li ms
pe c
An nie
Com pare
doub ts
Di Caprio
yp ical
stri ct
cross ed
conspir acy
A F
F ort
L G
a ur
es p
con tr
lack luster
intent ional
separ ate
B on
F av
H um
I an
l um
re turns
st it
he ist
character ization
ang ed
val id
mur ders
Dead pool
exper t
highlight s
adequ ate
P et
W el
p ig
re act
be er
but ton
ill ust
con ven
um ar
cra m
heart breaking
explo res
introdu ce
dem ons
dynam ics
Shi eld
Gyllen haal
c ust
in feld
me at
un s
ir onic
fe males
am ent
my thology
ol as
dis liked
To y
leg s
tech nically
lar ger
Super b
adapt ations
equ ival
tort ured
Rock y
spl it
sacri fice
Hit ler
H S
J a
J ose
M om
a gh
x ic
di vor
con test
time less
fore st
ner d
gl as
Co hen
Ra j
Ra ther
Sch ind
cha os
BOR ING
E P
O wen
er otic
ar do
ar ian
ar gue
ar io
us ions
mis ery
gr asp
pret ending
Be yond
sex ist
master pieces
net t
Mr s
question able
critic ize
Sci Fi
brut ality
BE ST
chop ath
altern ative
techni ques
lifel ess
F E
U t
y ell
op tim
ex cl
per or
fact ory
ond a
stop s
hol low
sn oo
Kat rina
Naz is
rout ine
sme ll
nib al
wrench ing
Dia z
e gg
v ous
th al
re li
Th ought
let ter
sho es
list ed
law yer
theat res
histor ic
gri m
meet ing
murder ed
Indian a
glor ious
Vis ual
Dou glas
Fu rious
aston ishing
Intern ational
Cali for
F ans
S ay
in consistent
en em
al together
ar ms
act ive
ma il
po on
real ised
oc cup
eas ier
conf ident
ret arded
Is lam
support ed
accur ately
advert ise
reflect s
Canad a
sett ling
portra it
Extreme ly
enem ies
A long
J an
V ince
r ings
in fer
ass ist
bu zz
ele g
phys ics
apo lo
offic ial
Cast ing
invent ive
Hop kins
sar cast
slop py
quis ite
LG BT
H ud
P ier
d ro
al t
al ing
id ers
du bbed
cl ueless
ret ro
prof it
exist ed
En ough
ring e
ni per
chill s
addict ed
Nat alie
Consider ing
clum sy
Liter ally
B lan
C us
E as
J ay
L at
R ad
U nt
Z one
a thing
en coura
st orm
ne ck
con su
que en
NO W
law s
enn ial
stick s
Co en
Ma kes
hot el
ban al
remain ing
Hel en
compan ies
Belie ve
B ald
M Y
R itch
W es
W olf
b ber
t ad
en cing
ex position
sc o
ph ones
hope ful
dy stop
ath o
att end
Con n
blow s
continu ation
sitcom s
witness ed
techni que
equival ent
j uring
y elling
is ons
il er
ad mission
for man
ur istic
man kind
ag ents
susp ic
ST AR
Any ways
200 8
object ive
WH Y
investig ation
Rog er
Friend s
resour ces
E ffect
L ive
M et
n ative
at a
sh y
id el
he m
pre gn
fa cing
life style
Ar my
clich ed
feat ured
sign ed
depress ion
Mon t
medi um
Tit anic
Kore a
dama ge
Wat son
! .
) ...
6 0s
D rew
M u
N ancy
n arc
ta g
fa c
cre t
So lo
vis ed
chan ces
psy chopath
pres sure
vot ing
grit y
Pol it
web site
neigh b
inte grity
pic able
paralle l
HU GE
Gor don
sarcast ic
A B
G ab
S anta
V ill
b in
k han
s appy
u ct
re fund
and o
li me
ut il
sp an
director ial
land s
satis f
tran sp
inv asion
Hun ter
antagon ist
Ret ur
! ),
D ef
K now
W ord
c ative
d up
f ro
z er
the us
re in
der iv
mor onic
reg ards
neg at
fast er
AT E
Sha h
brain less
Russ ians
bus y
Nic olas
compla ints
Sur pr
Nichol as
tast es
redu ced
Dare devil
Schind ler
Ut ter
Eas ily
Ritch ie
D ol
D awn
P R
P un
f ought
y o
le e
act ica
you tube
su ms
ti er
we t
St ars
ps ons
Re gard
pot entially
death s
GO D
tran sport
Swed ish
K ling
R al
W E
p ages
s ive
s ided
en orm
st ilted
un doub
ex posed
la unch
... )
fin an
line ar
che ated
cra w
cra cking
Cl ub
Nor mally
spectac le
trad i
respons ibility
homo sexual
dys functional
immense ly
A aron
E le
P il
P ak
R an
S C
al o
ome theus
im pec
ur ation
up per
dis played
scre ens
No pe
sub plots
Jo han
tru ck
Just ice
kill ers
Be at
Ex pect
sum mar
Rob bie
ops is
ambit ious
mesmer izing
atho lic
N ik
T T
b illion
n ity
p onder
is y
il i
time line
ss on
du o
mat es
Fran cis
Sure ly
Ri ver
account s
stink s
melo dramatic
cris is
tast eless
valu able
vom it
9 5
O z
st ates
Th ird
un real
ul ate
ous es
screen writer
Al ways
hand ful
IM O
dri ver
close ly
invol ves
ON LY
strugg led
bomb s
advert ised
defin ed
defin ition
pract ical
Pri vate
repeated ly
2 8
A I
A ss
C op
C hi
D ave
M itch
O P
n els
r er
er al
me tal
un ky
un necessarily
do ct
ess a
pro ced
iso gy
tra ined
He art
Ke aton
prom ised
gri p
atta cks
Never theless
Angel ina
atter ed
rad io
anticip ated
obsess ion
resol ution
haunt ed
dre ary
Ral ph
F a
S now
S ever
V augh
ter rit
im it
just ified
con tradi
ack now
ber ry
ang el
iz able
Ar row
cult ures
net works
Fil ms
Pr ometheus
?! ?!
pra ised
stri p
depict ing
sinc erely
Cong rat
G oth
L augh
P ie
c ro
g lowing
n an
s om
th ood
ist on
man i
pro ceed
ort al
ob lig
reg ister
Aust in
vir us
Afric a
Mid dle
Nichol son
dut y
Lef t
undoub tedly
H olly
T 2
d in
k is
w rap
th irty
an x
st rate
to ys
li gh
St art
19 80
tit led
distur bed
Wal ter
popular ity
trou bled
authentic ity
clow n
5 th
A g
A qu
V ir
z one
th m
the d
re watch
ar se
ct ed
bo ots
tur d
tur ing
rid ing
rest aur
cover s
und ant
loose ly
Pri me
WH AT
Stan ley
camer as
cali ber
Bald win
negat ivity
M ery
N ational
d ust
e mo
in her
in ane
st ring
po sing
ast ron
way ne
sp aces
rest ed
uni form
cru sh
thank fully
Sa ving
Frank ly
argu ment
compreh ensible
demo graphic
bath room
sne ak
C atherine
W I
e tern
j ail
m ist
n ay
s che
re son
ing en
he ap
if fer
pre cise
ment ality
tri vi
Al f
slow er
cor ner
oc ide
mar ily
inter view
Su b
ham mer
Ber lin
German s
motiv ated
speech less
Sky walker
syn opsis
AV O
Through out
iven ess
Mery l
G one
H OR
S undance
p and
r ics
y awn
re vi
st ab
wh im
but ch
ho bic
But ler
sit es
So viet
Mar got
spo ke
exception ally
evol ution
spl end
provid ing
altern ate
eager ly
engross ing
renew ed
" ).
C al
H E
H ath
I ce
S W
W ere
k udos
m isogy
p atch
w ack
er t
be y
wh is
sh am
un answered
su pre
ra cing
ter minator
comed ians
last s
sm arter
reason ably
conf ess
cring y
Gu ess
correct ly
sens es
inspir ational
Angel es
Tor onto
intent ions
hub ali
deriv ative
N C
O c
S qu
S HOW
in competent
st up
as ingly
de vast
under stated
she ep
co hes
sat ir
Sc ary
ref use
200 5
horri fying
whel med
sinc ere
flesh ed
frequ ently
C ool
D I
S it
h anger
re ver
ri a
ri el
ren al
par ano
Po ss
pack age
Cl ark
stri ke
resp ond
reveal ing
Up on
format ive
sin ister
A ge
K ath
P y
T ow
U gh
g ments
z zy
su e
im mer
rom p
ser ie
In credi
gr ass
bl ank
Per forman
repe ating
def end
sacri fic
Crit ics
Log an
Scarlet t
sco pe
C i
C ho
R otten
W AR
g ather
des ired
mis taken
understand able
person a
Jo an
appe aring
Pe ele
To day
Car rie
Gu ys
rap id
compar able
Dra gon
conflict s
pen ny
Mir ror
americ an
K o
M oney
Y ear
e con
l ers
re p
en berg
to ol
li on
sh ay
pl ate
ta pe
ta ught
own er
ph ony
pay s
pleas ing
New s
Sim ple
catch ing
dim ension
paint ing
prin cess
Rem ind
S F
h ints
l ens
s an
s ill
s ize
v ap
no ds
art ic
dra gon
entertain er
bl onde
iz ations
Se infeld
use ful
poss ibilities
fut uristic
coun ting
Sh ort
gri ef
Em my
claim ing
flash back
str ings
secre ts
Pre dict
jer k
Sing h
Care ll
Les lie
Unt il
B B
D wayne
T ypical
c ous
e z
e ed
k icking
v ine
al as
wh ining
el abor
oo ps
id ing
ter y
la p
um er
pr ide
cast ed
Ch ur
So lid
Act or
!!!! !!
AL LY
pri marily
prom ises
amount s
suggest ed
apart ment
Vi jay
Show s
nu anced
fault s
Califor nia
C AN
F ace
I sa
P ay
m ou
re tire
st ir
su stain
ood ing
show case
St ra
mer its
An n
trans ition
recogn izable
opport un
occas ions
captiv ated
tran sc
behavi our
blockbust ers
ignor ance
Fire fly
ato es
Leon ardo
poet ic
F ut
G oo
M U
S id
c ats
u le
u me
v ain
y y
ver ted
sh a
sh orter
int ric
ther ap
by e
et s
ci vil
ac ing
bit ch
last ing
pass able
arch y
western s
Cast le
cruel ty
incre asingly
bon us
symbol ism
Const ant
moti ves
grate ful
caricat ures
B os
F ather
W ild
n ur
r in
of fee
sh out
ri ot
de vice
In credible
scre wed
Mar c
sty les
susp ension
dr own
suggest s
adapt ion
throw s
continu ing
program me
match ed
fu rious
wil der
fing ers
Battle star
landsc apes
Lou is
alco hol
recycl ed
Sever al
territ ory
sill iness
C SI
P ass
T am
W on
c é
e ff
re pul
st ron
to ss
li can
sh outing
ex quisite
man ga
sp ends
Jo el
ian o
mon olo
Li ber
cy cle
wo ven
Je ws
wed ding
lay ered
insight ful
Lau rie
edit or
Ul tim
goose bumps
D ies
S even
W ahl
a vengers
b by
c ere
g ad
j an
in f
en do
vi vid
li br
ab rupt
not es
ast ounding
con grat
over looked
sp rink
point ing
vo y
19 4
dumb ed
none theless
grow s
Bro ke
recogn ized
program ming
witch es
influ enced
Lau ra
Gal actica
cell s
steal ing
mu sc
determin ed
C reat
D S
I O
P ir
S had
S JW
T ech
r ants
s word
in consist
en han
as m
ch or
ent it
ra mbl
am big
time ly
ag gress
um my
dis ease
And re
sub mit
ner vous
sad istic
dist ance
Har ley
comment ed
ban ned
progra ms
Bre ak
abs ence
weap on
inte gr
revel ation
narc iss
Congrat ulations
" !
D rac
F el
J ude
a than
b ender
l ane
t ender
ne st
do ors
Wh ilst
min al
iz ard
rel ations
TH ER
chan nels
anno y
mention ing
bust er
cringe worthy
More over
sil ver
frust ration
passion ate
appla use
steam ing
politic ians
Vaugh n
F ury
M ason
b able
b ible
w ave
re ci
ic on
sc ri
au d
off end
never theless
down s
mot or
20 10
De an
conf idence
score d
Char med
Ho ly
200 6
Sim psons
progress ion
Spi ke
hid ing
va is
heal thy
expl oring
HA VE
Ant on
promo ting
satisf action
impec cable
B og
H ilar
L am
S hy
f uss
o on
z ens
ed on
be ast
act iv
sh if
ge on
ta ge
we ars
pro stit
ho ly
St arted
Some how
Ser bian
nu clear
Jes se
Gar ner
tor n
Writ ing
dar n
univers al
mod els
Psy cho
trivi al
B an
B IG
C lar
E v
S ell
d uration
ad renal
un settling
op press
ro ots
up dated
ie val
iz z
fi ghter
My ers
second ary
cap turing
cr ass
finish ing
spir ited
shame ful
deal t
rac ies
profess or
stri king
Fe el
random ly
Fo ster
numb ing
Beautiful ly
ski pped
nut s
WOR ST
spook y
Compare d
Cus ack
J ob
M ic
N orton
V ol
d rew
s ke
st aged
Th an
ad ul
de tract
di lem
my st
ss ip
dis covery
gr ot
gr anted
down load
cont act
lic al
head ing
guess ed
Ju lie
beat en
Still er
demon str
Witch er
controvers y
EL L
accu racies
Rick y
caric ature
transl ation
inevit able
snoo ze
f ur
m ud
w ine
be ach
ust rop
ter ed
watch er
over used
ac les
ph an
under whelming
bit ing
illi an
crit ique
huge ly
Thank fully
Pr ince
arc s
Beaut y
Han nah
Jon athan
Str anger
:- )
gla mor
Broad way
Wahl berg
2 3
F F
G ad
H ook
b ash
e ast
i el
ing er
im i
ps es
co inc
let down
ip ed
log ically
mor row
Ro om
Net work
wi ves
dri ves
Con nor
Brit ain
question ing
Christian ity
Che ers
Mus lims
leng thy
offic ers
Poor ly
Old man
Hu man
compreh end
guest s
predecess or
Lar ry
restaur ant
Drac ula
R ich
S tran
T ar
o scar
st icking
me chan
am used
pl ans
under statement
comp rom
gin s
Re ese
ris on
ext re
att ended
rid den
pu bl
remind er
Ger vais
Bl u
Story line
appear ances
Ber g
................ ................
Gos ling
Stran ge
D exter
L illy
P ER
Z o
c ave
c offee
p he
th less
id ow
gu ilt
des cent
work ers
cou ples
That s
sho e
fre ak
wish es
moment um
Or ville
round ed
strange ly
bel ly
progress ed
fool ish
dum ber
resembl es
Cla ire
weal thy
assass in
Dian e
compli ment
rhy thm
Fort un
Hath away
F onda
S part
m ish
t ree
u gs
il ight
fe ars
po d
do zens
sp it
tw ilight
log ies
cons ists
help ful
cover ing
Jack man
dead ly
bur ning
catch y
stri kes
Ang els
assu med
educ ational
distr acted
Stu di
Regard less
E ve
G lo
L y
S el
T ol
V ar
m ond
p ump
u ma
the arted
at ers
so rely
per cent
qu er
des pair
less er
ob sc
sing er
might y
rele ases
den i
dist inct
Sh ining
pri mary
cla ustrop
background s
design s
pra ising
contri bute
teach es
mm m
NY C
BT W
pit iful
Child ren
compens ate
contr ary
? ),
B ate
B ud
C lover
D ays
F ear
S ally
W ind
e g
r ome
th om
re move
and ro
to morrow
ad diction
art y
ep s
dis ast
In depend
ans on
St and
mer c
sol ved
fact ual
Re ading
De ar
cli mate
gener ate
conf ir
wit ched
along side
ear n
pay off
Sh ar
respect ed
mix ing
move ments
Lu cy
wo e
Sch umer
Mon ty
profess ion
Fe w
wash ing
eth nic
Ka poor
Lind a
soo o
Pen ny
dedic ated
abandon ed
amal an
Further more
Jose ph
Dies el
E llen
M ountain
T W
T win
j arring
s am
t ank
in ept
in formative
wh iny
ma fia
ur ous
cur se
stru ctive
Ar m
trash y
jud gment
200 7
Qu inn
Tru th
Red ford
Enjoy ed
invent ed
Jud y
cook ie
Try ing
Sop ran
Te am
Leg end
Luc ifer
Disappoint ing
orient ed
ardi ans
B all
D ust
H ats
R ap
a ire
d ome
th on
in comprehensible
ou red
ch ased
ve in
ver sus
sc ape
we et
St ate
ak ota
perfor ming
20 th
fant as
mor on
narr ator
200 4
document aries
str anger
AC K
WW 2
homo pho
apocal ypse
Screen play
Predict able
O ly
e h
h att
k iss
in fant
se cut
un deni
ist ics
fun dam
dis plays
care ers
care ful
predict ability
anim ations
hate ful
pri est
Pr att
soph omor
reach ing
carry ing
scient ists
Mir anda
occur red
emphas is
Ak shay
absor bed
celebrit y
Fortun ately
" /
C ant
D ab
Q T
S i
T E
T imo
W ILL
c aut
h ie
r as
in j
in nu
is nt
it udes
be aring
un ning
ho om
super man
rel uct
Se cret
Be an
sex ually
clo thing
uck er
hilarious ly
uss ie
Ter ry
exist ing
cring ing
Love craft
introdu cing
reach es
Far rell
Bla ke
challeng ed
evol ve
Alex ander
brid ge
Coun try
A IN
C itizen
C atholic
R ol
i ently
p her
w olves
re turned
le ap
un natural
not ed
de cor
de grad
man n
over s
che ering
cra cy
tri al
An iston
je ction
mar ine
col la
ground breaking
express ed
Pr of
kick ed
aa aa
absurd ity
boo st
thro ats
plo d
glass es
Sum mer
ec centric
Apo cal
dystop ian
H ate
J aw
M TV
S pr
T ell
V ie
d ating
d aring
e yed
g loss
p ill
p pl
in fect
is ingly
ar ity
some time
mat ically
br at
big ot
class es
clo sure
Bo x
Cl assic
Col bert
draw ing
target ed
fif teen
patri ot
loyal ty
Hul k
prejud ice
thet ically
neighbor hood
ligh thearted
entit led
grot esque
Bate man
innu endo
J O
J UST
T at
Z a
t f
w rest
in er
ing u
are t
de fine
de vices
ll ess
ac comp
ud ing
left ist
je al
Can nes
emotion less
201 3
box es
continu ous
Pro ject
aware ness
sal v
surround ed
resol ved
ann ounced
reward ing
plic ity
Brook s
plat form
infer ior
Hud son
Pier ce
Vir gin
splend id
D akota
E vent
H indi
N either
g if
k ar
t les
in accuracies
re made
re turning
Th ing
id s
ab bit
ri g
di gest
la ke
per pet
ur g
fun ded
over shadow
dis tract
ide y
direct ions
ho lic
In side
pat tern
god s
cartoon ish
smo ke
Mal ko
manipul ative
Tri er
Sup port
sophomor ic
C ase
E than
L ot
M aking
t at
v on
as sure
ly rics
il legal
for getting
oo pers
ab sent
de lic
im itation
ur ity
St ri
won ders
far m
De te
spo on
count s
sou lless
Ger ard
grow th
OU LD
sla m
public ity
progress ive
flow s
AM E
base ment
insul ts
Ph illi
prefer red
suck er
Space y
Gal axy
AW FUL
Oli via
resembl ance
Sop hie
border line
Dialo gue
orc ist
Pun isher
F at
I V
t all
is z
re ject
sh ared
ro be
po lar
gu ided
wa ist
cra z
star red
ign ed
Pe gg
par ties
Sc ot
Mc Con
augh ey
bing ed
Fil es
connection s
anal ys
bound aries
Sil ver
assa ult
libr ary
inconsist encies
F IN
N on
e ve
m im
s quir
z ation
st im
ut ions
pe ak
any ways
dis cer
fa thom
des picable
them ed
new sp
let ed
med ic
med ieval
class ical
bre athe
tempt ed
Sh ane
small er
Tom atoes
gre y
201 1
200 9
odd s
soul s
grad ually
Second ly
Entertain ing
vulner able
astron aut
3 d
C old
C avi
W in
W ol
b un
e lic
st an
vi br
sh er
ke l
ke en
el ite
ra ving
do l
per ed
ac qu
ho g
cl ues
vo c
serious ness
Le ague
cas m
Po lice
Pr incess
remain ed
Vi ol
fla vor
mill ennial
yr s
deb ate
perform ers
puzz le
attr acted
sec ure
WI TH
stron gest
Fel t
Shy amalan
A K
D um
D umb
b oun
e try
s ab
t il
act ivity
un ion
ro l
sc ra
man u
um s
thr ones
In deed
vis cer
We isz
nor m
exp ense
narr ow
survi ved
Bra ve
scream s
affect s
Han nibal
Mag gie
warm th
Ron an
Rod ri
itiz ens
psych otic
polish ed
F ive
M ess
S or
h ouses
i at
p andering
s igh
v as
in fo
st are
to ps
for gi
po ver
lo cked
gu ide
bo om
hi bit
cl one
gen ocide
sub lime
cli m
appe als
Indi ans
trans formation
accept ance
ail s
psycho logy
sal es
toler ate
dinosa ur
Produ ction
elect ric
phr ase
satir ical
opportun ities
Cavi ll
/ "
A dri
D ist
R ain
U E
d ick
p es
p ha
v ors
it or
be g
be an
ent ity
oo by
fil th
fun ding
tra um
ob serv
19 70
col labor
Pe aks
ER O
Ar men
cu z
mas sa
Sp en
bi opic
suff icient
OU R
comb ine
concl ude
Nor we
bul lets
Hu ge
nightm ares
Tal k
Dow ney
aes thetic
Scen es
Effect s
Sell ers
Clover field
2 6
A h
F ell
G ard
L ess
R even
R oth
a ving
e aster
h oo
o logy
ch ief
sh ades
el ine
un explained
de ce
ill usion
end ers
who les
we igh
ment ary
understand s
sm ug
De Niro
Mo der
Be ast
stead y
Is n
Good man
DV R
Any thing
pur chase
Har vey
truth s
lim its
state ments
ni hil
atta cked
El li
dem ands
Tra in
irrit ated
sw im
rip off
recor ded
punch es
tun ed
spider man
Hero es
Dog s
---------------- ----------------
deliber ately
extr as
Poss ibly
Dete ctive
C O
C urt
R and
V on
W AST
r r
re plic
mo tive
ke st
per su
pre poster
pro s
say ers
co ach
ins anity
sound ing
mag az
19 60
She en
soon er
ca uses
Me h
photo graph
bul let
tre asure
athe ist
Miss ion
broad cast
Phil ip
wick ed
Dy lan
Port man
monot on
Johan sson
vap id
Hilar ious
C ut
H y
c kets
f s
i od
o ch
w inter
in correct
re el
to y
se gment
su gar
la bel
po etry
pl ant
your s
real m
sim plicity
crit y
entire ty
port ion
run time
sty l
Le ave
Le igh
Com ing
truth ful
terror ism
pan ic
compar isons
assu ming
Ep ic
lay er
fu el
Tit ans
hh hh
hun gry
Plan et
nause ating
emplo ye
Conn ery
enorm ous
H awk
O l
R ian
S P
S ou
b ene
l is
s add
th ors
was nt
el ve
not ion
ther land
des p
gen cy
sur g
mind set
sub plot
Re bel
We ak
add itional
uni or
par anormal
positive ly
suggest ion
Ma jor
?! ?
emp ire
spec ies
chuck les
Sus p
sar casm
Bry an
MU CH
C ry
L ane
P ers
R ow
R ise
S PO
W R
c itizens
h ref
i ety
in ject
li p
un sure
com posed
po s
do omed
br ooding
where as
exc ell
set tle
stop ping
sho ved
inter nal
den y
air s
pick y
jud ged
fell as
Pl enty
max im
Sa ul
Ale c
wild ly
homo sexuality
Ba con
vac ation
Na omi
Iran ian
__ __
pregn ant
AVO ID
Sopran os
) ;
C inder
F y
K no
K umar
M em
V ik
d led
p able
r ats
z i
in car
in justice
in corpor
sh ining
ers poon
ne th
am use
ur b
up date
our ney
low s
gi ble
ran king
mot ions
lead ers
sed u
ane ously
close st
ake st
subject ed
straight forward
medio crity
subst ant
Wil der
explan ations
pun ish
chop py
insane ly
cha otic
udd led
disrespect ful
severe ly
isol ated
disgu ised
wack y
Ci vil
claustrop hobic
? ".
A ussie
P u
W ire
W HO
Y ES
m ult
s lice
w ink
an xious
Th us
li zed
pe z
im ents
ant is
tri but
Jo die
kill ings
cur sing
place ment
Per iod
admit tedly
invest ment
Far go
Ber n
nu ance
anticip ating
AW ES
guarant eed
Brid ges
relent less
fantast ically
Ev ans
adrenal ine
= "/
E T
F if
R ent
R ag
U R
V HS
e ous
e cho
p on
p unk
p iano
w ider
the ories
it ty
de vi
de leted
ra ces
ast rop
real izing
du d
world wide
He aven
bu ried
cut ter
Ro ss
dist ort
count ers
respect ive
imagin ing
comb ines
mir acle
remark s
insul ted
inv ited
addict ive
cancer cancer
weal th
Luck ily
discus sing
/" >
monoton ous
C lose
D hoom
S ep
S cor
c ater
r ang
s ir
y aw
en gl
se mble
de ta
op ted
lo om
get ic
stand out
class y
vol ume
mar gin
present ing
Su therland
liter ature
itch en
bur y
King dom
prot est
rup ted
mood y
AM C
fill s
fla g
Fant asy
Bor at
reward ed
lift ed
Bang lad
gap s
confron t
los ers
strict ly
egg s
Malko vich
McCon aughey
H H
T L
W y
n ude
z ene
in finity
re vers
id y
ck er
gr ind
tra its
Re g
Jo y
excellent ly
ner ves
col m
Lo pez
explo itation
Sha un
Ter ri
Co x
descri bes
Gr ade
Ad venture
MO RE
Bar bar
End ing
rob ber
Rid iculous
Shi a
quot es
Roy ale
embra ce
Hob bit
Broke back
AWES OME
B L
B lock
H r
M ach
O thers
R udd
S old
S onic
T aken
W rong
Z Z
Z ach
d reck
to es
to mat
as sum
sh ank
ma th
qu arter
dis connected
real ities
real izes
add in
rest ra
log ist
With erspoon
bi blic
listen ed
uc ci
Mi ami
Am anda
Bob by
ograph ic
dum best
blat antly
stum bled
recei ving
Fro zen
finan cial
gad gets
Mic key
Dust in
M ight
P ine
c ig
d v
i ator
j ungle
r ot
vi leg
po lic
we ir
view ings
read er
script ing
lic op
pop ping
bi ography
imagin ary
Super girl
Ad ult
atta ch
continu ously
gain ed
liber als
provo cative
Af gh
chick s
Mal colm
cell ul
fix ed
patri otic
borrow ed
Moder n
WAST E
biblic al
C y
D IS
D irty
L en
M ah
T iger
l ab
p ale
s laughter
u ated
y ers
en to
mo de
ad just
ma st
de feat
ast ed
we ather
we akest
au thors
dis regard
ph on
There fore
Ch op
ama ze
script ion
war rior
Don nie
mar ry
IM HO
experi encing
men acing
room s
sick ening
bel le
desper ation
brut ally
Out standing
discover s
grab s
fascin ated
Enter prise
TER RIBLE
Na than
immers ed
Anim ation
Myster y
optim istic
Gab riel
supre me
C ate
M ik
R ush
U M
s lea
t an
w y
th read
se lection
be e
dis mal
fa int
Wh edon
off ense
du b
ph ant
19 3
ump y
ground ed
scar iest
dist ant
week ly
sign s
survi vors
concer ning
VIE W
da zz
believ ability
Ken ned
Sus an
ura i
Vo y
destro ys
Hall mark
empower ment
revolution ary
baff led
Song s
Independ ence
preposter ous
Cinder ella
F ed
H and
b ast
n ick
o cean
s ane
w agon
or n
and ers
be gging
un ra
ab usive
ha i
ne ut
pt on
ound s
read ers
red undant
sur passed
.... .....
cou pled
comple ted
rel son
Act ress
mid night
Wor se
enn es
gri pped
Pa thetic
whe el
rend ition
Bro sn
Ra imi
Dan ish
fool s
cir cle
IF F
tack y
hun ter
attr action
choo sing
Blan ch
elabor ate
Jaw s
tomat o
cellul oid
5 00
A lit
B ess
F isher
F inding
N avy
P arent
Z oo
c s
g all
l un
o il
s ma
u ate
or a
ch es
sh el
not able
no pe
we e
dis crimin
interest s
sol ution
He at
bas ket
ris ing
Be e
ner ds
sch lock
With in
scar ier
30 s
ani ed
Ho locaust
Po st
Bo ston
Me g
Rob ot
push es
concer n
distr action
escap ism
Au di
veter ans
Cent ury
sque e
involve ment
believer s
unra vel
A ud
B anks
K ay
S ol
f actors
h al
p um
p ause
s witched
t ab
t ens
t ends
an tha
re boots
ar n
ar med
se gments
be ars
Th row
ith ik
ri al
de af
ra ising
who lly
ap ers
over long
ass es
back wards
cl unky
sim ult
af ford
Sh an
trans formers
accept ing
shock ingly
teach ing
IC E
dete ct
unfold ing
rad ical
Fred die
Scre am
vile ge
Isra el
intric ate
forgi vable
) !
C our
C ON
L ack
M ot
O t
k ni
m ig
u ity
en force
en chant
st ating
it z
mo s
se ld
out right
ri er
ra ises
ro bbed
br own
Al addin
Re view
war zene
Mar ch
side kick
realistic ally
conf use
Go T
Har old
pri vilege
inst inct
IT E
trans form
Ad mit
judge ment
gang sters
Bet ween
preach ing
argu ments
vulgar ity
birth day
enthusi asm
Hot el
MI B
ideo logy
mock ery
betray al
forgiven ess
enthr alling
tact ics
divor ce
Kling ons
Brosn an
A me
C ame
D read
D utch
F ass
F air
F irth
P ain
W ant
d ale
e quality
p ins
s ends
v ag
ve ll
me lan
un cle
un satisfying
ge ms
fe ast
ill ing
am ond
con vi
pre ced
pro ving
over look
ild a
ang els
deli cious
soci ally
rele asing
Sc ore
build ings
Mc Kin
pri vileg
execut ive
Co le
AR T
impro bable
Direct ing
Sam antha
mil k
Ge or
cringe y
test ament
perspect ives
acc used
Old boy
loy d
cow boy
gal axy
accident ally
Greg or
Pla ce
ronic les
difficul ties
Word s
Py thon
repul sive
analys is
Norwe gian
wholes ome
Alit a
4 7
A gent
B ates
B rend
E wan
G a
K er
P ad
P ink
R ef
s lot
re telling
al y
mo thers
ch ron
ct ic
se ct
ver ine
ge ared
ne ur
ill ed
int on
per ception
ep ing
jo ined
over blown
fin ed
part ly
In ception
recommend ing
ris ks
Mo ss
sent ences
att itudes
cap acity
Har relson
LO W
sou thern
convincing ly
Was n
Wal ker
Im possible
Sar a
Sat an
chop s
sta kes
Vin cent
IGH T
Alf red
viscer al
Curt is
engl ish
G ru
H D
H ust
S of
T w
o ir
sh irt
no ble
we ed
te e
ac claimed
off s
du bbing
tim ed
co on
ip id
De cent
Mar ia
OR Y
learn s
ush ka
dig nity
Disappoint ed
cliff hanger
Gri ff
Atl antis
HOR RIBLE
reci pe
accomp anied
excell ence
5 0s
D af
G ay
J aa
R ing
S OME
T roy
b io
c ards
d il
g lit
h unting
r ural
re tired
st ark
it o
ch at
for ty
me ga
sh red
sh elf
el iness
un o
su me
end rick
pre sum
irst y
dis ney
ors es
ru thless
In to
under developed
co de
screen writers
fl ood
ney ed
leg ends
treat s
Super bad
sens it
Sm all
flash y
Ber ry
Scott ish
venge ance
fab ric
ski pping
cris p
toler able
Haw ai
Mul an
Wed ding
tro pe
NC IS
demonstr ates
Apocal ypse
seld om
warzene gger
! ,
C ross
D all
D est
H om
L ake
P rison
b ite
h ats
y m
in explic
st able
al ley
ab used
sc am
he licop
ac id
ide st
laugh ably
og rap
mer maid
right eous
bl ink
co pe
vis ions
sub sequ
Se en
both ers
Be ck
awful ly
mon y
master fully
dep ends
Sh ark
ca using
Me et
Me gan
Bl unt
Gu ardians
sla ve
Vi kings
Mur der
sw ing
Thr iller
199 4
198 4
OO OO
Writ er
colour s
scratch ing
SU CK
Camp bell
apolo gi
econ om
pover ty
Hr ithik
Kenned y
ograp her
2 7
B us
B uck
L ine
M end
S ense
S UP
b ins
c el
c ens
w ich
en sure
al bum
ed ition
be hold
un even
un inspiring
op h
po l
end ured
int imate
tr ation
ble ed
pr int
into ler
mis fortune
mat urity
tra uma
origin s
Jo ss
found ed
cli p
inter act
Li ving
school s
posit ions
Can not
dist ress
Sp y
Ex orcist
Con juring
explo it
Ab by
dest ined
trans fer
Ha ven
order ed
Tur ner
Fin cher
travel ing
Cam era
hom es
Pol ish
Fox x
threat ening
nut shell
auto matically
Cent ral
engross ed
++ ++
Dialo gues
select ed
assist ant
eleg ant
neighb ors
rer uns
Aqu aman
Pir ates
vibr ant
substant ial
McKin non
Dall as
" -
) )
2 D
C ou
H alle
K il
L ol
T odd
T ax
p is
p ant
in stru
ch i
Th er
Th umbs
li ps
sh aring
nd rome
ru kh
gr ay
em ed
co z
De velop
ali zing
RE VIEW
Tom or
trans late
Christ ina
200 3
Fin n
Ali cia
Wal ken
fra mes
subst it
thank ful
vot ers
cat astrop
agend as
BS G
lon eliness
bull shit
communic ation
FUN NY
stim ul
Spen cer
SPO IL
B il
D R
D ID
H ur
L ie
P assion
S ide
m ons
o logical
p oop
w re
in formed
pe e
out dated
pre v
up side
new er
new com
work er
tra p
ward robe
We ird
sm ith
sho ots
mor ally
ped est
IN T
ret t
fo x
sym pathize
Last ly
Mi che
offic ially
cate gor
conve yed
Hell boy
Ital y
hack neyed
pred ator
frequ ent
enthr alled
Jac ob
dro ve
Surpr isingly
Pil ot
A ri
F R
P ur
g ul
k n
m art
m ush
s of
u ge
é e
in ja
is ta
vi an
un ner
ap ply
St ark
under ground
produ ces
illi ons
Re illy
19 90
mon key
Mar shall
cop ies
ank a
Man n
Car to
dist ingu
exist ential
imagin able
nu ances
path os
Cra zy
compe te
Master piece
reli able
Retur n
acknow ledge
Ultim ately
aggress ive
Berg man
Tomor row
G ro
M ill
R el
j un
t u
t iring
re tain
it ter
il arly
for bid
ent ered
me as
el der
ma cho
di ve
no ises
ti p
con du
ist ent
should ers
long ing
bl unt
sm iles
gl ance
clo ck
inter tw
portray als
Dis gust
sch ed
Sc ooby
Ex press
LO TR
Or der
bar rel
Qu aid
relev ance
intellect ually
pract ice
evol ved
manipul ation
organ ization
Rog ers
seam lessly
Wi fe
dissa pointed
cohes ive
Goo gle
IO US
tat too
privileg ed
C ub
E g
F le
H al
H app
I VE
L ily
L ara
m ers
in ity
in fl
lo pe
can on
em ic
ob li
let te
cont ender
An ti
past e
consider ation
posit ives
Br ide
ident ical
Ste el
Sch warzenegger
murder er
Pro s
grab bed
Pac ific
Jud ge
demand ing
applaud ed
alco holic
FO X
firm ly
Clar ke
Afgh an
Dread ful
A wards
B ran
C her
C oppo
F ish
H ep
L iz
S A
S leep
Z ERO
b t
k itchen
l oop
n ations
id a
im ately
con sum
ep it
jo hn
bec ca
pr ic
ide als
own ed
cou ch
co at
ash es
ins ipid
bu cket
For rest
ner ve
land er
franch ises
avoid ing
Ed iting
AS H
13 th
odd ly
El ba
concer ns
paint ed
professional s
Ob ama
wis dom
address ed
pred ic
195 0s
kidnap ped
plod ding
simult aneously
A y
B un
B ab
I rel
K ra
L em
P ick
S mo
i ge
j ol
w ire
en na
me al
any time
ful filled
bo ards
pr on
tra ff
disappoint s
ob st
sol ving
cond itions
ons on
rid dled
Pe ck
reg ularly
gar ner
spect rum
Con an
team s
Gre ta
wall s
Sy Fy
Thor oughly
argu ably
organ ized
rout e
Kar l
Ca ine
Fall en
Cas ino
Id ris
Shel don
Bey on
Pak istan
misogy n
Incredi bly
cous in
Support ing
Susp ense
Chop ra
Daf oe
) ?
4 8
D oo
I ll
K ING
N i
c us
d well
g us
w tf
en ig
to days
mo an
ch ing
le en
li an
so red
ne phe
watch ers
man ager
ook ie
dis miss
season ed
ip es
run ner
eng ers
gar ian
Sh aron
IT S
app alled
base ball
spin ning
manner isms
RI P
197 0s
vast ly
hide ous
Cr ash
EVERY THING
Spe aking
communic ate
concent rate
vague ly
arri ved
Shaw shank
stup idest
Oly m
hatt an
bene ath
Coppo la
. (
B ody
C ars
C os
F A
K iller
L ith
M iles
P han
U k
Y u
m ute
m ouse
p om
s ending
u gen
is try
re sur
re quest
ar i
oo o
ro of
tr on
plot ting
ass y
ho key
St ick
cent ers
bl ends
ran ked
Re becca
19 50
Un cle
col on
stuff ed
ST ORY
mas cul
Char lot
Ger wig
bes ide
dress ing
Mag ic
Gi ving
opt ions
fif th
excruciating ly
Chur ch
gif ted
Irel and
B ow
C re
H urt
L ater
T ara
U g
b ones
c ure
h ance
p li
er ies
re cru
at ics
it ar
mo ld
vi bes
sh ing
un it
ple x
fa thers
character istics
gr in
entertain s
vis iting
vo ir
gue z
hand ling
lic ense
sk it
Go ssip
Man hattan
air ing
langu ages
cla pped
wr ought
sla very
pet ty
Fe els
Mad ison
Tim es
delight ed
Angel o
Cra w
contem pl
fif ty
enthusi astic
Rep ub
analy ze
cand id
suspic ious
Constant ine
Rag nar
Phan tom
B ri
B ull
C ran
G lover
K ash
T ele
Y out
a unt
b our
f ence
i en
m uddled
n is
p our
w idow
st atic
ad or
so lo
char ged
ish es
mis guided
In st
br al
St orm
che ating
cent s
fan atic
vis ited
sub par
dict ator
hel pless
sty lized
Pe ace
ER E
neg lect
respect s
Con f
depth s
Ter ror
inst it
inst ances
Most ly
cru cial
descri bing
impro ves
introdu ces
glo omy
Gra vity
metaph ors
Haw ke
Need less
Squ ad
fantas ies
Prof ess
Parent s
melan cho
Develop ment
, '
- )
B A
F al
F lo
P L
S pect
S ny
T em
U s
Z ack
c age
u to
in ability
an cing
en hance
st or
st itch
ch amp
ow ed
ri ors
sc oring
po ke
show er
end lessly
tr oops
con science
ven ue
ol ate
expect s
cl oud
come back
We aver
hy p
except ions
Mc Gregor
comment ing
inst al
pil ots
sn ap
trust ed
Juli anne
Dam n
prison ers
ston ed
kno cked
Part y
drun ken
signific ance
profound ly
transl ated
Kings ley
Rodri guez
maxim um
Blanch ett
= =
C ro
D ull
E U
E va
H ans
O L
R R
S ue
b ent
b ots
er ror
re verse
at omy
or ian
se vent
ad en
sh od
The ory
ha w
ex otic
con dem
qu ant
ful fill
ci ously
dis appear
ho locaust
St al
war rant
An ushka
inter val
umb ai
par ing
pu b
country side
trans formed
rend ered
bot tle
recor ding
Life time
199 5
def ense
Gar field
ki en
exagger ation
West world
Brazil ian
pray ing
Val ley
compan ion
conscious ness
promot ed
discus sed
weakness es
Ton i
Mitch ell
Bess on
enforce ment
A na
B G
G raph
I di
K ick
L oc
M illion
P age
R ene
c itizen
d ross
h art
h ung
l en
ch ris
sh an
di min
am id
end game
ound ed
ans ki
sub scri
ste er
light en
found ation
pi er
Be en
sex ism
19 80s
sho cks
ele ction
contin ually
dep ending
Sp ir
Em peror
concl usions
step ped
teach ers
Aust en
product s
Ru by
gal ore
Bel la
dama ged
blo ated
Hul u
arri ves
journal ist
Mean while
Mont ana
contradi ct
Than os
dome stic
patriot ism
Carto on
Repub lican
C oo
F li
K i
L ame
L loyd
N ation
S en
W right
d irt
h orses
j ar
l ur
l ins
s na
s niper
w ers
ar is
ad minis
sh ap
un related
com bo
com ings
wor ship
pro motion
mis understood
bor ders
hum ili
tri o
fli es
sub tly
top ia
Se a
val ent
bre athing
mon u
Ro gue
God s
ord ers
Br ando
prom in
Bl ind
War ner
Cl ay
Sm art
Mon day
Mid night
Hop ing
squ ad
mob ile
Inter stellar
psych iat
sor row
Entertain ment
gro an
conven ient
advertise ment
devast ating
Gad ot
Viol ence
Barbar a
Hep burn
" ),
> >
A pr
E is
E asy
E van
G ang
H i
H il
H im
H IGH
M ort
P ush
U r
W att
k ung
o la
s anity
in con
in habit
ar rive
ow s
id ious
pe st
ul ly
ne tic
int ers
up t
au er
dis service
ac col
back ed
pret ends
ang led
sub scription
He ad
Un believable
Pe te
land o
wit ted
dri ft
remember ing
Sh rek
mix es
pur poses
cost um
bi ans
cring ed
sens ible
Mon ster
Mel an
liber ties
discover ing
fu ri
Sy d
object s
install ments
Res er
Swed en
admir able
predecess ors
inser t
doct ors
parano ia
Fut ure
pric eless
Charlot te
Sny der
4 9
B oll
C RE
D al
D rive
N ed
P D
R h
W A
W inter
e ct
p tive
re create
il a
ir ts
ra iny
la be
am ed
po ison
per man
qu i
ser vices
over whelmed
real ization
pp ers
ac claim
ort ions
che es
Ch lo
bl ended
20 s
ins om
soci op
ST OP
Br onson
post ers
subject ive
bur ned
agon y
sens ation
Col umb
grand mother
studi ed
sen su
Han gover
ONE Y
atro cities
safe ly
desc ending
buff s
hyster ically
Easter n
kis sing
mou thed
Tol kien
magaz ine
Voy ager
Admit tedly
resur rect
8 5
? '
D J
K aren
K endrick
M ummy
M ONEY
U ma
i uses
m are
on na
il le
Th under
un intentionally
ex hilar
la v
dis ci
cl in
need less
ama zes
light ly
cli ck
run g
bud dies
00 7
mit ive
pri ze
post ing
flow ed
Sa oir
bul lying
Rom ance
fla ir
TO S
Ac cording
Rock well
explos ion
research ed
Jon ah
speech es
marke ted
Mir ren
pati ents
sett led
gig gle
stereoty ped
Roman ian
sle pt
pup pets
civili zation
Ve gas
celebrit ies
phr ases
isol ation
zzzzzzzz zzzzzzzz
Pop pins
difficul ty
Hum or
Wel come
transport ed
anx iety
precise ly
rapid ly
cere bral
confir med
Timo thy
Case y
delic ate
pum ped
Cour t
Apr il
A mir
B ander
C ube
D omin
H ack
M anson
g ories
s lack
u gg
z ard
as ite
mo cking
me andering
ay a
un happy
de voted
con struction
ap ple
ci ally
bo lic
character isation
ho ot
cre am
od der
mean ings
sound tracks
dec iding
Some body
pay check
dr um
sum med
prom pt
Christi e
ib bean
bur g
pat ron
ail ed
drop s
host s
appro ved
Ye ars
Wood s
Dam me
virt ue
Pal ma
Fred dy
List en
particip ate
Cli ch
Fan ning
decl ine
choo ses
vig il
Shah rukh
butch ered
enhan ced
ambig uous
Armen ian
tomato es
Tax i
C A
C ats
F ringe
G illiam
N ine
O VER
O pen
P and
S FX
b ending
d ic
f fe
p hase
or ite
to ber
to xic
be ware
au x
ite ct
sp ring
lie st
So on
cont rolled
Re vol
Se qu
Do om
weak er
Sp idey
remind ing
ref uge
Bat woman
By r
atta cking
intense ly
distur b
indi an
flow ing
sw allow
explos ive
Gar bage
Alex and
hur ry
manipul ated
brief ly
sentiment ality
Kill ing
196 0s
feed back
Inter net
replace ment
pir ate
Ven om
Isa ac
rambl ing
infant ile
reluct ant
Eg yp
Saoir se
A ron
B loom
C ass
C omb
F AR
K az
M olly
O range
T ook
W ANT
b tw
e v
e valu
j ac
on going
vi cious
Th urs
movie goers
ent ering
The ater
ab undance
po sure
he ars
ens on
dec ency
mon tage
fight ers
Mar ie
dep ra
ling er
den omin
Car ibbean
prof ile
Da isy
Or lando
refresh ingly
str angers
Show time
cul min
struct ured
assu red
sal t
cate gories
hearted ly
Rog an
contribut ion
Care y
Ze al
hesit ant
eli min
Remind s
therap y
dilem ma
TW D
WR ONG
dv d
Bander as
K al
K atherine
M umbai
P I
P or
S pain
d ash
f ru
n om
y ard
re making
as hi
ver age
ent ers
sh ift
de v
can ned
ag re
own s
cast le
happ ier
ree k
bu bble
por ter
De v
col n
land ed
open er
Ne mo
sk ull
hilar ity
dri bble
pri mitive
liter ary
gy pt
Gu iller
Bro ther
IE S
Che ap
complain ed
Gar cia
Ham mer
Sy l
GE T
demon st
dramat ically
monot one
height s
yell ow
Polit ical
Liber al
obsc ure
disast rous
jeal ous
discer n
Banglad esh
Guiller mo
F em
M M
M ass
O cean
Q U
R at
W an
c art
g ence
k night
t ent
t roll
th reads
un conventional
ir rational
de fe
ne ider
ill on
pro ven
over board
dis order
du des
after ward
ens ed
em pathize
em peror
down side
So cial
co ast
fli ms
sub marine
We ek
De mo
bre ed
Ro bo
cy nic
US E
ric ia
weird ness
advent urous
Cl ass
throw back
Fi ennes
imp lic
affect ion
exper tly
199 8
Dani els
ID S
atro city
197 7
Episo des
commit ment
anu ary
author ity
fairy tale
Writ ers
resembl ing
Sur vi
maintain ing
Add ition
Home coming
celebr ate
omed ay
Gener al
sketch es
LI KE
Lin coln
Goth am
monolo gues
narciss istic
photograph ed
slea zy
pom p
Yout ube
hyp not
5 5
6 th
C live
D aw
D unk
E ugen
F ine
S ig
S ty
j aded
in ction
at tribut
ou ge
as i
wh ites
ic iently
ab str
fil mo
ra ped
ro se
he at
art work
ink s
direct s
ach ron
gi ar
cra cks
fi an
kind ness
He ck
ris es
ath a
crit ically
gl aring
Ar nie
sk its
gra vity
Sh ot
Brit s
gre edy
Co de
box ing
connect ing
roy al
survi ving
Sch neider
unexpected ly
Bur n
bum bling
Sun shine
Ir ons
conve ys
ANY THING
vac uous
address es
aston ished
fle et
distribut ion
ambi ance
Point less
Patt inson
Know ing
Fa ith
newsp aper
mast urb
Sof ia
shod dy
denomin ator
B urt
D D
D ur
D oll
E scape
H ong
H ands
I P
J P
M ia
M ix
O s
R arely
S niper
T M
Y E
b ir
b read
c en
f ri
n ell
u ber
it i
ch al
se as
li ghter
ke eper
un aware
ma sters
not ably
ra z
di vid
do d
art istry
over acted
under tones
pla cing
sub urban
Mo cking
ign oring
uni versity
reg urg
She t
sat ur
ane ous
conf irm
dist aste
mark ed
Ho st
Rob bins
connect s
flu id
flash es
fra ud
pan ned
minor ities
match es
Bet ty
hom eless
chick en
Van essa
cow ard
jer ker
resul ting
cook ing
Rod den
NE W
bill ed
holi days
arrow ing
possess ed
XX XX
Francis co
nay sayers
Oc tober
Bog art
fundam ental
Ot to
Cub a
! ".
0 1
B le
C hase
G G
G ave
J uno
J anuary
N A
P RE
R est
Z oe
b aked
c ott
m ort
s log
x x
in furi
and ed
al ert
ve t
out fits
de tr
com end
sc attered
do om
he k
great s
um ble
character izations
tw elve
St arts
pla giar
ner dy
Le vy
talent less
live ly
black s
Sc and
Su ff
twist ing
respect ful
IT Y
THE Y
satis factory
gri pe
........ ..
War rior
sla ves
water ed
trad itions
Night mare
app lied
remark ably
tre es
,, ,,
Rus so
oper ation
occur s
Chuck y
feed ing
Produ cers
awa iting
concent ration
Jen kins
Ren o
Gener ation
Deep ika
alleg ory
Wi ig
homopho bic
Shan non
convi ction
B ing
C D
C atch
E gypt
K K
L isa
Y ep
a ves
b ru
j unior
n iss
p us
p light
re lying
re semble
en counters
le te
be having
be wilder
ad opted
su es
de e
de fi
de structive
do c
do pe
he im
au ra
were wolf
too th
10 1
mis placed
ame t
something s
che ered
vers at
Al as
De ce
cr ook
par ti
IN D
Br andon
win ners
Mc G
critic ized
Rob inson
sn appy
Pat ricia
shadow s
investig ate
discuss ions
cris y
Mer lin
San jay
mum bling
maid s
Jen ny
Light s
domin ated
smooth ly
emplo yed
promot es
lean ing
bless ed
princi pal
poo h
bird s
alleg ed
cust om
Met al
Performan ces
sprink led
Scot land
sher iff
Dunk irk
A way
C rap
D ut
E bert
F Y
N AS
P TS
T omb
Z ac
d ates
k ne
u ries
er r
en ch
li ar
ad ored
el a
ab lo
im ple
et ti
ac ies
fin es
should er
dra in
right ly
bl um
iz za
Jo kes
hero ism
cinemat ographer
sho ve
tem po
tem per
par o
Ar rested
cop ying
Good fellas
00 00
spir its
shame less
Da ily
liter al
glad ly
Fran ken
period s
redeem able
Bro s
contain ing
awkward ness
sen ior
IC K
notice able
mach ines
dad dy
Que st
Chan ning
Int el
HA HA
dar kest
absor bing
resist ance
Sn atch
recei ves
Der n
Wed nes
goo gle
mani ac
artic le
detect ives
neur otic
subsequ ent
Kil mer
pedest rian
Cran ston
Watt s
Byr ne
E ss
E ye
F ound
R our
V io
W anted
c ough
j est
l end
r he
s killed
s omeday
v ation
v ital
w ore
x ta
z ie
of sky
ch oc
le ans
Th ur
ic y
ma p
ex pose
po ser
show cases
per il
qu art
ag ues
over bearing
sp ont
could nt
gr umpy
mer cy
pa thetically
sim pli
mon keys
follow ers
non stop
pare n
mas ala
incl usion
plan es
Trek k
arch itect
Po pe
dest ination
bur den
und erest
refer ring
har dest
Direct ors
gay s
sell s
appro x
catch es
Wal t
mass ively
regard ed
Mor ty
thin ly
vir gin
199 9
relat ives
boo bs
Wa iting
Sil ence
contribut ed
awa ited
determin ation
Sto ck
transp arent
register ed
caut ion
Reven ge
styl istic
robber y
labe led
sociop ath
Rodden berry
Dece mber
PTS D
Rour ke
" (
1 20
A mit
B ach
C ron
G R
K ept
O dd
S pl
T IFF
U we
b c
c uss
h arrowing
s its
x y
in ations
in complete
ou f
al ed
ch ie
un familiar
ine e
dis p
pr ude
king dom
stand alone
Ch ronicles
perfor mer
pa uses
bas ics
cor d
class ified
cr atic
short s
ridiculous ness
ton ed
bi ograph
swe at
suff ice
Super hero
sick ness
relig ions
aim ing
Way ans
tun ing
Mag n
surround ings
safe ty
sembl ance
pati ently
pray er
roller coaster
Bor n
incident s
paralle ls
collect ive
mic ro
thet ics
expand ed
Fore st
kni fe
Fass bender
presum ably
Afghan istan
flims y
2 9
C ount
C andy
E ight
H indu
K ung
L or
M AR
b log
c ue
f us
er ation
it arian
be ard
sh ares
fil thy
di amond
im person
tr ow
tr ump
ta int
sa il
view point
its ch
pr ince
mat rix
ens en
may hem
fan boys
super powers
ath on
clo set
tem ber
eng er
Le one
bud gets
forward ing
bra very
open ly
pu ke
AN K
15 0
LO ST
New man
Bo ss
Tr ilogy
Qu iet
stunning ly
Nor way
Mon sters
aby rin
Mus ical
trou bles
bomb ed
Wil lem
appropri ately
mouth s
rob otic
influ ences
evol ves
Lau ren
glor ified
incre ase
ende av
Sil ent
benef its
vehic les
indic ation
shit ty
dedic ation
method s
andal orian
Beat les
sche me
astronaut s
massa cre
deta ched
squee ze
sensit ivity
instal ment
Addition ally
B ib
C had
D oc
F ate
F RE
L ang
M ack
N N
N ame
T ale
f odder
g li
g um
i ors
m n
n m
s ins
th ie
an achron
re porter
un clear
id al
su ed
ex hibit
la z
int end
ti ble
per t
bo di
pa this
down fall
As ians
girl friends
ST ER
Ke y
dam ned
Any body
build up
Com p
Com ic
Mc Dow
const it
trans itions
execut ives
equ ip
Pr op
Night s
exper ts
eth ical
sess ion
pen is
root ed
Den ch
commun ist
glo be
hall uc
link ed
Spe ed
immers ive
Brook lyn
deliber ate
exhaust ing
summar ize
spaces hip
uniform ly
woe ful
undeni able
Wol verine
manu fact
clim actic
easter n
surg ery
abstr act
abyrin th
. ).
A ld
B and
G ump
G aga
J une
K ris
L as
W o
Y ash
a int
g el
g id
l ou
s ly
u gu
in stein
in visible
er ase
ch rist
ver ts
ion age
un biased
de mean
ro cked
sc andal
do ck
us age
pl anted
ig ning
sp ine
dis appeared
perfor ms
need ing
sim ilarly
bl u
bl ings
fi er
press ing
develop ments
19 th
mor bid
gg y
Le ad
sy ndrome
land ish
short comings
IN E
mid st
pur chased
bi ke
explo ited
psy ched
cheap ly
Super natural
Gr ound
VE N
Sim pson
str ay
consist ency
achie ves
emp loy
grab bing
phenomen on
ju xta
repetit ion
Cha p
Cha in
quiet ly
Jud d
Du ke
Res ident
Gra ham
spre ading
eight ies
Sound s
Sound track
Sw inton
TA IN
immig ration
Fav orite
Lat in
etern al
ingen ious
iped ia
pump ing
wrest ling
desp ise
neut ral
basket ball
Aud rey
cens or
nephe w
Reser voir
pomp ous
3 3
9 11
C ob
C reek
H ale
I c
K irst
L ONG
R ex
S M
k u
r ance
s is
s lo
s ung
w andering
in al
in form
in capable
es cal
ch ord
ow e
you n
sh iny
ab ound
ge ar
di zzy
ro e
im perfect
art icul
ll ing
seem ing
exc els
produ ctive
bu sh
use um
je wel
predict ed
Pe arl
nor th
power ed
pur suit
similar ity
psy che
Tur ks
ni che
var ied
studi es
Fo ot
courage ous
avi er
wide ly
sli de
reflect ed
Pol anski
Boy le
threat ened
Cle ver
Hill s
gle e
flo ating
stretch es
ado x
conserv atives
Ash ton
affair s
Glad iator
CR AP
Visual s
proced ural
mani fest
nur se
Cry stal
amuse ment
punish ment
Sep tember
enchant ing
SUP ER
Tele vision
adminis tration
accol ades
Aron ofsky
D ER
G row
N el
P fe
S ic
T aking
T RE
T ina
b atch
d ot
d war
h ater
p ion
s ity
s cept
v fx
an ge
ch apt
id o
not or
ge ist
de mise
di me
ex change
char med
man ji
ag no
fun eral
his hek
tw in
under water
cl es
gi o
cre te
od a
before hand
Re ason
Un ion
?? ???
ret ched
mas ks
mas quer
dr ab
repe ats
treat ing
Christ ine
novel ty
Pr ab
cal cul
Col or
El ton
grand father
quir k
Tra cy
Par anormal
mm mm
Would n
ðŸ Œ
peace ful
switch ing
EVERY ONE
tremend ously
Ash ley
exhaust ed
whis per
publ ished
employe es
Vik ander
Chlo e
Thurs day
Zeal and
filmo graphy
Wednes day
chapt ers
9 3
A voy
D iffer
M andy
R ic
R ac
S later
W ard
a fore
b ump
g ically
h ing
w izard
⭐ ⭐
in flict
re cover
st ages
se ctions
ver ge
ic ap
sh ant
un a
out er
out landish
ri pping
ra ine
con vict
con descending
rit ual
um in
their s
own ers
ces e
hi a
start ers
cent uries
fore most
ning s
comp on
sing ers
rest ri
flaw lessly
none x
terri fied
post s
Fran ces
lad en
Direct ed
AS S
femin ine
travel s
TO O
IC T
reck on
Sun ny
suspect s
coher ence
evol ving
Rus sel
Kat niss
resol ve
escap es
hun ger
Bu y
seam less
mountain s
Whit aker
esp ionage
dup lic
fro zen
Anton io
Sou thern
elder ly
exhilar ating
Clich é
equip ment
Ic eland
( ?)
8 th
C ris
E yes
H ank
H ered
L L
M andalorian
O m
P as
T ilda
U GH
n ado
p als
s way
y l
ad vis
fil es
su cking
ust y
ra pt
ne ath
la ced
good s
con ce
per verse
ite ms
new ly
Ch al
ob scene
hu h
ual ity
cra ving
vo cal
vo iced
ins ens
ste el
war riors
sm iled
stupid ly
rid ic
arr ay
IN K
brain washed
band wagon
roy d
affect ing
AC E
six ties
unfold ed
PO INT
Gold ie
Cha stain
Anna belle
tack les
maintain ed
escap ed
Pow ers
puzz led
Lind say
rehash ed
Myster io
hypo crisy
Bey once
elev ated
Patt on
cram med
occup ied
pod cast
Block buster
epit ome
Ug ly
costum ing
Daw son
quart ers
? ...
A pat
C ow
H ilton
J ungle
O per
O dys
S ER
c utes
i ate
in ep
re write
or phan
al es
le on
ve lope
but ter
de on
tw ins
ru bs
br is
wast es
pa ired
bl ond
wa ves
Don o
mon stro
Mar lon
reg ion
!!!! !!!
effort lessly
ky o
design er
represent ing
spectac ularly
shock er
proper ty
Red empt
Rom a
aim s
delight fully
punch line
gross ly
insight s
Gold blum
Fl or
pal pable
Jud ging
depart ure
lust re
relax ing
NE ED
Ky lo
fle w
ambit ion
experiment al
Gl enn
prejud ices
zo om
dump ster
Cri me
Utter ly
pand emic
Performan ce
Rol and
tab oo
Cre ep
Push ing
distaste ful
parti ally
" ;
6 5
7 th
A z
B aker
F I
G oose
H AS
K un
P aren
R A
S elf
T un
c oo
e uro
in suffer
is er
is ies
es is
mo ms
un seen
are st
po em
just ification
wor ries
rom com
man ic
sa vi
ru g
under dog
screen ed
fli p
Re views
cr at
Lo han
Li ked
impress ions
event ful
Sh ir
Ex pan
Ho li
dest iny
War ren
Gr ay
sl ash
sla pped
survi vor
step ping
nel ly
Hard ly
highlight ed
trick ed
drink s
kins on
streng ths
lon gest
Leon ard
Au gust
Roman ia
fee ble
Anim al
Fol lowing
baff ling
cab in
access ible
stro ke
Victor ia
Isra eli
Vill ain
oblig atory
Ag atha
Face book
transc end
Elli ot
Hawai i
Miche al
Hil ary
NAS A
youn gest
Redempt ion
Expan se
* .
B ong
H og
K ut
K line
L one
T ucker
V era
V ader
W B
W ins
Y awn
g ow
s words
u u
u ation
˜ ‚
in secure
st ones
and ered
as co
ed s
il ia
om g
ad ise
wh ine
wh ack
The at
un educated
ir teen
ne o
ter ing
ter min
am or
he ter
go als
ap preh
et al
ac company
character istic
gi me
sur passes
ak i
co lo
commend able
Al ba
ins ki
Be th
ia h
When ever
land ing
wi pe
ST D
name ly
Car l
AT ED
respect able
stra ined
utter ed
Di aries
Who le
dead pan
house hold
AR D
critic izing
200 2
ener getic
Bar on
bul ly
numb ingly
junk ie
witness ing
athe ists
fright ened
signific antly
toler ance
desire s
celebr ated
court room
iron ically
Dian a
pir ates
AG AIN
trade mark
FE CT
Tech nically
swim ming
attach ment
Disgust ing
Craw ford
promin ent
insom nia
agre es
Pfe iffer
9 8
? .
B elle
E lect
F ab
F ind
K r
N apo
O ct
T ried
h iring
l at
v ary
in famous
an thology
re lied
on ies
to dd
li gible
oo h
un ks
un finished
ir rever
ne west
int age
pl ug
bo ggling
joy ful
St unning
pa ths
aut istic
dial ect
Re ed
car bon
cli matic
hand les
Li u
support ers
mid way
utter ing
Mc Avoy
Har a
Sha pe
Bro dy
tern al
Sa int
vict ory
immedi ate
comput ers
sli p
pun s
organ ic
Cla ude
relent lessly
whim s
Tow er
annoy ance
Studi os
Dab Dab
overshadow ed
Scor cese
Hom eland
enig matic
disci pl
fian cé
Scand ina
Franken stein
rhe tor
4 2
B aa
D il
O H
P A
R ated
R iley
S ach
U sing
f ting
g lam
l lo
l ash
p c
p ard
t te
y i
z an
to ken
ch ef
so ber
com position
im moral
con tempt
up beat
over t
ass ess
In s
che ster
iz on
sing s
war fare
oc y
dark ly
spe cul
short ly
neg atives
pay ed
Ex tra
Com fort
fic ially
arch ety
ref uses
omen ess
str anded
Dark ness
ham my
Mad sen
Sar andon
Am ong
tun es
Ray mond
rad i
hip ster
edi ct
Cru z
hur ting
Uni vers
deter ior
syn c
trend y
gig g
Brid es
Cong rats
sink ing
lu x
Med io
Kind a
Barry more
GH T
inher ent
abrupt ly
musc le
PER FECT
polic y
Ragnar ok
Melan ie
vigil ante
Thur man
Bib lical
Apat ow
monstro sity
' )
) </
C ir
C arly
C lan
D as
D ue
D uck
D rey
D arth
K uro
L IT
M un
M illa
P ep
S ac
V ice
W ing
b ers
l ined
m r
p m
t ant
v intage
re au
re sent
at least
as ser
ar rival
ar rested
ch and
le f
ver bal
un sympathetic
am ish
po cket
end uring
us ional
con tract
con sequence
con juring
jo king
hi le
under cover
bor g
tell er
We ap
cli ffe
mar vell
fail ures
Le go
Ne g
annoying ly
Com ics
Ab hishek
gre es
nie ce
Tur n
Fi eld
Ra az
imm ortal
awkward ly
pul p
behavi ors
wind ed
element ary
dress es
glor ify
interpret ed
Ken neth
Hugh es
mesmer ized
Mil a
hunt ers
accomplish ment
Moon light
evo ke
si blings
inser ted
hesit ate
util ized
Stra ight
Tam il
myst ical
glamor ous
SPOIL ER
Egyp tian
Cron enberg
, ...
3 7
A verage
C L
E s
E ll
G ore
H ed
H ence
J ared
M au
M ENT
O PLE
P es
T ud
T ree
b h
b is
l as
p izza
s nail
w its
w ander
re gime
mo a
mo do
un wanted
out look
ge eks
de mented
ul ated
he a
ag ency
te aring
pro spect
ful filling
fun ds
ple thor
ac us
gr ating
under neath
disappoint ments
iz a
tri als
tri angle
Al one
Al bert
friend ships
reason ing
Be ach
par adox
que ens
cy ber
ear nest
Car rell
concept ions
jud ges
fo ster
narr atives
cla pping
Ger alt
idi ocy
ref used
AR K
express ive
sl ang
Sam urai
host age
fron ts
Che vy
El le
luck ily
Wil de
sour ces
relie ved
198 2
Joe y
tend ency
Gree ce
PE OPLE
Roy al
ov sky
FO RE
gimmick s
limit ations
sav age
harm less
Gil more
Spo iler
Ton ight
fist ed
coinc idence
bigot ry
stan bul
obst acles
cynic ism
satur ated
fier ce
Chain saw
nonex istent
Hered itary
Paren thood
plethor a
A bo
D om
F AN
G over
M ask
M assa
M iley
O p
P itch
T u
T ues
W asted
f man
f ade
l ists
p ad
r anted
t issues
er ile
re ts
re vision
or chest
ent ed
un intelligent
un appealing
ab du
di vine
ro pe
ex it
end or
ti ans
per verted
ta me
we ep
man aging
bad dies
sp on
dis s
ass ed
cl usion
cl arity
pers ed
cra zed
car n
De c
att ending
decent ly
supp ly
Da isies
success or
Ben edict
Mon roe
Far lane
Fe ig
leng ths
Euro vision
Bet te
def ending
clean ing
Ru th
Hel lo
circ us
argu ing
Nol te
Writ ten
link s
crash es
adm ired
SG U
ACT ION
sque amish
empower ing
Comm un
immig rants
etern ity
Shad es
activ ities
Var un
Spr ing
electric ity
substit ute
amid st
McDow ell
afore mentioned
Shir ley
Medio cre
C reed
D ha
E mo
E fron
E arl
K el
L ate
N ING
P ack
P ull
R ider
T own
W ise
b ay
p ans
p ounding
s ie
t es
v all
th ugs
or g
st ance
st rung
to pped
il ation
om it
ow ski
ic ons
pe p
ul es
int r
ti ger
ta ker
we ary
te leg
over tones
over wrought
ore an
est ate
sm ash
vol umes
19 40
uni forms
To by
soci etal
pu erile
suc c
cred ited
Su icide
respect ively
Con tin
explo ding
loud ly
pack s
mes h
spot light
breath less
appro val
Ju ly
rew ind
horri fied
del usional
Par asite
approach ed
favourit es
ES S
crow ded
qual ify
recor ds
eth ics
Ham ill
ston er
exagger ating
None theless
Ru bbish
Steven s
Kat ie
Ba hubali
Hill ary
dum ped
ram pant
196 9
Sop hia
gig antic
Brid ge
Bird s
dramat ized
possess ion
Dy nam
encounter ed
Sn ipes
Arab ic
Nar cos
Dem i
idel ines
Spart acus
Tat um
incar nation
incorpor ated
Mik kel
divid ed
biograph ical
Kirst en
Univers al
Kuro sa
teleg raph
4 3
B i
C ary
C yr
D one
F itz
F illed
G ere
J as
K ang
P rest
T i
T ark
W ik
d oo
m and
r abbit
t ub
u h
th umb
re serv
st ig
it el
to e
le x
un easy
id ences
ab h
ma jest
de ft
com a
ex posure
int im
con form
can ny
over hyped
sp ice
ass ign
In it
St ories
under whelmed
gi le
sur geon
cent re
He ard
rel ating
vent ures
rid es
cinemat ographic
fre aks
mor ph
To gether
To kyo
ted ium
men ace
gra m
AT ION
swe pt
cru ise
War ning
stud ded
jump y
impro ving
subtle ties
test ed
quir ks
femin ists
cross ing
oooo o
BE T
conflict ed
Off ic
heal ing
198 9
Pal trow
Ty coon
eat en
celebr ation
Plan ned
Gl ass
Fav reau
DS 9
inj ury
craz iness
Hawk ins
Dal ton
Intel lig
Differ ent
Kut cher
Abo ve
C ul
C ard
D AY
H id
I stanbul
L S
M ANY
S pot
T ran
T ouch
V ideo
W it
b ol
c off
f izz
g reg
r uss
t weak
re served
at i
st ran
st airs
it age
ad el
for giving
ri ct
ir responsible
com poser
la ce
im ated
no isy
per plex
who dun
up setting
pr ised
But ter
mat in
gen iuses
exc uses
est e
sub text
ins ign
med y
Se at
An ime
predict ably
Mar tian
Ar gent
AN G
RE AD
cer taint
typ ing
Ke ith
Mc Queen
Mc Adams
Con nelly
deal er
sou p
Ed ge
redeem ed
AS AP
Ju manji
note worthy
pan ther
Mad s
approach ing
Angel a
defin ing
suspect ed
Mag u
spl atter
compet ence
incre asing
Gen ius
Cr oft
Zomb ies
Made a
arrog ance
elo qu
oid s
Low e
legit imate
Ind y
fantast ical
LGBT Q
Kath y
sacrific es
shif ts
Arm strong
Rap ace
degrad ing
Virgin ia
collabor ation
Brend an
catastrop he
sevent ies
Sig ourney
Odys sey
Dono van
Flor ida
( !)
+ .
< <
D ane
G ig
M ile
N ative
P urge
P RO
S ud
T essa
b ars
d ent
d ling
h ers
l ush
t any
t we
z man
th irsty
in human
re ign
en ity
st ically
es omeness
mo di
mo dest
om ani
ve iled
li ver
sh or
sh es
el it
un satisfied
id ential
ab lan
ri et
im bec
am at
po ckets
see ks
do s
ag al
ag as
bo b
dis playing
ye a
play ful
ph ia
ick y
hi pp
exc re
No omi
wa king
tri gg
let on
war ranted
bu g
add itions
Mar g
cr op
Lo ck
par ag
pict ured
track ing
support s
DVD s
agon izing
avoid s
Love ly
Season s
lin ing
Ben jam
appro ve
fra med
fra gile
bel t
fire s
Park s
absurd ly
amateur s
cross es
ba it
met iculous
ID E
Juli et
thes is
interpret ations
indul gence
resul ted
ura ma
bank rupt
Greg ory
soooo o
betray ed
Cat woman
enlight en
encoura ged
encoura ging
toss ed
Studi o
Brave heart
TL J
instinct s
helicop ter
Spir it
Eis enberg
Rh ys
Robo cop
paro dies
Wins let
Kurosa wa
intim id
ablan ca
B run
C ook
H ATE
M ale
O TT
P rom
T all
V I
V ers
V ito
b ally
b inding
d ul
d angers
g ren
at able
ch ip
il ess
ve er
wh ist
ke lo
pe tit
ul ation
im per
ti ly
con sult
per sever
sp ies
sp arse
part ners
day time
sur pass
fore shadow
sm alle
humor less
cor pse
mess ing
Be ar
hel m
mag ically
cam ps
hand y
Mar x
Pe ar
prop he
sch mal
miss ions
Ne igh
pass engers
Sh allow
omin ous
gri ps
shi eld
bar bar
har at
stereotyp ing
embarrass ingly
ordin arily
Bra in
town s
Col lins
sleep y
cul es
indust rial
fasc ination
approach es
Get ting
PO S
premi ered
Sk ars
hon our
festival s
manipul ate
skin ny
Hop per
Wall ace
stretch ing
hab its
gard en
indic ate
emphas ize
ov ation
hopeless ly
rebel lion
mel t
Luck y
porno graphy
Six th
Ta kes
Rad cliffe
dup ed
craw l
Start ing
Remind ed
retire ment
mish mash
Glo be
salv age
stimul ating
intertw ined
traff ic
Beyon cé
Rene e
Syd ney
regurg it
Shet ty
Nel son
colo red
Magu ire
omani ac
Benjam in
smalle st
% .
4 4
? ,
C and
C ab
D ude
F ist
G ent
G all
J ump
K NOW
N ye
R im
V ic
d ang
g art
h ul
i pp
l unch
l aser
r ab
s ang
u mentary
y le
an gu
as sembl
ere k
id an
ce ans
am ped
per secut
qu asi
der anged
10 s
ass igned
gr ades
hi jack
iz er
fi asco
les bians
cont roll
ath y
ath ers
ath let
Mo ve
mar athon
ped op
forward ed
Ne ill
intel ligible
gra vit
den ying
Ke ira
zz ie
Con clusion
smart ly
Bo ot
intelligent ly
colle agues
represent ative
regret ted
Dark o
fear less
AD E
award ed
grad er
revol ting
obsess ive
Fer r
asp iring
Part icul
oper as
ja zz
Sher iff
associ ate
demand ed
Under world
sophistic ation
rival s
revel ations
sno b
Sho ot
wound ed
dun no
acknow led
Goth ic
congrat ulations
prostit ute
yaw ning
dub ious
dazz ling
SUCK S
apologi ze
econom ic
pol ite
prev ail
infl ated
Suff ice
pathis e
marvell ous
Pes ci
C um
D Y
D uch
D illon
H ir
I ve
K au
M am
P T
S illy
W ong
W inst
Y or
c ot
f iring
k umar
k itsch
l ure
r anged
u um
in different
er ia
re v
re en
re ception
re sume
es a
be ef
il ers
li ble
sh r
un attractive
un acceptable
pe tr
ce mi
su ing
ra g
ra ils
im py
he els
pl ing
pre y
ment or
jo ins
sp el
pr anks
low ered
ac ade
ru bber
ire s
tri gger
fli r
As ia
cond ensed
ative ly
fre aky
Le v
prop ortions
hy brid
Ke itel
IS S
count ed
Com ed
suggest ing
LE SS
dream ing
lin er
rend er
sens ibilities
Nor man
Sch wart
Che esy
sn ack
MO ST
apo logy
del ve
lay ing
Frank ie
Dra g
jum bled
PO W
Gi ant
hh h
rive ted
Ru pert
chur ning
cow boys
MA KE
separ ated
Kar ate
Pict ures
enthusi ast
mut ant
Dun st
civili ans
Cas ablanca
Air plane
Dad dy
Sum mary
Apo llo
emer ge
aff ir
disgu ise
Fore ver
vulner ability
retro spect
parano id
monolo gue
Dist rict
restra ined
sched ule
dee pest
choc olate
Magn ificent
psyched elic
adel phia
C ards
D res
D erek
F act
J aden
K ir
L ena
P ap
Q uality
R ip
Y i
b ick
d it
e ur
j ah
s man
s lim
t ta
w retched
z am
z any
th i
in sur
in finitely
in doct
re think
re union
st ack
st aging
act ively
pe ek
so ver
de grees
fe ared
po ll
ther es
per petr
ta p
ment ions
sa c
gu itar
thr ust
episo dic
off beat
after math
nt on
gen to
Ch and
down loaded
comp ares
screen ings
cra cked
mot ional
Re lig
rel ates
ext end
cli mb
Be gins
stu b
hero in
heart less
inter play
gg les
Ar k
Act ivity
moder ately
air port
Har riet
pri v
fig uring
express ing
sign ature
VE L
Her cules
murder ers
photo s
grand parents
Ry der
pan ning
pul se
fla v
punch ing
blind ly
,, ,
rad ar
drag ons
OF F
depi ctions
AW AY
IF E
AP P
Dar ren
Id entity
sno bs
blur ry
Tre vor
enlight ening
enlight ened
engine ering
Ven ice
oppress ion
comprom ising
medic ine
Griff ith
Bran agh
monu mental
ugg ish
ridic ule
Baa hubali
Tues day
certaint y
Pear ce
" :
A BS
B art
C umber
E ar
G le
H ated
H enson
R ig
R abbit
S wan
S weet
U RE
V lad
W u
d ata
n ab
o ster
s ale
s assy
w oo
y an
an chor
is ha
re un
re ma
le ge
ver sa
for gets
sh ore
The o
un canny
de ception
op pon
di gging
la ge
lo athe
int act
ti ghter
ven ant
pro to
et ings
dis a
In fer
cast er
gr as
tra ce
cl er
where ver
che wing
let ters
cont rolling
Re ality
slow s
An atomy
nor ing
par tial
anno ys
pop ped
mas och
incl usive
den ial
vision ary
av age
prof ane
stra w
Sha wn
cla p
Tr ash
bed room
impro v
Sim ilar
rich ly
Ra ider
purpose ly
El isa
Red box
bul lies
offer ings
dan cers
def ies
Juli ette
Lau rence
conve ying
asp ir
jer king
tack le
maintain s
Phil adelphia
excess ively
Kar an
Jer sey
Produ cer
!!!!!!!! !!!!!!!!
Hist or
Gener ally
politic ian
Dick ens
Grand pa
alter ed
COM M
River dale
reson ate
misogy ny
transc ends
wilder ness
motor cycle
infect ed
Mem ento
distort ed
infuri ating
coo lest
irrever ent
whims ical
Brides maids
Mikkel sen
Seat tle
parag raph
! '
; -)
A ven
B one
C happ
D et
E E
E M
E motional
G and
G rit
H oney
I de
J ill
K ab
L IE
L abyrinth
R ace
S igh
S aga
W N
a e
b rush
m uck
n aught
p ap
r oughly
an thr
re acting
ou rage
or ity
ve ster
ad ject
un developed
un forgivable
ab er
fil ter
ma m
ome ver
us ively
go sh
qu eness
bad die
over weight
gu ards
!! )
off set
pla gu
gen et
tur tles
fan boy
cri es
An no
inter min
reg rets
cr ats
Great est
gra in
tail s
Su shant
av atar
leg ally
spect or
pur port
explo de
deal ers
thor ough
AR Y
critic isms
har mony
mi ri
cei vable
Ali a
vot ion
fasc ist
bul lied
paint s
van ity
199 3
Juli an
reflect ing
planet s
UT E
Pol and
197 3
hes itation
flop s
Krist in
compreh ension
Du vall
Vin ci
spoof s
DE AD
contribut es
SG 1
Rep ort
civili zed
assass ination
clow ns
pitch ed
cand le
consu mer
idel ity
sacrific ed
adul ter
coinc idences
-------------------------------- --------------------------------
discrimin ation
tens ions
FR OM
condu ct
shap ed
lav ish
masquer ading
insens itive
insuffer able
Holi day
Weap on
BET TER
excre ment
Marg aret
kelo deon
, (
1 40
3 000
B omb
C ause
C BC
F L
F ANT
H at
J et
L ore
M as
M ang
N aked
P ride
P IE
S ly
Y o
c cer
i i
k an
m ars
re invent
st ing
it ious
ed a
ic idal
un talented
ab by
not ions
ge ant
de vol
de votion
ro ar
ro gue
ro cket
my ths
per ceived
pre mis
up tight
jo ining
were wolves
her itage
own ing
fin ance
aw akens
In v
cl ar
dra stically
che cks
ak ening
What s
ree ks
whole heartedly
wa kes
kind er
press ion
All ison
pi vot
rid icul
19 30
bre asts
Le thal
bra vo
Ne o
Ar gento
consider able
nat ives
RE D
Sc ene
air plane
trash ing
swe e
Sha zam
break down
Of ten
Bro lin
imp lies
Ali as
Des per
Far rel
doll s
Sa ints
tar n
gang s
HO T
bomb ing
field s
six th
prison er
tho do
desc end
Thor nton
commun ities
**** *
glor ifying
chuck led
198 7
manage ment
incre ased
Back ground
switch es
sle eper
snow fla
shop ping
SH OULD
stum ble
mans ion
lyn n
princi ples
Power ful
Kling on
Lam bs
Sel ma
Philli p
Dum bo
Bus cemi
melancho ly
demonst rated
defi antly
Chap ter
Theat re
insign ific
' ?
D anger
F ron
K ent
P ity
P arts
S em
S asha
d ots
m cu
or tive
st ake
it an
mo il
ow es
wh it
sh irts
el ing
ab led
ge e
im ply
my stic
can non
ist ani
... ).
sp aw
In spector
under min
ber gh
mer chand
Ch ief
em ulate
co ca
cont ents
sm ic
pi x
dec ad
crit i
rest ing
An chor
young sters
To bey
gar age
prop ortion
favor able
sch iz
At tack
camera work
fair ness
May a
consider ably
ger man
ling ering
Sp ade
IS H
cry stal
near by
stud ying
impro vised
invest ing
flash ing
Col lette
tar gets
Mad onna
Tra vel
Tra vis
Men ace
paint ings
dread fully
techno logical
Mi y
DO ES
defin es
achieve ments
anticip ate
Bla h
indul ge
colour ful
Jeff rey
disgrace ful
puzz les
Fall on
intro spect
Fre sh
pup pet
gentle man
Andrew s
Cri minal
Islam ic
AB OUT
Sid ney
integr ated
undeni ably
millennial s
Adri an
traum at
Fell ini
margin al
unner ving
Flo rence
Graph ics
HIGH LY
sensu al
Fem ale
Wik ipedia
Particul arly
oster one
2 10
B ol
B ever
B ron
C era
D w
E VEN
G am
G lee
H on
H our
H ours
K or
K ell
L ies
M acy
N an
P M
S oul
V ent
W ake
d ess
e ment
f og
h ay
h inted
l ull
l ays
n un
p iss
u an
w ides
th ou
re cur
or deal
vi on
ct er
un eventful
out done
ra h
ne ys
con crete
ur u
der ick
um bo
ble m
bo gus
ie m
aw esomeness
In c
In die
under world
che aper
em bell
tur moil
sol utions
sub titled
happen ings
music ian
ext ensive
na zi
att or
gener ates
run ners
Le ia
par ade
par king
ele vate
exp ans
Ar abs
cu it
supp ortive
spoil s
Now adays
loc als
Mc Don
Bad ly
exe cs
break fast
han gover
refer red
dream ed
extra ordinarily
sens ibility
spot ting
Nor thern
Wal k
Mon ica
fra ming
fr at
comfort ably
grand son
board ing
BO Y
bla ming
fill ers
World s
del ay
ters weet
Ph one
pen gu
pun ct
counter part
secret ly
La zy
Pal est
ann ounce
bond ing
leader ship
Ap es
protect ing
quot ing
Vo ice
Lou ise
crack er
igno res
awa it
Die go
kidnap ping
inevit ably
burst s
Rome o
advertise ments
Wes ley
Retur ns
tool s
sha kes
Spart ans
innuendo s
Event ually
Sold ier
newcom er
champ ion
Otto man
simpli fied
Cyr us
ABS OL
' ...
8 8
A unt
B ir
C EL
F lynn
G B
G illi
G lor
J ourney
K ie
L IFE
R aw
T enn
g enders
m ant
th oles
th ief
in ating
in finite
sh atter
un le
un professional
ha ired
so re
ul ously
di vide
di abo
la ught
im on
lo bby
ta ut
pre valent
we ave
sa cred
ci ble
bo gged
tain s
tw ent
mis lead
dra ft
Ch ick
few er
Jo on
bu gs
awful ness
mar io
Ro hit
ane y
law yers
mas ked
ident ified
Sh ell
Com paring
respect ing
spect ator
lear nt
Con tr
fit ted
ony m
bal let
Em mer
Cl one
complex ities
flu ous
pra ises
gain ing
grand ma
Rom antic
system s
ghost busters
def y
defin it
Pri y
Fer rel
cher ry
pair ing
demon strate
virt ual
TR UE
Pret entious
Brilliant ly
bag s
deb acle
handed ly
Dou g
Sw ank
Mind y
Leg ends
shark s
ACT ING
particip ants
assa ge
elo pe
evo kes
2000 s
myth ical
iter ate
elev ator
contest ants
Vill age
Ass ass
Incredi bles
dilem mas
JO Y
mim ic
traum atic
sma ck
candid ate
Eugen e
raz or
Ground hog
Scandina vian
rhetor ic
Ins idious
Init ially
coff in
matin ée
Brun o
Cumber batch
ABSOL UTE
3 6
3 8
4 0s
B iel
B ACK
D umber
G on
H AD
I l
I ST
O C
S PE
T 1
T ucci
Z immer
c ad
j et
m ortal
s ized
u shi
v u
w ary
in ctive
ch in
li x
un recognizable
ha cking
out line
out set
ra ged
op us
ter geist
com mission
di a
ex poses
sc ow
im prison
po kes
tr ough
con stra
there of
um mer
pr ising
them atic
br ide
back lash
St ation
tra gically
line up
comp ass
Al t
top ical
reme mbers
sent iments
rid ge
oc cult
anim ators
Well es
gest ures
ST UP
pop s
explo its
bur ner
lar gest
Gr ind
concl uded
Wal tz
test osterone
grand eur
rap per
DC EU
Fe y
Mor ris
empt iness
Tra iler
aa a
Mat ter
Pat ty
dan cer
fu zzy
199 2
199 7
Sal em
inv ite
ee ee
197 8
independ ence
Abra ham
ben ch
compe ting
Pal mer
hall mark
ifi able
Bird man
Leg ion
nause a
Down ton
borrow s
Dun can
capital ism
antagon ists
Fol low
ardi an
Gil bert
immer se
Pay ne
phon ed
inexplic ably
bleed ing
psychiat rist
Mocking jay
quirk iness
Chal amet
Sach a
Clan cy
rema inder
insignific ant
" "
1 80
B Y
B ie
D ate
E ra
G ross
H us
H old
K ru
M EN
P ast
R uff
S is
S om
S hip
b ac
c id
c key
g ir
g age
i ated
n n
n inja
p ink
r ookie
s unk
v ist
in put
re fined
at ri
le thal
vi gor
be gun
ut s
un bear
un intentional
pe ter
ra il
lo v
go l
au cas
man ners
pro long
over coming
dis comfort
min ister
ort ed
gr ant
back ing
nothing ness
che w
ark s
start ling
ak is
bl ade
down er
sit ter
hard ships
tri m
fi ct
ins pect
We bb
ris ky
Se agal
Mo moa
son ic
An gry
inter rupted
Ro shan
Li v
ele phant
power house
Ne arly
ST ILL
gra pher
Sp arrow
Ple as
Ex act
ima cy
swe eping
weird ly
bother ing
fo il
bur ger
suff iciently
question ed
cru d
arant ine
lim p
Ma fia
Tur ns
Qu ick
Ed it
Ge e
Nor m
Nor ris
Hor ri
psycho logically
gain s
CH E
Bar dem
scream ed
concer t
Out er
fla m
acc ust
exper iments
Enjoy able
road s
counter parts
RI GHT
secret ary
Hu mans
demon ic
unknown s
demo cracy
MA STER
Dou ble
Inter view
outrage ously
glim pses
Cost umes
sor ta
univers ally
lifel ong
aes thetics
nar rating
immig rant
Victor ian
inspire s
Spo ck
divor ced
anx iously
revi val
Kath leen
jan go
oppress ive
fuel ed
sadd ened
Adult s
cus sing
Lith gow
Profess or
Stal in
Revol ution
thie ves
endor se
Aven ger
coca ine
recur ring
unbear ably
2 hrs
3 1
7 6
B ones
D ig
D ink
D ance
E h
G us
G ate
H APP
L upt
M ut
M all
M etc
O T
P s
P it
T ap
T each
W olves
Y oda
b li
c ery
d ain
d ense
d ances
f fa
f ishing
j ur
s ion
u x
v agan
th under
in fil
in corporate
re visit
to wer
ve mber
ad ers
id ge
id ol
out weigh
so cks
ri ps
ra ging
di ver
qu ette
um ps
over use
thr yn
ff s
mat ured
br an
ber lake
Ch in
fore see
bl an
So ci
No vember
super star
Al modo
Re cent
Jo vo
bu b
slow est
cam ar
Le vi
ali ans
cer ity
negative ly
zz ard
Mc Bride
dumb ing
net te
Me yers
gri ma
LE D
dream y
eye brow
creep iness
EN TER
imp ul
murder ing
fra gment
Des er
consist ing
copy cat
sym bolic
sw ap
app lies
avi a
suspect ing
197 9
threat s
Hel ena
investig ating
establish ment
Uni versity
ANY ONE
Knight ley
batt ling
DE FIN
bow l
Sing er
psych ic
fle x
Vo ight
hunt ed
report ed
evo cative
confron ted
rebel s
fluff y
Say ing
Surpr ised
Chur chill
merc iless
Vie wers
Pers ian
forbid den
obli vious
versat ile
Massa cre
Dynam ite
foreshadow ing
Dres den
PIE CE
A H
F IR
G ina
H IL
P ose
R U
R andom
W end
W izard
i ved
j ab
m all
z oo
an na
en velope
le ctions
ut ton
ver dict
for k
ay e
el ow
un apolo
un stable
ab road
out comes
ma c
ust er
ex iting
lo cks
go sla
... ?
et to
ite m
over seas
joy s
10 th
through ly
cl ing
old est
ily n
ang ing
ob tain
bl ending
bit tersweet
aut ism
super fluous
He avy
war ped
Some where
Mar ine
uni queness
cr us
ger ton
ear ns
incl ined
spir al
bb ers
Ex p
lea ther
Ab bey
Po sit
und ers
Cl ouse
sl ay
Ed gar
Too le
fron tal
Gre etings
mir acles
Out side
Rom ero
match ing
qual ified
199 1
educ ate
Que ens
197 1
magn ific
commit tee
object ively
tor ment
Pi per
glor ifies
intellectual s
environ mental
investig ator
Bel ushi
Ka thryn
squ are
skept ic
pred omin
immers ion
admir ation
Fol lows
sec ular
Lan caster
hypo critical
Hay ek
iter ation
Pak istani
Ran bir
Nik ita
billion aire
Fut urama
therap ist
shoe hor
aret te
Stri kes
Gard en
____ ____
Fif th
cig arette
Audi ence
Hust on
distingu ish
haw k
heim er
Ess entially
Vio la
Amit abh
censor ship
scept ical
Duch ov
naught y
Anno ying
premis es
pivot al
Emmer ich
accust omed
Almodo var
! ...
1 h
9 7
B U
C level
D ri
D jango
G ram
L ad
M ou
M up
R ah
S l
S ick
T AL
V ig
V II
Z ell
b ree
f ried
f ury
f arts
g asp
h oney
m ong
o ke
y up
in ous
re con
re creation
st agger
ut en
sh ack
un remarkable
un relent
ha cks
de er
ne arest
di vision
ex posing
show down
con co
more d
ig an
sa ck
pt uous
ure au
bo asts
sp elling
sp ades
sp agh
dis appears
ph oles
cl ash
ber ty
lack lustre
ama zon
bl asp
interesting ly
comp ul
od ge
co ated
cra ve
fli pping
sub du
Al right
Al ready
Re agan
music ians
vil lian
cap abilities
inter rog
Pe e
Ne al
ST AY
ground s
dou che
pain s
home work
pleas ures
US SR
wise ly
exam ination
shame lessly
clever ness
enn ium
smart est
han na
Lu ther
bal d
90 210
Em ilia
War craft
LE NT
ene y
imp lied
consist ed
Bas ic
Sy fy
minis eries
evid ently
preach er
tight ly
goof s
prote ction
oper ate
sin cerity
fet ish
Pho to
popul ated
Tal king
Dial og
window s
absor b
adap ting
capital ize
Atl anta
compassion ate
Stu art
blur red
Fro st
distribut ed
Cu ban
stab bing
artic les
lap top
fundam ent
rig id
sab ot
Kno cked
Fif ty
inexplic able
Shark nado
oph ren
misogyn istic
quant ity
cen sored
Emo ji
Tran sp
Gent le
Bever ly
Dw ight
vagan za
FIR ST
Clouse au
# #
. !
: ).
B ak
C able
C how
D uff
E nt
G la
G illian
H omer
I van
K ur
L il
M D
N D
P ed
R oll
S pecially
T an
T ired
U se
V ul
W oo
d or
f aux
g utter
l ene
m ies
m our
m ich
m ount
p ony
t el
u a
w l
y ap
y arn
the e
re hears
en vision
or ange
to sh
li ken
ad vised
sh aw
sh attered
el lo
atch ed
di agno
qu ake
ard ashi
gu idelines
sp ouse
sp ray
dis missed
ru b
ach es
che at
bl ender
vo cate
light ed
Se y
Mar a
Mar ilyn
cap sul
plain ly
tit ans
Le to
Lo la
Well s
dep ri
Ar cher
00 s
simple st
appreci ating
Ter rence
Po eh
break through
Co venant
bust ing
bar rage
bar gain
rich es
comb ining
taste fully
Dead wood
achie ving
Fe min
provo ke
Ye sterday
Tim berlake
Pat riot
Step han
Af fair
van ia
Han na
target ing
impact ful
Up date
plaus ibility
require ment
Fl at
Ru kh
Hu go
hon ored
author ities
deter mine
Ka jol
cook ed
Wall ander
Fr aser
TF A
aston ish
spark s
skill fully
pin ch
Ros ie
trave lling
Half way
Wat ers
ader ie
Pen elope
Gun s
screw ball
expand ing
Boo th
Sho cking
vig nett
Nar nia
sand wich
Wel sh
eleg ance
attend ance
cous ins
Tar zan
Shar ma
gloss y
observ ation
stitch es
BG M
Ur ban
perman ent
Court ney
jac ket
Syl vester
defe ated
Trekk ie
lou der
Napo leon
gigg les
Tark ovsky
amat ti
assembl ed
stub born
onym ous
STUP ID
Exact ly
Dink lage
Jovo vich
camar aderie
Clevel and
spagh etti
vignett es
! ",
, .
. ),
3 2
6 6
9 th
C M
C ore
D ARK
F ly
N umber
S K
S cr
S ING
T ate
T ak
T rip
V ac
V IL
b out
f id
o vic
p ander
p ounds
r arity
s nore
t ion
t iness
re per
ve get
li ous
sh ills
un intelligible
ha vent
not ing
de pl
ne mes
ro it
ex ited
sc rap
end ables
pl in
pre conceived
jo int
ag gra
... !
ful lest
fun ctions
over tly
bo to
sp am
sp ared
dis may
du h
gi bber
og ies
script writers
script writer
So der
hu g
vers ary
super l
vo ye
ian a
cor rupted
pi ria
Be ware
Be ouf
fl inch
crit eria
inter ior
form ing
cr ashing
pu berty
pass ive
supp orter
home town
dr ones
spoil t
appreci ates
AT ING
Tr oopers
har ass
Je w
document ed
Sim mons
AS ON
Hor se
Dan vers
Dan cing
tort uring
dish es
ape st
cir cles
Cine matic
Europe ans
hang ers
Gi amatti
traged ies
harsh ly
Pi ke
corpor ations
Full er
196 8
Sky fall
relax ed
circumst ance
Sus piria
Clint on
rival ry
ls 0
convent ion
Mil lie
mut ants
loo pholes
cheek y
strate gy
eff icient
ambig uity
confront ation
Terri fic
Coo gan
inters persed
implic ations
Survi vor
dod gy
Prab has
Kun is
Oct avia
Gover n
Hid den
gart en
COMM END
schiz ophren
Priy anka
Alt man
fict itious
Zell we
Poeh ler
1 10
8 7
B tw
B less
B harat
C lock
C ringe
D ix
E ne
G A
H AL
J ai
K it
K ry
M ental
N un
N igh
P unch
R anger
T ab
Y en
b il
f ers
p g
r k
t um
t bh
in ian
re pair
ou li
ch ic
vi ll
ot ch
li ck
gh etto
el li
un deserved
pe an
not icing
ill umin
lo ath
ast ly
good bye
art ful
pt rap
dis honest
dis par
pr ices
kes h
plot ted
hi ps
hor ny
ster oids
ang elo
bl iss
comple ment
far ther
co ke
co ordin
ult ure
unt ouch
appe t
res is
sho ving
TH ANK
cons iders
cur sed
tit ill
Dis aster
Ar jun
RE COMMEND
dr one
Sp ader
prof its
lect ure
Ser gio
unique ly
New ton
Or leans
narr ated
cla ptrap
stere o
ze al
........ ...
sl ant
sl uggish
extra vaganza
EN JOY
Des ign
sn uff
mir rors
Ri hanna
oooo oooo
captiv ate
199 0s
sal ute
Hol low
dig it
chop ped
Den mark
Keep ing
198 5
enter prise
kno cks
outs ider
Pow ell
gig gling
exceed ingly
Tal es
loo sing
concent rated
Shakespeare an
cis ion
Teen age
Mitch um
WAR S
econ omy
extre mes
woe fully
colla pse
Za char
salv ation
Win ona
cancercancer cancercancer
DIS AP
gul lible
Uk rain
Yu gosla
Cro at
glam our
carn age
gravit as
Tenn ant
ENTER TAIN
" ....
4 00
A tom
C ute
C apt
E instein
F ra
G AR
H awn
H aters
K la
K ier
M S
N inja
O la
P he
S ant
S ah
S AW
T v
T reat
T our
T BS
T iff
W ach
W illy
Y up
g als
i ence
j ig
j apan
s not
s au
in de
in ception
on i
on ge
en capsul
or gas
st oo
ar ingly
ly s
ch ronic
movie goer
un controll
ha pha
pe cu
so da
so bbing
ir s
ir ot
ra j
ro de
qu id
qu int
man ure
ag ram
te ers
gu id
gu shing
sp i
des ir
lit ter
part is
In cl
gr unt
ach ing
sur fing
che ers
need lessly
may or
making s
istic ally
heart break
mon str
Li ves
chan el
Chris to
Ar rival
close ups
cer ti
dr ool
Sc rubs
moder ate
cas ing
Mich el
aster ds
explo iting
arch ing
doubt ful
Bo ard
gri e
AR S
AR IOUS
express es
hook s
round s
taste ful
fr antic
sym path
mir ac
AD D
dimens ions
aim less
da ft
fat al
pal atable
jer ky
flop ped
buff oon
Sus pect
Val ent
puzz ling
RO CK
convent ions
Ul tron
vom iting
jam ouli
compli ments
Bry ce
emer gency
Ind ones
Hob bs
pig s
split ting
encoura ges
andro id
profession ally
inj ured
Elli ott
revers ed
Small ville
categor ized
mascul inity
Domin ic
Sequ el
discern ible
attribut es
spont aneous
cutes y
este em
Anchor man
Kie fer
Soci ety
DEFIN ITE
Duchov ny
DISAP POINT
hapha zard
3 4
C alling
G wy
H em
L im
S la
S mur
e got
f ically
h ust
k nit
l ump
l ends
m useum
o ven
o scars
o xy
u i
u ates
w right
in os
er d
re mor
re pub
en vy
st ag
mo le
ch ise
be half
ot ta
wh irl
un suspecting
ha pless
but tons
so lit
all ot
ul f
ne x
ne cks
am ing
ast ounded
char ity
pl ants
con qu
go ssip
ind a
qu a
pt ions
bo ding
dis likes
min ions
aw akening
du ck
stand point
ud der
ach er
ark y
cre en
ob scen
co in
co smic
ran ch
Re ady
Be hind
gl ue
fre netic
lic ity
Lo ki
sy fy
hy ping
master y
sat anic
Man uel
Sh ut
Sp onge
Any how
IS E
Ser enity
pur sue
Da vies
prom is
Ha i
mi me
speak er
Qu ant
extra vag
creep s
survi ves
police man
Col omb
grand pa
sn ip
loss al
Bre ath
prefer ably
punch lines
199 6
Dra ke
train wreck
grad ed
tun nel
Pol tergeist
compla ins
cher ish
Cha plin
occur ring
innov ation
bill s
Clo thes
ACT U
Ver dict
redu ce
Usu al
Pla in
mock umentary
Fol ks
Gri mm
Atl antic
folk lore
Dream works
Ind ust
som ber
proceed ings
Marc us
musc les
adul thood
Bud get
disast ers
employe e
supreme ly
Gru dge
newcom ers
mascul ine
instit ution
Tem ple
inhabit ants
qui ps
clin ic
Host el
custom ers
compon ents
appreh ensive
Ell is
intermin able
thodo x
diabo lical
constra ints
subdu ed
nemes is
repub lican
! ?!
1 hr
A ster
B ac
C head
D inosa
H os
I RE
J avier
P ra
P am
P ugh
R oc
S ign
T ill
T race
U FO
W ELL
Z ucker
c Ã
f able
h t
h ans
n ast
p ies
v re
w ry
x ual
y ada
th ic
th ug
in vo
is se
is ations
re ply
re wards
as se
sh ined
ma z
de lete
ro aring
ro bbers
am ple
ess ay
up to
time lines
dis abled
pr ank
ac ular
mis fits
red neck
tra ps
under tone
ens ions
comm ander
Ch eney
em bodies
far c
fan atics
creat ions
vo cab
star gate
hel lo
An ura
19 30s
power fully
wit less
Ar mag
Br and
Br ick
Go es
av a
Ex e
trash ed
asy lum
Ho le
brain wash
Po irot
bur nt
En nis
Bo on
Bl onde
........ ....
Fran chise
Gr inch
third s
Nor a
rec comend
Col on
Pro blem
photo grapher
BO DY
SE D
corn ers
draw back
bla med
Ye a
loss es
wind s
sli pped
influ ential
commun ism
preach ed
Sk in
cock tail
environ ments
deb ating
Cla us
protect ed
boss es
Au to
exceed s
lift s
compan ions
plo tholes
Brid get
incident al
stress ful
pup py
blo ke
symbol s
rebel lious
hypo crit
Tre asure
orc ism
COM PLE
Nar uto
conven iently
homosexual s
Expect ed
cro s
Sit ting
stir ring
THER E
shif ting
boun cing
Adri en
Gard ner
Sold iers
Fed eration
Pain ful
Ref re
swing ing
Mend es
intoler able
refuge es
masturb ation
chal k
ench anted
juxta position
notor ious
assess ment
Pull man
telegraph ed
majest ic
intimid ating
bick ering
plagu ed
Ruff alo
HIL ARIOUS
gibber ish
Ola f
desir able
DEFINITE LY
A chill
B j
B udd
D ale
E sc
E no
F og
G I
H mmm
M C
M ast
N ash
S 1
S too
T He
V enge
Y ell
c ran
c unning
d ares
h ides
m ire
p ound
s noring
t ween
u ri
w ings
x en
to l
ed don
ed its
ed ges
ar ming
li o
sh rink
un certain
un fairly
ri ad
de emed
com s
di et
im bo
po sal
ast ing
ell ation
rom ances
he ed
per ceive
we aves
more s
ine ffect
qu eline
ag le
sa int
ity a
her al
sp outing
under used
fore boding
ob serve
tri ppy
press ive
Re c
rel s
rel la
ren ched
sm ashing
sm ashed
care less
star ving
Se emed
Mo ving
cli ents
Mar co
lig an
Over rated
finish es
den ou
twist y
av ant
Ser ious
bi kin
exe cute
Po e
decided ly
Ger ald
pack aged
stun k
admit ted
cru shed
iv a
free ly
bal ances
LE S
Ad ventures
Bro ken
High lander
claim er
Mon k
adv ances
cul p
Fe et
Mart y
crow ds
inv ading
highlight ing
MOVIE S
revol ve
respons es
Gold berg
Nic kelodeon
Dep arted
cock y
store s
Mac Farlane
kno cking
jer ks
achel or
broad er
Mer chant
associ ation
escap ist
Bul garian
vac uum
mob ster
Origin als
Ca an
celebr ating
Mind s
consc iously
Ros well
Fall s
Ak ira
nause ous
Gl en
Kin near
neat ly
incess ant
dissa point
optim ism
neighb our
proceed s
leap s
reject ed
Rebel s
slaughter ed
Zoo ey
lun atic
Ame lie
moan ing
Republican s
Alexand ra
fru it
spon sored
assign ment
Metc alf
Soder bergh
Zachar y
pecu liar
guid ance
monstr ous
Gwy neth
Chead le
farc ical
Anura g
Achill es
Venge ance
) ..
0 3
2 h
3 9
C arr
C ler
C ord
C rew
C NN
D ONE
D NA
E qu
F ail
G ellar
H ind
H iro
J i
K ardashi
L U
M J
M ick
M ST
M ulti
M SG
N ature
P LOT
S ack
S na
S tern
W ra
W ag
W idow
a ways
b ies
b ashed
b illions
c ation
e ats
g ently
p to
p loy
p assage
r ote
t am
th irteen
en sues
st amp
ch u
ent ran
ent icing
sh ire
.. !
un just
un impressed
ha v
out ta
ge ons
ul ary
op position
ro s
ill o
la und
like wise
do ses
int u
us k
char ts
ur ica
ag s
pro jection
every time
over played
bo ats
sp elled
dis posal
ars on
des k
ho bia
work place
cl un
bor ough
vis its
wa x
light ning
De e
cor respond
class ify
Mo ses
fl are
hero s
stead ily
mar ital
hand icap
proble matic
fer i
Watch men
fine ly
AN CE
Br ut
dist inctive
AL I
exam ine
Di et
success ion
agree ing
bi ker
band s
bal ancing
propag and
Gr own
equ i
stre ak
EN SE
ban ality
Pl ummer
Col lege
Aw k
recogn ise
deed s
Sa id
million aire
Get s
wel comed
ax e
grad uate
govern ments
pun ished
Mag num
Ram i
Jess ie
Hu h
fright en
establish ing
Ba j
Ka if
Mer maid
worry ing
rout ines
skill ful
gam er
gam ing
arti ficially
border ing
Mis sing
tick s
report s
cheer ful
lu ke
Lan tern
engage ment
porno graphic
chain saw
Bon nie
Beat ty
emo ji
spaces hips
vivid ly
congrat ulate
................................ ................................
rang ing
ZZ ZZ
amaze ment
fabric ated
garner ed
Ni els
Hack man
hypnot ic
MAR VEL
articul ate
Sic ario
bris k
Jas mine
stran gest
angu ish
merchand ise
attor ney
infil tr
Recent ly
unrelent ing
Transp orter
Nigh y
appet ite
Exe cut
8 3
? !!
? ",
A IDS
B D
F la
G wen
H utch
H ELL
J C
K ust
K iss
K ras
L und
O LD
P BS
S add
T wit
T WO
W his
c od
g au
g ies
j ing
j it
j edi
k ash
t ical
t anks
u blic
w anders
th ouse
er ie
on so
or che
st ap
st ard
as ap
be live
ic ent
me anders
gh astly
un ci
un interested
un reasonable
ab hor
ab undant
out ed
out fit
de cre
de test
op pressed
ne got
fe ver
com ically
di ving
di gress
ex ual
show casing
rom an
my riad
pl un
tr action
tr oopers
tr idge
con ceivable
ta cked
pre conceptions
can o
ist ical
te ase
te aser
pro se
sp ans
dis pleasure
dis dain
ho v
part ying
mis led
cast e
St uff
ens es
gi ants
exc elled
right fully
em bar
ob jection
mus ch
let t
ys on
wait ress
Re pe
Re acher
light weight
We aving
De Vito
star ter
sequ ential
stop pable
Un realistic
tit ular
Lo ving
Li otta
ele ven
ret ard
fresh ness
school ers
pot ty
Can cel
Sp end
room mate
convin ces
Let ter
ball oon
social ist
sign al
speak ers
rend ering
Des chanel
El f
Big gest
Ju di
stal ker
grand daughter
flow er
witch craft
Ber nie
professional ism
sal man
mach ina
defin itive
sto ic
inv aded
PO V
Ham let
Eli jah
Sy m
Keep s
Iron ically
La Beouf
chur ned
corpor ation
WH ERE
steal er
Hun garian
TR U
bond s
Nat ural
vari ations
bang ing
hyster ia
escap ing
benef ited
patri archy
edit ors
rat io
DON T
Got ta
AST IC
stum bles
capital ist
assass ins
empower ed
spell binding
gimmick y
princi ple
Put ting
Fore ign
Main ly
geek y
Dem and
illust rates
occup ation
craw ling
revi ve
enhan ces
detract s
Philli ps
acqu ired
nihil ation
Jaa ved
Jaa feri
++++ ++++
depra ved
depra vity
TM NT
approx imately
Comp any
Sud den
sac char
Chand ler
adulter ated
spaw ned
flam boy
MASTER PIECE
Zellwe ger
Ene my
resis tible
denou ement
" ..
A BLE
B aut
C red
C OULD
C aucas
E arly
E ternal
F ing
F oc
G ue
J ab
M ilo
M ills
N y
P rey
V id
c ob
d c
d ung
f lame
f aded
i ation
k at
k orean
m ul
s ought
re placing
ou b
to w
mo cks
ch inese
ow ing
li ons
for ting
ent rance
ke mon
pe ers
so li
so ccer
ir re
ra ves
com forting
sc athing
la h
im ma
po le
int imacy
con cise
pre mature
pre sume
can nibal
ep id
ous ing
will ingly
der ived
over kill
over due
gu ise
bo died
In no
gr is
tra ins
ance st
high s
down ward
pers ist
co lossal
wa ving
mus lims
kid dies
Re iner
slow ed
icul tural
xt on
rest ore
rest ored
TH INK
Mar ion
!!! )
reg ain
prop o
Lo cker
Do yle
IN S
sk ating
uck y
boy cott
pot ent
scar ce
Sh r
exam ined
Ser bia
pur ge
effort less
brain er
brain washing
Po kemon
bur ne
bur ns
Or phan
His panic
critic ise
appeal ed
equ als
whe els
EN CE
Mon keys
murder ous
El m
contri v
Tru man
Ang er
Far is
progress ively
SE L
cat ers
ba be
ju ice
jum bo
Sal ma
hang s
ka poor
Had er
rock y
shad y
commit ting
Sk ull
tor mented
text ure
Cle ese
bab ble
address ing
ato on
dama ging
rush ing
Baby lon
Dor is
report ing
Gl ory
Fre edom
domin ant
gap ing
Rep ublic
haha ha
Pla za
Lan gu
adequ ately
Sin bad
camer aman
Hay den
Pet ers
smell s
consu me
launch ed
imit ate
sham bles
DI RE
squir m
newsp apers
dece it
Row an
shel ter
plagiar ism
crook ed
Dut t
architect ure
demean or
Om g
Intellig ent
Kau fman
Schwart z
uten ant
aggra v
Clock work
Quant um
Armag eddon
COMPLE TE
9 2
B ye
B right
B unch
B LO
D ag
F ake
K ai
K ILL
L ink
M and
M ob
M ISS
O G
P P
P ablo
R angers
R ita
R itter
T el
U D
a ute
b end
c ased
h off
o ct
t ang
t ention
t asks
u ve
w at
w id
y lum
re ar
re cap
it ized
as in
ar ise
Th ail
ad am
ad versity
sh al
un limited
un compromising
un stoppable
ha ms
are th
but cher
ce p
ul u
ul ed
atch er
lo gue
end ur
end aya
con j
con structive
con fined
pre cision
can s
can al
go s
qu arantine
pro claimed
um bling
bec a
ci le
sp idey
scen ic
real ness
pr inted
stand outs
back ward
ose xual
ster ile
sol ut
cra f
tri ple
recommend ations
last ly
20 49
ial s
audi ble
For ced
gl iness
sad dest
inter n
inter fer
inter viewed
gg ie
deli ciously
que er
Ro oney
vin cible
sk ate
concept ion
Con ne
Har bor
ric ane
THE N
evil s
Fil med
jump scares
Gr ab
host ile
Ra id
Ra zzie
Ra jamouli
creative ly
stri pped
Che w
CH AR
Where as
tort urous
apo logies
sw ed
depend ent
bomb arded
Pat el
app lic
qual ifies
attract s
grad ing
research ing
Mal ick
Chan ge
pal m
198 1
hon orable
Pac ing
bound s
tt es
Nat asha
vari ation
indu ced
Res pect
Dou bt
Rick man
crash ed
Sw iss
incident ally
ambit ions
finger nails
gentle men
promot ional
EX CEL
clum s
Comm ander
AA AA
Vampire s
$$ $
adolescent s
cust oms
excl usively
psychopath ic
Ran veer
Squ are
gather ing
drown ed
Won ka
merc en
merc iful
jeal ousy
inject ed
echo es
rang es
Geor gia
SOME THING
pis sed
Fish burne
pour ing
== ==
disturb ingly
paren ting
Bach chan
endeav or
vary ing
orchest rated
Wit ness
perplex ed
Butter fly
hul k
FANT ASTIC
kinder garten
Wend y
Vac ation
Govern ment
Kla us
vocab ulary
culp rit
Baut ista
Thail and
( '
4 1
5 7
8 4
A ren
A mber
B in
C illian
D j
E ri
E gg
F light
F illion
G U
G ain
H ou
H oo
H auer
I dol
L ab
N ur
O mar
O ceans
S ter
S ti
S ort
T 3
T B
Y a
b ere
c il
c ooper
d itch
i eland
j ury
l ation
n acle
o is
p id
p ills
r ons
t ug
t epid
in come
is and
on ing
st ares
om ic
ad ic
wh omever
ic orn
sh ook
ha il
pe er
so hn
di le
di vis
di version
di gs
ex hi
im patient
ant on
con sent
con quer
ind y
qu ire
would nt
pro secut
ink er
every ones
ci pher
dis satisfied
plot line
ish op
lit tered
tw itter
ho ckey
br ats
back bone
St ere
cl ones
ak h
No stal
fi le
sub li
Al ison
As ylum
sing ular
rel ish
found ing
add le
dec ay
vol un
tem porary
inter racial
tempt ation
pu bes
Ar quette
cu es
Ex plo
Ser ling
Con nie
dumb founded
blood ed
Bl ues
sick ly
eye balls
rich ness
Ge off
Ben ny
Wal es
Big elow
test im
IL D
SE AL
hen ch
Mor se
Par tridge
beha ved
BE LIE
trick y
Tor ch
Richar ds
Canad ians
vit z
Bes ide
Gree ks
resident s
Te a
scr ut
elect ronic
indic ated
Ren ner
nit ure
Irish man
Ver ho
Cli ff
ego s
civili an
Wick er
confron ting
analy zing
triumph s
Fight ing
oms day
hil ia
engine er
Apple gate
Mean ing
tax i
excl uding
gather ed
drown ing
Break fast
mechan ical
sam urai
kar ate
boun ty
clim bing
kn uck
Kra mer
neglect ed
Spect re
FY I
Creep y
Neigh b
Elisa beth
Det roit
Ide a
anthr op
Kru ger
mich ael
Kust urica
Twit ter
imma cul
0 2
0 8
9 6
A bb
B arely
C ell
D orm
G em
H mm
M ortal
N ord
R Y
R ut
R andy
S ie
S ult
S crew
T ub
V S
W ON
b op
b ourne
i che
k it
l ings
m ation
m ings
o j
p apers
r ally
th ri
in competence
is able
re live
re covered
at ra
al pha
es ar
as ia
ar bit
ar mor
be asts
ad vocate
ic ion
me me
ha irsty
ra ved
ul li
ne uro
ro cking
sc um
ur gency
ven om
up lifted
ind is
ag encies
te ary
pro b
sp ons
tw are
mis understand
In tense
In glorious
gr oo
day light
ster dam
tur gid
bl ab
bit es
No ir
screen plays
tri be
kid die
Not ice
bas ing
vent ion
De bra
ext ension
heart strings
An up
cut eness
tit ude
head lines
spe wing
pu ff
At kinson
Ar kin
dri fting
Go li
Per kins
Com mon
lock down
break able
bur gh
trans gender
OR IG
har ry
ni val
Ad ding
Ad itya
search ed
purpose fully
husband s
Gre ase
Dan es
bul k
smo kes
del ves
aa ay
artistic ally
tre as
Am ateur
defin ately
Dam ien
tho logical
proud ly
Stre isand
197 5
Fer n
Kate e
Pre mi
addict s
Run ning
196 7
deb t
deb au
youth ful
demo graphics
Gen uine
patri arch
fle e
Scar face
WOR TH
Got ti
particip ated
Fre ud
dut ch
nine ty
Jar musch
LI VE
Med ia
Lan ge
EX ACT
Jac queline
Psy ch
Arab ia
Sup posed
Ele ment
ponder ing
ponder ous
contradi ctions
inher ently
extre m
Zo ey
percent age
confir ms
Hate ful
squir ming
discer ning
observ ations
dece ptive
assum ption
Tw ist
helicop ters
Bri en
BA GE
bewilder ed
ICT ION
heter osexual
omit ted
dent ist
trigg ered
shatter ing
ABSOLUTE LY
prolong ed
Deser ves
GAR BAGE
Tiff any
remor se
promis cu
extravag ant
A j
A TH
B ren
B land
B asterds
C uck
F ig
F lying
H ag
H est
I v
J unior
L ex
L ively
N Z
P au
P res
P ace
S isters
S layer
T in
T arr
U day
U ps
Y A
d awn
g t
g room
h l
m ical
n ian
o ons
p aw
p ics
r ations
t issue
u gliness
w iped
in still
re watching
re acted
re created
re venue
at own
en o
en an
st ride
st ature
al ia
to vers
ct ory
be friends
om ing
ve ts
me mo
sh ill
sh tick
sh apes
el ding
un true
un cover
un adulterated
ab using
so vo
so viet
all uring
su icidal
ri gged
ir resistible
di ctions
sc an
la mb
po sh
po king
no lia
just ifies
per version
go at
up roar
bo g
bo iled
bo ggles
dis interested
pr ow
ty ing
min u
love able
ry an
dra medy
wast er
ak shi
mer ged
ang g
far mer
fan base
hard ened
ool ander
Re qu
sm army
De fin
For m
rest less
An and
fre aked
fre akin
log ists
Un necessary
col lar
reg ress
To sh
arr anged
sy rup
men to
NO NE
God ard
type cast
AN S
ino che
necess ity
stra in
agree ment
ca per
Or son
apt ly
Me ta
Ha unting
impro vis
mil king
Ra ven
Pro of
Des picable
Sand ers
magic ian
ub by
sn iff
sweet ness
Wood en
prefer ence
business man
reboot ed
BE FORE
mach er
grad ers
spl ash
Pre vious
pal ette
LA ST
boo ze
depart ments
organ izations
WATCH ING
incre ases
gru dge
Nat urally
gas ping
quot able
pin nacle
resc ued
loo ses
tick ed
WAY S
Er in
Cli max
stum bling
hopeless ness
orient ation
baff les
spiritual ity
Bring ing
Sho ck
Whit ney
sav vy
legit imately
recycl ing
journal ists
Cu aron
excl usive
Rad io
proced ures
reson ates
WAR NING
Shad ow
prostit ution
andro ids
pattern s
Mess age
restra int
mig a
Beck ins
Cou ple
colon ial
pier cer
manufact ured
Tun es
savi or
Neg ative
Kang ana
Offic er
elit ist
petit ion
Winst on
acade mic
Lev itt
Gle eson
Chapp ie
Mang a
Hon or
eyebrow s
fragment ed
Stephan ie
Yell ow
Kras inski
stard om
sacchar ine
pubes cent
Verho even
Sult an
Hest on
9 4
A the
B it
B ark
B inoche
C rich
D re
F right
F let
K IDS
M ist
N ut
N ix
P in
P ig
P oc
R ud
S tru
S hop
T ick
T ons
W ak
Z hang
a j
a cious
b red
f lock
g is
g ates
g mental
i ac
p its
r ut
s igning
u ating
Ž ðŸ
re moving
or gy
ch am
se ed
Th in
ver ing
un ab
un focused
but ts
ri ers
ne on
fe m
di ac
di atri
ex ting
con verted
um n
ple y
dis co
dis illusion
under wear
dra ined
exc el
Ch ance
tur ally
bl under
tri bul
sub way
He ctor
Re call
top us
sm irk
sequ ently
cess ion
Se ym
Be gin
unt ed
vol ent
port ions
mar ish
night marish
cons en
sty led
Pe aky
Le aving
IN AL
pot ter
cool er
den ied
Per l
Com put
air craft
Wor k
Wor ks
Mc Dorm
Con ner
hol land
Bo om
trans forms
gy m
design ers
superhero s
pointless ly
box er
Gr ou
Pa xton
sl ut
ene uve
cei ving
Bro derick
Ra iders
foot ing
Her z
aby ss
stri ves
Far miga
recogn isable
Bar bie
Fe licity
witch er
phys ic
oppo sing
del usion
sw ift
Rom ans
loving ly
Sal t
pract ices
gross ing
Gar rett
Cra ppy
ga ze
reflect ive
invent ion
18 th
hon ors
zon a
meta physical
oper ations
oper ator
compet ently
Kill ers
freedom s
toler ant
rant ing
Blood y
Think ing
mum my
mum bo
NE TF
Western s
simpl er
mile stone
overwhelming ly
distri ct
promo s
embra ces
fart ing
Kings man
elev ates
consu med
nan ny
devast ated
cohes ion
aud acity
prostit utes
fur niture
Glo bes
distinct ly
Reven ant
Bern ard
phon ing
wy ck
Zoo topia
Ari zona
sof tware
obli vion
Lith uan
Tara ji
subscri be
sna ke
Mort ensen
incon gru
Mass ive
Sty le
Burn ham
whisper ing
discipl ine
wides creen
Gilli gan
Contr ary
Chin atown
Exp endables
Photo graphy
Langu age
EXCEL LENT
arbit r
Seym our
6 8
A x
A st
B au
B rent
B umble
C ag
C ele
C OME
D aughter
D ATE
E cho
F ur
F ICTION
G L
G inger
I p
L ance
M ow
M ans
O S
S 2
S ons
S ON
S CI
S LOW
T Y
X ena
Z endaya
a ided
b ureau
g om
i Phone
j es
l il
m uted
n ag
n ip
t ables
in ers
in vincible
the ft
or thodox
st ations
as set
ar in
le ase
vi er
be gs
il k
ut most
The m
un deserving
pe aked
ce iling
ma ud
su ave
ri ages
de generate
ra v
di zz
la in
im ps
am er
po ker
show cased
pl s
story teller
art fully
ta ped
ep ide
ep ics
ment ia
ine es
te ared
her d
bo res
dis sect
low n
them at
fin anced
ru gged
ph omaniac
St iles
cl an
gen ie
Ch else
est ranged
ob i
ob served
sol ves
hard y
world ly
cept ions
sub s
ian ist
car pet
child like
fl oo
mag netic
fav ors
An akin
cam cor
lic a
Mar ian
cap tive
inter personal
Le arn
cr own
sat ell
teen y
gest ure
beginning s
law less
uck ed
Car roll
Sh ore
dam sel
AL WAYS
fic ation
house wife
jud gmental
imagin ations
meet ings
mur ky
Ed wards
hear tily
az ar
Ben o
canc ellation
odd ball
psycho logist
Look ed
program mes
battle field
Red may
Fe bru
Ri pley
pan to
pretentious ness
suit ably
beha ves
Wonder land
Am sterdam
bri m
revol ving
hill s
dad s
Mal ef
197 4
Den is
Richard son
Rose mary
anal ogy
manipul ating
serial s
gal actic
rul ing
Mid way
Min nie
celebr ates
Bu zz
plo ds
brit ish
Mil itary
Jen na
sink s
Air bender
princi pals
si bling
Shel ley
Bon ham
EP IC
reli ance
Lat if
pregn ancy
fac ility
Polit ics
strip per
Alf onso
sustain ed
ske wed
snooze fest
reluct antly
bigot ed
Stri ke
Dist ur
Rand all
persu aded
Ol sen
assum es
assum ptions
Ga vin
exploit ative
Fli x
sna kes
Columb us
prompt ed
detr actors
ugu ese
dwar fs
Oper a
Goose bumps
Fab ulous
lux ury
Op ening
revision ist
Gig li
priv acy
flav our
depl orable
oxy gen
Cler ks
MST 3
laund ry
Gue st
oct ane
Stere ot
Goli ath
Perl man
McDorm and
maud lin
Chelse a
Febru ary
' -
) "
5 4
A ra
B ose
B irth
C C
C ad
C ain
C ody
D P
E motions
F K
G ill
G IVE
H umph
J ong
J OK
L ions
M ol
M AT
N u
O men
R T
S Y
S ke
S way
S pare
T ome
T NT
V irt
V III
Z oolander
b ounce
d ab
d renched
h mmm
p has
p ond
p adding
r ust
v ard
w ic
w ale
w imp
th re
th irst
in fest
on screen
at tain
en zie
al mighty
ar ab
ar ation
il maz
Th ief
ic io
ion ic
sh ade
un needed
un impressive
un fulfilled
ha cked
out break
ma cy
ma ze
de ceived
ra ms
ne pot
atch et
di arr
di aries
end a
wor m
us al
who re
ist ine
ink y
sp or
pr ises
ish ly
du g
ph il
ans as
gr id
St ellar
red necks
hor izon
tra it
dra stic
sur realism
em pathise
pret ense
comp ilation
co dile
vers ive
kind ly
sub ur
ince st
We b
car rier
De pressing
Be a
Be ow
19 20s
appe ase
mar ch
inter woven
Un funny
eng ages
Le an
Le cter
Ro le
susp ended
list ing
past iche
cu be
Is la
gra iny
parent al
Sc ots
af icion
Car los
Su pre
Now here
lid ing
solid ly
Sha ft
Sha hid
psy chos
En tire
trans mit
cru c
ref rain
ring ing
Co ens
refer enced
Ha ha
ail able
shoot ings
Wal ked
craft sman
familiar ity
faith fully
cul turally
Sa x
aim lessly
SO A
Bur r
IC AL
inv aders
serv ant
iff y
Ram is
197 6
magn itude
**** ****
witness es
belong ing
text book
Cle an
TR ASH
tend encies
Uni que
contem plate
sight s
Battle field
Stan wyck
hack er
Tri beca
spark ling
sle w
contrast s
descript ions
indic ates
emphas ized
Ros anne
gam bling
tour ist
Av ailable
Dor ff
bold ly
:- (
htt ps
LI X
evo ked
univers es
ingredi ent
Whit taker
resour ce
burst ing
BR AVO
resort ing
AF TER
Hum our
suspic ion
Mont gom
Dol ph
Dol lar
rer un
sham ing
san ct
integr al
Rich ie
Vie w
JO B
sab er
hhhh hhhh
grind house
chron ological
Griff in
Mend el
Lie v
Lem mon
Kash miri
groan ing
zzzzzzzzzzzzzzzz zzzzzzzzzzzzzzzz
fri vol
kne e
Hale y
inflict ed
intr usive
reserv ations
agas car
meticulous ly
Cab in
insur ance
proto col
aspir ations
twent ies
Gon z
imprison ed
blan ket
magnific ently
Ent ourage
astonish ingly
partis an
grie ving
Hos kins
Eno la
clun ker
stap le
gris ly
DIRE CT
divis ive
Nord ic
Crich ton
NETF LIX
Montgom ery
' ).
6 4
A by
B ER
B ana
B auer
C ot
C em
D ES
E die
G F
G orgeous
H ig
H ER
H ARD
I sh
I max
K as
K else
L oud
M P
M ing
O A
P ry
R OR
b am
b anks
c ath
c inep
h unk
h mm
i q
l ent
p act
p oured
r ination
s ap
w aters
in adequate
in comparable
to ast
es c
es ot
mo th
ly de
ch au
le mon
se iz
Th irty
ad verts
ic i
for um
ent ries
me ll
sh one
un noticed
un relatable
un certainty
ra ping
ex emp
la ine
thing ton
im posed
pre paring
can vas
there by
sp iders
dis appearance
dis coura
thr one
pr one
pp ort
ff er
ort ing
And ers
br ash
gr ats
hor n
ak u
fore ns
ang ered
big ots
tri ps
sub title
He ig
Al pha
As k
De bor
mess es
na vig
cli cked
Star z
An to
An cient
ile e
inter l
wal d
nor ms
nor thern
par ap
master class
sat an
vin o
sk im
Watch able
fresh man
Su de
situ ational
antic lim
Mc Kell
pur ists
quick er
swe ep
THE M
const ip
Tr ou
bar rier
hook er
crew s
az aki
?! "
Nor se
Ben nett
project ed
regret ting
stri ve
Show ing
BO OK
Paul son
SE ASON
fasc ism
sw amp
ED Y
Par adise
fla mes
Bet tany
acc us
Brad y
cir ca
Ale j
Amazing ly
reck less
surround s
Gal if
gut ted
198 3
Ron ald
Perfect ion
wis er
dare devil
trend s
bang s
Res ist
Gen re
bab es
mum ble
feed s
bow ski
Fu zz
elect ed
elect ri
enthusi asts
paralle led
WOR LD
collect ed
particip ating
domin ate
admir ably
nine ties
Port land
Port uguese
Set ting
decl ared
Carol ine
BR ILL
insist ed
Lat ino
dystop ia
enorm ously
emo tive
submit ted
Job s
degrad ation
brat ty
Za hn
Bern thal
margin ally
Mach ine
weir dest
Hust le
Ther es
anka j
tattoo s
predic able
Bun dy
Bow ie
contempl ating
jar gon
aris to
nom inee
imple ment
TRE K
dwar f
Drey fus
imper ial
Desper ate
Vig go
fundament ally
Incl uding
orche stra
flamboy ant
endur ance
Ster ling
testim ony
Requ iem
Beckins ale
tribul ations
Redmay ne
MST3 K
Kelse y
A ut
B AT
C art
C aught
C ena
D ru
D ances
E den
F asc
G as
G ran
I li
I TV
K on
K le
K aling
M ine
M ak
M ouse
M ADE
P are
P ooh
R ouge
S ap
S AT
a erial
b illy
b ail
e co
f ringe
g ated
g az
i ri
k as
o y
p el
ó n
re writing
re written
st en
es quire
ar range
ch io
le th
act ers
me ter
me te
oo zes
.. "
.. !!
un common
pe as
ma cab
de tri
op a
la uded
im patiently
lo at
no vice
any how
ell er
ti k
ti go
per ing
per me
per ip
pre par
go b
up dating
ag i
rit u
over power
over load
ss ss
dis count
dis credit
pect ed
first ly
real y
know ingly
des ens
ac cord
own ess
hi res
ach i
od us
od ys
co smo
Al ask
ins ists
cle ans
na vy
true ly
cinemat ically
mar ines
ones elf
tem plate
inter acting
Le ar
tic king
hop ping
cho ck
par adise
master ed
contin ual
face ted
cy borg
ouch ing
gra ced
nat ured
Sh ank
30 mins
cover age
Wor thington
Ser vice
Mc Donald
pur chasing
Di ver
Di ablo
bi ases
aren ce
later al
total itarian
Lu is
OR T
wo ken
bar red
rac ists
Sam berg
shoot er
shed s
mil it
imp lore
flu ent
depress ive
working s
Far ah
Im pressive
Sad ness
earth quake
pan el
Mad agascar
Tra ining
Par amount
disc arded
oooo oo
hair cut
arc ade
sal ty
Sal vation
gross ed
Cra ven
PO T
complic ations
tor rent
glor ification
TR A
Pal m
Cor rect
Sher idan
skin ned
bag gage
ko v
wra ps
sle eve
Lou ie
contribut ing
contribut ions
indic ator
rain bow
Ros ario
gam ut
steam y
dramat ization
bitter ness
collect ing
sketch y
soooo oo
ENT IRE
bless ing
arri ving
rhy me
omor ph
metaphor ical
Spo ilers
wound s
AF I
Nik i
heap s
stup end
Clark son
Ko sovo
Bos ch
Andre as
tender ness
Penny wise
homopho bia
Oly phant
perpet ual
elic it
mult itude
gall ery
unravel s
Dest ination
pron ounced
Suspense ful
Olym pus
recru ited
condem n
CRE DI
WA IT
perman ently
chees iness
patron izing
Cass idy
Bing e
Grow ing
calcul ated
duplic ate
Kr ish
todd ler
yi eld
Pep per
succ umb
athlet ic
indoct rination
Miy azaki
announce ment
stagger ing
Core y
untouch ed
egot istical
Indust ry
cros sover
Refre shing
