{"[UNK]":0,"[START]":1,"[END]":2,"[PAD]":3,"\u0003":4,"\u001b":5,"!":6,"\"":7,"#":8,"$":9,"%":10,"&":11,"'":12,"(":13,")":14,"*":15,"+":16,",":17,"-":18,".":19,"/":20,"0":21,"1":22,"2":23,"3":24,"4":25,"5":26,"6":27,"7":28,"8":29,"9":30,":":31,";":32,"<":33,"=":34,">":35,"?":36,"@":37,"A":38,"B":39,"C":40,"D":41,"E":42,"F":43,"G":44,"H":45,"I":46,"J":47,"K":48,"L":49,"M":50,"N":51,"O":52,"P":53,"Q":54,"R":55,"S":56,"T":57,"U":58,"V":59,"W":60,"X":61,"Y":62,"Z":63,"[":64,"\\":65,"]":66,"^":67,"_":68,"`":69,"a":70,"b":71,"c":72,"d":73,"e":74,"f":75,"g":76,"h":77,"i":78,"j":79,"k":80,"l":81,"m":82,"n":83,"o":84,"p":85,"q":86,"r":87,"s":88,"t":89,"u":90,"v":91,"w":92,"x":93,"y":94,"z":95,"{":96,"|":97,"}":98,"~":99,"":100,"":101,"":102,"":103,"":104,"":105,"":106,"":107,"":108,"":109,"":110,"":111,"¡":112,"¢":113,"£":114,"¤":115,"¥":116,"¦":117,"§":118,"¨":119,"©":120,"ª":121,"«":122,"¬":123,"­":124,"®":125,"¯":126,"°":127,"±":128,"²":129,"³":130,"´":131,"µ":132,"¶":133,"·":134,"¸":135,"¹":136,"º":137,"»":138,"¼":139,"½":140,"¾":141,"¿":142,"À":143,"Á":144,"Â":145,"Ã":146,"Ä":147,"Å":148,"Ç":149,"È":150,"É":151,"Ê":152,"Ë":153,"Í":154,"Î":155,"Ï":156,"Ñ":157,"Ò":158,"Ó":159,"Õ":160,"Ö":161,"×":162,"Ø":163,"Ú":164,"Û":165,"Ü":166,"ß":167,"à":168,"á":169,"â":170,"ã":171,"ä":172,"å":173,"æ":174,"ç":175,"è":176,"é":177,"ê":178,"ë":179,"ì":180,"í":181,"î":182,"ï":183,"ð":184,"ñ":185,"ò":186,"ó":187,"ô":188,"õ":189,"ö":190,"ø":191,"ú":192,"û":193,"ü":194,"ý":195,"ā":196,"č":197,"ē":198,"ğ":199,"ī":200,"İ":201,"ı":202,"Ł":203,"ł":204,"ń":205,"ō":206,"Œ":207,"œ":208,"Ş":209,"ş":210,"Š":211,"š":212,"Ţ":213,"ű":214,"Ÿ":215,"ź":216,"Ż":217,"ż":218,"Ž":219,"ž":220,"ƒ":221,"ʖ":222,"ˆ":223,"˙":224,"˜":225,"͜":226,"͡":227,"Ι":228,"Б":229,"а":230,"в":231,"е":232,"к":233,"л":234,"о":235,"п":236,"р":237,"с":238,"т":239,"ь":240,"ю":241,"я":242,"ј":243,"ا":244,"ب":245,"د":246,"س":247,"غ":248,"ق":249,"ก":250,"ง":251,"ย":252,"ร":253,"ა":254,"ბ":255,"ი":256,"ლ":257,"ო":258,"რ":259,"ღ":260,"ჯ":261,"ậ":262,"ố":263,"​":264,"‍":265,"‎":266,"–":267,"—":268,"―":269,"‘":270,"’":271,"‚":272,"“":273,"”":274,"„":275,"†":276,"‡":277,"•":278,"…":279,"‪":280,"‬":281,"‰":282,"′":283,"‹":284,"›":285,"※":286,"€":287,"№":288,"™":289,"−":290,"⎯":291,"★":292,"☆":293,"☝":294,"☠":295,"☹":296,"☺":297,"♀":298,"♂":299,"♠":300,"♡":301,"♥":302,"⚫":303,"⛈":304,"✅":305,"✊":306,"✌":307,"✔":308,"✨":309,"❌":310,"❓":311,"❕":312,"❣":313,"❤":314,"⭐":315,"ツ":316,"単":317,"채":318,"":319,"️":320,"﻿":321,"（":322,"）":323,"，":324,"：":325,"🅱":326,"🇦":327,"🇮":328,"🇯":329,"🇱":330,"🇳":331,"🇵":332,"🇷":333,"🇸":334,"🇺":335,"🌚":336,"🌞":337,"🌟":338,"🌴":339,"🍀":340,"🍅":341,"🍯":342,"🍻":343,"🍿":344,"🎈":345,"🎤":346,"🎥":347,"🎬":348,"🎭":349,"🎯":350,"🎸":351,"🏅":352,"🏆":353,"🏡":354,"🏻":355,"🏼":356,"🏽":357,"🏾":358,"🏿":359,"🐂":360,"🐈":361,"🐊":362,"🐕":363,"🐵":364,"🐻":365,"👀":366,"👁":367,"👈":368,"👊":369,"👌":370,"👍":371,"👎":372,"👏":373,"👐":374,"👑":375,"👗":376,"👙":377,"👠":378,"👥":379,"👨":380,"👩":381,"👼":382,"👽":383,"💀":384,"💁":385,"💃":386,"💅":387,"💋":388,"💐":389,"💓":390,"💔":391,"💕":392,"💖":393,"💗":394,"💘":395,"💙":396,"💛":397,"💜":398,"💞":399,"💟":400,"💣":401,"💥":402,"💩":403,"💪":404,"💯":405,"💰":406,"💸":407,"💺":408,"📍":409,"🔟":410,"🔥":411,"🔪":412,"🔫":413,"🕷":414,"🕸":415,"🖤":416,"🗝":417,"😀":418,"😁":419,"😂":420,"😃":421,"😄":422,"😅":423,"😆":424,"😇":425,"😉":426,"😊":427,"😋":428,"😌":429,"😍":430,"😎":431,"😏":432,"😐":433,"😑":434,"😒":435,"😔":436,"😕":437,"😖":438,"😗":439,"😘":440,"😚":441,"😛":442,"😜":443,"😝":444,"😠":445,"😡":446,"😢":447,"😣":448,"😤":449,"😥":450,"😬":451,"😭":452,"😮":453,"😰":454,"😱":455,"😲":456,"😳":457,"😴":458,"😶":459,"😸":460,"😿":461,"🙁":462,"🙂":463,"🙄":464,"🙈":465,"🙊":466,"🙌":467,"🙏":468,"🚀":469,"🚫":470,"🤐":471,"🤓":472,"🤔":473,"🤘":474,"🤙":475,"🤞":476,"🤠":477,"🤢":478,"🤣":479,"🤦":480,"🤷":481,"🦄":482,"th":483,"in":484,"er":485,"an":486,"the":487,"is":488,"re":489,"on":490,"at":491,"en":492,"ing":493,"ou":494,"or":495,"st":496,"it":497,"and":498,"al":499,"to":500,"es":501,"as":502,"ed":503,"ar":504,"of":505,"mo":506,"ly":507,"ch":508,"le":509,"vi":510,"ct":511,"se":512,"be":513,"il":514,"om":515,"ve":516,"Th":517,"vie":518,"this":519,"ow":520,"ot":521,"li":522,"ut":523,"ver":524,"ad":525,"wh":526,"movie":527,"ic":528,"that":529,"was":530,"act":531,"for":532,"ent":533,"you":534,"me":535,"ion":536,"gh":537,"sh":538,"ay":539,"ke":540,"el":541,"oo":542,"ere":543,"The":544,"ith":545,"..":546,"un":547,"one":548,"id":549,"ld":550,"ab":551,"ha":552,"with":553,"are":554,"pe":555,"but":556,"ce":557,"out":558,"so":559,"fil":560,"ma":561,"not":562,"film":563,"ge":564,"all":565,"su":566,"ri":567,"ally":568,"ome":569,"ir":570,"de":571,"ust":572,"ers":573,"ra":574,"ul":575,"op":576,"ould":577,"ne":578,"fe":579,"ter":580,"atch":581,"have":582,"com":583,"di":584,"very":585,"ro":586,"ill":587,"ood":588,"ex":589,"watch":590,"It":591,"sc":592,"la":593,"thing":594,"im":595,"ck":596,"am":597,"like":598,"po":599,"lo":600,"some":601,"ant":602,"no":603,"ght":604,"any":605,"show":606,"see":607,"do":608,"end":609,"ory":610,"just":611,"ast":612,"ell":613,"wor":614,"int":615,"ther":616,"ess":617,"reat":618,"rom":619,"This":620,"he":621,"ti":622,"good":623,"us":624,"my":625,"char":626,"pl":627,"story":628,"tr":629,"art":630,"con":631,"they":632,"if":633,"per":634,"nd":635,"ta":636,"ur":637,"pre":638,"can":639,"charact":640,"who":641,"we":642,"go":643,"from":644,"ven":645,"about":646,"ist":647,"ep":648,"ap":649,"up":650,"ous":651,"au":652,"get":653,"what":654,"more":655,"way":656,"has":657,"ive":658,"ment":659,"ol":660,"ough":661,"ation":662,"ig":663,"ine":664,"by":665,"time":666,"ind":667,"qu":668,"really":669,"man":670,"jo":671,"ook":672,"great":673,"ag":674,"ate":675,"te":676,"will":677,"...":678,"ies":679,"rit":680,"would":681,"able":682,"pro":683,"now":684,"sa":685,"ard":686,"did":687,"view":688,"ople":689,"ful":690,"ong":691,"there":692,"der":693,"other":694,"ink":695,"don":696,"people":697,"our":698,"were":699,"pt":700,"um":701,"et":702,"whi":703,"how":704,"fun":705,"ser":706,"every":707,"ity":708,"bad":709,"ite":710,"ble":711,"uch":712,"over":713,"your":714,"than":715,"his":716,"had":717,"bec":718,"even":719,"ure":720,"bet":721,"vies":722,"ci":723,"ever":724,"gu":725,"ss":726,"her":727,"ple":728,"think":729,"irst":730,"movies":731,"acting":732,"much":733,"characters":734,"well":735,"bo":736,"most":737,"ound":738,"ause":739,"sp":740,"dis":741,"could":742,"fa":743,"Wh":744,"its":745,"ade":746,"scen":747,"pect":748,"only":749,"make":750,"too":751,"first":752,"ence":753,"ight":754,"ll":755,"thr":756,"real":757,"because":758,"ny":759,"pr":760,"kes":761,"king":762,"point":763,"ars":764,"does":765,"know":766,"low":767,"look":768,"!!":769,"writ":770,"des":771,"been":772,"say":773,"joy":774,"pp":775,"rect":776,"sel":777,"plot":778,"ors":779,"ish":780,"ack":781,"ff":782,"ore":783,"want":784,"their":785,"ty":786,"which":787,"10":788,"If":789,"watching":790,"review":791,"made":792,"iso":793,"ac":794,"ain":795,"when":796,"enjoy":797,"age":798,"better":799,"ide":800,"lit":801,"own":802,"ved":803,"min":804,"fter":805,"episo":806,"ves":807,"ason":808,"love":809,"action":810,"tain":811,"fect":812,"off":813,"seen":814,"feel":815,"ie":816,"them":817,"character":818,"ort":819,"tw":820,"ye":821,"direct":822,"series":823,"into":824,"many":825,"ving":826,"best":827,"ass":828,"fin":829,"ho":830,"aw":831,"self":832,"ated":833,"ical":834,"ru":835,"part":836,"vel":837,"But":838,"lie":839,"less":840,"play":841,"then":842,"should":843,"And":844,"mis":845,"du":846,"funny":847,"ious":848,"In":849,"expect":850,"tle":851,"ph":852,"ces":853,"ice":854,"cast":855,"new":856,"ought":857,"ertain":858,"There":859,"ans":860,"ating":861,"try":862,"lot":863,"ick":864,"read":865,"stand":866,"mat":867,"ame":868,"br":869,"gr":870,"after":871,"hi":872,"never":873,"back":874,"St":875,"red":876,"actors":877,"hor":878,"work":879,"something":880,"ense":881,"tra":882,"under":883,"ting":884,"through":885,"cl":886,"orig":887,"life":888,"origin":889,"ud":890,"seem":891,"also":892,"old":893,"ens":894,"day":895,"ach":896,"erest":897,"going":898,"scenes":899,"ary":900,"ugh":901,"won":902,"pla":903,"belie":904,"ef":905,"interest":906,"here":907,"ry":908,"being":909,"comm":910,"original":911,"didn":912,"tim":913,"laugh":914,"happ":915,"where":916,"again":917,"dra":918,"ance":919,"nt":920,"ually":921,"ction":922,"ose":923,"comed":924,"gi":925,"bor":926,"ue":927,"she":928,"line":929,"gen":930,"thought":931,"ber":932,"sur":933,"tal":934,"peci":935,"nothing":936,"che":937,"....":938,"exc":939,"og":940,"long":941,"ise":942,"got":943,"ark":944,"ster":945,"start":946,"films":947,"wast":948,"ase":949,"give":950,"little":951,"cent":952,"ily":953,"high":954,"ak":955,"ten":956,"mer":957,"Ch":958,"ire":959,"episode":960,"ute":961,"perfor":962,"fore":963,"cre":964,"need":965,"reviews":966,"why":967,"rible":968,"though":969,"times":970,"two":971,"such":972,"est":973,"worth":974,"watched":975,"may":976,"zing":977,"appoint":978,"right":979,"entertain":980,"still":981,"ning":982,"these":983,"diff":984,"scre":985,"boring":986,"You":987,"makes":988,"pa":989,"performan":990,"ript":991,"disappoint":992,"those":993,"ild":994,"ps":995,"lack":996,"sim":997,"em":998,"done":999,"pret":1000,").":1001,"ang":1002,"ama":1003,"same":1004,"him":1005,"ob":1006,"cou":1007,"comedy":1008,"tur":1009,"ments":1010,"bl":1011,"mind":1012,"doesn":1013,"bit":1014,"find":1015,"season":1016,"comple":1017,"ror":1018,"script":1019,"cine":1020,"ave":1021,"down":1022,"big":1023,"far":1024,"few":1025,"oney":1026,"sit":1027,"actually":1028,"interesting":1029,"fan":1030,"pers":1031,"So":1032,"ions":1033,"produ":1034,"book":1035,"ng":1036,"set":1037,"No":1038,"fam":1039,"shows":1040,"ations":1041,"comp":1042,"sure":1043,"rong":1044,"What":1045,"od":1046,"ree":1047,"whole":1048,"utes":1049,"co":1050,"commend":1051,"hu":1052,"ways":1053,"ward":1054,"hum":1055,"ked":1056,"money":1057,"iz":1058,"vers":1059,"sol":1060,"minutes":1061,"hard":1062,"before":1063,"world":1064,"wood":1065,"ual":1066,"ably":1067,"vis":1068,"take":1069,"effect":1070,"illi":1071,"screen":1072,"aut":1073,"ran":1074,"enough":1075,"cept":1076,"another":1077,"differ":1078,"wa":1079,"cra":1080,"mus":1081,"main":1082,"tri":1083,"hour":1084,"saw":1085,"let":1086,"recommend":1087,"understand":1088,"fi":1089,"ics":1090,"amazing":1091,"super":1092,"waste":1093,"ash":1094,"creat":1095,"gin":1096,"last":1097,"anything":1098,"perfect":1099,"ced":1100,"things":1101,"fli":1102,"tell":1103,"ft":1104,"ult":1105,"kind":1106,"les":1107,"rating":1108,"raph":1109,"must":1110,"without":1111,"kid":1112,"come":1113,"keep":1114,"mot":1115,"ool":1116,"vo":1117,"20":1118,"years":1119,"complete":1120,"ys":1121,"scene":1122,"person":1123,"sub":1124,"He":1125,"TV":1126,"Al":1127,"They":1128,"worst":1129,"As":1130,"finite":1131,"riend":1132,"dial":1133,"ater":1134,"while":1135,"ial":1136,"loved":1137,"How":1138,"put":1139,"wonder":1140,"pretty":1141,"fel":1142,"hope":1143,"Not":1144,"horror":1145,"sense":1146,"different":1147,"friend":1148,"turn":1149,"finitely":1150,"press":1151,"--":1152,"surpr":1153,"solute":1154,"wait":1155,"ending":1156,"cont":1157,"happen":1158,"ins":1159,"med":1160,"olly":1161,"iful":1162,"fact":1163,"Re":1164,"cle":1165,"top":1166,"beaut":1167,"director":1168,"ste":1169,"bas":1170,"sing":1171,"pie":1172,"poor":1173,"believe":1174,"audi":1175,"episodes":1176,"ip":1177,"light":1178,"Jo":1179,"irl":1180,"ince":1181,"felt":1182,"arly":1183,"wom":1184,"everything":1185,"Amer":1186,"fort":1187,"Americ":1188,"war":1189,"cond":1190,"vious":1191,"dy":1192,"ative":1193,"rel":1194,"ines":1195,"ollywood":1196,"Don":1197,"making":1198,"enjoyed":1199,"We":1200,"job":1201,"lead":1202,"ren":1203,"music":1204,"everyone":1205,"writing":1206,"vent":1207,"effects":1208,"bu":1209,"isn":1210,"year":1211,"reme":1212,"ween":1213,"quite":1214,"tru":1215,"istic":1216,"always":1217,"found":1218,"All":1219,"sm":1220,"ress":1221,"care":1222,"wasn":1223,"sed":1224,"family":1225,"My":1226,"ale":1227,"between":1228,"emot":1229,"add":1230,"beautiful":1231,"speci":1232,"absolute":1233,"slow":1234,"ian":1235,"por":1236,"ional":1237,"looking":1238,"car":1239,"used":1240,"ically":1241,"ness":1242,"least":1243,"ellent":1244,"icul":1245,"Just":1246,"xt":1247,"girl":1248,"reason":1249,"upid":1250,"seems":1251,"anyone":1252,"humor":1253,"De":1254,"ris":1255,"definitely":1256,"away":1257,"star":1258,"alf":1259,"sequ":1260,"cess":1261,"cor":1262,"vil":1263,"For":1264,"mean":1265,"led":1266,"kill":1267,"dict":1268,"mess":1269,"almost":1270,"ery":1271,"around":1272,"ons":1273,"terrible":1274,"piece":1275,"ath":1276,"class":1277,"audience":1278,"gue":1279,"bably":1280,"trying":1281,"stupid":1282,"ks":1283,"Se":1284,"left":1285,"ately":1286,"drama":1287,"went":1288,"ext":1289,"might":1290,"Mo":1291,"),":1292,"na":1293,"child":1294,"seeing":1295,"ying":1296,"cli":1297,"pi":1298,"second":1299,"val":1300,"peri":1301,"ings":1302,"Hollywood":1303,"performance":1304,"That":1305,"half":1306,"fant":1307,"since":1308,"sound":1309,"both":1310,"else":1311,"entertaining":1312,"next":1313,"use":1314,"surpris":1315,"raphy":1316,"fol":1317,"true":1318,"\".":1319,"comes":1320,"disappointed":1321,"excellent":1322,"Be":1323,"unt":1324,"ign":1325,"liked":1326,"role":1327,"sex":1328,"fl":1329,"ible":1330,"written":1331,"velop":1332,"stu":1333,"dec":1334,"sent":1335,"att":1336,"hel":1337,"vol":1338,"ilar":1339,"ider":1340,"dialo":1341,"hero":1342,"hist":1343,"awful":1344,"probably":1345,"ality":1346,"rid":1347,"special":1348,"son":1349,"crit":1350,"mag":1351,"call":1352,"ner":1353,"ms":1354,"entire":1355,"develop":1356,"kids":1357,"poss":1358,"each":1359,"sci":1360,"heart":1361,"pecially":1362,"onest":1363,"yet":1364,"fav":1365,"Star":1366,"stead":1367,"cri":1368,"especially":1369,"port":1370,"ia":1371,"rest":1372,"said":1373,"gets":1374,"ull":1375,"An":1376,"era":1377,"completely":1378,"je":1379,"wrong":1380,"serious":1381,"ile":1382,"thrill":1383,"human":1384,"absolutely":1385,"predict":1386,"idea":1387,"actor":1388,"ond":1389,"ither":1390,"Some":1391,"stop":1392,"gl":1393,"fully":1394,"cinemat":1395,"cam":1396,"nice":1397,"illiant":1398,"lines":1399,"ply":1400,"young":1401,"19":1402,"oth":1403,"gether":1404,"clo":1405,"deser":1406,"hours":1407,"shot":1408,"appe":1409,"res":1410,"begin":1411,"ney":1412,"sho":1413,"Every":1414,"together":1415,"oc":1416,"TH":1417,"gener":1418,"bre":1419,"couldn":1420,"ists":1421,"mar":1422,"someone":1423,"ism":1424,"mon":1425,"tray":1426,"bly":1427,"ences":1428,"fre":1429,"wanted":1430,"ones":1431,"word":1432,"run":1433,"log":1434,"full":1435,"ready":1436,"night":1437,"hand":1438,"cut":1439,"fight":1440,"ography":1441,"moments":1442,"credi":1443,"anim":1444,"polit":1445,"lic":1446,"Mar":1447,"os":1448,"tem":1449,"cap":1450,"sad":1451,"IM":1452,"cons":1453,"came":1454,"mor":1455,"follow":1456,"ited":1457,"sty":1458,"brilliant":1459,"usu":1460,"lig":1461,"yes":1462,"inter":1463,"jokes":1464,"cur":1465,"dialogue":1466,"!!!":1467,"performances":1468,"plain":1469,"place":1470,"Un":1471,"portray":1472,"tit":1473,"truly":1474,"predictable":1475,"ix":1476,"guy":1477,"head":1478,"uni":1479,"American":1480,"col":1481,"Pe":1482,"ject":1483,"experi":1484,"pow":1485,"reg":1486,"certain":1487,"maybe":1488,"non":1489,"rather":1490,"To":1491,"dark":1492,"body":1493,"cinema":1494,"??":1495,"ped":1496,"als":1497,"vable":1498,"honest":1499,"simply":1500,"gg":1501,"One":1502,"gave":1503,"eng":1504,"After":1505,"ird":1506,"fail":1507,"Le":1508,"form":1509,"deli":1510,"storyline":1511,"iting":1512,"gar":1513,"uring":1514,"viol":1515,"prop":1516,"bud":1517,"sup":1518,"eas":1519,"umb":1520,"side":1521,"arr":1522,"opin":1523,"cr":1524,"ted":1525,"wal":1526,"tic":1527,"hop":1528,"spe":1529,"hn":1530,"production":1531,"astic":1532,"cour":1533,"getting":1534,"Lo":1535,"having":1536,"suppo":1537,"coming":1538,"soci":1539,"looks":1540,"Well":1541,"cing":1542,"ron":1543,"once":1544,"based":1545,"cho":1546,"esome":1547,"Great":1548,"favor":1549,"ER":1550,"sy":1551,"guess":1552,"myself":1553,"rele":1554,"played":1555,"forward":1556,"When":1557,"instead":1558,"bra":1559,"theater":1560,"expected":1561,"ich":1562,"version":1563,"nor":1564,"takes":1565,"rated":1566,"ames":1567,"She":1568,"par":1569,"obvious":1570,"hate":1571,"que":1572,"mber":1573,"stars":1574,"already":1575,"present":1576,"fans":1577,"men":1578,"hy":1579,"Ro":1580,"master":1581,"tot":1582,"talent":1583,"wish":1584,"Li":1585,"yourself":1586,"Do":1587,"Dis":1588,"proble":1589,"totally":1590,"NO":1591,"strong":1592,"ele":1593,"pare":1594,"John":1595,"either":1596,"spo":1597,"goes":1598,"land":1599,"chan":1600,"On":1601,"horrible":1602,"cinematography":1603,"direction":1604,"itself":1605,"short":1606,"opinion":1607,"IN":1608,"However":1609,"sat":1610,"open":1611,"susp":1612,"list":1613,"trail":1614,"worse":1615,"believable":1616,"fall":1617,"power":1618,"women":1619,"ended":1620,"etc":1621,"incredi":1622,"course":1623,"except":1624,"ane":1625,"anno":1626,"realistic":1627,"given":1628,"io":1629,"tempt":1630,"doing":1631,"ned":1632,"budget":1633,"ah":1634,"others":1635,"sch":1636,"male":1637,"\",":1638,"history":1639,"Its":1640,"impress":1641,"pu":1642,"thinking":1643,"quality":1644,"ross":1645,"decent":1646,"conf":1647,"miss":1648,"crap":1649,"At":1650,"ken":1651,"ories":1652,"using":1653,"extreme":1654,"wit":1655,"allow":1656,"wonderful":1657,"contin":1658,"cks":1659,"Chris":1660,"Even":1661,"Why":1662,"teen":1663,"IMD":1664,"ts":1665,"ures":1666,"started":1667,"friends":1668,"Ne":1669,"iculous":1670,"gest":1671,"level":1672,"face":1673,"fantastic":1674,"parts":1675,"fortun":1676,"fer":1677,"cy":1678,"past":1679,"days":1680,"stru":1681,"exp":1682,"intel":1683,"writers":1684,"style":1685,"beginning":1686,"classic":1687,"awesome":1688,"With":1689,"Over":1690,"finish":1691,"actress":1692,"along":1693,"surprised":1694,"until":1695,"guys":1696,"throughout":1697,"expecting":1698,"dep":1699,"ming":1700,"Ar":1701,"ret":1702,"kept":1703,"pict":1704,"sul":1705,"experience":1706,"live":1707,"flix":1708,"cu":1709,"law":1710,"unch":1711,"possible":1712,"attempt":1713,"feeling":1714,"quest":1715,"ention":1716,"woman":1717,"pass":1718,"ek":1719,"score":1720,"camera":1721,"ship":1722,"neg":1723,"vin":1724,"children":1725,"ridiculous":1726,"supposed":1727,"cannot":1728,"ler":1729,"sk":1730,"Watch":1731,"couple":1732,"fresh":1733,"Net":1734,"cop":1735,"giving":1736,"rent":1737,"genre":1738,"ouch":1739,"event":1740,"ates":1741,"stuff":1742,"during":1743,"visual":1744,"CG":1745,"write":1746,"fair":1747,"chance":1748,"May":1749,"ased":1750,"fine":1751,"stories":1752,"ared":1753,"Is":1754,"three":1755,"sequel":1756,"huge":1757,"uck":1758,"help":1759,"consider":1760,"boy":1761,"Very":1762,"wi":1763,"acted":1764,"ities":1765,"ote":1766,"ouse":1767,"ton":1768,"black":1769,"suc":1770,"school":1771,"Yes":1772,"ST":1773,"hilar":1774,"gra":1775,"track":1776,"vid":1777,"omb":1778,"ump":1779,"stay":1780,"God":1781,"supp":1782,"plays":1783,"ingly":1784,"clich":1785,"dri":1786,"bage":1787,"ger":1788,"type":1789,"overall":1790,"pop":1791,"saying":1792,"Also":1793,"suspense":1794,"posit":1795,"expectations":1796,"seemed":1797,"annoying":1798,"enjoyable":1799,"close":1800,"lost":1801,"pot":1802,"Good":1803,"orry":1804,"invol":1805,"00":1806,"ear":1807,"nat":1808,"import":1809,"preci":1810,"AN":1811,"zy":1812,"aking":1813,"ord":1814,"ali":1815,"ace":1816,"lan":1817,"Netflix":1818,"fast":1819,"aring":1820,"**":1821,"garbage":1822,"fut":1823,"rek":1824,"RE":1825,"extremely":1826,"void":1827,"IMDb":1828,"touch":1829,"highly":1830,"ground":1831,"cer":1832,"pay":1833,"Br":1834,"mas":1835,"bro":1836,"ank":1837,"antly":1838,"however":1839,"ize":1840,"message":1841,"feels":1842,"Go":1843,".\"":1844,"took":1845,"remember":1846,"illy":1847,"dou":1848,"please":1849,"hilarious":1850,"pain":1851,"thriller":1852,"violence":1853,"name":1854,"CGI":1855,"trailer":1856,"fran":1857,"development":1858,"Act":1859,"happened":1860,"ese":1861,"home":1862,"ential":1863,"parent":1864,"incl":1865,"support":1866,"issu":1867,"ots":1868,"bring":1869,"telling":1870,"ream":1871,"cool":1872,"ling":1873,"negative":1874,"oud":1875,"typ":1876,"cked":1877,"First":1878,"bored":1879,"dr":1880,"today":1881,"OK":1882,"scar":1883,"leave":1884,"den":1885,"ages":1886,"vide":1887,"lish":1888,"mit":1889,"favorite":1890,"selves":1891,"Can":1892,"reality":1893,"fortunately":1894,"Disney":1895,"vision":1896,"Man":1897,"weak":1898,"Sc":1899,"simple":1900,"af":1901,"coun":1902,"ular":1903,"ake":1904,"win":1905,"become":1906,"spoil":1907,"political":1908,"tail":1909,"Ke":1910,"certainly":1911,"ident":1912,"cred":1913,"entertainment":1914,"song":1915,"Overall":1916,"flick":1917,"attention":1918,"save":1919,"spir":1920,"pac":1921,"single":1922,"mid":1923,"Maybe":1924,"seriously":1925,"ined":1926,"future":1927,"Car":1928,"wife":1929,"looked":1930,"gives":1931,"relation":1932,"die":1933,"DV":1934,"dist":1935,"scary":1936,"ends":1937,"aver":1938,"ino":1939,"playing":1940,"critics":1941,"Su":1942,"ility":1943,"mention":1944,"twist":1945,"deep":1946,"haps":1947,"plan":1948,"ON":1949,"av":1950,"haven":1951,"matter":1952,"Sh":1953,"adult":1954,"myster":1955,"sever":1956,"wouldn":1957,"theat":1958,"mark":1959,"appreci":1960,"roll":1961,"hit":1962,"igh":1963,"yond":1964,"dam":1965,"moder":1966,"exact":1967,"tried":1968,"Sp":1969,"pleas":1970,"situ":1971,"30":1972,"intellig":1973,"bb":1974,"Any":1975,"needs":1976,"heard":1977,"rate":1978,"cult":1979,"US":1980,"mal":1981,"Now":1982,"chang":1983,"case":1984,"Ple":1985,"leg":1986,"Ex":1987,"masterpiece":1988,"AT":1989,"IS":1990,"emotional":1991,"prof":1992,"happens":1993,"Wars":1994,"build":1995,"wise":1996,"ima":1997,"DVD":1998,"ok":1999,"ition":2000,"viewer":2001,"pace":2002,"comic":2003,"!!!!":2004,"Per":2005,"antic":2006,"zz":2007,"forget":2008,"lea":2009,"count":2010,"necess":2011,"concept":2012,"previous":2013,"imag":2014,"remind":2015,"change":2016,"ker":2017,"eyes":2018,"white":2019,"ered":2020,"Com":2021,"cas":2022,"moment":2023,"modern":2024,"taking":2025,"although":2026,"against":2027,"problem":2028,"called":2029,"Please":2030,"books":2031,"detail":2032,"lect":2033,"happy":2034,"usual":2035,"turned":2036,"respect":2037,"ided":2038,"told":2039,"rist":2040,"AL":2041,"sum":2042,"cover":2043,"small":2044,"loc":2045,"game":2046,"works":2047,"hind":2048,"While":2049,"wasted":2050,"week":2051,"Mich":2052,"beyond":2053,"average":2054,"cause":2055,"lid":2056,"doub":2057,"exam":2058,"ley":2059,"uss":2060,"spect":2061,"air":2062,"lear":2063,"leep":2064,"Wor":2065,"foc":2066,"fic":2067,"ized":2068,"particul":2069,"Marvel":2070,"tech":2071,"words":2072,"ier":2073,"stra":2074,"female":2075,"villa":2076,"Jack":2077,"Char":2078,"wn":2079,"Ser":2080,"waiting":2081,"often":2082,"ratings":2083,"Movie":2084,"iness":2085,"mix":2086,"dull":2087,"important":2088,"ards":2089,"utter":2090,"Mc":2091,"ired":2092,"move":2093,"laughing":2094,"deserves":2095,"pur":2096,"hold":2097,"Trek":2098,"mise":2099,"augh":2100,"effort":2101,"shame":2102,"lives":2103,"conne":2104,"Con":2105,"cost":2106,"Da":2107,"directing":2108,"viewers":2109,"ety":2110,"Di":2111,"lame":2112,"ific":2113,"several":2114,"deliver":2115,"sort":2116,"aster":2117,"roles":2118,"matic":2119,"15":2120,"success":2121,"dumb":2122,"agree":2123,"mistry":2124,"potential":2125,"writer":2126,"jor":2127,"bi":2128,"bing":2129,"Oscar":2130,"behind":2131,"similar":2132,"ator":2133,"aged":2134,"Ste":2135,"Har":2136,"reading":2137,"meaning":2138,"chemistry":2139,"franch":2140,"blood":2141,"Tom":2142,"emotion":2143,"twists":2144,"directed":2145,"feat":2146,"dialog":2147,"ING":2148,"lots":2149,"cliché":2150,"Will":2151,"ket":2152,"usually":2153,"Who":2154,"themselves":2155,"exactly":2156,"0s":2157,"pri":2158,"dead":2159,"net":2160,"ured":2161,"explo":2162,"thetic":2163,"verse":2164,"quick":2165,"ago":2166,"From":2167,"trash":2168,"superb":2169,"alone":2170,"taken":2171,"animation":2172,"casting":2173,"poorly":2174,"incredible":2175,"Eng":2176,"asy":2177,"gs":2178,"pick":2179,"knew":2180,"lock":2181,"premise":2182,"title":2183,"NOT":2184,"honestly":2185,"dle":2186,"arch":2187,"hell":2188,"soundtrack":2189,"clever":2190,"swe":2191,"ani":2192,"liter":2193,"forced":2194,"sometimes":2195,"Brit":2196,"solid":2197,"Bad":2198,"known":2199,"unique":2200,"prom":2201,"pite":2202,"ues":2203,"involved":2204,"remake":2205,"glad":2206,"Sha":2207,"comment":2208,"cking":2209,"ael":2210,"flaw":2211,"itch":2212,"psy":2213,"ky":2214,"talking":2215,"aren":2216,"father":2217,"franchise":2218,"wards":2219,"Ho":2220,"hol":2221,"depth":2222,"turns":2223,"humour":2224,"major":2225,"ric":2226,"recent":2227,"Ab":2228,"worthy":2229,"yp":2230,"soon":2231,"hoping":2232,"cheap":2233,"Ter":2234,"finally":2235,"Indi":2236,"fiction":2237,"Oh":2238,"positive":2239,"Mr":2240,"enn":2241,"Really":2242,"brain":2243,"aspect":2244,"sorry":2245,"exe":2246,"deal":2247,"ering":2248,"omin":2249,"standing":2250,"easy":2251,"sult":2252,"house":2253,"bat":2254,"jud":2255,"minute":2256,"gre":2257,"anda":2258,"grou":2259,"ension":2260,"range":2261,"Po":2262,"clear":2263,"decided":2264,"Christi":2265,"explain":2266,"none":2267,"weird":2268,"perfectly":2269,"late":2270,"cry":2271,"room":2272,"keeps":2273,"terri":2274,"silly":2275,"science":2276,"break":2277,"LO":2278,"Of":2279,"dest":2280,"Michael":2281,"Nothing":2282,"pure":2283,"inst":2284,"starts":2285,"laughs":2286,"laughed":2287,"People":2288,"ero":2289,"ib":2290,"himself":2291,"ca":2292,"necessary":2293,"team":2294,"blow":2295,"thor":2296,"easily":2297,"IT":2298,"ats":2299,"actual":2300,"post":2301,"Like":2302,"death":2303,"tele":2304,"loud":2305,"subject":2306,"THE":2307,"kers":2308,"truth":2309,"doubt":2310,"New":2311,"pil":2312,"ised":2313,"exist":2314,"obviously":2315,"bother":2316,"fo":2317,"ational":2318,"abo":2319,"typical":2320,"fig":2321,"sequences":2322,"events":2323,"ude":2324,"video":2325,".....":2326,"bur":2327,"imagin":2328,"example":2329,"evil":2330,"thy":2331,"issues":2332,"fell":2333,"excited":2334,"fit":2335,"ides":2336,"Or":2337,"wer":2338,"esy":2339,"smart":2340,"gon":2341,"arely":2342,"James":2343,"band":2344,"suff":2345,"narr":2346,"setting":2347,"later":2348,"ural":2349,"disappointing":2350,"clearly":2351,"girls":2352,"agon":2353,"apt":2354,"Although":2355,"En":2356,"langu":2357,"Bo":2358,"repe":2359,"aste":2360,"joke":2361,"enty":2362,"straight":2363,"ount":2364,"satis":2365,"intri":2366,"sou":2367,"disappointment":2368,"emotions":2369,"Me":2370,"country":2371,"total":2372,"const":2373,"Then":2374,"cla":2375,"flat":2376,"bunch":2377,"han":2378,"Fil":2379,"stick":2380,"surprise":2381,"voice":2382,"includ":2383,"mostly":2384,"trans":2385,"ina":2386,"histor":2387,"due":2388,"ding":2389,"needed":2390,"personal":2391,"convin":2392,"Ger":2393,"gan":2394,"pack":2395,"points":2396,"key":2397,"201":2398,"execut":2399,"early":2400,"pathetic":2401,"moving":2402,"exciting":2403,"stun":2404,"Lu":2405,"fantasy":2406,"gri":2407,"cial":2408,"created":2409,"treat":2410,"gy":2411,"lice":2412,"picture":2413,"num":2414,"OR":2415,"avoid":2416,"Let":2417,"mystery":2418,"wants":2419,"Tr":2420,"pped":2421,"Most":2422,"ising":2423,"rede":2424,"spent":2425,"middle":2426,"famil":2427,"lar":2428,"und":2429,"stere":2430,"row":2431,"Black":2432,"pat":2433,"cheesy":2434,"ze":2435,"admit":2436,"cring":2437,"els":2438,"anger":2439,"question":2440,"rodu":2441,"wo":2442,"appreciate":2443,"talk":2444,"listen":2445,"cru":2446,"idi":2447,"above":2448,"graph":2449,"interested":2450,"ref":2451,"arant":2452,"iv":2453,"edge":2454,"comments":2455,"group":2456,"free":2457,"literally":2458,"Bl":2459,"showing":2460,"pilot":2461,"shi":2462,"aughter":2463,"television":2464,"His":2465,"mosp":2466,"language":2467,"ony":2468,"........":2469,"bal":2470,"tries":2471,"space":2472,"stereot":2473,"background":2474,"amp":2475,"cers":2476,"ring":2477,"Co":2478,"uses":2479,"gone":2480,"90":2481,"Christ":2482,"ride":2483,"filled":2484,"aging":2485,"society":2486,"atmosp":2487,"amount":2488,"America":2489,"lim":2490,"tiv":2491,"meet":2492,"oose":2493,"final":2494,"seat":2495,"English":2496,"ison":2497,"Em":2498,"missed":2499,"50":2500,"daughter":2501,"intelligent":2502,"AR":2503,"nie":2504,"descri":2505,"critic":2506,"VER":2507,"bust":2508,"theme":2509,"200":2510,"orge":2511,"ideas":2512,"says":2513,"mother":2514,"elements":2515,"check":2516,"usion":2517,"brought":2518,"grow":2519,"py":2520,"Bat":2521,"sug":2522,"Love":2523,"ball":2524,"erial":2525,"god":2526,"perhaps":2527,"refer":2528,"nam":2529,"Everything":2530,"novel":2531,"editing":2532,"War":2533,"advent":2534,"gore":2535,"accept":2536,"suggest":2537,"Gu":2538,"bar":2539,"screenplay":2540,"makers":2541,"LE":2542,"100":2543,"bert":2544,"sexual":2545,"carto":2546,"incredibly":2547,"Season":2548,"express":2549,"Super":2550,"rac":2551,"sets":2552,"slight":2553,"near":2554,"logy":2555,"design":2556,"British":2557,"Rob":2558,"material":2559,"Story":2560,"har":2561,"seasons":2562,"appear":2563,"gust":2564,"Ma":2565,"superhero":2566,"sick":2567,"dramatic":2568,"Unfortunately":2569,"powerful":2570,"pointless":2571,"stud":2572,"vice":2573,"iously":2574,"appeal":2575,"Ha":2576,"box":2577,"create":2578,"social":2579,"mur":2580,"spend":2581,"pose":2582,"viewing":2583,"bed":2584,"becomes":2585,"actions":2586,"ents":2587,"musical":2588,"ibly":2589,"dru":2590,"order":2591,"shots":2592,"anymore":2593,"gun":2594,"sign":2595,"propag":2596,"ask":2597,"ched":2598,"Fran":2599,"lad":2600,"opening":2601,"paced":2602,"medio":2603,"hype":2604,"relig":2605,"mi":2606,"relationship":2607,"accent":2608,"value":2609,"current":2610,"natural":2611,"jump":2612,"supporting":2613,"dream":2614,"basically":2615,"ried":2616,"fake":2617,"ability":2618,"means":2619,"Gr":2620,"mes":2621,"songs":2622,"pping":2623,"Pa":2624,"ged":2625,"impro":2626,"Cl":2627,"vest":2628,"visuals":2629,"imagine":2630,"holes":2631,"elling":2632,"VE":2633,"otic":2634,"producers":2635,"logical":2636,"Je":2637,"adapt":2638,"uine":2639,"----":2640,"speak":2641,"paid":2642,"icult":2643,"within":2644,"mb":2645,"ares":2646,"learn":2647,"difficult":2648,"tale":2649,"Tur":2650,"romance":2651,"across":2652,"ail":2653,"reviewers":2654,"memor":2655,"content":2656,"shown":2657,"capt":2658,"pull":2659,"watchable":2660,"hook":2661,"general":2662,"pho":2663,"sl":2664,"released":2665,"complex":2666,"blic":2667,"propaganda":2668,"unity":2669,"portrayed":2670,"walked":2671,"culture":2672,"Qu":2673,"Christian":2674,"hot":2675,"Acting":2676,"Ed":2677,"stunning":2678,"zomb":2679,"romantic":2680,"docu":2681,"hear":2682,"King":2683,"Too":2684,"fying":2685,"ices":2686,"state":2687,"fest":2688,"genuine":2689,"eye":2690,"oun":2691,"failed":2692,"worked":2693,"crew":2694,"somewhat":2695,"bbish":2696,"intrigu":2697,"eld":2698,"badly":2699,"Direct":2700,"ni":2701,"site":2702,"atmosphere":2703,"throw":2704,"equ":2705,"tired":2706,"crazy":2707,"Sam":2708,"correct":2709,"period":2710,"deserve":2711,"nonsense":2712,"lin":2713,"shoot":2714,"extra":2715,"third":2716,"beautifully":2717,"drop":2718,"creep":2719,"whe":2720,"missing":2721,"redeem":2722,"wr":2723,"stre":2724,"emb":2725,"ene":2726,"Ad":2727,"unlike":2728,"knows":2729,"OU":2730,"outstanding":2731,"rage":2732,"80":2733,"Thank":2734,"mediocre":2735,"anks":2736,"rend":2737,"shed":2738,"sens":2739,"sla":2740,"By":2741,"tension":2742,"greatest":2743,"prot":2744,"oh":2745,"accur":2746,"crime":2747,"fighting":2748,"including":2749,"lik":2750,"gay":2751,"convincing":2752,"document":2753,"four":2754,"cei":2755,"problems":2756,"gonna":2757,"var":2758,"epic":2759,"host":2760,"rench":2761,"Sim":2762,"EN":2763,"happening":2764,"talented":2765,"credits":2766,"meant":2767,"brings":2768,"connect":2769,"David":2770,"az":2771,"atta":2772,"ently":2773,"views":2774,"villain":2775,"LY":2776,"Bro":2777,"High":2778,"milli":2779,"search":2780,"release":2781,"ister":2782,"living":2783,"'.":2784,"Best":2785,"sell":2786,"roy":2787,"rich":2788,"impressed":2789,"sold":2790,"despite":2791,"survi":2792,"continue":2793,"particularly":2794,"ceed":2795,"Cap":2796,"wan":2797,"iss":2798,"AS":2799,"round":2800,"Only":2801,"parents":2802,"entertained":2803,"continu":2804,"comb":2805,"Fi":2806,"refresh":2807,"cant":2808,"mil":2809,"outh":2810,"ining":2811,"directors":2812,"arrass":2813,"ping":2814,"filmed":2815,"Ra":2816,"ival":2817,"ug":2818,"likable":2819,"ury":2820,"disgust":2821,"introdu":2822,"rubbish":2823,"subtle":2824,"cute":2825,"invest":2826,"strange":2827,"Fin":2828,"Pr":2829,"ban":2830,"intense":2831,"Was":2832,"concl":2833,"?!":2834,"till":2835,"somehow":2836,"leads":2837,"thers":2838,"spot":2839,"unless":2840,"Ge":2841,"gress":2842,"taste":2843,"ral":2844,"creative":2845,"quickly":2846,"possibly":2847,"berg":2848,"stereotyp":2849,"Other":2850,"adults":2851,"plenty":2852,"ius":2853,"oring":2854,"Film":2855,"Nor":2856,"towards":2857,"choice":2858,"embarrass":2859,"ordin":2860,"imp":2861,"hus":2862,"Ali":2863,"buy":2864,"force":2865,"oughly":2866,"number":2867,"purpose":2868,"rec":2869,"whatever":2870,"breath":2871,"situations":2872,"flu":2873,"ships":2874,"ensive":2875,"Ben":2876,"Sure":2877,"gues":2878,"ik":2879,"husband":2880,"12":2881,"Did":2882,"scenery":2883,"depress":2884,"became":2885,"colle":2886,"anti":2887,"running":2888,"BC":2889,"foot":2890,"represent":2891,"Hor":2892,"longer":2893,"ica":2894,"urt":2895,"painful":2896,"okay":2897,"unbelievable":2898,"cringe":2899,"step":2900,"imm":2901,"leaves":2902,"Bra":2903,"appro":2904,"umes":2905,"police":2906,"distur":2907,"Sm":2908,"Sch":2909,"claim":2910,"progra":2911,"plots":2912,"strugg":2913,"catch":2914,"project":2915,"jour":2916,"apart":2917,"Pl":2918,"date":2919,"ied":2920,"These":2921,"insp":2922,"killed":2923,"Hope":2924,"Wal":2925,"contain":2926,"portrayal":2927,"adventure":2928,"added":2929,"mass":2930,"Definitely":2931,"focus":2932,"Her":2933,"public":2934,"hood":2935,"cal":2936,"impressive":2937,"Mon":2938,"finished":2939,"questions":2940,"justice":2941,"IE":2942,"iar":2943,"unk":2944,"working":2945,"ula":2946,"Russ":2947,"town":2948,"profess":2949,"nearly":2950,"adv":2951,"cartoon":2952,"craft":2953,"urther":2954,"II":2955,"stern":2956,"awk":2957,",\"":2958,"tv":2959,"regard":2960,"animated":2961,"fails":2962,"packed":2963,"regret":2964,"murder":2965,"Sci":2966,"ances":2967,"screening":2968,"developed":2969,"pra":2970,"tern":2971,"realize":2972,"contro":2973,"flash":2974,"situation":2975,"wrote":2976,"ries":2977,"dim":2978,"aby":2979,"soph":2980,"violent":2981,"13":2982,"historical":2983,"fron":2984,"canc":2985,"Col":2986,"tom":2987,"normal":2988,"</":2989,"omen":2990,"Peter":2991,"Indian":2992,"whether":2993,"unnecessary":2994,"engaging":2995,"Gre":2996,"Pro":2997,"remain":2998,"max":2999,"ctor":3000,"universe":3001,"fra":3002,"produced":3003,"odd":3004,"table":3005,"bel":3006,"protagon":3007,"dog":3008,"among":3009,"Des":3010,"OM":3011,"ians":3012,"accurate":3013,"stri":3014,"tract":3015,"compared":3016,"ants":3017,"refreshing":3018,"Aw":3019,"Spider":3020,"indi":3021,"familiar":3022,"pres":3023,"Che":3024,"psycho":3025,"wanting":3026,"gotten":3027,"leading":3028,"bot":3029,"nel":3030,"subst":3031,"apparent":3032,"changed":3033,"recommended":3034,"soul":3035,"photo":3036,":)":3037,"aught":3038,"bus":3039,"fr":3040,"ially":3041,"unrealistic":3042,"Sand":3043,"load":3044,"ogy":3045,"details":3046,"El":3047,"contri":3048,"spectac":3049,"ordinary":3050,"ulti":3051,"Big":3052,"Tru":3053,"magic":3054,"Everyone":3055,"Ama":3056,"Dead":3057,"Ju":3058,"sleep":3059,"ager":3060,"marvel":3061,".)":3062,"comfort":3063,"five":3064,"Look":3065,"str":3066,"belief":3067,"hopes":3068,"lies":3069,"older":3070,"genius":3071,"Ang":3072,"ub":3073,"zed":3074,"ender":3075,"ives":3076,"test":3077,"confusing":3078,"hat":3079,"hated":3080,"arantino":3081,"Dark":3082,"figure":3083,"rew":3084,"theatre":3085,"unfortunately":3086,"comedies":3087,"compare":3088,"Vi":3089,"zero":3090,"kick":3091,"ogn":3092,"inno":3093,"reve":3094,"pet":3095,"Dan":3096,"GO":3097,"horri":3098,"hooked":3099,"thank":3100,"decis":3101,"inspir":3102,"ott":3103,"Tarantino":3104,"gain":3105,"CH":3106,"Adam":3107,"Show":3108,"consist":3109,"resp":3110,"asc":3111,"ously":3112,"costumes":3113,"dont":3114,"common":3115,"wondering":3116,"delivers":3117,"walk":3118,"ctive":3119,"thoroughly":3120,"uc":3121,"stal":3122,"Mel":3123,"Seriously":3124,"gged":3125,"anyway":3126,"bes":3127,"race":3128,"gry":3129,"biggest":3130,"avy":3131,"ivity":3132,"sters":3133,"Where":3134,"copy":3135,"ener":3136,"ilogy":3137,"creepy":3138,"fire":3139,"faith":3140,"erson":3141,"uro":3142,"grand":3143,"career":3144,"andom":3145,"lying":3146,"otherwise":3147,"documentary":3148,"tort":3149,"Ano":3150,"asleep":3151,"IL":3152,"40":3153,"sn":3154,"multi":3155,"reach":3156,"Far":3157,"ses":3158,"cul":3159,"eron":3160,"recogn":3161,"Another":3162,"moved":3163,"utterly":3164,"Never":3165,"indust":3166,"Ry":3167,"ays":3168,"Instead":3169,"personally":3170,"eless":3171,"managed":3172,"requ":3173,"rap":3174,"program":3175,"Im":3176,"Wow":3177,"compelling":3178,"studi":3179,"awkward":3180,"nore":3181,"achie":3182,"sym":3183,"credit":3184,"tone":3185,"medi":3186,"ifer":3187,"Robert":3188,"vot":3189,"ruined":3190,"falls":3191,"inc":3192,"relate":3193,"politics":3194,"MO":3195,"ths":3196,"boys":3197,"See":3198,"ital":3199,"sweet":3200,"board":3201,"Sad":3202,"ham":3203,"rup":3204,"luck":3205,"BO":3206,"result":3207,"Paul":3208,"progress":3209,"lacks":3210,"weren":3211,"depict":3212,"showed":3213,"tells":3214,"redeeming":3215,"shock":3216,"entious":3217,"popular":3218,"mad":3219,"narrative":3220,"mir":3221,"beat":3222,"pacing":3223,"slightly":3224,"Mus":3225,"kills":3226,"battle":3227,"SE":3228,"cat":3229,"teach":3230,"deed":3231,"boot":3232,"office":3233,"ties":3234,"complain":3235,"sitting":3236,"nature":3237,"fool":3238,"note":3239,"mood":3240,"tears":3241,"reasons":3242,"pieces":3243,"fear":3244,"stream":3245,"Sorry":3246,"water":3247,"ution":3248,"fied":3249,"Christmas":3250,"DC":3251,"ades":3252,"Absolute":3253,"Bar":3254,"graphy":3255,"upon":3256,"comedic":3257,"ceived":3258,"likes":3259,"doll":3260,"disaster":3261,"earth":3262,"Honest":3263,"Park":3264,"kinda":3265,"proper":3266,"EVER":3267,"barely":3268,"opport":3269,"illiam":3270,"intriguing":3271,"trilogy":3272,"cinematic":3273,"flow":3274,"ening":3275,"inspired":3276,"trust":3277,"ient":3278,"Last":3279,"hen":3280,"Because":3281,"Red":3282,"touching":3283,"11":3284,"impossible":3285,"Jim":3286,"liber":3287,"Sa":3288,"further":3289,"desper":3290,"push":3291,"agend":3292,"theaters":3293,"Fe":3294,"chall":3295,"terror":3296,"large":3297,"mote":3298,"corn":3299,"random":3300,"specially":3301,"witch":3302,"Many":3303,"Ri":3304,"phys":3305,"perspect":3306,"Perhaps":3307,"provo":3308,"describe":3309,"neither":3310,"tar":3311,"dialogues":3312,"AD":3313,"Loved":3314,"Batman":3315,"Ok":3316,"oppo":3317,"AM":3318,"nomin":3319,"draw":3320,"places":3321,"executed":3322,"industry":3323,"fasc":3324,"ush":3325,"ination":3326,"bla":3327,"city":3328,"particular":3329,"Fo":3330,"ampire":3331,"Kevin":3332,"pan":3333,"brut":3334,"basic":3335,"shallow":3336,"sucks":3337,"following":3338,"leaving":3339,"rie":3340,"ively":3341,"THIS":3342,"ior":3343,"dem":3344,"Aust":3345,"More":3346,"journey":3347,"Honestly":3348,"fairly":3349,"ultim":3350,"quir":3351,"1st":3352,"ded":3353,"udo":3354,"dies":3355,"actresses":3356,"dish":3357,"younger":3358,"onder":3359,"vict":3360,"grit":3361,"notch":3362,"knowing":3363,"nail":3364,"pretentious":3365,"3D":3366,"fill":3367,"disturbing":3368,"elled":3369,"nowhere":3370,"Mur":3371,"Ryan":3372,"bland":3373,"witty":3374,"',":3375,"Save":3376,"?\"":3377,"Mad":3378,"apo":3379,"pul":3380,"Bond":3381,"shouldn":3382,"names":3383,"adaptation":3384,"Mor":3385,"gers":3386,"block":3387,"heroes":3388,"conclusion":3389,"bear":3390,"commer":3391,"relationships":3392,"twice":3393,"bul":3394,"sen":3395,"judge":3396,"Give":3397,"scares":3398,"likely":3399,"empt":3400,"generation":3401,"Here":3402,"scream":3403,"moves":3404,"wanna":3405,"zombie":3406,"gang":3407,"account":3408,"Smith":3409,"aspects":3410,"ech":3411,"trad":3412,"standard":3413,"emp":3414,"considering":3415,"mbers":3416,"memorable":3417,"???":3418,"ime":3419,"breaking":3420,"damn":3421,"flaws":3422,"front":3423,"gent":3424,"absur":3425,"Tra":3426,"killing":3427,"scenar":3428,"concer":3429,"smo":3430,"everybody":3431,"confused":3432,"World":3433,"ateur":3434,"Ye":3435,"thats":3436,"mental":3437,"compar":3438,"reminded":3439,"laughter":3440,"issue":3441,"Still":3442,"del":3443,"ify":3444,"rious":3445,"feelings":3446,"media":3447,"Lee":3448,"million":3449,"Bill":3450,"ging":3451,"plus":3452,"mentioned":3453,"imagination":3454,"itary":3455,"irrit":3456,"Men":3457,"lets":3458,"Mart":3459,"paint":3460,"inside":3461,"Americans":3462,"destroy":3463,"drawn":3464,"ather":3465,"rare":3466,"hardly":3467,"thin":3468,"color":3469,"intelligence":3470,"dimens":3471,"aa":3472,"heavy":3473,"relev":3474,"William":3475,"gory":3476,"mistake":3477,"sw":3478,"Wood":3479,"tough":3480,"themes":3481,"izing":3482,"formula":3483,"Ber":3484,"Mat":3485,"Night":3486,"femin":3487,"Bru":3488,"Jason":3489,"sequence":3490,"ED":3491,"ises":3492,"Par":3493,"gover":3494,"approach":3495,"Out":3496,"angry":3497,"delivered":3498,"BS":3499,"HO":3500,"depend":3501,"entirely":3502,"Scott":3503,"leng":3504,"trou":3505,"alien":3506,"exception":3507,"absurd":3508,"Tim":3509,"walking":3510,"dread":3511,"decide":3512,"terms":3513,"propri":3514,"core":3515,"sil":3516,"appears":3517,"hands":3518,"bomb":3519,"reminds":3520,"reveal":3521,"minor":3522,"agenda":3523,"Rom":3524,"higher":3525,"struct":3526,"connection":3527,"Having":3528,"Hard":3529,"lose":3530,"anced":3531,"spirit":3532,"Charact":3533,"Pat":3534,"travel":3535,"ds":3536,"smile":3537,"seless":3538,"Step":3539,"audiences":3540,"Exc":3541,"disc":3542,"vote":3543,"iment":3544,"field":3545,"raid":3546,"thrown":3547,"brother":3548,"German":3549,"Af":3550,"vert":3551,"terrific":3552,"amateur":3553,"Wil":3554,"mixed":3555,"Euro":3556,"fla":3557,"suit":3558,"killer":3559,"Two":3560,"western":3561,"app":3562,"thinks":3563,"ourit":3564,"assu":3565,"disgusting":3566,"nu":3567,"appropri":3568,"graphic":3569,"perspective":3570,"!\"":3571,"aim":3572,"cross":3573,"rip":3574,"award":3575,"substance":3576,"spectacular":3577,"ape":3578,"match":3579,"occas":3580,"references":3581,"moral":3582,"ba":3583,"dry":3584,"path":3585,"humanity":3586,"ung":3587,"End":3588,"stem":3589,"storytelling":3590,"considered":3591,"French":3592,"ashing":3593,"sounds":3594,"comfortable":3595,"70":3596,"Bet":3597,"Thr":3598,"mission":3599,"beha":3600,"iny":3601,"oooo":3602,"constantly":3603,"professional":3604,"dimensional":3605,"onic":3606,"loss":3607,"AND":3608,"building":3609,"yed":3610,"lacking":3611,"venge":3612,"bs":3613,"protagonist":3614,"stood":3615,"changes":3616,"discover":3617,"beauty":3618,"values":3619,"members":3620,"acc":3621,"Jones":3622,"Jenn":3623,"mally":3624,"mm":3625,"ters":3626,"surprisingly":3627,"favourit":3628,"vir":3629,"unexpected":3630,"whose":3631,"cious":3632,"offer":3633,"spoilers":3634,"gic":3635,"iced":3636,"delight":3637,"answ":3638,"grab":3639,"!)":3640,"techno":3641,"insult":3642,"recently":3643,"60":3644,"secre":3645,"overrated":3646,"feature":3647,"anime":3648,"Bruce":3649,"opportunity":3650,"wed":3651,"teenage":3652,"TO":3653,"crimin":3654,"VIE":3655,"numb":3656,"news":3657,"Absolutely":3658,"Law":3659,"aware":3660,"famous":3661,"formation":3662,"immedi":3663,"Brad":3664,"successful":3665,"flict":3666,"titles":3667,"trailers":3668,"remark":3669,"adds":3670,"suppose":3671,"constant":3672,"Ep":3673,"Would":3674,"captiv":3675,"grace":3676,"phen":3677,"Jennifer":3678,"games":3679,"ander":3680,"cir":3681,"Cam":3682,"surely":3683,"Sar":3684,"apan":3685,"ES":3686,"hair":3687,"ppy":3688,"laughable":3689,"wasting":3690,"crow":3691,"Highly":3692,"apparently":3693,"George":3694,"charming":3695,"folks":3696,"Director":3697,"een":3698,"loving":3699,"Spi":3700,"base":3701,"soever":3702,"loves":3703,"acts":3704,"stuck":3705,"indeed":3706,"ns":3707,"thus":3708,"insul":3709,"irty":3710,"lazy":3711,"SO":3712,"unfunny":3713,"Captain":3714,"Way":3715,"afraid":3716,"mbl":3717,"ilo":3718,"whatsoever":3719,"faces":3720,"Ale":3721,"Mi":3722,"ished":3723,"skip":3724,"phenomen":3725,"pleasantly":3726,"enjoying":3727,"sake":3728,"niest":3729,"intellect":3730,"ost":3731,"understanding":3732,"carry":3733,"Ph":3734,"za":3735,"system":3736,"Dr":3737,"ody":3738,"presented":3739,"street":3740,"fash":3741,"qual":3742,"Bre":3743,"motiv":3744,"affect":3745,"religious":3746,"prefer":3747,"slowly":3748,"lay":3749,"tran":3750,"putting":3751,"da":3752,"Anyway":3753,"photography":3754,"Such":3755,"ges":3756,"vidu":3757,"member":3758,"business":3759,"eper":3760,"Bur":3761,"lier":3762,"attempts":3763,"Cine":3764,"IC":3765,"Lit":3766,"wow":3767,"recor":3768,"Those":3769,"mature":3770,"punch":3771,"succeed":3772,"Get":3773,"caught":3774,"ilt":3775,"thanks":3776,"grat":3777,"visually":3778,"motion":3779,"fascin":3780,"relevant":3781,"awards":3782,"spec":3783,"victim":3784,"overly":3785,"iers":3786,"courage":3787,"Jackson":3788,"frust":3789,"dan":3790,"van":3791,"shocked":3792,"Jes":3793,"hom":3794,"forgettable":3795,"fold":3796,"exper":3797,"orgeous":3798,"avi":3799,"nud":3800,"manages":3801,"Frank":3802,"fu":3803,"notice":3804,"difference":3805,"Life":3806,"nical":3807,"reboot":3808,"offic":3809,"rupt":3810,"enced":3811,"Amazing":3812,"reck":3813,"outside":3814,"thrilling":3815,"Terrible":3816,"Russian":3817,"individu":3818,"Ac":3819,"bits":3820,"product":3821,"199":3822,"behavi":3823,"favourite":3824,"explan":3825,"excuse":3826,"Wonder":3827,"wind":3828,"arc":3829,"soap":3830,"comics":3831,"girlfriend":3832,"Beaut":3833,"sucked":3834,"creating":3835,"held":3836,"Enjoy":3837,"military":3838,"fault":3839,"generally":3840,"summer":3841,"fashion":3842,"funniest":3843,"deserved":3844,"Steve":3845,"blown":3846,"Europe":3847,"educ":3848,"wooden":3849,"grew":3850,"meets":3851,"empty":3852,"AC":3853,"Day":3854,"comput":3855,"surprising":3856,"Action":3857,"BE":3858,"Japan":3859,"pse":3860,"Rock":3861,"Avoid":3862,"explos":3863,"drug":3864,"acy":3865,"Once":3866,"Boring":3867,"agger":3868,"wars":3869,"LOVE":3870,"multiple":3871,"met":3872,"lessly":3873,"Martin":3874,"vampire":3875,"asha":3876,"offensive":3877,"stereotypes":3878,"blockbust":3879,"Fun":3880,"ork":3881,"spin":3882,"mins":3883,"turning":3884,"Dra":3885,"ube":3886,"scient":3887,"control":3888,"yn":3889,"personality":3890,"Dani":3891,"below":3892,"gem":3893,"minator":3894,"stopped":3895,"popcorn":3896,"kish":3897,"wel":3898,"remote":3899,"filming":3900,"wall":3901,"wash":3902,"ju":3903,"aside":3904,"scared":3905,"vul":3906,"somewhere":3907,"satisfying":3908,"?)":3909,"sour":3910,"train":3911,"Kid":3912,"rey":3913,"sadly":3914,"Anyone":3915,"Han":3916,"genuinely":3917,"appropriate":3918,"Ghost":3919,"eth":3920,"improve":3921,"Excellent":3922,"stage":3923,"follows":3924,"attract":3925,"target":3926,"Could":3927,"ites":3928,"grade":3929,"depressing":3930,"gorgeous":3931,"sal":3932,"century":3933,"dden":3934,"intended":3935,"artistic":3936,"ademy":3937,"ledge":3938,"shocking":3939,"mouth":3940,"tre":3941,"conflict":3942,"ified":3943,"Angel":3944,"nudity":3945,"2nd":3946,"advert":3947,"mach":3948,"facts":3949,"ID":3950,"sess":3951,"anted":3952,"pleasant":3953,"promising":3954,"immediately":3955,"jum":3956,"atter":3957,"agers":3958,"assic":3959,"company":3960,"climax":3961,"nostal":3962,"ague":3963,"vengers":3964,"Sal":3965,"bum":3966,"dance":3967,"ðŸ":3968,"asked":3969,"hid":3970,"praise":3971,"provoking":3972,"YOU":3973,"clichés":3974,"wide":3975,"torture":3976,"Hol":3977,"ghost":3978,"logic":3979,"cancel":3980,"Girl":3981,"DO":3982,"ax":3983,"lived":3984,"Am":3985,"Tot":3986,"dete":3987,"Despite":3988,"Sun":3989,"aga":3990,"six":3991,"arth":3992,"charm":3993,"excite":3994,"pen":3995,"Though":3996,"psychological":3997,"lover":3998,"ellar":3999,"AY":4000,"fab":4001,"singing":4002,"def":4003,"allowed":4004,"bringing":4005,"local":4006,"hang":4007,"convers":4008,"addition":4009,"House":4010,"yeah":4011,"defin":4012,"aked":4013,"monster":4014,"placed":4015,"forever":4016,"authen":4017,"balance":4018,"drugs":4019,"various":4020,"baby":4021,"sister":4022,"chill":4023,"hasn":4024,"element":4025,"pleasure":4026,"ands":4027,"Thanks":4028,"miser":4029,"impact":4030,"><":4031,"sto":4032,"Time":4033,"inv":4034,"pract":4035,"highlight":4036,"clean":4037,"Saw":4038,"serv":4039,"grad":4040,"......":4041,"surprises":4042,"passion":4043,"Juli":4044,"East":4045,"Watching":4046,"MOVIE":4047,"ka":4048,"grown":4049,"childhood":4050,"gripping":4051,"danger":4052,"gross":4053,"manner":4054,"cate":4055,"tun":4056,"choices":4057,"Sandler":4058,"Gar":4059,"govern":4060,"bri":4061,"cold":4062,"sudden":4063,"Cra":4064,"revol":4065,"promise":4066,"Poor":4067,"CU":4068,"inner":4069,"chick":4070,"stands":4071,"backs":4072,"earlier":4073,"received":4074,"Had":4075,"rence":4076,"ALL":4077,"Off":4078,"research":4079,"abs":4080,"channel":4081,"--------":4082,"uff":4083,"suspect":4084,"ups":4085,"wont":4086,"blind":4087,"authentic":4088,"stret":4089,"realism":4090,"starting":4091,"pathy":4092,"deeply":4093,"Ray":4094,"rarely":4095,"icking":4096,"unfold":4097,"nicely":4098,"ald":4099,"ization":4100,"itt":4101,"suck":4102,"iller":4103,"rushed":4104,"locations":4105,"Old":4106,"whel":4107,"illa":4108,"lovely":4109,"sitcom":4110,"Turkish":4111,"Finally":4112,"PO":4113,"onto":4114,"ases":4115,",,":4116,"80s":4117,"Are":4118,"ee":4119,"becoming":4120,"brilliantly":4121,"achieve":4122,"computer":4123,"excitement":4124,"rob":4125,"road":4126,"rock":4127,"trick":4128,"position":4129,"atic":4130,"Does":4131,"ga":4132,"ana":4133,"teenagers":4134,"Both":4135,"junk":4136,"sli":4137,"andy":4138,"ww":4139,"45":4140,"revenge":4141,"related":4142,"pile":4143,"crying":4144,"humans":4145,"reflect":4146,"loose":4147,"itive":4148,"uninteresting":4149,"impression":4150,"ugly":4151,"Tit":4152,"va":4153,"dragged":4154,"finding":4155,"cares":4156,"continues":4157,"levels":4158,"soldiers":4159,"influ":4160,"dig":4161,"chase":4162,"ildish":4163,"maker":4164,"nobody":4165,"Tor":4166,"herself":4167,"mary":4168,"Being":4169,"fights":4170,"drink":4171,"Each":4172,"init":4173,"coher":4174,"phenomenal":4175,"suspenseful":4176,"respons":4177,"Ob":4178,"hill":4179,"pun":4180,"rd":4181,"arent":4182,"planet":4183,"explained":4184,"repetit":4185,"fly":4186,"inspiring":4187,"technology":4188,"Up":4189,"realized":4190,"ruin":4191,"majority":4192,"Stephen":4193,"counter":4194,"slap":4195,"wart":4196,"Dam":4197,"prison":4198,"Have":4199,"Jon":4200,"tho":4201,"ilities":4202,"ulous":4203,"amusing":4204,"tedious":4205,"scenario":4206,"irritating":4207,"eks":4208,"philo":4209,"Without":4210,"Fest":4211,"chore":4212,"cele":4213,"mine":4214,"rad":4215,"inted":4216,"hip":4217,"trip":4218,"gging":4219,"sequels":4220,"frank":4221,"inese":4222,"Fant":4223,"ahead":4224,"nold":4225,"Cast":4226,"UT":4227,"gold":4228,"teens":4229,"insight":4230,"stunt":4231,"share":4232,"root":4233,"finds":4234,"advice":4235,"born":4236,"picked":4237,"wil":4238,"length":4239,"Gold":4240,"originality":4241,"features":4242,"network":4243,"cape":4244,"biz":4245,"dreadful":4246,"Fam":4247,"gling":4248,"ultimately":4249,"Afric":4250,"aliens":4251,"studio":4252,"brutal":4253,"Spiel":4254,"anticip":4255,"struggle":4256,"liberal":4257,"RI":4258,"Sat":4259,"information":4260,"return":4261,"puts":4262,"dress":4263,"skills":4264,"minim":4265,"aky":4266,"Bas":4267,"dad":4268,"fits":4269,"wild":4270,"ignore":4271,"ONE":4272,"HBO":4273,"Mag":4274,"Pol":4275,"warming":4276,"childish":4277,"ints":4278,"distr":4279,"proud":4280,"hyped":4281,"iet":4282,"thes":4283,"entially":4284,"anywhere":4285,"surround":4286,"villains":4287,"graphics":4288,"ki":4289,"atro":4290,"Stre":4291,"bigger":4292,"philosoph":4293,"rick":4294,"hadn":4295,"Kore":4296,"sexy":4297,"wing":4298,"whom":4299,"complic":4300,"legend":4301,"fascinating":4302,"arily":4303,"iro":4304,"quirky":4305,"Que":4306,"vor":4307,"proves":4308,"relat":4309,"followed":4310,"Bla":4311,"Ham":4312,"York":4313,"normally":4314,"WW":4315,"powers":4316,"alive":4317,"iff":4318,"safe":4319,"months":4320,"stayed":4321,"chop":4322,"India":4323,"secret":4324,"Eli":4325,"Plot":4326,"escape":4327,"cliche":4328,"drivel":4329,"Pri":4330,"udes":4331,"produce":4332,"Harry":4333,"religion":4334,"Bob":4335,"edy":4336,"challeng":4337,"Lon":4338,"vs":4339,"Ram":4340,"invent":4341,"sport":4342,"awn":4343,"cried":4344,"Especially":4345,"evol":4346,"prepare":4347,"hearted":4348,"avail":4349,"Take":4350,"choose":4351,"elle":4352,"ctions":4353,"government":4354,"spl":4355,"scars":4356,"amazed":4357,"keeping":4358,"Mal":4359,"ticket":4360,"Richar":4361,"explanation":4362,"Cage":4363,"hey":4364,"shooting":4365,"presence":4366,"ston":4367,"humorous":4368,"FX":4369,"Gi":4370,"Nic":4371,"college":4372,"kets":4373,"ples":4374,"197":4375,"Spielberg":4376,"Den":4377,"shad":4378,"Which":4379,"ems":4380,"000":4381,"Mark":4382,"loy":4383,"party":4384,"speaking":4385,"racist":4386,"crowd":4387,"warm":4388,"opposite":4389,"Sy":4390,"hurt":4391,"bled":4392,"speech":4393,"Worst":4394,"Jur":4395,"itude":4396,"unting":4397,"willing":4398,"desc":4399,"crappy":4400,"magn":4401,"THING":4402,"MCU":4403,"Yet":4404,"hh":4405,"hits":4406,"arre":4407,"Thor":4408,"guessing":4409,"Yeah":4410,"UN":4411,"sembl":4412,"oft":4413,"obsess":4414,"Episo":4415,"uncomfortable":4416,"Canad":4417,"haters":4418,"Beautiful":4419,"stink":4420,"mom":4421,"plaus":4422,"drag":4423,"producer":4424,"Boy":4425,"Game":4426,"alle":4427,"aries":4428,"minis":4429,"fat":4430,"hes":4431,"orm":4432,"Alex":4433,"Rid":4434,"charis":4435,"premi":4436,"mainly":4437,"dynam":4438,"animals":4439,"brothers":4440,"Jesus":4441,"bought":4442,"exagger":4443,"commit":4444,"contains":4445,"evid":4446,"ened":4447,"stellar":4448,"REAL":4449,"ashamed":4450,"lower":4451,"Chinese":4452,"creators":4453,"Lost":4454,"gritty":4455,"adays":4456,"noticed":4457,"ficial":4458,"Shame":4459,"contrived":4460,"thous":4461,"hopefully":4462,"insane":4463,"passed":4464,"Fox":4465,"compla":4466,"arts":4467,"commun":4468,"****":4469,"connected":4470,"Sadly":4471,"erely":4472,"deeper":4473,"preview":4474,"preach":4475,"mindless":4476,"Austral":4477,"theless":4478,"ski":4479,"pulled":4480,"Bollywood":4481,"Sk":4482,"ilst":4483,"rive":4484,"OF":4485,"died":4486,"standards":4487,"corny":4488,"USA":4489,"Fer":4490,"filmmakers":4491,"blah":4492,"Characters":4493,"versity":4494,"parody":4495,"driven":4496,"bright":4497,"food":4498,"answer":4499,"critical":4500,"monsters":4501,"3rd":4502,"Kate":4503,"Chan":4504,"types":4505,"emotionally":4506,"satisfied":4507,"commercial":4508,"18":4509,"Lots":4510,"cars":4511,"gia":4512,"witness":4513,"Japanese":4514,"cher":4515,"tight":4516,"drive":4517,"images":4518,"equally":4519,"London":4520,"None":4521,"Rus":4522,"Space":4523,"intent":4524,"IMDB":4525,"cup":4526,"ray":4527,"rors":4528,"edi":4529,"Thom":4530,"require":4531,"Cru":4532,"fal":4533,"object":4534,"Robin":4535,"energy":4536,"UK":4537,"anu":4538,"effective":4539,"seconds":4540,"Festival":4541,"cash":4542,"ibility":4543,"former":4544,"focused":4545,"comparison":4546,"Daniel":4547,"Fl":4548,"Jess":4549,"Khan":4550,"relie":4551,"udos":4552,"blockbuster":4553,"Pre":4554,"Ru":4555,"gag":4556,"phone":4557,"eventually":4558,"heads":4559,"Family":4560,"uit":4561,"funn":4562,"location":4563,"liners":4564,"available":4565,"Lau":4566,"tor":4567,"25":4568,"execution":4569,"Hu":4570,"envi":4571,"satire":4572,"painfully":4573,"ai":4574,"pal":4575,"independ":4576,"belong":4577,"Max":4578,"Richard":4579,"ya":4580,"Dep":4581,"opera":4582,"porn":4583,"install":4584,"Alien":4585,"decision":4586,"paying":4587,"Gal":4588,"hur":4589,"kins":4590,"preh":4591,"appy":4592,"reviewer":4593,"accom":4594,"bloody":4595,"student":4596,"Abra":4597,"ford":4598,"alling":4599,"traged":4600,"footage":4601,"crafted":4602,"detective":4603,"forgotten":4604,"proved":4605,"wonderfully":4606,"Terminator":4607,"harsh":4608,"remotely":4609,"flicks":4610,"marke":4611,"format":4612,"cock":4613,"Sometimes":4614,"Pi":4615,"Their":4616,"lovers":4617,"terribly":4618,"bizarre":4619,"Ir":4620,"LA":4621,"scripts":4622,"glor":4623,"Mir":4624,"blame":4625,"chuck":4626,"conve":4627,"Green":4628,"dated":4629,"understood":4630,"falling":4631,"desperate":4632,"intellectual":4633,"Avengers":4634,"GE":4635,"Mary":4636,"Rose":4637,"cell":4638,"gut":4639,"anity":4640,"White":4641,"Amy":4642,"Since":4643,"South":4644,"knowledge":4645,"lacked":4646,"limited":4647,"Person":4648,"mem":4649,"foreign":4650,"Keep":4651,"Plus":4652,"bottom":4653,"tense":4654,"itional":4655,"bore":4656,"adding":4657,"politically":4658,"Guy":4659,"Okay":4660,"frankly":4661,"14":4662,"Hen":4663,"service":4664,"growing":4665,"asp":4666,"idiots":4667,"Pan":4668,"anybody":4669,"heal":4670,"mysterious":4671,"frame":4672,"Little":4673,"Iron":4674,"threat":4675,"pair":4676,"198":4677,"trouble":4678,"memory":4679,"bian":4680,"enter":4681,"weekend":4682,"massive":4683,"cable":4684,"Probably":4685,"dancing":4686,"source":4687,"Jurassic":4688,"environ":4689,"friendship":4690,"named":4691,"coherent":4692,"La":4693,"zen":4694,"Earth":4695,"captivating":4696,"IG":4697,"gate":4698,"hon":4699,"exic":4700,"minded":4701,"green":4702,"Hopefully":4703,"Cameron":4704,"weight":4705,"sky":4706,"Van":4707,"tire":4708,"portraying":4709,"Mexic":4710,"chur":4711,"built":4712,"winning":4713,"families":4714,"racism":4715,"extraordinary":4716,"zil":4717,"store":4718,"interpret":4719,"text":4720,"oul":4721,"Movies":4722,"capable":4723,"accompl":4724,"Mac":4725,"author":4726,"zzzz":4727,"lady":4728,"explosions":4729,"rolling":4730,"biased":4731,"binge":4732,"streng":4733,"Williams":4734,"Cle":4735,"mble":4736,"saved":4737,"minds":4738,"subtitles":4739,"Watched":4740,"ificent":4741,"ena":4742,"addict":4743,"prequ":4744,"Steven":4745,"appealing":4746,"complicated":4747,"Hel":4748,"vate":4749,"corpor":4750,"Trump":4751,"Oscars":4752,"embarrassing":4753,"Cha":4754,"Pac":4755,"boo":4756,"national":4757,"demon":4758,"lol":4759,"covery":4760,"festival":4761,"decisions":4762,"provid":4763,"undred":4764,"busters":4765,"funnier":4766,"OO":4767,"WH":4768,"hr":4769,"xious":4770,"lighting":4771,"generic":4772,"remarkable":4773,"Kat":4774,"Naz":4775,"fing":4776,"appla":4777,"nowadays":4778,"Second":4779,"Johnson":4780,"homo":4781,"helps":4782,"exceptional":4783,"Vis":4784,"trek":4785,"steal":4786,"shadow":4787,"Again":4788,"Lord":4789,"West":4790,"ders":4791,"anal":4792,"devil":4793,"scare":4794,"guns":4795,"Otherwise":4796,"community":4797,"appearance":4798,"collection":4799,"16":4800,"City":4801,"cow":4802,"dramas":4803,"accents":4804,"investig":4805,"ency":4806,"superior":4807,"helped":4808,"breathtaking":4809,"sta":4810,"door":4811,"goof":4812,"prote":4813,"Johnny":4814,"Jane":4815,"Witch":4816,"kno":4817,"chos":4818,"unwatchable":4819,"raw":4820,"umbs":4821,"circ":4822,"fabulous":4823,"BBC":4824,"athe":4825,"itation":4826,"argu":4827,"thoughts":4828,"topic":4829,"messages":4830,"suffer":4831,"Pix":4832,"ben":4833,"nation":4834,"sterday":4835,"stupidity":4836,"idiotic":4837,"Hell":4838,"rell":4839,"ature":4840,"asking":4841,"web":4842,"ograph":4843,"ipul":4844,"fairy":4845,"bute":4846,"timing":4847,"alloween":4848,"combination":4849,"virt":4850,"useless":4851,"portrays":4852,"Actually":4853,"technical":4854,"statement":4855,"plausible":4856,"glo":4857,"ablish":4858,"process":4859,"Come":4860,"hundred":4861,"depi":4862,"intention":4863,"evening":4864,"burn":4865,"lucky":4866,"Sarah":4867,"Hun":4868,"irth":4869,"bling":4870,"commentary":4871,"Part":4872,"compe":4873,"qualities":4874,"urs":4875,"strongly":4876,"innocent":4877,"finale":4878,"holds":4879,"gratuit":4880,"relatable":4881,"Must":4882,"TR":4883,"asing":4884,"Joe":4885,"tragedy":4886,"Pal":4887,"Ron":4888,"posed":4889,"manipul":4890,"meaningful":4891,"insulting":4892,"WAT":4893,"saving":4894,"supernatural":4895,"twisted":4896,"Lars":4897,"fright":4898,"nal":4899,"Seth":4900,"decade":4901,"behavior":4902,"Jessica":4903,"stated":4904,"serial":4905,"establish":4906,"ignor":4907,"remains":4908,"Episode":4909,"tend":4910,"zon":4911,"quiet":4912,"spy":4913,"survive":4914,"Brazil":4915,"repetitive":4916,"Cor":4917,"Jud":4918,"UST":4919,"Wa":4920,"ara":4921,"via":4922,"meta":4923,"oper":4924,"price":4925,"regular":4926,"learned":4927,"AW":4928,"saga":4929,"creativity":4930,"boredom":4931,"nominated":4932,"indul":4933,"fix":4934,"capture":4935,"false":4936,"Pret":4937,"Your":4938,"weeks":4939,"dislike":4940,"experienced":4941,"Bay":4942,"believ":4943,"latest":4944,"attack":4945,"attractive":4946,"endless":4947,"failure":4948,"brief":4949,"bound":4950,"warned":4951,"Allen":4952,"occur":4953,"Uni":4954,"appreciated":4955,"besides":4956,"Academy":4957,"drun":4958,"ooper":4959,"compet":4960,"zombies":4961,"bearable":4962,"IF":4963,"Nice":4964,"vast":4965,"stic":4966,"ggling":4967,"deter":4968,"signific":4969,"NY":4970,"ja":4971,"melo":4972,"sentiment":4973,"blowing":4974,"crude":4975,"Pitt":4976,"gal":4977,"jer":4978,"park":4979,"sides":4980,"iest":4981,"physical":4982,"discuss":4983,"PC":4984,"rul":4985,"vit":4986,"ading":4987,"depart":4988,"achel":4989,"appeared":4990,"Sher":4991,"tt":4992,"offers":4993,"flop":4994,"Kill":4995,"manage":4996,"Stewart":4997,"cruel":4998,"Krist":4999,"cise":5000,"ration":5001,"organ":5002,"edom":5003,"iles":5004,"halfway":5005,"Halloween":5006,"Nol":5007,"aven":5008,"opt":5009,"somebody":5010,"disagree":5011,"Charlie":5012,"introduced":5013,"edited":5014,"Anna":5015,"Better":5016,"Ba":5017,"Mid":5018,"Str":5019,"mistakes":5020,"changing":5021,"24":5022,"Much":5023,"cgi":5024,"mild":5025,"Nick":5026,"resol":5027,"shine":5028,"context":5029,"broken":5030,"Harris":5031,"................":5032,"Run":5033,"provide":5034,"Ty":5035,"neigh":5036,"contem":5037,"offended":5038,"premiere":5039,"sin":5040,"perfection":5041,"nic":5042,"unknown":5043,"involving":5044,"suffering":5045,"Trans":5046,"destroyed":5047,"numbers":5048,"Henry":5049,"Pixar":5050,"eat":5051,"magical":5052,"shar":5053,"winner":5054,"Horrible":5055,"suddenly":5056,"Personally":5057,"Hill":5058,"beth":5059,"peace":5060,"tive":5061,"clue":5062,"bles":5063,"skin":5064,"(\"":5065,"Matt":5066,"gle":5067,"anne":5068,"flo":5069,"tragic":5070,"mainstream":5071,"corrupt":5072,"Awful":5073,"accident":5074,"gratuitous":5075,"begins":5076,"Brilliant":5077,"necessarily":5078,"idiot":5079,"horribly":5080,"Frid":5081,"Writ":5082,"ishing":5083,"\")":5084,"gender":5085,"sight":5086,"vibe":5087,"lesson":5088,"hidden":5089,"lust":5090,"mill":5091,"rix":5092,"tural":5093,"waited":5094,"hoped":5095,"whelming":5096,"fet":5097,"captured":5098,"Music":5099,"independent":5100,"ache":5101,"ANY":5102,"stereotypical":5103,"oman":5104,"delivery":5105,"repeated":5106,"cris":5107,"ann":5108,"rela":5109,"itions":5110,"Int":5111,"formers":5112,"combined":5113,"dollars":5114,"Woody":5115,"dum":5116,"ady":5117,"ville":5118,"magnificent":5119,"Abrams":5120,"AP":5121,"fortunate":5122,"vulgar":5123,"Und":5124,"chose":5125,"yesterday":5126,"seemingly":5127,"Perfect":5128,"dealing":5129,"controvers":5130,"Fantastic":5131,"Bel":5132,"Full":5133,"fy":5134,"rina":5135,"cha":5136,"hearing":5137,"assume":5138,"chosen":5139,"irk":5140,"angle":5141,"ception":5142,"2019":5143,"starring":5144,"curious":5145,"Enter":5146,"ram":5147,"everywhere":5148,"sheer":5149,"factor":5150,"Worth":5151,"Miss":5152,"stom":5153,"compreh":5154,"asty":5155,"agent":5156,"scripted":5157,"runs":5158,"pictures":5159,"consistent":5160,".,":5161,"Chuck":5162,"Christop":5163,"broad":5164,"pati":5165,"EL":5166,"Pot":5167,"nut":5168,"plane":5169,"plete":5170,"Office":5171,"bag":5172,"fare":5173,"expectation":5174,"relief":5175,"indie":5176,"teenager":5177,"profound":5178,"marketing":5179,"TER":5180,"dirty":5181,"credible":5182,"memories":5183,"Lawrence":5184,"Du":5185,"Sta":5186,"wreck":5187,"ators":5188,"olf":5189,"calling":5190,"tedly":5191,"hic":5192,"yr":5193,"rian":5194,"underrated":5195,"196":5196,"Sky":5197,"lam":5198,"Lucas":5199,"screaming":5200,"record":5201,"WATCH":5202,"Friday":5203,"17":5204,"dom":5205,"nes":5206,"issa":5207,"complaining":5208,"Ken":5209,"incre":5210,"heck":5211,"guarant":5212,"answers":5213,"Eastwood":5214,"pity":5215,"began":5216,"lied":5217,"Ital":5218,"upset":5219,"prin":5220,"comparing":5221,"Luke":5222,"BUT":5223,"Niro":5224,"lon":5225,"tons":5226,"inosa":5227,"Mars":5228,"vides":5229,"prove":5230,"Superman":5231,"Horror":5232,"machine":5233,"depiction":5234,"card":5235,"iling":5236,"voices":5237,"Joker":5238,"repeat":5239,"Obvious":5240,"Christopher":5241,"App":5242,"gru":5243,"hide":5244,"meaningless":5245,"relax":5246,"bond":5247,"forgot":5248,"doctor":5249,"blue":5250,"syn":5251,"About":5252,"Truly":5253,"concerned":5254,"Ig":5255,"Ka":5256,"Long":5257,"Pho":5258,"lor":5259,"reaction":5260,"costs":5261,"resul":5262,"ortion":5263,"Comedy":5264,"cases":5265,"Knight":5266,"Oli":5267,"Vin":5268,"wis":5269,"ende":5270,"army":5271,"ued":5272,"paper":5273,"Almost":5274,"Ford":5275,"camp":5276,"annoyed":5277,"jay":5278,"ners":5279,"uel":5280,"resembl":5281,"image":5282,"millions":5283,"nostalgia":5284,"user":5285,"served":5286,"!!!!!":5287,"thrillers":5288,"True":5289,"dare":5290,"freedom":5291,"colour":5292,"include":5293,"dreams":5294,"Back":5295,"bon":5296,"nap":5297,"tear":5298,"everyday":5299,"feminist":5300,"environment":5301,"Hop":5302,"shaky":5303,"abor":5304,"treated":5305,"criticism":5306,"prepared":5307,"circum":5308,"Mer":5309,"Nat":5310,"trend":5311,"deb":5312,"worry":5313,"pleased":5314,"pray":5315,"rous":5316,"oop":5317,"tack":5318,"serve":5319,"illion":5320,"opinions":5321,"vari":5322,"Lyn":5323,"SR":5324,"associ":5325,"youth":5326,"outs":5327,"ift":5328,"izes":5329,"bothered":5330,"expression":5331,"students":5332,"ountain":5333,"apocal":5334,"Ori":5335,"jointed":5336,"orable":5337,"toler":5338,"maint":5339,"hating":5340,"thro":5341,"enge":5342,"Someone":5343,"tonight":5344,"altern":5345,"stunts":5346,"Min":5347,"vy":5348,"leader":5349,"buff":5350,"figured":5351,"flashbacks":5352,"Basically":5353,"andon":5354,"demo":5355,"accu":5356,"clothes":5357,"handed":5358,"finest":5359,"Keanu":5360,"Rachel":5361,"Sur":5362,"reed":5363,"uted":5364,"previews":5365,"indu":5366,"hole":5367,"embarrassed":5368,"Spiderman":5369,"bang":5370,"hyster":5371,"included":5372,"cook":5373,"sole":5374,"provides":5375,"Rey":5376,"Battle":5377,"strength":5378,"BT":5379,"Wall":5380,"forth":5381,"tripe":5382,"spoiler":5383,"expressions":5384,"struggles":5385,"stretch":5386,"99":5387,"Free":5388,"MA":5389,"Shi":5390,"hall":5391,"remakes":5392,"expl":5393,"desire":5394,"central":5395,"classics":5396,"handle":5397,"internet":5398,"Unlike":5399,"ichol":5400,"stomach":5401,"whilst":5402,"individual":5403,"liking":5404,"disbelief":5405,"roller":5406,"Bes":5407,"Brie":5408,"Res":5409,"uous":5410,"rely":5411,"therefore":5412,"phy":5413,"attitude":5414,"sensitive":5415,"Breaking":5416,"African":5417,"Twil":5418,"ji":5419,"switch":5420,"poster":5421,"noon":5422,"weap":5423,"llen":5424,"angles":5425,"maintain":5426,"Sil":5427,"Top":5428,"asure":5429,"unusual":5430,"Asian":5431,"Ree":5432,"Queen":5433,"circumst":5434,"escap":5435,"Stone":5436,"landsc":5437,"flawless":5438,"welcome":5439,"Bul":5440,"Dou":5441,"Moo":5442,"Nichol":5443,"OD":5444,"squ":5445,"Obviously":5446,"Twilight":5447,"engaged":5448,"Complete":5449,"currently":5450,"Ghostbusters":5451,"Rog":5452,"Sus":5453,"debut":5454,"rog":5455,"nightm":5456,"Willis":5457,"fictional":5458,"2018":5459,"installment":5460,"Fire":5461,"San":5462,"Val":5463,"Woman":5464,"asher":5465,"spending":5466,"scale":5467,"heavi":5468,"Stan":5469,"relative":5470,"speed":5471,"Pretty":5472,"Billy":5473,"Fr":5474,"ey":5475,"online":5476,"lif":5477,"udd":5478,"market":5479,"captures":5480,"Melissa":5481,"Phil":5482,"Moore":5483,"PLE":5484,"oles":5485,"sacri":5486,"THAT":5487,"hun":5488,"zilla":5489,"function":5490,"darker":5491,"cops":5492,"depicted":5493,"occasion":5494,"atrocious":5495,"icide":5496,"excess":5497,"blat":5498,"countries":5499,"Emma":5500,"Looking":5501,"Gen":5502,"bab":5503,"fif":5504,"ano":5505,"otten":5506,"shines":5507,"inte":5508,"artist":5509,"touches":5510,"Rod":5511,"giant":5512,"category":5513,"Bef":5514,"VERY":5515,"Bor":5516,"pool":5517,"skept":5518,"ifi":5519,"disjointed":5520,"onsens":5521,"brave":5522,"slapstick":5523,"Before":5524,"''":5525,"batt":5526,"rop":5527,"losing":5528,"pecial":5529,"colors":5530,"Patrick":5531,"Jam":5532,"mend":5533,"soft":5534,"vac":5535,"performed":5536,"creatures":5537,"warning":5538,"experiences":5539,"gags":5540,"BLE":5541,"Gib":5542,"rant":5543,"guest":5544,"rights":5545,"Sean":5546,"spoof":5547,"bbed":5548,"prior":5549,"properly":5550,"demand":5551,"Has":5552,"UL":5553,"bell":5554,"decades":5555,"acceptable":5556,"study":5557,"Jeff":5558,"Ap":5559,"Rick":5560,"ousy":5561,"creates":5562,"efforts":5563,"Mike":5564,"Gra":5565,"ION":5566,"tast":5567,"racial":5568,"intrigue":5569,"Blood":5570,"benef":5571,"Pic":5572,"Think":5573,"amazingly":5574,"cliches":5575,"Christians":5576,"Right":5577,"page":5578,"itiz":5579,"viewed":5580,"ption":5581,"coaster":5582,"Something":5583,"techni":5584,"invested":5585,"Check":5586,"Wilson":5587,"aimed":5588,"Korean":5589,"Kristen":5590,"PG":5591,"hab":5592,"hack":5593,"Cons":5594,"gment":5595,"send":5596,"inct":5597,"lection":5598,"iring":5599,"lights":5600,"flawed":5601,"patri":5602,"described":5603,"Totally":5604,"dangerous":5605,"Under":5606,"HA":5607,"fed":5608,"mum":5609,"iled":5610,"struggling":5611,"slasher":5612,"sophistic":5613,"cultural":5614,"Paris":5615,"feed":5616,"noxious":5617,"tial":5618,"perform":5619,"Death":5620,"allows":5621,"Russell":5622,"Things":5623,"tickets":5624,"Simply":5625,"SEE":5626,"Murphy":5627,"Eliza":5628,"address":5629,"Danny":5630,"Nolan":5631,"Hugh":5632,"Kudos":5633,"candy":5634,"dinosa":5635,"warn":5636,"Anne":5637,"stays":5638,"importantly":5639,"onsensical":5640,"Del":5641,"Tri":5642,"Try":5643,"ko":5644,"link":5645,"rout":5646,"urge":5647,"twenty":5648,"Funny":5649,"heavily":5650,"Evil":5651,"Jedi":5652,"Pow":5653,"stone":5654,"ado":5655,"hash":5656,"Actors":5657,"ILL":5658,"Sop":5659,"Waste":5660,"separ":5661,"spider":5662,"Arth":5663,"Godzilla":5664,"Satur":5665,"sharp":5666,"Cla":5667,"NE":5668,"WO":5669,"thumbs":5670,"edit":5671,"Kar":5672,"Special":5673,"mob":5674,"downhill":5675,"double":5676,"Clint":5677,"miserably":5678,"Fred":5679,"gas":5680,"ato":5681,"maid":5682,"cameo":5683,"sey":5684,"vehic":5685,"forces":5686,"tie":5687,"horrend":5688,"creation":5689,"cameos":5690,"***":5691,"Gibson":5692,"ura":5693,"erous":5694,"unoriginal":5695,"arted":5696,"Real":5697,"protect":5698,"Hero":5699,"bank":5700,"thew":5701,"shall":5702,"sett":5703,"Leon":5704,"DE":5705,"Scre":5706,"UP":5707,"rat":5708,"contra":5709,"Force":5710,"Add":5711,"criminal":5712,"Hitch":5713,"edgy":5714,"rio":5715,"boss":5716,"generous":5717,"spoiled":5718,"canceled":5719,"Gree":5720,"bow":5721,"sun":5722,"disgrace":5723,"pretend":5724,"existence":5725,"amateurish":5726,"Origin":5727,"Fu":5728,"TF":5729,"nia":5730,"rival":5731,"assion":5732,"popul":5733,"responsible":5734,"Jer":5735,"gig":5736,"nasty":5737,"aron":5738,"ops":5739,"intens":5740,"auto":5741,"talks":5742,"????":5743,"boyfriend":5744,"stereoty":5745,"Reeves":5746,"Au":5747,"merely":5748,"afternoon":5749,"obnoxious":5750,"talents":5751,"personalities":5752,"intrigued":5753,"cancelled":5754,"arently":5755,"Ignore":5756,"Saturday":5757,"Ca":5758,"essence":5759,"brand":5760,"touched":5761,"Should":5762,"challenge":5763,"rules":5764,"Produ":5765,"wra":5766,"irm":5767,"quit":5768,"married":5769,"supposedly":5770,"existent":5771,"sexuality":5772,"innov":5773,"worried":5774,"wearing":5775,"blew":5776,"summary":5777,"victims":5778,"Larson":5779,"sar":5780,"spre":5781,"yer":5782,"shut":5783,"river":5784,"scores":5785,"dialogs":5786,"bill":5787,"nonsensical":5788,"didnt":5789,"worthwhile":5790,"caric":5791,"resident":5792,"driving":5793,"Series":5794,"terrifying":5795,"Te":5796,"visit":5797,"precious":5798,"Perry":5799,"Australian":5800,"drunk":5801,"Lynch":5802,"Rating":5803,"lately":5804,"noir":5805,"drags":5806,"rolled":5807,"regarding":5808,"traditional":5809,"Na":5810,"flying":5811,"exceed":5812,"finity":5813,"Inter":5814,"cording":5815,"stume":5816,"rolls":5817,"convinced":5818,"believably":5819,"Potter":5820,"bic":5821,"scr":5822,"competent":5823,"Cr":5824,"Ky":5825,"enix":5826,"unbearable":5827,"outing":5828,"robot":5829,"aston":5830,"overdone":5831,"crash":5832,"!!!!!!!!":5833,"representation":5834,"church":5835,"></":5836,"Dar":5837,"GRE":5838,"reminis":5839,"stat":5840,"andering":5841,"formed":5842,"ghter":5843,"deals":5844,"proof":5845,"versions":5846,"covered":5847,"movement":5848,"clichéd":5849,"reference":5850,"regardless":5851,"Besides":5852,"90s":5853,"Cooper":5854,"Make":5855,"Sing":5856,"ls":5857,"mate":5858,"naked":5859,"reward":5860,"Arnold":5861,"required":5862,"thusi":5863,"blast":5864,"makeup":5865,"earned":5866,"psych":5867,"breaks":5868,"Roman":5869,"Next":5870,"dama":5871,"spark":5872,"gotta":5873,"aks":5874,"Depp":5875,"Dog":5876,"sinc":5877,"pred":5878,"goers":5879,"basis":5880,"struction":5881,"Awesome":5882,"homage":5883,"European":5884,"JJ":5885,"TS":5886,"bull":5887,"sle":5888,"applaud":5889,"BI":5890,"Zomb":5891,"fle":5892,"lift":5893,"quot":5894,"ensemble":5895,"productions":5896,"Carthy":5897,"transl":5898,"EVERY":5899,"Home":5900,"List":5901,"eight":5902,"skill":5903,"dying":5904,"fellow":5905,"Cruise":5906,"circumstances":5907,"contrast":5908,"fles":5909,"zel":5910,"diversity":5911,"conserv":5912,"rush":5913,"explic":5914,"identity":5915,"designed":5916,"Jake":5917,"eager":5918,"gard":5919,"Howard":5920,"Josh":5921,"favorites":5922,"speaks":5923,"Sunday":5924,"CI":5925,"CK":5926,"Tal":5927,"essentially":5928,"jumping":5929,"voted":5930,"revealed":5931,"tremend":5932,"Canadian":5933,"Apparently":5934,"Vo":5935,"steals":5936,"caring":5937,"McCarthy":5938,"BAD":5939,"CW":5940,"Lou":5941,"imo":5942,"kin":5943,"compan":5944,"woke":5945,"answered":5946,"celebr":5947,"Bu":5948,"PS":5949,"Sound":5950,"gree":5951,"beloved":5952,"pointed":5953,"enjoyment":5954,"compelled":5955,"naive":5956,"builds":5957,"contribut":5958,"Amazon":5959,"fooled":5960,"Morgan":5961,"descript":5962,"Elizabeth":5963,"toi":5964,"originals":5965,"topics":5966,"carried":5967,"survival":5968,"Cinemat":5969,"PE":5970,"plo":5971,"unpredictable":5972,"partner":5973,"elect":5974,"horrific":5975,"commerci":5976,"conversation":5977,"Picard":5978,"ease":5979,"pic":5980,"poign":5981,"cancer":5982,"kinds":5983,"cuts":5984,"puzz":5985,"Jean":5986,"Jamie":5987,"Ant":5988,"isher":5989,".......":5990,"dropped":5991,"Thrones":5992,"Pict":5993,"Sw":5994,"dar":5995,"area":5996,"indic":5997,"producing":5998,"swearing":5999,"pushing":6000,"dynamic":6001,"Ash":6002,"Imag":6003,"RO":6004,"tly":6005,"mini":6006,"lessons":6007,"Stay":6008,"ridiculously":6009,"Apart":6010,"esque":6011,"olds":6012,"superficial":6013,"thrills":6014,"males":6015,"England":6016,"listening":6017,"continued":6018,"Fiction":6019,"provided":6020,"Mind":6021,"brit":6022,"atives":6023,"lem":6024,"fee":6025,"usive":6026,"trop":6027,"Julia":6028,"island":6029,"alright":6030,"rain":6031,"consc":6032,"west":6033,"greatly":6034,"risk":6035,"Didn":6036,"Phoenix":6037,"Arthur":6038,"Brid":6039,"eer":6040,"pin":6041,"pit":6042,"filmmaker":6043,"convent":6044,"whats":6045,"downright":6046,"imagery":6047,"Matrix":6048,"exaggerated":6049,"goofy":6050,"Spe":6051,"Stop":6052,"ancy":6053,"sees":6054,"ptic":6055,"ogical":6056,"crack":6057,"porary":6058,"closer":6059,"destro":6060,"ladies":6061,"sympathy":6062,"emphas":6063,"juven":6064,"horrendous":6065,"Lady":6066,"Ros":6067,"birth":6068,"ws":6069,"attr":6070,"checking":6071,"carries":6072,"Street":6073,"NBC":6074,"Scar":6075,"gam":6076,"enthusi":6077,"vili":6078,"veter":6079,"adm":6080,"matters":6081,"costume":6082,"friendly":6083,"ANT":6084,"SG":6085,"anish":6086,"igno":6087,"ored":6088,"holding":6089,"protagonists":6090,"REALLY":6091,"Made":6092,"steam":6093,"buying":6094,"Discovery":6095,"numerous":6096,"introduction":6097,"intensity":6098,"Bird":6099,"Ku":6100,"LD":6101,"resc":6102,"replace":6103,"Three":6104,"cutting":6105,"structure":6106,"robots":6107,"dys":6108,"raised":6109,"facial":6110,"2017":6111,"Quite":6112,"skeptical":6113,"abuse":6114,"brick":6115,"trave":6116,"tribute":6117,"creature":6118,"glued":6119,"handled":6120,"historically":6121,"cartoons":6122,"equal":6123,"formulaic":6124,"pseudo":6125,"loyal":6126,"metaph":6127,"Iran":6128,"toward":6129,"elly":6130,"club":6131,"prime":6132,"sympathetic":6133,"incident":6134,"Matthew":6135,"initial":6136,"Thomas":6137,"toilet":6138,"Baby":6139,"Cent":6140,"Half":6141,"Same":6142,"awe":6143,"cies":6144,"feet":6145,"Hey":6146,"seven":6147,"dramat":6148,"legal":6149,"Shakes":6150,"DON":6151,"Hist":6152,"Hanks":6153,"abilities":6154,"riage":6155,"dude":6156,"daily":6157,"frustrating":6158,"charisma":6159,"GREAT":6160,"Tay":6161,"Tony":6162,"display":6163,"partic":6164,"campy":6165,"Leg":6166,"court":6167,"ketch":6168,"teacher":6169,"flesh":6170,"Dial":6171,"Fall":6172,"rise":6173,"thony":6174,"orter":6175,"ambit":6176,"lovable":6177,"faced":6178,"Noah":6179,"conversations":6180,"complaint":6181,"Pacino":6182,"KE":6183,"agreed":6184,"purely":6185,"mesmer":6186,"Italian":6187,"Ms":6188,"arti":6189,"irt":6190,"border":6191,"paralle":6192,"Michelle":6193,"Bravo":6194,"Burton":6195,"Cinematography":6196,":/":6197,"Crow":6198,"WOR":6199,"bility":6200,"eating":6201,"snow":6202,"ilty":6203,"illogical":6204,"bodies":6205,"horse":6206,"Western":6207,"remembered":6208,"settings":6209,"Salman":6210,"mildly":6211,"OME":6212,"SRK":6213,"Got":6214,"Hall":6215,"Mis":6216,"Ted":6217,"__":6218,"haunting":6219,"outrage":6220,"blend":6221,"Anthony":6222,"rented":6223,"continuity":6224,"North":6225,"Blair":6226,"Transformers":6227,"Ak":6228,"Mil":6229,"NG":6230,"omed":6231,"wear":6232,"holi":6233,"month":6234,"animal":6235,"includes":6236,"narration":6237,"Clo":6238,"Plan":6239,"glim":6240,"mut":6241,"encourage":6242,"arter":6243,"marks":6244,"Luc":6245,"nailed":6246,"communic":6247,"competit":6248,"Shakespe":6249,"Jord":6250,"Swed":6251,"gn":6252,"hunt":6253,"Unless":6254,"Ridley":6255,"battles":6256,"nause":6257,"trite":6258,"reasonable":6259,"Cost":6260,"Parker":6261,"fetched":6262,"lifting":6263,"AV":6264,"mu":6265,"forms":6266,"construct":6267,"goal":6268,"arded":6269,"ief":6270,"sadness":6271,"spoken":6272,"HOW":6273,"drinking":6274,"gor":6275,"tour":6276,"aded":6277,"pson":6278,"bitter":6279,"Forget":6280,"influence":6281,"minimum":6282,"distracting":6283,"interpretation":6284,"commercials":6285,"70s":6286,"Ul":6287,"meh":6288,"Anderson":6289,"Recommend":6290,"heartwarming":6291,"favour":6292,"arrow":6293,"alike":6294,"pulls":6295,"FOR":6296,"rough":6297,"comical":6298,"awa":6299,"highest":6300,"valu":6301,"glass":6302,"frequ":6303,"collect":6304,"netflix":6305,"experiment":6306,"Greg":6307,"Kim":6308,"loo":6309,"lousy":6310,"stain":6311,"stress":6312,"concent":6313,"thoughtful":6314,"Alan":6315,"sophisticated":6316,"Av":6317,"Down":6318,"abortion":6319,"Roy":6320,"clichÃ":6321,"Carrey":6322,"Brothers":6323,"window":6324,"Freeman":6325,"Gy":6326,"IR":6327,"tick":6328,"wick":6329,"recall":6330,"shark":6331,"ceive":6332,"umph":6333,"lesbian":6334,"ACT":6335,"absor":6336,"Hitchcock":6337,"Imagine":6338,"Bang":6339,"Hot":6340,"bath":6341,"ole":6342,"plic":6343,"Seems":6344,"Eddie":6345,"ultimate":6346,"specific":6347,"ignorant":6348,"tham":6349,"filler":6350,"acle":6351,"morning":6352,"reminiscent":6353,"Fast":6354,"Jen":6355,"Ren":6356,"Whe":6357,"WAY":6358,"cket":6359,"nit":6360,"vince":6361,"vague":6362,"eson":6363,"apes":6364,"ques":6365,"realise":6366,"immers":6367,"nails":6368,"jumps":6369,"Holmes":6370,"Care":6371,"Cong":6372,"Dor":6373,"Er":6374,"Gener":6375,"nically":6376,"vity":6377,"omy":6378,"shop":6379,"cia":6380,"brow":6381,"interaction":6382,"Spanish":6383,"----------------":6384,"department":6385,"SH":6386,"oe":6387,"alco":6388,"unlikable":6389,"ifically":6390,"genres":6391,"captain":6392,"desperately":6393,"juvenile":6394,"Haw":6395,"Light":6396,"Wat":6397,"bie":6398,"Disappoint":6399,"scientific":6400,"Craig":6401,"poignant":6402,"particip":6403,"\"?":6404,"\"...":6405,"report":6406,"ader":6407,"combat":6408,"thern":6409,"ourne":6410,"fallen":6411,"affair":6412,"football":6413,"dollar":6414,"silent":6415,"WOW":6416,"revel":6417,"assa":6418,"term":6419,"talked":6420,"bucks":6421,"concepts":6422,"Irish":6423,"significant":6424,"Sherlock":6425,"dogs":6426,"enemy":6427,"Endgame":6428,"Gl":6429,"Lind":6430,"unable":6431,"degree":6432,"intro":6433,"balanced":6434,"advise":6435,"senseless":6436,"thology":6437,"Interest":6438,"Ever":6439,"Fre":6440,"Hit":6441,"MI":6442,"Slow":6443,"soo":6444,"outcome":6445,"watches":6446,"urally":6447,"udic":6448,"195":6449,"expensive":6450,"bbing":6451,"Wayne":6452,"option":6453,"Based":6454,"Call":6455,"ios":6456,"atar":6457,"tea":6458,"possess":6459,"obsessed":6460,"Flash":6461,"CE":6462,"Our":6463,"Ver":6464,"Washing":6465,"bashing":6466,"eland":6467,"unfortunate":6468,"angers":6469,"engross":6470,"Total":6471,"relatively":6472,"Shakespeare":6473,"Bot":6474,"Cli":6475,"Die":6476,"dd":6477,"sque":6478,"ilton":6479,"lifetime":6480,"extent":6481,"pushed":6482,"novels":6483,"recognize":6484,"Damon":6485,"accomplish":6486,"Miller":6487,"Pen":6488,"redu":6489,"arrog":6490,"adap":6491,"amir":6492,"oll":6493,"Remember":6494,"picks":6495,"advanced":6496,"AST":6497,"Les":6498,"aired":6499,"domin":6500,"gap":6501,"mic":6502,"sor":6503,"chap":6504,"magin":6505,"borrow":6506,"martial":6507,"focuses":6508,"delightful":6509,"Wait":6510,"guarantee":6511,"Washington":6512,"stum":6513,"chair":6514,"treatment":6515,"redem":6516,"Jordan":6517,"):":6518,".'":6519,"Dun":6520,"Rep":6521,"ego":6522,"anic":6523,"model":6524,"surreal":6525,"empathy":6526,"cliff":6527,"Anim":6528,"NOTHING":6529,"thousands":6530,"250":6531,"CBS":6532,"pup":6533,"sne":6534,"ables":6535,"isters":6536,"stylish":6537,"depicts":6538,"gangster":6539,"miserable":6540,"Nazi":6541,"Universe":6542,"++":6543,"Bell":6544,"ov":6545,"rical":6546,"sea":6547,"filmmaking":6548,"artsy":6549,"simpl":6550,"condition":6551,"credibility":6552,"Except":6553,"Direction":6554,"soldier":6555,"blo":6556,"mile":6557,"racy":6558,"lore":6559,"goodness":6560,"ept":6561,"civili":6562,"guilty":6563,"---":6564,"cared":6565,"darkness":6566,"2016":6567,"mbol":6568,"Character":6569,"tune":6570,"indulgent":6571,"Taylor":6572,"IQ":6573,"cence":6574,"sink":6575,"exas":6576,"loses":6577,"tied":6578,"whoever":6579,"ourselves":6580,"orsese":6581,"Doctor":6582,"Cinema":6583,"prequel":6584,"contemporary":6585,"vehicle":6586,"ABC":6587,"XX":6588,"rehash":6589,"adorable":6590,"sounded":6591,"throwing":6592,"individuals":6593,"sketch":6594,"isms":6595,"quin":6596,"mans":6597,"serves":6598,"reviewed":6599,"enjoys":6600,"originally":6601,"akens":6602,"ashed":6603,"rental":6604,"grave":6605,"balls":6606,"OMG":6607,"smooth":6608,"officer":6609,"scratch":6610,"soooo":6611,"unbelievably":6612,"abomin":6613,"haha":6614,"greater":6615,"spital":6616,"ideo":6617,"brilli":6618,"Whoever":6619,"Viet":6620,"choreography":6621,"frightening":6622,"conscious":6623,"FBI":6624,"hint":6625,"shell":6626,"rave":6627,"overwhelming":6628,"surface":6629,"kidding":6630,"delivering":6631,"immense":6632,"Usu":6633,"jack":6634,"rape":6635,"mentally":6636,"beings":6637,"letting":6638,"Dont":6639,"philosophical":6640,"sentimental":6641,"Master":6642,"fish":6643,"latter":6644,"weal":6645,"rule":6646,"backdrop":6647,"politic":6648,"Samuel":6649,"Through":6650,"innovative":6651,"udicrous":6652,"Fan":6653,"ium":6654,"inder":6655,"bold":6656,"players":6657,"cheer":6658,"Child":6659,"symbol":6660,"passes":6661,"Scorsese":6662,"advance":6663,"improvement":6664,"knock":6665,"description":6666,"://":6667,";)":6668,"MUST":6669,"Water":6670,"cient":6671,"ffle":6672,"afterwards":6673,"fitting":6674,"motivation":6675,"practically":6676,":-":6677,"dut":6678,"sme":6679,"admir":6680,"uninspired":6681,"directly":6682,"capital":6683,"hopeless":6684,"requires":6685,"determin":6686,"Wick":6687,"db":6688,"rum":6689,"threw":6690,"inappropriate":6691,"replaced":6692,"alot":6693,"shaking":6694,"antagon":6695,"prise":6696,"offered":6697,"marriage":6698,"ibilities":6699,"recognition":6700,"occasional":6701,"evidence":6702,"thousand":6703,"Went":6704,"foul":6705,"orient":6706,"ita":6707,"exer":6708,"convince":6709,"learning":6710,"finger":6711,"brilliance":6712,"Dick":6713,"Hul":6714,"htt":6715,"lu":6716,"yptic":6717,"ads":6718,"awake":6719,"wished":6720,"Godfather":6721,"slightest":6722,"surrounding":6723,"virtually":6724,"Certain":6725,"FO":6726,"SS":6727,"Sab":6728,"Tube":6729,"cis":6730,"tiny":6731,"station":6732,"disrespect":6733,"lowing":6734,"reviewing":6735,"Moon":6736,"Liam":6737,"ENT":6738,"vampires":6739,"Tyler":6740,"France":6741,"Cas":6742,"Son":6743,"unconvincing":6744,"diverse":6745,"thru":6746,"medical":6747,"Donald":6748,"importance":6749,"swear":6750,"ypse":6751,"claimed":6752,"stole":6753,"sports":6754,"floor":6755,"Entertain":6756,"Dow":6757,"Pla":6758,"nine":6759,"atory":6760,"elf":6761,"center":6762,"Young":6763,"rank":6764,"voluted":6765,"undance":6766,"educated":6767,"philosophy":6768,"Rambo":6769,"isa":6770,"ala":6771,"vices":6772,"uplifting":6773,"misleading":6774,"tracks":6775,"comedian":6776,"jobs":6777,"Emily":6778,"Hardy":6779,"Harrison":6780,"AX":6781,"wen":6782,"noise":6783,"ruins":6784,"relent":6785,"carefully":6786,"distri":6787,"minimal":6788,"Statham":6789,"Air":6790,"Ira":6791,"Jar":6792,"Veron":6793,"ught":6794,"Whate":6795,"cycl":6796,"videos":6797,"bias":6798,"atherine":6799,"convey":6800,"redemption":6801,"AZ":6802,"Dy":6803,"Pul":6804,"asks":6805,"beit":6806,"likeable":6807,"prejud":6808,"checked":6809,"improved":6810,"LOVED":6811,"intentionally":6812,"results":6813,"LI":6814,"Port":6815,"incoherent":6816,"reput":6817,"mock":6818,"haunt":6819,"harder":6820,"developing":6821,"Brown":6822,"broke":6823,"progresses":6824,"stereotype":6825,"Whatever":6826,"Either":6827,"Fol":6828,"Games":6829,"ique":6830,"thet":6831,"vile":6832,"suicide":6833,"exists":6834,"messed":6835,"unimagin":6836,"slop":6837,"attached":6838,"hatred":6839,"emplo":6840,"gentle":6841,"nostalgic":6842,"established":6843,"neighbor":6844,"Ext":6845,"Gun":6846,"Id":6847,"President":6848,"cake":6849,"lone":6850,"semi":6851,"betray":6852,"lize":6853,"shit":6854,"Andrew":6855,"resist":6856,"Grand":6857,"endearing":6858,"nightmare":6859,"Gri":6860,"entin":6861,"anta":6862,"fund":6863,"spite":6864,"2020":6865,"elsewhere":6866,"previously":6867,"Germany":6868,"Murray":6869,"bumps":6870,"controversial":6871,"aust":6872,"renew":6873,"elo":6874,"brid":6875,"creator":6876,"2015":6877,"Lewis":6878,"profanity":6879,"smoking":6880,"riveting":6881,"apocalyptic":6882,"Reynold":6883,"occasionally":6884,"ears":6885,"evo":6886,"lyn":6887,"meth":6888,"lowest":6889,"assass":6890,"monot":6891,"honesty":6892,"curi":6893,"Davis":6894,"2001":6895,"discovered":6896,"Wonderful":6897,"blatant":6898,"tremendous":6899,"Bottom":6900,"eric":6901,"illness":6902,"convoluted":6903,"Myster":6904,"univers":6905,"Boys":6906,"inspiration":6907,"appalling":6908,"guts":6909,"Picture":6910,"ARE":6911,"Med":6912,"NL":6913,"Set":6914,"ludicrous":6915,"vom":6916,"eness":6917,"ounding":6918,"Blue":6919,"wannabe":6920,"luster":6921,"associated":6922,"Bale":6923,"ME":6924,"Pred":6925,"redi":6926,"mod":6927,"alled":6928,"iron":6929,"immature":6930,"osity":6931,"beliefs":6932,"corporate":6933,"hundreds":6934,"Dad":6935,"bid":6936,"asion":6937,"lifel":6938,"suits":6939,"volta":6940,"interactions":6941,"Atl":6942,"private":6943,"explore":6944,"president":6945,"axy":6946,"Skip":6947,"patience":6948,"HU":6949,"TNG":6950,"tones":6951,"chases":6952,"sec":6953,"irrelevant":6954,"endure":6955,"1000":6956,"inson":6957,"United":6958,"confron":6959,"accuracy":6960,"Lin":6961,"lord":6962,"stale":6963,"idence":6964,"justify":6965,"prede":6966,"believed":6967,"empower":6968,"heartfelt":6969,"international":6970,"presents":6971,"identify":6972,"instantly":6973,"Franco":6974,"Play":6975,"Mexican":6976,"analy":6977,"Veronica":6978,"Friend":6979,"Lan":6980,"Sum":6981,"oid":6982,"forgiven":6983,"ulations":6984,"laid":6985,"dozen":6986,"storylines":6987,"urban":6988,"Stall":6989,"stein":6990,"Deep":6991,"props":6992,"Trust":6993,"Blade":6994,"hanging":6995,"onse":6996,"unfair":6997,"unforgettable":6998,"devoid":6999,"consequences":7000,"ours":7001,"adequ":7002,"cheese":7003,"wondered":7004,"Need":7005,"imagined":7006,"advant":7007,"faithful":7008,"Jimmy":7009,"suitable":7010,"Reynolds":7011,"!).":7012,"Happy":7013,"Jr":7014,"Texas":7015,"Wish":7016,"Zero":7017,"encounter":7018,"ingredi":7019,"albeit":7020,"conspir":7021,"promot":7022,"sentence":7023,"Art":7024,"Brook":7025,"suffers":7026,"unlikeable":7027,"depressed":7028,"dedic":7029,"washed":7030,"Kids":7031,"belongs":7032,"wrapped":7033,"Dialo":7034,"Gary":7035,"dinner":7036,"wig":7037,"encies":7038,"lean":7039,"seam":7040,"oples":7041,"asts":7042,"prevent":7043,"Andy":7044,"tales":7045,"YouTube":7046,"IMAX":7047,"opened":7048,"correctness":7049,"unlikely":7050,"immick":7051,"ignored":7052,"predecess":7053,"Sex":7054,"Sony":7055,"WAS":7056,"bless":7057,"jam":7058,"tube":7059,"tian":7060,"promo":7061,"spell":7062,"according":7063,"screw":7064,"instance":7065,"Simon":7066,"masses":7067,"revolution":7068,"charismatic":7069,"Sn":7070,"aid":7071,"secur":7072,"imate":7073,"ifying":7074,"boat":7075,"merit":7076,"Aside":7077,"buddy":7078,"passing":7079,"posted":7080,"Russia":7081,"succeeds":7082,"preachy":7083,"variety":7084,"21st":7085,"Buff":7086,"gimmick":7087,"rates":7088,"inn":7089,"seats":7090,"abys":7091,"teeth":7092,"Stupid":7093,"compassion":7094,"xture":7095,"presentation":7096,"planned":7097,"severe":7098,"princi":7099,"Dian":7100,"poo":7101,"reactions":7102,"arri":7103,"suited":7104,"Heath":7105,"patient":7106,"ASE":7107,"GOOD":7108,"stretched":7109,"Title":7110,"Oliver":7111,"Eric":7112,"ini":7113,"removed":7114,"enthr":7115,"ardi":7116,"chant":7117,"ripped":7118,"decl":7119,"hospital":7120,"miscast":7121,"compli":7122,"triumph":7123,"involve":7124,"Emp":7125,"Edward":7126,"loaded":7127,"baff":7128,"streets":7129,"Drama":7130,"Ferrell":7131,"jaw":7132,"Nobody":7133,"develops":7134,"engage":7135,"detailed":7136,"suffered":7137,"Colin":7138,"Greek":7139,"conservative":7140,"300":7141,"Cat":7142,"EX":7143,"Jac":7144,"Sin":7145,"hollywood":7146,"rebel":7147,"ota":7148,"hire":7149,"folk":7150,"disgusted":7151,"Iraq":7152,"4th":7153,"Aamir":7154,"bone":7155,"clow":7156,"ec":7157,"stiff":7158,"mel":7159,"scifi":7160,"wake":7161,"kidnap":7162,"freaking":7163,"misses":7164,"Neeson":7165,"imaginative":7166,"mixture":7167,"loads":7168,"Seeing":7169,"scenarios":7170,"hrs":7171,"explor":7172,"Consider":7173,"chapter":7174,"Gor":7175,"Ve":7176,"butt":7177,"join":7178,"decides":7179,"Grant":7180,"votes":7181,"Travolta":7182,"www":7183,"initially":7184,"Denzel":7185,"weapons":7186,"itizen":7187,"Award":7188,"Bourne":7189,"Fight":7190,"french":7191,"inaccurate":7192,"ils":7193,"adoles":7194,"heaven":7195,"inding":7196,"gger":7197,"ification":7198,"spiritual":7199,"celebrit":7200,"throat":7201,"History":7202,"Interesting":7203,"22":7204,"Book":7205,"Dream":7206,"FUL":7207,"bird":7208,"uk":7209,"forgive":7210,"raunch":7211,"ultra":7212,"quote":7213,"yourselves":7214,"phr":7215,"Rober":7216,"struck":7217,"ounce":7218,"terrorist":7219,"largely":7220,"fashioned":7221,"legendary":7222,"WWII":7223,"Crit":7224,"Led":7225,"awhile":7226,"ella":7227,"diction":7228,"trapped":7229,"China":7230,"brains":7231,"hypo":7232,"Quentin":7233,"specifically":7234,"anticipation":7235,"tropes":7236,"Bible":7237,"Brian":7238,"Driver":7239,"Glad":7240,"Kind":7241,"Land":7242,"TIM":7243,"pir":7244,"artists":7245,"ruining":7246,"Stu":7247,"heroine":7248,"ronic":7249,"Script":7250,"Caprio":7251,"Barry":7252,"colorful":7253,"achievement":7254,"Empire":7255,"Kin":7256,"Luck":7257,"Sto":7258,"tact":7259,"peoples":7260,"sus":7261,"polish":7262,"ette":7263,"lasted":7264,"portra":7265,"deserving":7266,"successfully":7267,"Walking":7268,"criminals":7269,"RIBLE":7270,"Channel":7271,"Panther":7272,"staff":7273,"hysterical":7274,"dinosaurs":7275,"Zombie":7276,"Stallone":7277,"Kong":7278,"Low":7279,"ffect":7280,"gro":7281,"isol":7282,"iconic":7283,"dear":7284,"backstory":7285,"clum":7286,"plains":7287,"masterful":7288,"countless":7289,"Charlize":7290,"explored":7291,"Jewish":7292,"selling":7293,"Sandra":7294,"Toro":7295,"?).":7296,"SI":7297,"mountain":7298,"rhy":7299,"imdb":7300,"istan":7301,"fired":7302,"Stargate":7303,"generations":7304,"Bring":7305,"2014":7306,"superheroes":7307,"response":7308,"jumped":7309,"Girls":7310,"IGH":7311,"Kubrick":7312,"Pulp":7313,"Log":7314,"SU":7315,"Women":7316,"labor":7317,"moon":7318,"selfish":7319,"confusion":7320,"Jackie":7321,"achieved":7322,"unfolds":7323,"simplistic":7324,"rink":7325,"errors":7326,"theory":7327,"select":7328,"guard":7329,"rude":7330,"States":7331,"believing":7332,"crimes":7333,"camer":7334,"naturally":7335,"judging":7336,"Muslim":7337,"affected":7338,"dressed":7339,"health":7340,"landscape":7341,"Original":7342,"population":7343,"exercise":7344,"NEVER":7345,"Penn":7346,"Rings":7347,"cab":7348,"fate":7349,"picking":7350,"sno":7351,"zes":7352,"isation":7353,"omer":7354,"extended":7355,"expand":7356,"mysteries":7357,"streaming":7358,"functional":7359,"Scarlet":7360,"Hay":7361,"Mul":7362,"Rem":7363,"TA":7364,"shape":7365,"implausible":7366,"poses":7367,"kings":7368,"whenever":7369,"Carol":7370,"explaining":7371,"dropping":7372,"aughters":7373,"Adams":7374,"studios":7375,"Clearly":7376,"PLEASE":7377,"Dare":7378,"Ret":7379,"mund":7380,"users":7381,"ifies":7382,"access":7383,"horrors":7384,"coura":7385,"blur":7386,"instant":7387,"caused":7388,"stunned":7389,"adventures":7390,"feminism":7391,"admire":7392,"travesty":7393,"http":7394,"Pure":7395,"SNL":7396,"aes":7397,"mash":7398,"destruction":7399,"plat":7400,"worthless":7401,"campa":7402,"attempting":7403,"similarities":7404,"batman":7405,"accepted":7406,"status":7407,"abysmal":7408,"Tre":7409,"lly":7410,"ware":7411,"relies":7412,"aser":7413,"section":7414,"mented":7415,"quis":7416,"underlying":7417,"2000":7418,"feld":7419,"closed":7420,"staying":7421,"Const":7422,"groups":7423,"LOT":7424,"atmospher":7425,"searching":7426,"choreograph":7427,"committed":7428,"inducing":7429,"abomination":7430,"Apo":7431,"daughters":7432,"limit":7433,"ada":7434,"embra":7435,"turkey":7436,"Island":7437,"planning":7438,"hitting":7439,"Comm":7440,"fourth":7441,"represented":7442,"draws":7443,"Kidman":7444,"ffleck":7445,"Hood":7446,"Jere":7447,"mier":7448,"wolf":7449,"liever":7450,"abandon":7451,"raise":7452,"ami":7453,"dose":7454,"training":7455,"cheek":7456,"fancy":7457,"solve":7458,"woods":7459,"superbly":7460,"porno":7461,"messy":7462,"morons":7463,"scientist":7464,"Boo":7465,"Bry":7466,"CR":7467,"Sho":7468,"zo":7469,"aton":7470,"stro":7471,"choo":7472,"chain":7473,"vig":7474,"utch":7475,"pets":7476,"inevit":7477,"ciating":7478,"Whit":7479,"hardcore":7480,"Joa":7481,"END":7482,"marvelous":7483,"reached":7484,"minority":7485,"discus":7486,"challenging":7487,"Mexico":7488,"excessive":7489,"competition":7490,"AA":7491,"Hems":7492,"Ze":7493,"emer":7494,"si":7495,"tin":7496,"arm":7497,"sav":7498,"Infinity":7499,"cinemas":7500,"nah":7501,"glory":7502,"resour":7503,"headed":7504,"ennis":7505,"musicals":7506,"amongst":7507,"slick":7508,"CIA":7509,"curiosity":7510,"Hemsworth":7511,"Put":7512,"aff":7513,"goose":7514,"rational":7515,"recei":7516,"icing":7517,"neat":7518,"amal":7519,"myth":7520,"disgu":7521,"offering":7522,"staring":7523,"deliber":7524,"helping":7525,"burst":7526,"Holland":7527,"prequels":7528,"campaign":7529,"Der":7530,"penter":7531,"alleg":7532,"esh":7533,"shake":7534,"los":7535,"...\"":7536,"academy":7537,"hired":7538,"differences":7539,"venture":7540,"legacy":7541,"Shaw":7542,"gruesome":7543,"Usually":7544,"advantage":7545,"Psy":7546,"Six":7547,"bare":7548,"fart":7549,"nib":7550,"orc":7551,"poet":7552,"embarrassment":7553,"Science":7554,"Grey":7555,"advertising":7556,"Golden":7557,"tiresome":7558,"Kyle":7559,":(":7560,"Fore":7561,"thick":7562,"ancient":7563,"exter":7564,"nose":7565,"greatness":7566,"umber":7567,"flight":7568,"morality":7569,"walker":7570,"theatrical":7571,"zzzzzzzz":7572,"Visually":7573,"Screen":7574,"rescue":7575,"Roberts":7576,"BR":7577,"CT":7578,"Grace":7579,"cali":7580,"nar":7581,"vich":7582,"areas":7583,"explains":7584,"goer":7585,"Jolie":7586,"Belie":7587,"subjects":7588,"claims":7589,"mirror":7590,"silence":7591,"conventional":7592,"Affleck":7593,"Kelly":7594,"fice":7595,"pitch":7596,"inch":7597,"viet":7598,"ills":7599,"reads":7600,"farce":7601,"visible":7602,"differently":7603,"possibility":7604,"thrilled":7605,"Arab":7606,"locaust":7607,"GOT":7608,"AMAZ":7609,"babies":7610,"reputation":7611,"method":7612,"Fro":7613,"Mother":7614,"Wed":7615,"avid":7616,"lest":7617,"vic":7618,"beating":7619,"beats":7620,"lia":7621,"overcome":7622,"harm":7623,"fluff":7624,"YOUR":7625,"ghosts":7626,"constructed":7627,"Vietnam":7628,"Predator":7629,"Dennis":7630,"Vampire":7631,"Wi":7632,"bble":7633,"tong":7634,"anor":7635,"alter":7636,"opens":7637,"centric":7638,"angst":7639,"Justin":7640,"heroic":7641,"desert":7642,"headache":7643,"immig":7644,"consistently":7645,"challenges":7646,"honor":7647,"Power":7648,"Crowe":7649,"holiday":7650,"Sabrina":7651,"unimaginative":7652,"Buffy":7653,"andal":7654,"height":7655,"spots":7656,"player":7657,"ERS":7658,"suspend":7659,"typically":7660,"ONG":7661,"represents":7662,"Awakens":7663,"vulner":7664,"benefit":7665,"eerie":7666,"Kurt":7667,"VFX":7668,"omor":7669,"ira":7670,"opic":7671,"happiness":7672,"audio":7673,"buck":7674,"legit":7675,"village":7676,"subtlety":7677,"ILM":7678,"Couldn":7679,"tricks":7680,"Gyllen":7681,"Ledger":7682,"!?":7683,"$$":7684,"Ind":7685,"Pop":7686,"Ten":7687,"aper":7688,"rotten":7689,"wins":7690,"onde":7691,"entry":7692,"essential":7693,"charge":7694,"pless":7695,"bleak":7696,"believes":7697,"hearts":7698,"attempted":7699,"III":7700,"frustrated":7701,"accomplished":7702,"corruption":7703,"cardboard":7704,"explicit":7705,"adapted":7706,"Coun":7707,"COM":7708,"Four":7709,"Further":7710,"Hoff":7711,"Rome":7712,"olo":7713,"tz":7714,"chasing":7715,"unpleasant":7716,"ante":7717,"promote":7718,"spare":7719,"ideal":7720,"Intern":7721,"nights":7722,"interviews":7723,"failing":7724,"sorts":7725,"Bradley":7726,"chilling":7727,"Bullock":7728,"metaphor":7729,"Gos":7730,"Main":7731,"sisters":7732,"believer":7733,"omi":7734,"oms":7735,"Theron":7736,"filling":7737,"compens":7738,"Road":7739,"projects":7740,"kicks":7741,"terrorists":7742,"rooting":7743,"Nicole":7744,"Runner":7745,"Costner":7746,"BOR":7747,"Kirk":7748,"league":7749,"haal":7750,"rior":7751,"conceived":7752,"excru":7753,"cos":7754,"smiling":7755,"calls":7756,"wishing":7757,"stronger":7758,"Neil":7759,"cynical":7760,"weakness":7761,"Victor":7762,"reveals":7763,"motivations":7764,"Certainly":7765,"Extreme":7766,"Hoffman":7767,"Sir":7768,"WTF":7769,"bollywood":7770,"cities":7771,"gift":7772,"wrench":7773,"cean":7774,"upcoming":7775,"minus":7776,"uded":7777,"Chic":7778,"difficul":7779,"iley":7780,"Everybody":7781,"figures":7782,"inspire":7783,"chuckle":7784,"Avatar":7785,"excruciating":7786,"35":7787,"AG":7788,"Lar":7789,"Los":7790,"Song":7791,"dump":7792,"firm":7793,"gla":7794,"hence":7795,"receive":7796,"recycl":7797,"alie":7798,"moti":7799,"vey":7800,"icient":7801,"irony":7802,"nod":7803,"overacting":7804,"grate":7805,"horrid":7806,"hub":7807,"effectively":7808,"LOL":7809,"reflection":7810,"OUT":7811,"spread":7812,"arrogant":7813,"AMAZING":7814,"Gil":7815,"Hart":7816,"Sup":7817,"sons":7818,"ularly":7819,"hase":7820,"acity":7821,"plague":7822,"dragging":7823,"gian":7824,"Scen":7825,"Turkey":7826,"contained":7827,"physically":7828,"Given":7829,"stinker":7830,"Roseanne":7831,"melodrama":7832,"habit":7833,"Whether":7834,"ingredients":7835,"Joaquin":7836,"anormal":7837,"21":7838,"Cri":7839,"Lef":7840,"Spo":7841,"Shel":7842,"gie":7843,"hates":7844,"tro":7845,"wound":7846,"inser":7847,"incess":7848,"keys":7849,"une":7850,"geek":7851,"aman":7852,"loser":7853,"fame":7854,"chest":7855,"aka":7856,"akin":7857,"pulling":7858,"complexity":7859,"sensational":7860,"Broad":7861,"Final":7862,"nominations":7863,"education":7864,"golden":7865,"Australia":7866,"TIME":7867,".</":7868,"Teen":7869,"ueless":7870,"joker":7871,"copied":7872,"Carpenter":7873,"Looks":7874,"tradition":7875,"Streep":7876,"evident":7877,"Jeremy":7878,"FILM":7879,"Nar":7880,"bia":7881,"tha":7882,"adore":7883,"ental":7884,"badass":7885,"fia":7886,"Going":7887,"Charles":7888,"steps":7889,"innocence":7890,"nomination":7891,"digital":7892,"Recommended":7893,"security":7894,"Dem":7895,"Ta":7896,"spook":7897,"ensible":7898,"closing":7899,"Leo":7900,"arring":7901,"Carter":7902,"featuring":7903,"cleverly":7904,"avoided":7905,"calm":7906,"sleeping":7907,"global":7908,"choreographed":7909,"Hob":7910,"Kings":7911,"hil":7912,"arl":7913,"behave":7914,"ilted":7915,"measure":7916,"recommendation":7917,"walks":7918,"Aliens":7919,"madness":7920,"Hamilton":7921,"solely":7922,"destroying":7923,"outrageous":7924,"Gene":7925,"dge":7926,"goo":7927,"mere":7928,"task":7929,"ona":7930,"ont":7931,"enlight":7932,"worn":7933,"pled":7934,"premier":7935,"dissa":7936,"casts":7937,"plastic":7938,"command":7939,"Bey":7940,"Rogen":7941,"casual":7942,"Granted":7943,"Completely":7944,"Clooney":7945,"distribut":7946,"FUN":7947,"Lion":7948,"NT":7949,"iven":7950,"trolls":7951,"iter":7952,"aces":7953,"aken":7954,"persons":7955,"endings":7956,"ahl":7957,"spoiling":7958,"Lets":7959,"Liter":7960,"stock":7961,"exploration":7962,"75":7963,"During":7964,"fond":7965,"stol":7966,"dire":7967,"extr":7968,"ambi":7969,"trade":7970,"humble":7971,"ranks":7972,"pressed":7973,"resort":7974,"generated":7975,"engine":7976,"hyper":7977,"fortune":7978,"mask":7979,"appreciation":7980,"Point":7981,"south":7982,"ounced":7983,"journal":7984,"hesit":7985,"hurts":7986,"Hunger":7987,"Jerry":7988,"glimpse":7989,"tongue":7990,"Cali":7991,"fx":7992,"haust":7993,"antics":7994,"seeking":7995,"iger":7996,"orton":7997,"centered":7998,"setup":7999,"clips":8000,"examples":8001,"opposed":8002,"ungle":8003,"layers":8004,"Apple":8005,"artificial":8006,"Dia":8007,"eli":8008,"definite":8009,"rocks":8010,"agan":8011,"ett":8012,"writes":8013,"aker":8014,"worlds":8015,"Note":8016,"Read":8017,"Firstly":8018,"focusing":8019,"greed":8020,"Mean":8021,"pathize":8022,"revolves":8023,"Thompson":8024,"exceeded":8025,"lonely":8026,"adolescent":8027,"atmospheric":8028,"Bal":8029,"Bush":8030,"Easter":8031,"JW":8032,"Kane":8033,"MAN":8034,"Ton":8035,"cand":8036,"exhaust":8037,"seek":8038,"tax":8039,"olves":8040,"doesnt":8041,"Devil":8042,"elev":8043,"Isra":8044,"Tommy":8045,"satisfy":8046,"ika":8047,"Strong":8048,"raunchy":8049,"stolen":8050,"Cu":8051,"Cur":8052,"pants":8053,"serving":8054,"happily":8055,"allowing":8056,"banter":8057,"Doesn":8058,"caricat":8059,"Chicago":8060,"Camp":8061,"Patt":8062,"dun":8063,"fist":8064,"sand":8065,"actic":8066,"forcing":8067,"americ":8068,"saves":8069,"insist":8070,"renting":8071,"fantast":8072,"handsome":8073,"morals":8074,"2012":8075,"miles":8076,"School":8077,"succeeded":8078,"discussion":8079,"veteran":8080,"mundane":8081,"Alice":8082,"GH":8083,"Hunt":8084,"Ven":8085,"dre":8086,"kh":8087,"lims":8088,"pec":8089,"Annie":8090,"Compare":8091,"doubts":8092,"DiCaprio":8093,"ypical":8094,"strict":8095,"crossed":8096,"conspiracy":8097,"AF":8098,"Fort":8099,"LG":8100,"aur":8101,"esp":8102,"contr":8103,"lackluster":8104,"intentional":8105,"separate":8106,"Bon":8107,"Fav":8108,"Hum":8109,"Ian":8110,"lum":8111,"returns":8112,"stit":8113,"heist":8114,"characterization":8115,"anged":8116,"valid":8117,"murders":8118,"Deadpool":8119,"expert":8120,"highlights":8121,"adequate":8122,"Pet":8123,"Wel":8124,"pig":8125,"react":8126,"beer":8127,"button":8128,"illust":8129,"conven":8130,"umar":8131,"cram":8132,"heartbreaking":8133,"explores":8134,"introduce":8135,"demons":8136,"dynamics":8137,"Shield":8138,"Gyllenhaal":8139,"cust":8140,"infeld":8141,"meat":8142,"uns":8143,"ironic":8144,"females":8145,"ament":8146,"mythology":8147,"olas":8148,"disliked":8149,"Toy":8150,"legs":8151,"technically":8152,"larger":8153,"Superb":8154,"adaptations":8155,"equival":8156,"tortured":8157,"Rocky":8158,"split":8159,"sacrifice":8160,"Hitler":8161,"HS":8162,"Ja":8163,"Jose":8164,"Mom":8165,"agh":8166,"xic":8167,"divor":8168,"contest":8169,"timeless":8170,"forest":8171,"nerd":8172,"glas":8173,"Cohen":8174,"Raj":8175,"Rather":8176,"Schind":8177,"chaos":8178,"BORING":8179,"EP":8180,"Owen":8181,"erotic":8182,"ardo":8183,"arian":8184,"argue":8185,"ario":8186,"usions":8187,"misery":8188,"grasp":8189,"pretending":8190,"Beyond":8191,"sexist":8192,"masterpieces":8193,"nett":8194,"Mrs":8195,"questionable":8196,"criticize":8197,"SciFi":8198,"brutality":8199,"BEST":8200,"chopath":8201,"alternative":8202,"techniques":8203,"lifeless":8204,"FE":8205,"Ut":8206,"yell":8207,"optim":8208,"excl":8209,"peror":8210,"factory":8211,"onda":8212,"stops":8213,"hollow":8214,"snoo":8215,"Katrina":8216,"Nazis":8217,"routine":8218,"smell":8219,"nibal":8220,"wrenching":8221,"Diaz":8222,"egg":8223,"vous":8224,"thal":8225,"reli":8226,"Thought":8227,"letter":8228,"shoes":8229,"listed":8230,"lawyer":8231,"theatres":8232,"historic":8233,"grim":8234,"meeting":8235,"murdered":8236,"Indiana":8237,"glorious":8238,"Visual":8239,"Douglas":8240,"Furious":8241,"astonishing":8242,"International":8243,"Califor":8244,"Fans":8245,"Say":8246,"inconsistent":8247,"enem":8248,"altogether":8249,"arms":8250,"active":8251,"mail":8252,"poon":8253,"realised":8254,"occup":8255,"easier":8256,"confident":8257,"retarded":8258,"Islam":8259,"supported":8260,"accurately":8261,"advertise":8262,"reflects":8263,"Canada":8264,"settling":8265,"portrait":8266,"Extremely":8267,"enemies":8268,"Along":8269,"Jan":8270,"Vince":8271,"rings":8272,"infer":8273,"assist":8274,"buzz":8275,"eleg":8276,"physics":8277,"apolo":8278,"official":8279,"Casting":8280,"inventive":8281,"Hopkins":8282,"sarcast":8283,"sloppy":8284,"quisite":8285,"LGBT":8286,"Hud":8287,"Pier":8288,"dro":8289,"alt":8290,"aling":8291,"iders":8292,"dubbed":8293,"clueless":8294,"retro":8295,"profit":8296,"existed":8297,"Enough":8298,"ringe":8299,"niper":8300,"chills":8301,"addicted":8302,"Natalie":8303,"Considering":8304,"clumsy":8305,"Literally":8306,"Blan":8307,"Cus":8308,"Eas":8309,"Jay":8310,"Lat":8311,"Rad":8312,"Unt":8313,"Zone":8314,"athing":8315,"encoura":8316,"storm":8317,"neck":8318,"consu":8319,"queen":8320,"NOW":8321,"laws":8322,"ennial":8323,"sticks":8324,"Coen":8325,"Makes":8326,"hotel":8327,"banal":8328,"remaining":8329,"Helen":8330,"companies":8331,"Believe":8332,"Bald":8333,"MY":8334,"Ritch":8335,"Wes":8336,"Wolf":8337,"bber":8338,"tad":8339,"encing":8340,"exposition":8341,"sco":8342,"phones":8343,"hopeful":8344,"dystop":8345,"atho":8346,"attend":8347,"Conn":8348,"blows":8349,"continuation":8350,"sitcoms":8351,"witnessed":8352,"technique":8353,"equivalent":8354,"juring":8355,"yelling":8356,"isons":8357,"iler":8358,"admission":8359,"forman":8360,"uristic":8361,"mankind":8362,"agents":8363,"suspic":8364,"STAR":8365,"Anyways":8366,"2008":8367,"objective":8368,"WHY":8369,"investigation":8370,"Roger":8371,"Friends":8372,"resources":8373,"Effect":8374,"Live":8375,"Met":8376,"native":8377,"ata":8378,"shy":8379,"idel":8380,"hem":8381,"pregn":8382,"facing":8383,"lifestyle":8384,"Army":8385,"cliched":8386,"featured":8387,"signed":8388,"depression":8389,"Mont":8390,"medium":8391,"Titanic":8392,"Korea":8393,"damage":8394,"Watson":8395,"!.":8396,")...":8397,"60s":8398,"Drew":8399,"Mu":8400,"Nancy":8401,"narc":8402,"tag":8403,"fac":8404,"cret":8405,"Solo":8406,"vised":8407,"chances":8408,"psychopath":8409,"pressure":8410,"voting":8411,"grity":8412,"Polit":8413,"website":8414,"neighb":8415,"integrity":8416,"picable":8417,"parallel":8418,"HUGE":8419,"Gordon":8420,"sarcastic":8421,"AB":8422,"Gab":8423,"Santa":8424,"Vill":8425,"bin":8426,"khan":8427,"sappy":8428,"uct":8429,"refund":8430,"ando":8431,"lime":8432,"util":8433,"span":8434,"directorial":8435,"lands":8436,"satisf":8437,"transp":8438,"invasion":8439,"Hunter":8440,"antagonist":8441,"Retur":8442,"!),":8443,"Def":8444,"Know":8445,"Word":8446,"cative":8447,"dup":8448,"fro":8449,"zer":8450,"theus":8451,"rein":8452,"deriv":8453,"moronic":8454,"regards":8455,"negat":8456,"faster":8457,"ATE":8458,"Shah":8459,"brainless":8460,"Russians":8461,"busy":8462,"Nicolas":8463,"complaints":8464,"Surpr":8465,"Nicholas":8466,"tastes":8467,"reduced":8468,"Daredevil":8469,"Schindler":8470,"Utter":8471,"Easily":8472,"Ritchie":8473,"Dol":8474,"Dawn":8475,"PR":8476,"Pun":8477,"fought":8478,"yo":8479,"lee":8480,"actica":8481,"youtube":8482,"sums":8483,"tier":8484,"wet":8485,"Stars":8486,"psons":8487,"Regard":8488,"potentially":8489,"deaths":8490,"GOD":8491,"transport":8492,"Swedish":8493,"Kling":8494,"Ral":8495,"WE":8496,"pages":8497,"sive":8498,"sided":8499,"enorm":8500,"stilted":8501,"undoub":8502,"exposed":8503,"launch":8504,"...)":8505,"finan":8506,"linear":8507,"cheated":8508,"craw":8509,"cracking":8510,"Club":8511,"Normally":8512,"spectacle":8513,"tradi":8514,"responsibility":8515,"homosexual":8516,"dysfunctional":8517,"immensely":8518,"Aaron":8519,"Ele":8520,"Pil":8521,"Pak":8522,"Ran":8523,"SC":8524,"alo":8525,"ometheus":8526,"impec":8527,"uration":8528,"upper":8529,"displayed":8530,"screens":8531,"Nope":8532,"subplots":8533,"Johan":8534,"truck":8535,"Justice":8536,"killers":8537,"Beat":8538,"Expect":8539,"summar":8540,"Robbie":8541,"opsis":8542,"ambitious":8543,"mesmerizing":8544,"atholic":8545,"Nik":8546,"TT":8547,"billion":8548,"nity":8549,"ponder":8550,"isy":8551,"ili":8552,"timeline":8553,"sson":8554,"duo":8555,"mates":8556,"Francis":8557,"Surely":8558,"River":8559,"accounts":8560,"stinks":8561,"melodramatic":8562,"crisis":8563,"tasteless":8564,"valuable":8565,"vomit":8566,"95":8567,"Oz":8568,"states":8569,"Third":8570,"unreal":8571,"ulate":8572,"ouses":8573,"screenwriter":8574,"Always":8575,"handful":8576,"IMO":8577,"driver":8578,"closely":8579,"involves":8580,"ONLY":8581,"struggled":8582,"bombs":8583,"advertised":8584,"defined":8585,"definition":8586,"practical":8587,"Private":8588,"repeatedly":8589,"28":8590,"AI":8591,"Ass":8592,"Cop":8593,"Chi":8594,"Dave":8595,"Mitch":8596,"OP":8597,"nels":8598,"rer":8599,"eral":8600,"metal":8601,"unky":8602,"unnecessarily":8603,"doct":8604,"essa":8605,"proced":8606,"isogy":8607,"trained":8608,"Heart":8609,"Keaton":8610,"promised":8611,"grip":8612,"attacks":8613,"Nevertheless":8614,"Angelina":8615,"attered":8616,"radio":8617,"anticipated":8618,"obsession":8619,"resolution":8620,"haunted":8621,"dreary":8622,"Ralph":8623,"Fa":8624,"Snow":8625,"Sever":8626,"Vaugh":8627,"territ":8628,"imit":8629,"justified":8630,"contradi":8631,"acknow":8632,"berry":8633,"angel":8634,"izable":8635,"Arrow":8636,"cultures":8637,"networks":8638,"Films":8639,"Prometheus":8640,"?!?!":8641,"praised":8642,"strip":8643,"depicting":8644,"sincerely":8645,"Congrat":8646,"Goth":8647,"Laugh":8648,"Pie":8649,"cro":8650,"glowing":8651,"nan":8652,"som":8653,"thood":8654,"iston":8655,"mani":8656,"proceed":8657,"ortal":8658,"oblig":8659,"register":8660,"Austin":8661,"virus":8662,"Africa":8663,"Middle":8664,"Nicholson":8665,"duty":8666,"Left":8667,"undoubtedly":8668,"Holly":8669,"T2":8670,"din":8671,"kis":8672,"wrap":8673,"thirty":8674,"anx":8675,"strate":8676,"toys":8677,"ligh":8678,"Start":8679,"1980":8680,"titled":8681,"disturbed":8682,"Walter":8683,"popularity":8684,"troubled":8685,"authenticity":8686,"clown":8687,"5th":8688,"Ag":8689,"Aqu":8690,"Vir":8691,"zone":8692,"thm":8693,"thed":8694,"rewatch":8695,"arse":8696,"cted":8697,"boots":8698,"turd":8699,"turing":8700,"riding":8701,"restaur":8702,"covers":8703,"undant":8704,"loosely":8705,"Prime":8706,"WHAT":8707,"Stanley":8708,"cameras":8709,"caliber":8710,"Baldwin":8711,"negativity":8712,"Mery":8713,"National":8714,"dust":8715,"emo":8716,"inher":8717,"inane":8718,"string":8719,"posing":8720,"astron":8721,"wayne":8722,"spaces":8723,"rested":8724,"uniform":8725,"crush":8726,"thankfully":8727,"Saving":8728,"Frankly":8729,"argument":8730,"comprehensible":8731,"demographic":8732,"bathroom":8733,"sneak":8734,"Catherine":8735,"WI":8736,"etern":8737,"jail":8738,"mist":8739,"nay":8740,"sche":8741,"reson":8742,"ingen":8743,"heap":8744,"iffer":8745,"precise":8746,"mentality":8747,"trivi":8748,"Alf":8749,"slower":8750,"corner":8751,"ocide":8752,"marily":8753,"interview":8754,"Sub":8755,"hammer":8756,"Berlin":8757,"Germans":8758,"motivated":8759,"speechless":8760,"Skywalker":8761,"synopsis":8762,"AVO":8763,"Throughout":8764,"iveness":8765,"Meryl":8766,"Gone":8767,"HOR":8768,"Sundance":8769,"pand":8770,"rics":8771,"yawn":8772,"revi":8773,"stab":8774,"whim":8775,"butch":8776,"hobic":8777,"Butler":8778,"sites":8779,"Soviet":8780,"Margot":8781,"spoke":8782,"exceptionally":8783,"evolution":8784,"splend":8785,"providing":8786,"alternate":8787,"eagerly":8788,"engrossing":8789,"renewed":8790,"\").":8791,"Cal":8792,"HE":8793,"Hath":8794,"Ice":8795,"SW":8796,"Were":8797,"kudos":8798,"misogy":8799,"patch":8800,"wack":8801,"ert":8802,"bey":8803,"whis":8804,"sham":8805,"unanswered":8806,"supre":8807,"racing":8808,"terminator":8809,"comedians":8810,"lasts":8811,"smarter":8812,"reasonably":8813,"confess":8814,"cringy":8815,"Guess":8816,"correctly":8817,"senses":8818,"inspirational":8819,"Angeles":8820,"Toronto":8821,"intentions":8822,"hubali":8823,"derivative":8824,"NC":8825,"Oc":8826,"Squ":8827,"SHOW":8828,"incompetent":8829,"stup":8830,"asingly":8831,"devast":8832,"understated":8833,"sheep":8834,"cohes":8835,"satir":8836,"Scary":8837,"refuse":8838,"2005":8839,"horrifying":8840,"whelmed":8841,"sincere":8842,"fleshed":8843,"frequently":8844,"Cool":8845,"DI":8846,"Sit":8847,"hanger":8848,"rever":8849,"ria":8850,"riel":8851,"renal":8852,"parano":8853,"Poss":8854,"package":8855,"Clark":8856,"strike":8857,"respond":8858,"revealing":8859,"Upon":8860,"formative":8861,"sinister":8862,"Age":8863,"Kath":8864,"Py":8865,"Tow":8866,"Ugh":8867,"gments":8868,"zzy":8869,"sue":8870,"immer":8871,"romp":8872,"serie":8873,"Incredi":8874,"grass":8875,"blank":8876,"Performan":8877,"repeating":8878,"defend":8879,"sacrific":8880,"Critics":8881,"Logan":8882,"Scarlett":8883,"scope":8884,"Ci":8885,"Cho":8886,"Rotten":8887,"WAR":8888,"gather":8889,"desired":8890,"mistaken":8891,"understandable":8892,"persona":8893,"Joan":8894,"appearing":8895,"Peele":8896,"Today":8897,"Carrie":8898,"Guys":8899,"rapid":8900,"comparable":8901,"Dragon":8902,"conflicts":8903,"penny":8904,"Mirror":8905,"american":8906,"Ko":8907,"Money":8908,"Year":8909,"econ":8910,"lers":8911,"rep":8912,"enberg":8913,"tool":8914,"lion":8915,"shay":8916,"plate":8917,"tape":8918,"taught":8919,"owner":8920,"phony":8921,"pays":8922,"pleasing":8923,"News":8924,"Simple":8925,"catching":8926,"dimension":8927,"painting":8928,"princess":8929,"Remind":8930,"SF":8931,"hints":8932,"lens":8933,"san":8934,"sill":8935,"size":8936,"vap":8937,"nods":8938,"artic":8939,"dragon":8940,"entertainer":8941,"blonde":8942,"izations":8943,"Seinfeld":8944,"useful":8945,"possibilities":8946,"futuristic":8947,"counting":8948,"Short":8949,"grief":8950,"Emmy":8951,"claiming":8952,"flashback":8953,"strings":8954,"secrets":8955,"Predict":8956,"jerk":8957,"Singh":8958,"Carell":8959,"Leslie":8960,"Until":8961,"BB":8962,"Dwayne":8963,"Typical":8964,"cous":8965,"ez":8966,"eed":8967,"kicking":8968,"vine":8969,"alas":8970,"whining":8971,"elabor":8972,"oops":8973,"iding":8974,"tery":8975,"lap":8976,"umer":8977,"pride":8978,"casted":8979,"Chur":8980,"Solid":8981,"Actor":8982,"!!!!!!":8983,"ALLY":8984,"primarily":8985,"promises":8986,"amounts":8987,"suggested":8988,"apartment":8989,"Vijay":8990,"Shows":8991,"nuanced":8992,"faults":8993,"California":8994,"CAN":8995,"Face":8996,"Isa":8997,"Pay":8998,"mou":8999,"retire":9000,"stir":9001,"sustain":9002,"ooding":9003,"showcase":9004,"Stra":9005,"merits":9006,"Ann":9007,"transition":9008,"recognizable":9009,"opportun":9010,"occasions":9011,"captivated":9012,"transc":9013,"behaviour":9014,"blockbusters":9015,"ignorance":9016,"Firefly":9017,"atoes":9018,"Leonardo":9019,"poetic":9020,"Fut":9021,"Goo":9022,"MU":9023,"Sid":9024,"cats":9025,"ule":9026,"ume":9027,"vain":9028,"yy":9029,"verted":9030,"sha":9031,"shorter":9032,"intric":9033,"therap":9034,"bye":9035,"ets":9036,"civil":9037,"acing":9038,"bitch":9039,"lasting":9040,"passable":9041,"archy":9042,"westerns":9043,"Castle":9044,"cruelty":9045,"increasingly":9046,"bonus":9047,"symbolism":9048,"Constant":9049,"motives":9050,"grateful":9051,"caricatures":9052,"Bos":9053,"Father":9054,"Wild":9055,"nur":9056,"rin":9057,"offee":9058,"shout":9059,"riot":9060,"device":9061,"Incredible":9062,"screwed":9063,"Marc":9064,"styles":9065,"suspension":9066,"drown":9067,"suggests":9068,"adaption":9069,"throws":9070,"continuing":9071,"programme":9072,"matched":9073,"furious":9074,"wilder":9075,"fingers":9076,"Battlestar":9077,"landscapes":9078,"Louis":9079,"alcohol":9080,"recycled":9081,"Several":9082,"territory":9083,"silliness":9084,"CSI":9085,"Pass":9086,"Tam":9087,"Won":9088,"cé":9089,"eff":9090,"repul":9091,"stron":9092,"toss":9093,"lican":9094,"shouting":9095,"exquisite":9096,"manga":9097,"spends":9098,"Joel":9099,"iano":9100,"monolo":9101,"Liber":9102,"cycle":9103,"woven":9104,"Jews":9105,"wedding":9106,"layered":9107,"insightful":9108,"Laurie":9109,"editor":9110,"Ultim":9111,"goosebumps":9112,"Dies":9113,"Seven":9114,"Wahl":9115,"avengers":9116,"bby":9117,"cere":9118,"gad":9119,"jan":9120,"inf":9121,"endo":9122,"vivid":9123,"libr":9124,"abrupt":9125,"notes":9126,"astounding":9127,"congrat":9128,"overlooked":9129,"sprink":9130,"pointing":9131,"voy":9132,"194":9133,"dumbed":9134,"nonetheless":9135,"grows":9136,"Broke":9137,"recognized":9138,"programming":9139,"witches":9140,"influenced":9141,"Laura":9142,"Galactica":9143,"cells":9144,"stealing":9145,"musc":9146,"determined":9147,"Creat":9148,"DS":9149,"IO":9150,"Pir":9151,"Shad":9152,"SJW":9153,"Tech":9154,"rants":9155,"sword":9156,"inconsist":9157,"enhan":9158,"asm":9159,"chor":9160,"entit":9161,"rambl":9162,"ambig":9163,"timely":9164,"aggress":9165,"ummy":9166,"disease":9167,"Andre":9168,"submit":9169,"nervous":9170,"sadistic":9171,"distance":9172,"Harley":9173,"commented":9174,"banned":9175,"programs":9176,"Break":9177,"absence":9178,"weapon":9179,"integr":9180,"revelation":9181,"narciss":9182,"Congratulations":9183,"\"!":9184,"Drac":9185,"Fel":9186,"Jude":9187,"athan":9188,"bender":9189,"lane":9190,"tender":9191,"nest":9192,"doors":9193,"Whilst":9194,"minal":9195,"izard":9196,"relations":9197,"THER":9198,"channels":9199,"annoy":9200,"mentioning":9201,"buster":9202,"cringeworthy":9203,"Moreover":9204,"silver":9205,"frustration":9206,"passionate":9207,"applause":9208,"steaming":9209,"politicians":9210,"Vaughn":9211,"Fury":9212,"Mason":9213,"bable":9214,"bible":9215,"wave":9216,"reci":9217,"icon":9218,"scri":9219,"aud":9220,"offend":9221,"nevertheless":9222,"downs":9223,"motor":9224,"2010":9225,"Dean":9226,"confidence":9227,"scored":9228,"Charmed":9229,"Holy":9230,"2006":9231,"Simpsons":9232,"progression":9233,"Spike":9234,"hiding":9235,"vais":9236,"healthy":9237,"exploring":9238,"HAVE":9239,"Anton":9240,"promoting":9241,"satisfaction":9242,"impeccable":9243,"Bog":9244,"Hilar":9245,"Lam":9246,"Shy":9247,"fuss":9248,"oon":9249,"zens":9250,"edon":9251,"beast":9252,"activ":9253,"shif":9254,"geon":9255,"tage":9256,"wears":9257,"prostit":9258,"holy":9259,"Started":9260,"Somehow":9261,"Serbian":9262,"nuclear":9263,"Jesse":9264,"Garner":9265,"torn":9266,"Writing":9267,"darn":9268,"universal":9269,"models":9270,"Psycho":9271,"trivial":9272,"Ban":9273,"BIG":9274,"Clar":9275,"Ev":9276,"Sell":9277,"duration":9278,"adrenal":9279,"unsettling":9280,"oppress":9281,"roots":9282,"updated":9283,"ieval":9284,"izz":9285,"fighter":9286,"Myers":9287,"secondary":9288,"capturing":9289,"crass":9290,"finishing":9291,"spirited":9292,"shameful":9293,"dealt":9294,"racies":9295,"professor":9296,"striking":9297,"Feel":9298,"randomly":9299,"Foster":9300,"numbing":9301,"Beautifully":9302,"skipped":9303,"nuts":9304,"WORST":9305,"spooky":9306,"Compared":9307,"Cusack":9308,"Job":9309,"Mic":9310,"Norton":9311,"Vol":9312,"drew":9313,"ske":9314,"staged":9315,"Than":9316,"adul":9317,"detract":9318,"dilem":9319,"myst":9320,"ssip":9321,"discovery":9322,"grot":9323,"granted":9324,"download":9325,"contact":9326,"lical":9327,"heading":9328,"guessed":9329,"Julie":9330,"beaten":9331,"Stiller":9332,"demonstr":9333,"Witcher":9334,"controversy":9335,"ELL":9336,"accuracies":9337,"Ricky":9338,"caricature":9339,"translation":9340,"inevitable":9341,"snooze":9342,"fur":9343,"mud":9344,"wine":9345,"beach":9346,"ustrop":9347,"tered":9348,"watcher":9349,"overused":9350,"acles":9351,"phan":9352,"underwhelming":9353,"biting":9354,"illian":9355,"critique":9356,"hugely":9357,"Thankfully":9358,"Prince":9359,"arcs":9360,"Beauty":9361,"Hannah":9362,"Jonathan":9363,"Stranger":9364,":-)":9365,"glamor":9366,"Broadway":9367,"Wahlberg":9368,"23":9369,"FF":9370,"Gad":9371,"Hook":9372,"bash":9373,"east":9374,"iel":9375,"inger":9376,"imi":9377,"pses":9378,"coinc":9379,"letdown":9380,"iped":9381,"logically":9382,"morrow":9383,"Room":9384,"Network":9385,"wives":9386,"drives":9387,"Connor":9388,"Britain":9389,"questioning":9390,"Christianity":9391,"Cheers":9392,"Muslims":9393,"lengthy":9394,"officers":9395,"Poorly":9396,"Oldman":9397,"Human":9398,"comprehend":9399,"guests":9400,"predecessor":9401,"Larry":9402,"restaurant":9403,"Dracula":9404,"Rich":9405,"Stran":9406,"Tar":9407,"oscar":9408,"sticking":9409,"mechan":9410,"amused":9411,"plans":9412,"understatement":9413,"comprom":9414,"gins":9415,"Reese":9416,"rison":9417,"extre":9418,"attended":9419,"ridden":9420,"publ":9421,"reminder":9422,"Gervais":9423,"Blu":9424,"Storyline":9425,"appearances":9426,"Berg":9427,"................................":9428,"Gosling":9429,"Strange":9430,"Dexter":9431,"Lilly":9432,"PER":9433,"Zo":9434,"cave":9435,"coffee":9436,"phe":9437,"thless":9438,"idow":9439,"guilt":9440,"descent":9441,"workers":9442,"couples":9443,"Thats":9444,"shoe":9445,"freak":9446,"wishes":9447,"momentum":9448,"Orville":9449,"rounded":9450,"strangely":9451,"belly":9452,"progressed":9453,"foolish":9454,"dumber":9455,"resembles":9456,"Claire":9457,"wealthy":9458,"assassin":9459,"Diane":9460,"compliment":9461,"rhythm":9462,"Fortun":9463,"Hathaway":9464,"Fonda":9465,"Spart":9466,"mish":9467,"tree":9468,"ugs":9469,"ilight":9470,"fears":9471,"pod":9472,"dozens":9473,"spit":9474,"twilight":9475,"logies":9476,"consists":9477,"helpful":9478,"covering":9479,"Jackman":9480,"deadly":9481,"burning":9482,"catchy":9483,"strikes":9484,"Angels":9485,"assumed":9486,"educational":9487,"distracted":9488,"Studi":9489,"Regardless":9490,"Eve":9491,"Glo":9492,"Ly":9493,"Sel":9494,"Tol":9495,"Var":9496,"mond":9497,"pump":9498,"uma":9499,"thearted":9500,"aters":9501,"sorely":9502,"percent":9503,"quer":9504,"despair":9505,"lesser":9506,"obsc":9507,"singer":9508,"mighty":9509,"releases":9510,"deni":9511,"distinct":9512,"Shining":9513,"primary":9514,"claustrop":9515,"backgrounds":9516,"designs":9517,"praising":9518,"contribute":9519,"teaches":9520,"mmm":9521,"NYC":9522,"BTW":9523,"pitiful":9524,"Children":9525,"compensate":9526,"contrary":9527,"?),":9528,"Bate":9529,"Bud":9530,"Clover":9531,"Days":9532,"Fear":9533,"Sally":9534,"Wind":9535,"eg":9536,"rome":9537,"thom":9538,"remove":9539,"andro":9540,"tomorrow":9541,"addiction":9542,"arty":9543,"eps":9544,"disast":9545,"Independ":9546,"anson":9547,"Stand":9548,"merc":9549,"solved":9550,"factual":9551,"Reading":9552,"Dear":9553,"climate":9554,"generate":9555,"confir":9556,"witched":9557,"alongside":9558,"earn":9559,"payoff":9560,"Shar":9561,"respected":9562,"mixing":9563,"movements":9564,"Lucy":9565,"woe":9566,"Schumer":9567,"Monty":9568,"profession":9569,"Few":9570,"washing":9571,"ethnic":9572,"Kapoor":9573,"Linda":9574,"sooo":9575,"Penny":9576,"dedicated":9577,"abandoned":9578,"amalan":9579,"Furthermore":9580,"Joseph":9581,"Diesel":9582,"Ellen":9583,"Mountain":9584,"TW":9585,"Twin":9586,"jarring":9587,"sam":9588,"tank":9589,"inept":9590,"informative":9591,"whiny":9592,"mafia":9593,"urous":9594,"curse":9595,"structive":9596,"Arm":9597,"trashy":9598,"judgment":9599,"2007":9600,"Quinn":9601,"Truth":9602,"Redford":9603,"Enjoyed":9604,"invented":9605,"Judy":9606,"cookie":9607,"Trying":9608,"Sopran":9609,"Team":9610,"Legend":9611,"Lucifer":9612,"Disappointing":9613,"oriented":9614,"ardians":9615,"Ball":9616,"Dust":9617,"Hats":9618,"Rap":9619,"aire":9620,"dome":9621,"thon":9622,"incomprehensible":9623,"oured":9624,"chased":9625,"vein":9626,"versus":9627,"scape":9628,"weet":9629,"State":9630,"akota":9631,"performing":9632,"20th":9633,"fantas":9634,"moron":9635,"narrator":9636,"2004":9637,"documentaries":9638,"stranger":9639,"ACK":9640,"WW2":9641,"homopho":9642,"apocalypse":9643,"Screenplay":9644,"Predictable":9645,"Oly":9646,"eh":9647,"hatt":9648,"kiss":9649,"infant":9650,"secut":9651,"undeni":9652,"istics":9653,"fundam":9654,"displays":9655,"careers":9656,"careful":9657,"predictability":9658,"animations":9659,"hateful":9660,"priest":9661,"Pratt":9662,"sophomor":9663,"reaching":9664,"carrying":9665,"scientists":9666,"Miranda":9667,"occurred":9668,"emphasis":9669,"Akshay":9670,"absorbed":9671,"celebrity":9672,"Fortunately":9673,"\"/":9674,"Cant":9675,"Dab":9676,"QT":9677,"Si":9678,"TE":9679,"Timo":9680,"WILL":9681,"caut":9682,"hie":9683,"ras":9684,"inj":9685,"innu":9686,"isnt":9687,"itudes":9688,"bearing":9689,"unning":9690,"hoom":9691,"superman":9692,"reluct":9693,"Secret":9694,"Bean":9695,"sexually":9696,"clothing":9697,"ucker":9698,"hilariously":9699,"ussie":9700,"Terry":9701,"existing":9702,"cringing":9703,"Lovecraft":9704,"introducing":9705,"reaches":9706,"Farrell":9707,"Blake":9708,"challenged":9709,"evolve":9710,"Alexander":9711,"bridge":9712,"Country":9713,"AIN":9714,"Citizen":9715,"Catholic":9716,"Rol":9717,"iently":9718,"pher":9719,"wolves":9720,"returned":9721,"leap":9722,"unnatural":9723,"noted":9724,"decor":9725,"degrad":9726,"mann":9727,"overs":9728,"cheering":9729,"cracy":9730,"trial":9731,"Aniston":9732,"jection":9733,"marine":9734,"colla":9735,"groundbreaking":9736,"expressed":9737,"Prof":9738,"kicked":9739,"aaaa":9740,"absurdity":9741,"boost":9742,"throats":9743,"plod":9744,"glasses":9745,"Summer":9746,"eccentric":9747,"Apocal":9748,"dystopian":9749,"Hate":9750,"Jaw":9751,"MTV":9752,"Spr":9753,"Tell":9754,"Vie":9755,"dating":9756,"daring":9757,"eyed":9758,"gloss":9759,"pill":9760,"ppl":9761,"infect":9762,"isingly":9763,"arity":9764,"sometime":9765,"matically":9766,"brat":9767,"bigot":9768,"classes":9769,"closure":9770,"Box":9771,"Classic":9772,"Colbert":9773,"drawing":9774,"targeted":9775,"fifteen":9776,"patriot":9777,"loyalty":9778,"Hulk":9779,"prejudice":9780,"thetically":9781,"neighborhood":9782,"lighthearted":9783,"entitled":9784,"grotesque":9785,"Bateman":9786,"innuendo":9787,"JO":9788,"JUST":9789,"Tat":9790,"Za":9791,"tf":9792,"wrest":9793,"iner":9794,"ingu":9795,"aret":9796,"define":9797,"devices":9798,"lless":9799,"accomp":9800,"uding":9801,"leftist":9802,"jeal":9803,"Cannes":9804,"emotionless":9805,"2013":9806,"boxes":9807,"continuous":9808,"Project":9809,"awareness":9810,"salv":9811,"surrounded":9812,"resolved":9813,"announced":9814,"rewarding":9815,"plicity":9816,"Brooks":9817,"platform":9818,"inferior":9819,"Hudson":9820,"Pierce":9821,"Virgin":9822,"splendid":9823,"Dakota":9824,"Event":9825,"Hindi":9826,"Neither":9827,"gif":9828,"kar":9829,"tles":9830,"inaccuracies":9831,"remade":9832,"returning":9833,"Thing":9834,"ids":9835,"abbit":9836,"rig":9837,"digest":9838,"lake":9839,"perpet":9840,"urg":9841,"funded":9842,"overshadow":9843,"distract":9844,"idey":9845,"directions":9846,"holic":9847,"Inside":9848,"pattern":9849,"gods":9850,"cartoonish":9851,"smoke":9852,"Malko":9853,"manipulative":9854,"Trier":9855,"Support":9856,"sophomoric":9857,"Case":9858,"Ethan":9859,"Lot":9860,"Making":9861,"tat":9862,"von":9863,"assure":9864,"lyrics":9865,"illegal":9866,"forgetting":9867,"oopers":9868,"absent":9869,"delic":9870,"imitation":9871,"urity":9872,"Stri":9873,"wonders":9874,"farm":9875,"Dete":9876,"spoon":9877,"counts":9878,"soulless":9879,"Gerard":9880,"growth":9881,"OULD":9882,"slam":9883,"publicity":9884,"progressive":9885,"flows":9886,"AME":9887,"basement":9888,"insults":9889,"Philli":9890,"preferred":9891,"sucker":9892,"Spacey":9893,"Galaxy":9894,"AWFUL":9895,"Olivia":9896,"resemblance":9897,"Sophie":9898,"borderline":9899,"Dialogue":9900,"orcist":9901,"Punisher":9902,"Fat":9903,"IV":9904,"tall":9905,"isz":9906,"reject":9907,"shared":9908,"robe":9909,"polar":9910,"guided":9911,"waist":9912,"craz":9913,"starred":9914,"igned":9915,"Pegg":9916,"parties":9917,"Scot":9918,"McCon":9919,"aughey":9920,"binged":9921,"Files":9922,"connections":9923,"analys":9924,"boundaries":9925,"Silver":9926,"assault":9927,"library":9928,"inconsistencies":9929,"FIN":9930,"Non":9931,"eve":9932,"mim":9933,"squir":9934,"zation":9935,"stim":9936,"utions":9937,"peak":9938,"anyways":9939,"discer":9940,"fathom":9941,"despicable":9942,"themed":9943,"newsp":9944,"leted":9945,"medic":9946,"medieval":9947,"classical":9948,"breathe":9949,"tempted":9950,"Shane":9951,"smaller":9952,"Tomatoes":9953,"grey":9954,"2011":9955,"2009":9956,"odds":9957,"souls":9958,"gradually":9959,"Secondly":9960,"Entertaining":9961,"vulnerable":9962,"astronaut":9963,"3d":9964,"Cold":9965,"Cavi":9966,"Win":9967,"Wol":9968,"bun":9969,"elic":9970,"stan":9971,"vibr":9972,"sher":9973,"kel":9974,"keen":9975,"elite":9976,"raving":9977,"dol":9978,"pered":9979,"acqu":9980,"hog":9981,"clues":9982,"voc":9983,"seriousness":9984,"League":9985,"casm":9986,"Police":9987,"Princess":9988,"remained":9989,"Viol":9990,"flavor":9991,"millennial":9992,"yrs":9993,"debate":9994,"performers":9995,"puzzle":9996,"attracted":9997,"secure":9998,"WITH":9999,"strongest":10000,"Felt":10001,"Shyamalan":10002,"AK":10003,"Dum":10004,"Dumb":10005,"boun":10006,"etry":10007,"sab":10008,"til":10009,"activity":10010,"union":10011,"rol":10012,"scra":10013,"manu":10014,"ums":10015,"thrones":10016,"Indeed":10017,"viscer":10018,"Weisz":10019,"norm":10020,"expense":10021,"narrow":10022,"survived":10023,"Brave":10024,"screams":10025,"affects":10026,"Hannibal":10027,"Maggie":10028,"warmth":10029,"Ronan":10030,"Rodri":10031,"itizens":10032,"psychotic":10033,"polished":10034,"Five":10035,"Mess":10036,"Sor":10037,"houses":10038,"iat":10039,"pandering":10040,"sigh":10041,"vas":10042,"info":10043,"stare":10044,"tops":10045,"forgi":10046,"pover":10047,"locked":10048,"guide":10049,"boom":10050,"hibit":10051,"clone":10052,"genocide":10053,"sublime":10054,"clim":10055,"appeals":10056,"Indians":10057,"transformation":10058,"acceptance":10059,"ails":10060,"psychology":10061,"sales":10062,"tolerate":10063,"dinosaur":10064,"Production":10065,"electric":10066,"phrase":10067,"satirical":10068,"opportunities":10069,"Cavill":10070,"/\"":10071,"Adri":10072,"Dist":10073,"Rain":10074,"UE":10075,"dick":10076,"pes":10077,"pha":10078,"vors":10079,"itor":10080,"beg":10081,"bean":10082,"entity":10083,"ooby":10084,"filth":10085,"funding":10086,"traum":10087,"observ":10088,"1970":10089,"collabor":10090,"Peaks":10091,"ERO":10092,"Armen":10093,"cuz":10094,"massa":10095,"Spen":10096,"biopic":10097,"sufficient":10098,"OUR":10099,"combine":10100,"conclude":10101,"Norwe":10102,"bullets":10103,"Huge":10104,"nightmares":10105,"Talk":10106,"Downey":10107,"aesthetic":10108,"Scenes":10109,"Effects":10110,"Sellers":10111,"Cloverfield":10112,"26":10113,"Ah":10114,"Fell":10115,"Gard":10116,"Less":10117,"Reven":10118,"Roth":10119,"aving":10120,"easter":10121,"hoo":10122,"ology":10123,"chief":10124,"shades":10125,"eline":10126,"unexplained":10127,"dece":10128,"illusion":10129,"enders":10130,"wholes":10131,"weigh":10132,"mentary":10133,"understands":10134,"smug":10135,"DeNiro":10136,"Moder":10137,"Beast":10138,"steady":10139,"Isn":10140,"Goodman":10141,"DVR":10142,"Anything":10143,"purchase":10144,"Harvey":10145,"truths":10146,"limits":10147,"statements":10148,"nihil":10149,"attacked":10150,"Elli":10151,"demands":10152,"Train":10153,"irritated":10154,"swim":10155,"ripoff":10156,"recorded":10157,"punches":10158,"tuned":10159,"spiderman":10160,"Heroes":10161,"Dogs":10162,"--------------------------------":10163,"deliberately":10164,"extras":10165,"Possibly":10166,"Detective":10167,"CO":10168,"Curt":10169,"Rand":10170,"Von":10171,"WAST":10172,"rr":10173,"replic":10174,"motive":10175,"kest":10176,"persu":10177,"preposter":10178,"pros":10179,"sayers":10180,"coach":10181,"insanity":10182,"sounding":10183,"magaz":10184,"1960":10185,"Sheen":10186,"sooner":10187,"causes":10188,"Meh":10189,"photograph":10190,"bullet":10191,"treasure":10192,"atheist":10193,"Mission":10194,"broadcast":10195,"Philip":10196,"wicked":10197,"Dylan":10198,"Portman":10199,"monoton":10200,"Johansson":10201,"vapid":10202,"Hilarious":10203,"Cut":10204,"Hy":10205,"ckets":10206,"fs":10207,"iod":10208,"och":10209,"winter":10210,"incorrect":10211,"reel":10212,"toy":10213,"segment":10214,"sugar":10215,"label":10216,"poetry":10217,"plant":10218,"yours":10219,"realm":10220,"simplicity":10221,"crity":10222,"entirety":10223,"portion":10224,"runtime":10225,"styl":10226,"Leave":10227,"Leigh":10228,"Coming":10229,"truthful":10230,"terrorism":10231,"panic":10232,"comparisons":10233,"assuming":10234,"Epic":10235,"layer":10236,"fuel":10237,"Titans":10238,"hhhh":10239,"hungry":10240,"Planet":10241,"nauseating":10242,"employe":10243,"Connery":10244,"enormous":10245,"Hawk":10246,"Ol":10247,"Rian":10248,"SP":10249,"Sou":10250,"bene":10251,"lis":10252,"sadd":10253,"thors":10254,"wasnt":10255,"elve":10256,"notion":10257,"therland":10258,"desp":10259,"gency":10260,"surg":10261,"mindset":10262,"subplot":10263,"Rebel":10264,"Weak":10265,"additional":10266,"unior":10267,"paranormal":10268,"positively":10269,"suggestion":10270,"Major":10271,"?!?":10272,"empire":10273,"species":10274,"chuckles":10275,"Susp":10276,"sarcasm":10277,"Bryan":10278,"MUCH":10279,"Cry":10280,"Lane":10281,"Pers":10282,"Row":10283,"Rise":10284,"SPO":10285,"WR":10286,"citizens":10287,"href":10288,"iety":10289,"inject":10290,"lip":10291,"unsure":10292,"composed":10293,"pos":10294,"doomed":10295,"brooding":10296,"whereas":10297,"excell":10298,"settle":10299,"stopping":10300,"shoved":10301,"internal":10302,"deny":10303,"airs":10304,"picky":10305,"judged":10306,"fellas":10307,"Plenty":10308,"maxim":10309,"Saul":10310,"Alec":10311,"wildly":10312,"homosexuality":10313,"Bacon":10314,"vacation":10315,"Naomi":10316,"Iranian":10317,"____":10318,"pregnant":10319,"AVOID":10320,"Sopranos":10321,");":10322,"Cinder":10323,"Fy":10324,"Kno":10325,"Kumar":10326,"Mem":10327,"Vik":10328,"dled":10329,"pable":10330,"rats":10331,"zi":10332,"incar":10333,"injustice":10334,"incorpor":10335,"shining":10336,"erspoon":10337,"neth":10338,"amuse":10339,"urb":10340,"update":10341,"ourney":10342,"lows":10343,"gible":10344,"ranking":10345,"motions":10346,"leaders":10347,"sedu":10348,"aneously":10349,"closest":10350,"akest":10351,"subjected":10352,"straightforward":10353,"mediocrity":10354,"substant":10355,"Wilder":10356,"explanations":10357,"punish":10358,"choppy":10359,"insanely":10360,"chaotic":10361,"uddled":10362,"disrespectful":10363,"severely":10364,"isolated":10365,"disguised":10366,"wacky":10367,"Civil":10368,"claustrophobic":10369,"?\".":10370,"Aussie":10371,"Pu":10372,"Wire":10373,"WHO":10374,"YES":10375,"mult":10376,"slice":10377,"wink":10378,"anxious":10379,"Thus":10380,"lized":10381,"pez":10382,"iments":10383,"antis":10384,"tribut":10385,"Jodie":10386,"killings":10387,"cursing":10388,"placement":10389,"Period":10390,"admittedly":10391,"investment":10392,"Fargo":10393,"Bern":10394,"nuance":10395,"anticipating":10396,"AWES":10397,"guaranteed":10398,"Bridges":10399,"relentless":10400,"fantastically":10401,"Evans":10402,"adrenaline":10403,"=\"/":10404,"ET":10405,"Fif":10406,"Rent":10407,"Rag":10408,"UR":10409,"VHS":10410,"eous":10411,"echo":10412,"pon":10413,"punk":10414,"piano":10415,"wider":10416,"theories":10417,"itty":10418,"devi":10419,"deleted":10420,"races":10421,"astrop":10422,"realizing":10423,"dud":10424,"worldwide":10425,"Heaven":10426,"buried":10427,"cutter":10428,"Ross":10429,"distort":10430,"counters":10431,"respective":10432,"imagining":10433,"combines":10434,"miracle":10435,"remarks":10436,"insulted":10437,"invited":10438,"addictive":10439,"cancercancer":10440,"wealth":10441,"Luckily":10442,"discussing":10443,"/\">":10444,"monotonous":10445,"Close":10446,"Dhoom":10447,"Sep":10448,"Scor":10449,"cater":10450,"rang":10451,"sir":10452,"yaw":10453,"engl":10454,"semble":10455,"deta":10456,"opted":10457,"loom":10458,"getic":10459,"standout":10460,"classy":10461,"volume":10462,"margin":10463,"presenting":10464,"Sutherland":10465,"literature":10466,"itchen":10467,"bury":10468,"Kingdom":10469,"protest":10470,"rupted":10471,"moody":10472,"AMC":10473,"fills":10474,"flag":10475,"Fantasy":10476,"Borat":10477,"rewarded":10478,"lifted":10479,"Banglad":10480,"gaps":10481,"confront":10482,"losers":10483,"strictly":10484,"eggs":10485,"Malkovich":10486,"McConaughey":10487,"HH":10488,"TL":10489,"Wy":10490,"nude":10491,"zene":10492,"infinity":10493,"revers":10494,"idy":10495,"cker":10496,"grind":10497,"traits":10498,"Reg":10499,"Joy":10500,"excellently":10501,"nerves":10502,"colm":10503,"Lopez":10504,"exploitation":10505,"Shaun":10506,"Terri":10507,"Cox":10508,"describes":10509,"Grade":10510,"Adventure":10511,"MORE":10512,"Barbar":10513,"Ending":10514,"robber":10515,"Ridiculous":10516,"Shia":10517,"quotes":10518,"Royale":10519,"embrace":10520,"Hobbit":10521,"Brokeback":10522,"AWESOME":10523,"BL":10524,"Block":10525,"Hr":10526,"Mach":10527,"Others":10528,"Rudd":10529,"Sold":10530,"Sonic":10531,"Taken":10532,"Wrong":10533,"ZZ":10534,"Zach":10535,"dreck":10536,"toes":10537,"tomat":10538,"assum":10539,"shank":10540,"math":10541,"quarter":10542,"disconnected":10543,"realities":10544,"realizes":10545,"addin":10546,"restra":10547,"logist":10548,"Witherspoon":10549,"biblic":10550,"listened":10551,"ucci":10552,"Miami":10553,"Amanda":10554,"Bobby":10555,"ographic":10556,"dumbest":10557,"blatantly":10558,"stumbled":10559,"receiving":10560,"Frozen":10561,"financial":10562,"gadgets":10563,"Mickey":10564,"Dustin":10565,"Might":10566,"Pine":10567,"cig":10568,"dv":10569,"iator":10570,"jungle":10571,"rot":10572,"vileg":10573,"polic":10574,"weir":10575,"viewings":10576,"reader":10577,"scripting":10578,"licop":10579,"popping":10580,"biography":10581,"imaginary":10582,"Supergirl":10583,"Adult":10584,"attach":10585,"continuously":10586,"gained":10587,"liberals":10588,"provocative":10589,"Afgh":10590,"chicks":10591,"Malcolm":10592,"cellul":10593,"fixed":10594,"patriotic":10595,"borrowed":10596,"Modern":10597,"WASTE":10598,"biblical":10599,"Cy":10600,"DIS":10601,"Dirty":10602,"Len":10603,"Mah":10604,"Tiger":10605,"lab":10606,"pale":10607,"slaughter":10608,"uated":10609,"yers":10610,"ento":10611,"mode":10612,"adjust":10613,"mast":10614,"defeat":10615,"asted":10616,"weather":10617,"weakest":10618,"authors":10619,"disregard":10620,"phon":10621,"Therefore":10622,"Chop":10623,"amaze":10624,"scription":10625,"warrior":10626,"Donnie":10627,"marry":10628,"IMHO":10629,"experiencing":10630,"menacing":10631,"rooms":10632,"sickening":10633,"belle":10634,"desperation":10635,"brutally":10636,"Outstanding":10637,"discovers":10638,"grabs":10639,"fascinated":10640,"Enterprise":10641,"TERRIBLE":10642,"Nathan":10643,"immersed":10644,"Animation":10645,"Mystery":10646,"optimistic":10647,"Gabriel":10648,"supreme":10649,"Cate":10650,"Mik":10651,"Rush":10652,"UM":10653,"slea":10654,"tan":10655,"wy":10656,"thread":10657,"selection":10658,"bee":10659,"dismal":10660,"faint":10661,"Whedon":10662,"offense":10663,"dub":10664,"phant":10665,"193":10666,"umpy":10667,"grounded":10668,"scariest":10669,"distant":10670,"weekly":10671,"signs":10672,"survivors":10673,"concerning":10674,"VIEW":10675,"dazz":10676,"believability":10677,"Kenned":10678,"Susan":10679,"urai":10680,"Voy":10681,"destroys":10682,"Hallmark":10683,"empowerment":10684,"revolutionary":10685,"baffled":10686,"Songs":10687,"Independence":10688,"preposterous":10689,"Cinderella":10690,"Fed":10691,"Hand":10692,"bast":10693,"nick":10694,"ocean":10695,"sane":10696,"wagon":10697,"orn":10698,"anders":10699,"begging":10700,"unra":10701,"abusive":10702,"hai":10703,"neut":10704,"pton":10705,"ounds":10706,"readers":10707,"redundant":10708,"surpassed":10709,".........":10710,"coupled":10711,"completed":10712,"relson":10713,"Actress":10714,"midnight":10715,"Worse":10716,"ennes":10717,"gripped":10718,"Pathetic":10719,"wheel":10720,"rendition":10721,"Brosn":10722,"Raimi":10723,"Danish":10724,"fools":10725,"circle":10726,"IFF":10727,"tacky":10728,"hunter":10729,"attraction":10730,"choosing":10731,"Blanch":10732,"elaborate":10733,"Jaws":10734,"tomato":10735,"celluloid":10736,"500":10737,"Alit":10738,"Bess":10739,"Fisher":10740,"Finding":10741,"Navy":10742,"Parent":10743,"Zoo":10744,"cs":10745,"gall":10746,"lun":10747,"oil":10748,"sma":10749,"uate":10750,"ora":10751,"ches":10752,"shel":10753,"notable":10754,"nope":10755,"wee":10756,"discrimin":10757,"interests":10758,"solution":10759,"Heat":10760,"basket":10761,"rising":10762,"Bee":10763,"nerds":10764,"schlock":10765,"Within":10766,"scarier":10767,"30s":10768,"anied":10769,"Holocaust":10770,"Post":10771,"Boston":10772,"Meg":10773,"Robot":10774,"pushes":10775,"concern":10776,"distraction":10777,"escapism":10778,"Audi":10779,"veterans":10780,"Century":10781,"squee":10782,"involvement":10783,"believers":10784,"unravel":10785,"Aud":10786,"Banks":10787,"Kay":10788,"Sol":10789,"factors":10790,"hal":10791,"pum":10792,"pause":10793,"switched":10794,"tab":10795,"tens":10796,"tends":10797,"antha":10798,"reboots":10799,"arn":10800,"armed":10801,"segments":10802,"bears":10803,"Throw":10804,"ithik":10805,"rial":10806,"deaf":10807,"raising":10808,"wholly":10809,"apers":10810,"overlong":10811,"asses":10812,"backwards":10813,"clunky":10814,"simult":10815,"afford":10816,"Shan":10817,"transformers":10818,"accepting":10819,"shockingly":10820,"teaching":10821,"ICE":10822,"detect":10823,"unfolding":10824,"radical":10825,"Freddie":10826,"Scream":10827,"vilege":10828,"Israel":10829,"intricate":10830,"forgivable":10831,")!":10832,"Cour":10833,"CON":10834,"Lack":10835,"Mot":10836,"Ot":10837,"kni":10838,"mig":10839,"uity":10840,"enforce":10841,"enchant":10842,"stating":10843,"itz":10844,"mos":10845,"seld":10846,"outright":10847,"rier":10848,"raises":10849,"robbed":10850,"brown":10851,"Aladdin":10852,"Review":10853,"warzene":10854,"March":10855,"sidekick":10856,"realistically":10857,"confuse":10858,"GoT":10859,"Harold":10860,"privilege":10861,"instinct":10862,"ITE":10863,"transform":10864,"Admit":10865,"judgement":10866,"gangsters":10867,"Between":10868,"preaching":10869,"arguments":10870,"vulgarity":10871,"birthday":10872,"enthusiasm":10873,"Hotel":10874,"MIB":10875,"ideology":10876,"mockery":10877,"betrayal":10878,"forgiveness":10879,"enthralling":10880,"tactics":10881,"divorce":10882,"Klingons":10883,"Brosnan":10884,"Ame":10885,"Came":10886,"Dread":10887,"Dutch":10888,"Fass":10889,"Fair":10890,"Firth":10891,"Pain":10892,"Want":10893,"dale":10894,"equality":10895,"pins":10896,"sends":10897,"vag":10898,"vell":10899,"melan":10900,"uncle":10901,"unsatisfying":10902,"gems":10903,"feast":10904,"illing":10905,"amond":10906,"convi":10907,"preced":10908,"proving":10909,"overlook":10910,"ilda":10911,"angels":10912,"delicious":10913,"socially":10914,"releasing":10915,"Score":10916,"buildings":10917,"McKin":10918,"privileg":10919,"executive":10920,"Cole":10921,"ART":10922,"improbable":10923,"Directing":10924,"Samantha":10925,"milk":10926,"Geor":10927,"cringey":10928,"testament":10929,"perspectives":10930,"accused":10931,"Oldboy":10932,"loyd":10933,"cowboy":10934,"galaxy":10935,"accidentally":10936,"Gregor":10937,"Place":10938,"ronicles":10939,"difficulties":10940,"Words":10941,"Python":10942,"repulsive":10943,"analysis":10944,"Norwegian":10945,"wholesome":10946,"Alita":10947,"47":10948,"Agent":10949,"Bates":10950,"Brend":10951,"Ewan":10952,"Ga":10953,"Ker":10954,"Pad":10955,"Pink":10956,"Ref":10957,"slot":10958,"retelling":10959,"aly":10960,"mothers":10961,"chron":10962,"ctic":10963,"sect":10964,"verine":10965,"geared":10966,"neur":10967,"illed":10968,"inton":10969,"perception":10970,"eping":10971,"joined":10972,"overblown":10973,"fined":10974,"partly":10975,"Inception":10976,"recommending":10977,"risks":10978,"Moss":10979,"sentences":10980,"attitudes":10981,"capacity":10982,"Harrelson":10983,"LOW":10984,"southern":10985,"convincingly":10986,"Wasn":10987,"Walker":10988,"Impossible":10989,"Sara":10990,"Satan":10991,"chops":10992,"stakes":10993,"Vincent":10994,"IGHT":10995,"Alfred":10996,"visceral":10997,"Curtis":10998,"english":10999,"Gru":11000,"HD":11001,"Hust":11002,"Sof":11003,"Tw":11004,"oir":11005,"shirt":11006,"noble":11007,"weed":11008,"tee":11009,"acclaimed":11010,"offs":11011,"dubbing":11012,"timed":11013,"coon":11014,"ipid":11015,"Decent":11016,"Maria":11017,"ORY":11018,"learns":11019,"ushka":11020,"dignity":11021,"Disappointed":11022,"cliffhanger":11023,"Griff":11024,"Atlantis":11025,"HORRIBLE":11026,"recipe":11027,"accompanied":11028,"excellence":11029,"50s":11030,"Daf":11031,"Gay":11032,"Jaa":11033,"Ring":11034,"SOME":11035,"Troy":11036,"bio":11037,"cards":11038,"dil":11039,"glit":11040,"hunting":11041,"rural":11042,"retired":11043,"stark":11044,"ito":11045,"chat":11046,"forty":11047,"mega":11048,"shred":11049,"shelf":11050,"eliness":11051,"uno":11052,"sume":11053,"endrick":11054,"presum":11055,"irsty":11056,"disney":11057,"orses":11058,"ruthless":11059,"Into":11060,"underdeveloped":11061,"code":11062,"screenwriters":11063,"flood":11064,"neyed":11065,"legends":11066,"treats":11067,"Superbad":11068,"sensit":11069,"Small":11070,"flashy":11071,"Berry":11072,"Scottish":11073,"vengeance":11074,"fabric":11075,"skipping":11076,"crisp":11077,"tolerable":11078,"Hawai":11079,"Mulan":11080,"Wedding":11081,"trope":11082,"NCIS":11083,"demonstrates":11084,"Apocalypse":11085,"seldom":11086,"warzenegger":11087,"!,":11088,"Cross":11089,"Dall":11090,"Dest":11091,"Hom":11092,"Lake":11093,"Prison":11094,"bite":11095,"hats":11096,"ym":11097,"inexplic":11098,"stable":11099,"alley":11100,"abused":11101,"scam":11102,"helicop":11103,"acid":11104,"idest":11105,"laughably":11106,"ograp":11107,"mermaid":11108,"righteous":11109,"blink":11110,"cope":11111,"visions":11112,"subsequ":11113,"Seen":11114,"bothers":11115,"Beck":11116,"awfully":11117,"mony":11118,"masterfully":11119,"depends":11120,"Shark":11121,"causing":11122,"Meet":11123,"Megan":11124,"Blunt":11125,"Guardians":11126,"slave":11127,"Vikings":11128,"Murder":11129,"swing":11130,"Thriller":11131,"1994":11132,"1984":11133,"OOOO":11134,"Writer":11135,"colours":11136,"scratching":11137,"SUCK":11138,"Campbell":11139,"apologi":11140,"econom":11141,"poverty":11142,"Hrithik":11143,"Kennedy":11144,"ographer":11145,"27":11146,"Bus":11147,"Buck":11148,"Line":11149,"Mend":11150,"Sense":11151,"SUP":11152,"bins":11153,"cel":11154,"cens":11155,"wich":11156,"ensure":11157,"album":11158,"edition":11159,"behold":11160,"uneven":11161,"uninspiring":11162,"oph":11163,"pol":11164,"endured":11165,"intimate":11166,"tration":11167,"bleed":11168,"print":11169,"intoler":11170,"misfortune":11171,"maturity":11172,"trauma":11173,"origins":11174,"Joss":11175,"founded":11176,"clip":11177,"interact":11178,"Living":11179,"schools":11180,"positions":11181,"Cannot":11182,"distress":11183,"Spy":11184,"Exorcist":11185,"Conjuring":11186,"exploit":11187,"Abby":11188,"destined":11189,"transfer":11190,"Haven":11191,"ordered":11192,"Turner":11193,"Fincher":11194,"traveling":11195,"Camera":11196,"homes":11197,"Polish":11198,"Foxx":11199,"threatening":11200,"nutshell":11201,"automatically":11202,"Central":11203,"engrossed":11204,"++++":11205,"Dialogues":11206,"selected":11207,"assistant":11208,"elegant":11209,"neighbors":11210,"reruns":11211,"Aquaman":11212,"Pirates":11213,"vibrant":11214,"substantial":11215,"McKinnon":11216,"Dallas":11217,"\"-":11218,"))":11219,"2D":11220,"Cou":11221,"Halle":11222,"Kil":11223,"Lol":11224,"Todd":11225,"Tax":11226,"pis":11227,"pant":11228,"instru":11229,"chi":11230,"Ther":11231,"Thumbs":11232,"lips":11233,"sharing":11234,"ndrome":11235,"rukh":11236,"gray":11237,"emed":11238,"coz":11239,"Develop":11240,"alizing":11241,"REVIEW":11242,"Tomor":11243,"translate":11244,"Christina":11245,"2003":11246,"Finn":11247,"Alicia":11248,"Walken":11249,"frames":11250,"substit":11251,"thankful":11252,"voters":11253,"catastrop":11254,"agendas":11255,"BSG":11256,"loneliness":11257,"bullshit":11258,"communication":11259,"FUNNY":11260,"stimul":11261,"Spencer":11262,"SPOIL":11263,"Bil":11264,"DR":11265,"DID":11266,"Hur":11267,"Lie":11268,"Passion":11269,"Side":11270,"mons":11271,"ological":11272,"poop":11273,"wre":11274,"informed":11275,"pee":11276,"outdated":11277,"prev":11278,"upside":11279,"newer":11280,"newcom":11281,"worker":11282,"trap":11283,"wardrobe":11284,"Weird":11285,"smith":11286,"shoots":11287,"morally":11288,"pedest":11289,"INT":11290,"rett":11291,"fox":11292,"sympathize":11293,"Lastly":11294,"Miche":11295,"officially":11296,"categor":11297,"conveyed":11298,"Hellboy":11299,"Italy":11300,"hackneyed":11301,"predator":11302,"frequent":11303,"enthralled":11304,"Jacob":11305,"drove":11306,"Surprisingly":11307,"Pilot":11308,"Ari":11309,"FR":11310,"Pur":11311,"gul":11312,"kn":11313,"mart":11314,"mush":11315,"sof":11316,"uge":11317,"ée":11318,"inja":11319,"ista":11320,"vian":11321,"unner":11322,"apply":11323,"Stark":11324,"underground":11325,"produces":11326,"illions":11327,"Reilly":11328,"1990":11329,"monkey":11330,"Marshall":11331,"copies":11332,"anka":11333,"Mann":11334,"Carto":11335,"distingu":11336,"existential":11337,"imaginable":11338,"nuances":11339,"pathos":11340,"Crazy":11341,"compete":11342,"Masterpiece":11343,"reliable":11344,"Return":11345,"acknowledge":11346,"Ultimately":11347,"aggressive":11348,"Bergman":11349,"Tomorrow":11350,"Gro":11351,"Mill":11352,"Rel":11353,"jun":11354,"tu":11355,"tiring":11356,"retain":11357,"itter":11358,"ilarly":11359,"forbid":11360,"entered":11361,"meas":11362,"elder":11363,"macho":11364,"dive":11365,"noises":11366,"tip":11367,"condu":11368,"istent":11369,"shoulders":11370,"longing":11371,"blunt":11372,"smiles":11373,"glance":11374,"clock":11375,"intertw":11376,"portrayals":11377,"Disgust":11378,"sched":11379,"Scooby":11380,"Express":11381,"LOTR":11382,"Order":11383,"barrel":11384,"Quaid":11385,"relevance":11386,"intellectually":11387,"practice":11388,"evolved":11389,"manipulation":11390,"organization":11391,"Rogers":11392,"seamlessly":11393,"Wife":11394,"dissapointed":11395,"cohesive":11396,"Google":11397,"IOUS":11398,"tattoo":11399,"privileged":11400,"Cub":11401,"Eg":11402,"Fle":11403,"Hal":11404,"Happ":11405,"IVE":11406,"Lily":11407,"Lara":11408,"mers":11409,"inity":11410,"infl":11411,"lope":11412,"canon":11413,"emic":11414,"obli":11415,"lette":11416,"contender":11417,"Anti":11418,"paste":11419,"consideration":11420,"positives":11421,"Bride":11422,"identical":11423,"Steel":11424,"Schwarzenegger":11425,"murderer":11426,"Pros":11427,"grabbed":11428,"Pacific":11429,"Judge":11430,"demanding":11431,"applauded":11432,"alcoholic":11433,"FOX":11434,"firmly":11435,"Clarke":11436,"Afghan":11437,"Dreadful":11438,"Awards":11439,"Bran":11440,"Cher":11441,"Coppo":11442,"Fish":11443,"Hep":11444,"Liz":11445,"SA":11446,"Sleep":11447,"ZERO":11448,"bt":11449,"kitchen":11450,"loop":11451,"nations":11452,"ida":11453,"imately":11454,"consum":11455,"epit":11456,"john":11457,"becca":11458,"pric":11459,"ideals":11460,"owned":11461,"couch":11462,"coat":11463,"ashes":11464,"insipid":11465,"bucket":11466,"Forrest":11467,"nerve":11468,"lander":11469,"franchises":11470,"avoiding":11471,"Editing":11472,"ASH":11473,"13th":11474,"oddly":11475,"Elba":11476,"concerns":11477,"painted":11478,"professionals":11479,"Obama":11480,"wisdom":11481,"addressed":11482,"predic":11483,"1950s":11484,"kidnapped":11485,"plodding":11486,"simultaneously":11487,"Ay":11488,"Bun":11489,"Bab":11490,"Irel":11491,"Kra":11492,"Lem":11493,"Pick":11494,"Smo":11495,"ige":11496,"jol":11497,"wire":11498,"enna":11499,"meal":11500,"anytime":11501,"fulfilled":11502,"boards":11503,"pron":11504,"traff":11505,"disappoints":11506,"obst":11507,"solving":11508,"conditions":11509,"onson":11510,"riddled":11511,"Peck":11512,"regularly":11513,"garner":11514,"spectrum":11515,"Conan":11516,"teams":11517,"Greta":11518,"walls":11519,"SyFy":11520,"Thoroughly":11521,"arguably":11522,"organized":11523,"route":11524,"Karl":11525,"Caine":11526,"Fallen":11527,"Casino":11528,"Idris":11529,"Sheldon":11530,"Beyon":11531,"Pakistan":11532,"misogyn":11533,"Incredibly":11534,"cousin":11535,"Supporting":11536,"Suspense":11537,"Chopra":11538,"Dafoe":11539,")?":11540,"48":11541,"Doo":11542,"Ill":11543,"KING":11544,"Ni":11545,"cus":11546,"dwell":11547,"gus":11548,"wtf":11549,"enig":11550,"todays":11551,"moan":11552,"ching":11553,"leen":11554,"lian":11555,"sored":11556,"nephe":11557,"watchers":11558,"manager":11559,"ookie":11560,"dismiss":11561,"seasoned":11562,"ipes":11563,"runner":11564,"engers":11565,"garian":11566,"Sharon":11567,"ITS":11568,"appalled":11569,"baseball":11570,"spinning":11571,"mannerisms":11572,"RIP":11573,"1970s":11574,"vastly":11575,"hideous":11576,"Crash":11577,"EVERYTHING":11578,"Speaking":11579,"communicate":11580,"concentrate":11581,"vaguely":11582,"arrived":11583,"Shawshank":11584,"stupidest":11585,"Olym":11586,"hattan":11587,"beneath":11588,"Coppola":11589,".(":11590,"Body":11591,"Cars":11592,"Cos":11593,"FA":11594,"Killer":11595,"Lith":11596,"Miles":11597,"Phan":11598,"Uk":11599,"Yu":11600,"mute":11601,"mouse":11602,"pom":11603,"sending":11604,"ugen":11605,"istry":11606,"resur":11607,"request":11608,"ari":11609,"ooo":11610,"roof":11611,"tron":11612,"plotting":11613,"assy":11614,"hokey":11615,"Stick":11616,"centers":11617,"blends":11618,"ranked":11619,"Rebecca":11620,"1950":11621,"Uncle":11622,"colon":11623,"stuffed":11624,"STORY":11625,"mascul":11626,"Charlot":11627,"Gerwig":11628,"beside":11629,"dressing":11630,"Magic":11631,"Giving":11632,"options":11633,"fifth":11634,"excruciatingly":11635,"Church":11636,"gifted":11637,"Ireland":11638,"Bow":11639,"Cre":11640,"Hurt":11641,"Later":11642,"Tara":11643,"Ug":11644,"bones":11645,"cure":11646,"hance":11647,"pli":11648,"eries":11649,"recru":11650,"atics":11651,"itar":11652,"mold":11653,"vibes":11654,"shing":11655,"unit":11656,"plex":11657,"fathers":11658,"characteristics":11659,"grin":11660,"entertains":11661,"visiting":11662,"voir":11663,"guez":11664,"handling":11665,"license":11666,"skit":11667,"Gossip":11668,"Manhattan":11669,"airing":11670,"languages":11671,"clapped":11672,"wrought":11673,"slavery":11674,"petty":11675,"Feels":11676,"Madison":11677,"Times":11678,"delighted":11679,"Angelo":11680,"Craw":11681,"contempl":11682,"fifty":11683,"enthusiastic":11684,"Repub":11685,"analyze":11686,"candid":11687,"suspicious":11688,"Constantine":11689,"Ragnar":11690,"Phantom":11691,"Bri":11692,"Bull":11693,"Cran":11694,"Glover":11695,"Kash":11696,"Tele":11697,"Yout":11698,"aunt":11699,"bour":11700,"fence":11701,"ien":11702,"muddled":11703,"nis":11704,"pour":11705,"widow":11706,"static":11707,"ador":11708,"solo":11709,"charged":11710,"ishes":11711,"misguided":11712,"Inst":11713,"bral":11714,"Storm":11715,"cheating":11716,"cents":11717,"fanatic":11718,"visited":11719,"subpar":11720,"dictator":11721,"helpless":11722,"stylized":11723,"Peace":11724,"ERE":11725,"neglect":11726,"respects":11727,"Conf":11728,"depths":11729,"Terror":11730,"instit":11731,"instances":11732,"Mostly":11733,"crucial":11734,"describing":11735,"improves":11736,"introduces":11737,"gloomy":11738,"Gravity":11739,"metaphors":11740,"Hawke":11741,"Needless":11742,"Squad":11743,"fantasies":11744,"Profess":11745,"Parents":11746,"melancho":11747,"Development":11748,",'":11749,"-)":11750,"BA":11751,"Fal":11752,"Flo":11753,"PL":11754,"Spect":11755,"Sny":11756,"Tem":11757,"Us":11758,"Zack":11759,"cage":11760,"uto":11761,"inability":11762,"ancing":11763,"enhance":11764,"stor":11765,"stitch":11766,"champ":11767,"owed":11768,"riors":11769,"scoring":11770,"poke":11771,"shower":11772,"endlessly":11773,"troops":11774,"conscience":11775,"venue":11776,"olate":11777,"expects":11778,"cloud":11779,"comeback":11780,"Weaver":11781,"hyp":11782,"exceptions":11783,"McGregor":11784,"commenting":11785,"instal":11786,"pilots":11787,"snap":11788,"trusted":11789,"Julianne":11790,"Damn":11791,"prisoners":11792,"stoned":11793,"knocked":11794,"Party":11795,"drunken":11796,"significance":11797,"profoundly":11798,"translated":11799,"Kingsley":11800,"Rodriguez":11801,"maximum":11802,"Blanchett":11803,"==":11804,"Cro":11805,"Dull":11806,"EU":11807,"Eva":11808,"Hans":11809,"OL":11810,"RR":11811,"Sue":11812,"bent":11813,"bots":11814,"error":11815,"reverse":11816,"atomy":11817,"orian":11818,"sevent":11819,"aden":11820,"shod":11821,"Theory":11822,"haw":11823,"exotic":11824,"condem":11825,"quant":11826,"fulfill":11827,"ciously":11828,"disappear":11829,"holocaust":11830,"Stal":11831,"warrant":11832,"Anushka":11833,"interval":11834,"umbai":11835,"paring":11836,"pub":11837,"countryside":11838,"transformed":11839,"rendered":11840,"bottle":11841,"recording":11842,"Lifetime":11843,"1995":11844,"defense":11845,"Garfield":11846,"kien":11847,"exaggeration":11848,"Westworld":11849,"Brazilian":11850,"praying":11851,"Valley":11852,"companion":11853,"consciousness":11854,"promoted":11855,"discussed":11856,"weaknesses":11857,"Toni":11858,"Mitchell":11859,"Besson":11860,"enforcement":11861,"Ana":11862,"BG":11863,"Graph":11864,"Idi":11865,"Kick":11866,"Loc":11867,"Million":11868,"Page":11869,"Rene":11870,"citizen":11871,"dross":11872,"hart":11873,"hung":11874,"len":11875,"chris":11876,"shan":11877,"dimin":11878,"amid":11879,"endgame":11880,"ounded":11881,"anski":11882,"subscri":11883,"steer":11884,"lighten":11885,"foundation":11886,"pier":11887,"Been":11888,"sexism":11889,"1980s":11890,"shocks":11891,"election":11892,"continually":11893,"depending":11894,"Spir":11895,"Emperor":11896,"conclusions":11897,"stepped":11898,"teachers":11899,"Austen":11900,"products":11901,"Ruby":11902,"galore":11903,"Bella":11904,"damaged":11905,"bloated":11906,"Hulu":11907,"arrives":11908,"journalist":11909,"Meanwhile":11910,"Montana":11911,"contradict":11912,"Thanos":11913,"domestic":11914,"patriotism":11915,"Cartoon":11916,"Republican":11917,"Coo":11918,"Fli":11919,"Ki":11920,"Lame":11921,"Lloyd":11922,"Nation":11923,"Sen":11924,"Wright":11925,"dirt":11926,"horses":11927,"jar":11928,"lur":11929,"lins":11930,"sna":11931,"sniper":11932,"wers":11933,"aris":11934,"adminis":11935,"shap":11936,"unrelated":11937,"combo":11938,"comings":11939,"worship":11940,"promotion":11941,"misunderstood":11942,"borders":11943,"humili":11944,"trio":11945,"flies":11946,"subtly":11947,"topia":11948,"Sea":11949,"valent":11950,"breathing":11951,"monu":11952,"Rogue":11953,"Gods":11954,"orders":11955,"Brando":11956,"promin":11957,"Blind":11958,"Warner":11959,"Clay":11960,"Smart":11961,"Monday":11962,"Midnight":11963,"Hoping":11964,"squad":11965,"mobile":11966,"Interstellar":11967,"psychiat":11968,"sorrow":11969,"Entertainment":11970,"groan":11971,"convenient":11972,"advertisement":11973,"devastating":11974,"Gadot":11975,"Violence":11976,"Barbara":11977,"Hepburn":11978,"\"),":11979,">>":11980,"Apr":11981,"Eis":11982,"Easy":11983,"Evan":11984,"Gang":11985,"Hi":11986,"Hil":11987,"Him":11988,"HIGH":11989,"Mort":11990,"Push":11991,"Ur":11992,"Watt":11993,"kung":11994,"ola":11995,"sanity":11996,"incon":11997,"inhabit":11998,"arrive":11999,"ows":12000,"idious":12001,"pest":12002,"ully":12003,"netic":12004,"inters":12005,"upt":12006,"auer":12007,"disservice":12008,"accol":12009,"backed":12010,"pretends":12011,"angled":12012,"subscription":12013,"Head":12014,"Unbelievable":12015,"Pete":12016,"lando":12017,"witted":12018,"drift":12019,"remembering":12020,"Shrek":12021,"mixes":12022,"purposes":12023,"costum":12024,"bians":12025,"cringed":12026,"sensible":12027,"Monster":12028,"Melan":12029,"liberties":12030,"discovering":12031,"furi":12032,"Syd":12033,"objects":12034,"installments":12035,"Reser":12036,"Sweden":12037,"admirable":12038,"predecessors":12039,"insert":12040,"doctors":12041,"paranoia":12042,"Future":12043,"priceless":12044,"Charlotte":12045,"Snyder":12046,"49":12047,"Boll":12048,"CRE":12049,"Dal":12050,"Drive":12051,"Ned":12052,"PD":12053,"Rh":12054,"WA":12055,"Winter":12056,"ect":12057,"ptive":12058,"recreate":12059,"ila":12060,"irts":12061,"rainy":12062,"labe":12063,"amed":12064,"poison":12065,"perman":12066,"qui":12067,"services":12068,"overwhelmed":12069,"realization":12070,"ppers":12071,"acclaim":12072,"ortions":12073,"chees":12074,"Chlo":12075,"blended":12076,"20s":12077,"insom":12078,"sociop":12079,"STOP":12080,"Bronson":12081,"posters":12082,"subjective":12083,"burned":12084,"agony":12085,"sensation":12086,"Columb":12087,"grandmother":12088,"studied":12089,"sensu":12090,"Hangover":12091,"ONEY":12092,"atrocities":12093,"safely":12094,"descending":12095,"buffs":12096,"hysterically":12097,"Eastern":12098,"kissing":12099,"mouthed":12100,"Tolkien":12101,"magazine":12102,"Voyager":12103,"Admittedly":12104,"resurrect":12105,"85":12106,"?'":12107,"DJ":12108,"Karen":12109,"Kendrick":12110,"Mummy":12111,"MONEY":12112,"Uma":12113,"iuses":12114,"mare":12115,"onna":12116,"ille":12117,"Thunder":12118,"unintentionally":12119,"exhilar":12120,"lav":12121,"disci":12122,"clin":12123,"needless":12124,"amazes":12125,"lightly":12126,"click":12127,"rung":12128,"buddies":12129,"007":12130,"mitive":12131,"prize":12132,"posting":12133,"flowed":12134,"Saoir":12135,"bullying":12136,"Romance":12137,"flair":12138,"TOS":12139,"According":12140,"Rockwell":12141,"explosion":12142,"researched":12143,"Jonah":12144,"speeches":12145,"marketed":12146,"Mirren":12147,"patients":12148,"settled":12149,"giggle":12150,"stereotyped":12151,"Romanian":12152,"slept":12153,"puppets":12154,"civilization":12155,"Vegas":12156,"celebrities":12157,"phrases":12158,"isolation":12159,"zzzzzzzzzzzzzzzz":12160,"Poppins":12161,"difficulty":12162,"Humor":12163,"Welcome":12164,"transported":12165,"anxiety":12166,"precisely":12167,"rapidly":12168,"cerebral":12169,"confirmed":12170,"Timothy":12171,"Casey":12172,"delicate":12173,"pumped":12174,"Court":12175,"April":12176,"Amir":12177,"Bander":12178,"Cube":12179,"Domin":12180,"Hack":12181,"Manson":12182,"gories":12183,"slack":12184,"ugg":12185,"zard":12186,"asite":12187,"mocking":12188,"meandering":12189,"aya":12190,"unhappy":12191,"devoted":12192,"construction":12193,"apple":12194,"cially":12195,"bolic":12196,"characterisation":12197,"hoot":12198,"cream":12199,"odder":12200,"meanings":12201,"soundtracks":12202,"deciding":12203,"Somebody":12204,"paycheck":12205,"drum":12206,"summed":12207,"prompt":12208,"Christie":12209,"ibbean":12210,"burg":12211,"patron":12212,"ailed":12213,"drops":12214,"hosts":12215,"approved":12216,"Years":12217,"Woods":12218,"Damme":12219,"virtue":12220,"Palma":12221,"Freddy":12222,"Listen":12223,"participate":12224,"Clich":12225,"Fanning":12226,"decline":12227,"chooses":12228,"vigil":12229,"Shahrukh":12230,"butchered":12231,"enhanced":12232,"ambiguous":12233,"Armenian":12234,"tomatoes":12235,"Taxi":12236,"CA":12237,"Cats":12238,"Fringe":12239,"Gilliam":12240,"Nine":12241,"OVER":12242,"Open":12243,"Pand":12244,"SFX":12245,"bending":12246,"dic":12247,"ffe":12248,"phase":12249,"orite":12250,"tober":12251,"toxic":12252,"beware":12253,"aux":12254,"itect":12255,"spring":12256,"liest":12257,"Soon":12258,"controlled":12259,"Revol":12260,"Sequ":12261,"Doom":12262,"weaker":12263,"Spidey":12264,"reminding":12265,"refuge":12266,"Batwoman":12267,"Byr":12268,"attacking":12269,"intensely":12270,"disturb":12271,"indian":12272,"flowing":12273,"swallow":12274,"explosive":12275,"Garbage":12276,"Alexand":12277,"hurry":12278,"manipulated":12279,"briefly":12280,"sentimentality":12281,"Killing":12282,"1960s":12283,"feedback":12284,"Internet":12285,"replacement":12286,"pirate":12287,"Venom":12288,"Isaac":12289,"rambling":12290,"infantile":12291,"reluctant":12292,"Egyp":12293,"Saoirse":12294,"Aron":12295,"Bloom":12296,"Cass":12297,"Comb":12298,"FAR":12299,"Kaz":12300,"Molly":12301,"Orange":12302,"Took":12303,"WANT":12304,"btw":12305,"ev":12306,"evalu":12307,"jac":12308,"ongoing":12309,"vicious":12310,"Thurs":12311,"moviegoers":12312,"entering":12313,"Theater":12314,"abundance":12315,"posure":12316,"hears":12317,"enson":12318,"decency":12319,"montage":12320,"fighters":12321,"Marie":12322,"depra":12323,"linger":12324,"denomin":12325,"Caribbean":12326,"profile":12327,"Daisy":12328,"Orlando":12329,"refreshingly":12330,"strangers":12331,"Showtime":12332,"culmin":12333,"structured":12334,"assured":12335,"salt":12336,"categories":12337,"heartedly":12338,"Rogan":12339,"contribution":12340,"Carey":12341,"Zeal":12342,"hesitant":12343,"elimin":12344,"Reminds":12345,"therapy":12346,"dilemma":12347,"TWD":12348,"WRONG":12349,"dvd":12350,"Banderas":12351,"Kal":12352,"Katherine":12353,"Mumbai":12354,"PI":12355,"Por":12356,"Spain":12357,"dash":12358,"fru":12359,"nom":12360,"yard":12361,"remaking":12362,"ashi":12363,"verage":12364,"enters":12365,"shift":12366,"dev":12367,"canned":12368,"agre":12369,"owns":12370,"castle":12371,"happier":12372,"reek":12373,"bubble":12374,"porter":12375,"Dev":12376,"coln":12377,"landed":12378,"opener":12379,"Nemo":12380,"skull":12381,"hilarity":12382,"dribble":12383,"primitive":12384,"literary":12385,"gypt":12386,"Guiller":12387,"Brother":12388,"IES":12389,"Cheap":12390,"complained":12391,"Garcia":12392,"Hammer":12393,"Syl":12394,"GET":12395,"demonst":12396,"dramatically":12397,"monotone":12398,"heights":12399,"yellow":12400,"Political":12401,"Liberal":12402,"obscure":12403,"disastrous":12404,"jealous":12405,"discern":12406,"Bangladesh":12407,"Guillermo":12408,"Fem":12409,"MM":12410,"Mass":12411,"Ocean":12412,"QU":12413,"Rat":12414,"Wan":12415,"cart":12416,"gence":12417,"knight":12418,"tent":12419,"troll":12420,"threads":12421,"unconventional":12422,"irrational":12423,"defe":12424,"neider":12425,"illon":12426,"proven":12427,"overboard":12428,"disorder":12429,"dudes":12430,"afterward":12431,"ensed":12432,"empathize":12433,"emperor":12434,"downside":12435,"Social":12436,"coast":12437,"flims":12438,"submarine":12439,"Week":12440,"Demo":12441,"breed":12442,"Robo":12443,"cynic":12444,"USE":12445,"ricia":12446,"weirdness":12447,"adventurous":12448,"Class":12449,"throwback":12450,"Fiennes":12451,"implic":12452,"affection":12453,"expertly":12454,"1998":12455,"Daniels":12456,"IDS":12457,"atrocity":12458,"1977":12459,"Episodes":12460,"commitment":12461,"anuary":12462,"authority":12463,"fairytale":12464,"Writers":12465,"resembling":12466,"Survi":12467,"maintaining":12468,"Addition":12469,"Homecoming":12470,"celebrate":12471,"omeday":12472,"General":12473,"sketches":12474,"LIKE":12475,"Lincoln":12476,"Gotham":12477,"monologues":12478,"narcissistic":12479,"photographed":12480,"sleazy":12481,"pomp":12482,"Youtube":12483,"hypnot":12484,"55":12485,"6th":12486,"Clive":12487,"Daw":12488,"Dunk":12489,"Eugen":12490,"Fine":12491,"Sig":12492,"Sty":12493,"jaded":12494,"inction":12495,"attribut":12496,"ouge":12497,"asi":12498,"whites":12499,"iciently":12500,"abstr":12501,"filmo":12502,"raped":12503,"rose":12504,"heat":12505,"artwork":12506,"inks":12507,"directs":12508,"achron":12509,"giar":12510,"cracks":12511,"fian":12512,"kindness":12513,"Heck":12514,"rises":12515,"atha":12516,"critically":12517,"glaring":12518,"Arnie":12519,"skits":12520,"gravity":12521,"Shot":12522,"Brits":12523,"greedy":12524,"Code":12525,"boxing":12526,"connecting":12527,"royal":12528,"surviving":12529,"Schneider":12530,"unexpectedly":12531,"Burn":12532,"bumbling":12533,"Sunshine":12534,"Irons":12535,"conveys":12536,"ANYTHING":12537,"vacuous":12538,"addresses":12539,"astonished":12540,"fleet":12541,"distribution":12542,"ambiance":12543,"Pointless":12544,"Pattinson":12545,"Knowing":12546,"Faith":12547,"newspaper":12548,"masturb":12549,"Sofia":12550,"shoddy":12551,"denominator":12552,"Burt":12553,"DD":12554,"Dur":12555,"Doll":12556,"Escape":12557,"Hong":12558,"Hands":12559,"IP":12560,"JP":12561,"Mia":12562,"Mix":12563,"Os":12564,"Rarely":12565,"Sniper":12566,"TM":12567,"YE":12568,"bir":12569,"bread":12570,"cen":12571,"fri":12572,"nell":12573,"uber":12574,"iti":12575,"chal":12576,"seas":12577,"lighter":12578,"keeper":12579,"unaware":12580,"masters":12581,"notably":12582,"raz":12583,"divid":12584,"dod":12585,"artistry":12586,"overacted":12587,"undertones":12588,"placing":12589,"suburban":12590,"Mocking":12591,"ignoring":12592,"university":12593,"regurg":12594,"Shet":12595,"satur":12596,"aneous":12597,"confirm":12598,"distaste":12599,"marked":12600,"Host":12601,"Robbins":12602,"connects":12603,"fluid":12604,"flashes":12605,"fraud":12606,"panned":12607,"minorities":12608,"matches":12609,"Betty":12610,"homeless":12611,"chicken":12612,"Vanessa":12613,"coward":12614,"jerker":12615,"resulting":12616,"cooking":12617,"Rodden":12618,"NEW":12619,"billed":12620,"holidays":12621,"arrowing":12622,"possessed":12623,"XXXX":12624,"Francisco":12625,"naysayers":12626,"October":12627,"Bogart":12628,"fundamental":12629,"Otto":12630,"Cuba":12631,"!\".":12632,"01":12633,"Ble":12634,"Chase":12635,"GG":12636,"Gave":12637,"Juno":12638,"January":12639,"NA":12640,"PRE":12641,"Rest":12642,"Zoe":12643,"baked":12644,"cott":12645,"mort":12646,"slog":12647,"xx":12648,"infuri":12649,"anded":12650,"alert":12651,"vet":12652,"outfits":12653,"detr":12654,"comend":12655,"scattered":12656,"doom":12657,"hek":12658,"greats":12659,"umble":12660,"characterizations":12661,"twelve":12662,"Starts":12663,"plagiar":12664,"nerdy":12665,"Levy":12666,"talentless":12667,"lively":12668,"blacks":12669,"Scand":12670,"Suff":12671,"twisting":12672,"respectful":12673,"ITY":12674,"THEY":12675,"satisfactory":12676,"gripe":12677,"..........":12678,"Warrior":12679,"slaves":12680,"watered":12681,"traditions":12682,"Nightmare":12683,"applied":12684,"remarkably":12685,"trees":12686,",,,,":12687,"Russo":12688,"operation":12689,"occurs":12690,"Chucky":12691,"feeding":12692,"Producers":12693,"awaiting":12694,"concentration":12695,"Jenkins":12696,"Reno":12697,"Generation":12698,"Deepika":12699,"allegory":12700,"Wiig":12701,"homophobic":12702,"Shannon":12703,"conviction":12704,"Bing":12705,"CD":12706,"Catch":12707,"Egypt":12708,"KK":12709,"Lisa":12710,"Yep":12711,"aves":12712,"bru":12713,"junior":12714,"niss":12715,"pus":12716,"plight":12717,"relying":12718,"resemble":12719,"encounters":12720,"lete":12721,"behaving":12722,"bewilder":12723,"adopted":12724,"sues":12725,"dee":12726,"defi":12727,"destructive":12728,"doc":12729,"dope":12730,"heim":12731,"aura":12732,"werewolf":12733,"tooth":12734,"101":12735,"misplaced":12736,"amet":12737,"somethings":12738,"cheered":12739,"versat":12740,"Alas":12741,"Dece":12742,"crook":12743,"parti":12744,"IND":12745,"Brandon":12746,"winners":12747,"McG":12748,"criticized":12749,"Robinson":12750,"snappy":12751,"Patricia":12752,"shadows":12753,"investigate":12754,"discussions":12755,"crisy":12756,"Merlin":12757,"Sanjay":12758,"mumbling":12759,"maids":12760,"Jenny":12761,"Lights":12762,"dominated":12763,"smoothly":12764,"employed":12765,"promotes":12766,"leaning":12767,"blessed":12768,"principal":12769,"pooh":12770,"birds":12771,"alleged":12772,"custom":12773,"Metal":12774,"Performances":12775,"sprinkled":12776,"Scotland":12777,"sheriff":12778,"Dunkirk":12779,"Away":12780,"Crap":12781,"Dut":12782,"Ebert":12783,"FY":12784,"NAS":12785,"PTS":12786,"Tomb":12787,"Zac":12788,"dates":12789,"kne":12790,"uries":12791,"err":12792,"ench":12793,"liar":12794,"adored":12795,"ela":12796,"ablo":12797,"imple":12798,"etti":12799,"acies":12800,"fines":12801,"shoulder":12802,"drain":12803,"rightly":12804,"blum":12805,"izza":12806,"Jokes":12807,"heroism":12808,"cinematographer":12809,"shove":12810,"tempo":12811,"temper":12812,"paro":12813,"Arrested":12814,"copying":12815,"Goodfellas":12816,"0000":12817,"spirits":12818,"shameless":12819,"Daily":12820,"literal":12821,"gladly":12822,"Franken":12823,"periods":12824,"redeemable":12825,"Bros":12826,"containing":12827,"awkwardness":12828,"senior":12829,"ICK":12830,"noticeable":12831,"machines":12832,"daddy":12833,"Quest":12834,"Channing":12835,"Intel":12836,"HAHA":12837,"darkest":12838,"absorbing":12839,"resistance":12840,"Snatch":12841,"receives":12842,"Dern":12843,"Wednes":12844,"google":12845,"maniac":12846,"article":12847,"detectives":12848,"neurotic":12849,"subsequent":12850,"Kilmer":12851,"pedestrian":12852,"Cranston":12853,"Watts":12854,"Byrne":12855,"Ess":12856,"Eye":12857,"Found":12858,"Rour":12859,"Vio":12860,"Wanted":12861,"cough":12862,"jest":12863,"lend":12864,"rhe":12865,"skilled":12866,"someday":12867,"vation":12868,"vital":12869,"wore":12870,"xta":12871,"zie":12872,"ofsky":12873,"choc":12874,"leans":12875,"Thur":12876,"icy":12877,"map":12878,"expose":12879,"poser":12880,"showcases":12881,"peril":12882,"quart":12883,"agues":12884,"overbearing":12885,"spont":12886,"couldnt":12887,"grumpy":12888,"mercy":12889,"pathetically":12890,"simpli":12891,"monkeys":12892,"followers":12893,"nonstop":12894,"paren":12895,"masala":12896,"inclusion":12897,"planes":12898,"Trekk":12899,"architect":12900,"Pope":12901,"destination":12902,"burden":12903,"underest":12904,"referring":12905,"hardest":12906,"Directors":12907,"gays":12908,"sells":12909,"approx":12910,"catches":12911,"Walt":12912,"massively":12913,"regarded":12914,"Morty":12915,"thinly":12916,"virgin":12917,"1999":12918,"relatives":12919,"boobs":12920,"Waiting":12921,"Silence":12922,"contributed":12923,"awaited":12924,"determination":12925,"Stock":12926,"transparent":12927,"registered":12928,"caution":12929,"Revenge":12930,"stylistic":12931,"robbery":12932,"labeled":12933,"sociopath":12934,"Roddenberry":12935,"December":12936,"PTSD":12937,"Rourke":12938,"\"(":12939,"120":12940,"Amit":12941,"Bach":12942,"Cron":12943,"GR":12944,"Kept":12945,"Odd":12946,"Spl":12947,"TIFF":12948,"Uwe":12949,"bc":12950,"cuss":12951,"harrowing":12952,"sits":12953,"xy":12954,"inations":12955,"incomplete":12956,"ouf":12957,"aled":12958,"chie":12959,"unfamiliar":12960,"inee":12961,"disp":12962,"prude":12963,"kingdom":12964,"standalone":12965,"Chronicles":12966,"performer":12967,"pauses":12968,"basics":12969,"cord":12970,"classified":12971,"cratic":12972,"shorts":12973,"ridiculousness":12974,"toned":12975,"biograph":12976,"sweat":12977,"suffice":12978,"Superhero":12979,"sickness":12980,"religions":12981,"aiming":12982,"Wayans":12983,"tuning":12984,"Magn":12985,"surroundings":12986,"safety":12987,"semblance":12988,"patiently":12989,"prayer":12990,"rollercoaster":12991,"Born":12992,"incidents":12993,"parallels":12994,"collective":12995,"micro":12996,"thetics":12997,"expanded":12998,"Forest":12999,"knife":13000,"Fassbender":13001,"presumably":13002,"Afghanistan":13003,"flimsy":13004,"29":13005,"Count":13006,"Candy":13007,"Eight":13008,"Hindu":13009,"Kung":13010,"Lor":13011,"MAR":13012,"blog":13013,"cue":13014,"fus":13015,"eration":13016,"itarian":13017,"beard":13018,"shares":13019,"filthy":13020,"diamond":13021,"imperson":13022,"trow":13023,"trump":13024,"taint":13025,"sail":13026,"viewpoint":13027,"itsch":13028,"prince":13029,"matrix":13030,"ensen":13031,"mayhem":13032,"fanboys":13033,"superpowers":13034,"athon":13035,"closet":13036,"tember":13037,"enger":13038,"Leone":13039,"budgets":13040,"forwarding":13041,"bravery":13042,"openly":13043,"puke":13044,"ANK":13045,"150":13046,"LOST":13047,"Newman":13048,"Boss":13049,"Trilogy":13050,"Quiet":13051,"stunningly":13052,"Norway":13053,"Monsters":13054,"abyrin":13055,"Musical":13056,"troubles":13057,"bombed":13058,"Willem":13059,"appropriately":13060,"mouths":13061,"robotic":13062,"influences":13063,"evolves":13064,"Lauren":13065,"glorified":13066,"increase":13067,"endeav":13068,"Silent":13069,"benefits":13070,"vehicles":13071,"indication":13072,"shitty":13073,"dedication":13074,"methods":13075,"andalorian":13076,"Beatles":13077,"scheme":13078,"astronauts":13079,"massacre":13080,"detached":13081,"squeeze":13082,"sensitivity":13083,"instalment":13084,"Additionally":13085,"Bib":13086,"Chad":13087,"Doc":13088,"Fate":13089,"FRE":13090,"Lang":13091,"Mack":13092,"NN":13093,"Name":13094,"Tale":13095,"fodder":13096,"gli":13097,"gum":13098,"iors":13099,"mn":13100,"nm":13101,"sins":13102,"thie":13103,"anachron":13104,"reporter":13105,"unclear":13106,"idal":13107,"sued":13108,"exhibit":13109,"laz":13110,"intend":13111,"tible":13112,"pert":13113,"bodi":13114,"pathis":13115,"downfall":13116,"Asians":13117,"girlfriends":13118,"STER":13119,"Key":13120,"damned":13121,"Anybody":13122,"buildup":13123,"Comp":13124,"Comic":13125,"McDow":13126,"constit":13127,"transitions":13128,"executives":13129,"equip":13130,"Prop":13131,"Nights":13132,"experts":13133,"ethical":13134,"session":13135,"penis":13136,"rooted":13137,"Dench":13138,"communist":13139,"globe":13140,"halluc":13141,"linked":13142,"Speed":13143,"immersive":13144,"Brooklyn":13145,"deliberate":13146,"exhausting":13147,"summarize":13148,"spaceship":13149,"uniformly":13150,"woeful":13151,"undeniable":13152,"Wolverine":13153,"manufact":13154,"climactic":13155,"eastern":13156,"surgery":13157,"abstract":13158,"abyrinth":13159,".).":13160,"Ald":13161,"Band":13162,"Gump":13163,"Gaga":13164,"June":13165,"Kris":13166,"Las":13167,"Wo":13168,"Yash":13169,"aint":13170,"gel":13171,"gid":13172,"lou":13173,"sly":13174,"ugu":13175,"instein":13176,"invisible":13177,"erase":13178,"christ":13179,"verts":13180,"ionage":13181,"unbiased":13182,"demean":13183,"rocked":13184,"scandal":13185,"dock":13186,"usage":13187,"planted":13188,"igning":13189,"spine":13190,"disappeared":13191,"performs":13192,"needing":13193,"similarly":13194,"blu":13195,"blings":13196,"fier":13197,"pressing":13198,"developments":13199,"19th":13200,"morbid":13201,"ggy":13202,"Lead":13203,"syndrome":13204,"landish":13205,"shortcomings":13206,"INE":13207,"midst":13208,"purchased":13209,"bike":13210,"exploited":13211,"psyched":13212,"cheaply":13213,"Supernatural":13214,"Ground":13215,"VEN":13216,"Simpson":13217,"stray":13218,"consistency":13219,"achieves":13220,"employ":13221,"grabbing":13222,"phenomenon":13223,"juxta":13224,"repetition":13225,"Chap":13226,"Chain":13227,"quietly":13228,"Judd":13229,"Duke":13230,"Resident":13231,"Graham":13232,"spreading":13233,"eighties":13234,"Sounds":13235,"Soundtrack":13236,"Swinton":13237,"TAIN":13238,"immigration":13239,"Favorite":13240,"Latin":13241,"eternal":13242,"ingenious":13243,"ipedia":13244,"pumping":13245,"wrestling":13246,"despise":13247,"neutral":13248,"basketball":13249,"Audrey":13250,"censor":13251,"nephew":13252,"Reservoir":13253,"pompous":13254,"33":13255,"911":13256,"Cob":13257,"Creek":13258,"Hale":13259,"Ic":13260,"Kirst":13261,"LONG":13262,"Rex":13263,"SM":13264,"ku":13265,"rance":13266,"sis":13267,"slo":13268,"sung":13269,"wandering":13270,"inal":13271,"inform":13272,"incapable":13273,"escal":13274,"chord":13275,"owe":13276,"youn":13277,"shiny":13278,"abound":13279,"gear":13280,"dizzy":13281,"roe":13282,"imperfect":13283,"articul":13284,"lling":13285,"seeming":13286,"excels":13287,"productive":13288,"bush":13289,"useum":13290,"jewel":13291,"predicted":13292,"Pearl":13293,"north":13294,"powered":13295,"pursuit":13296,"similarity":13297,"psyche":13298,"Turks":13299,"niche":13300,"varied":13301,"studies":13302,"Foot":13303,"courageous":13304,"avier":13305,"widely":13306,"slide":13307,"reflected":13308,"Polanski":13309,"Boyle":13310,"threatened":13311,"Clever":13312,"Hills":13313,"glee":13314,"floating":13315,"stretches":13316,"adox":13317,"conservatives":13318,"Ashton":13319,"affairs":13320,"Gladiator":13321,"CRAP":13322,"Visuals":13323,"procedural":13324,"manifest":13325,"nurse":13326,"Crystal":13327,"amusement":13328,"punishment":13329,"September":13330,"enchanting":13331,"SUPER":13332,"Television":13333,"administration":13334,"accolades":13335,"Aronofsky":13336,"DER":13337,"Grow":13338,"Nel":13339,"Pfe":13340,"Sic":13341,"Taking":13342,"TRE":13343,"Tina":13344,"batch":13345,"dot":13346,"dwar":13347,"hater":13348,"pion":13349,"sity":13350,"scept":13351,"vfx":13352,"ange":13353,"chapt":13354,"ido":13355,"notor":13356,"geist":13357,"demise":13358,"dime":13359,"exchange":13360,"charmed":13361,"manji":13362,"agno":13363,"funeral":13364,"hishek":13365,"twin":13366,"underwater":13367,"cles":13368,"gio":13369,"crete":13370,"oda":13371,"beforehand":13372,"Reason":13373,"Union":13374,"?????":13375,"retched":13376,"masks":13377,"masquer":13378,"drab":13379,"repeats":13380,"treating":13381,"Christine":13382,"novelty":13383,"Prab":13384,"calcul":13385,"Color":13386,"Elton":13387,"grandfather":13388,"quirk":13389,"Tracy":13390,"Paranormal":13391,"mmmm":13392,"Wouldn":13393,"ðŸŒ":13394,"peaceful":13395,"switching":13396,"EVERYONE":13397,"tremendously":13398,"Ashley":13399,"exhausted":13400,"whisper":13401,"published":13402,"employees":13403,"Vikander":13404,"Chloe":13405,"Thursday":13406,"Zealand":13407,"filmography":13408,"Wednesday":13409,"chapters":13410,"93":13411,"Avoy":13412,"Differ":13413,"Mandy":13414,"Ric":13415,"Rac":13416,"Slater":13417,"Ward":13418,"afore":13419,"bump":13420,"gically":13421,"hing":13422,"wizard":13423,"⭐⭐":13424,"inflict":13425,"recover":13426,"stages":13427,"sections":13428,"verge":13429,"icap":13430,"shant":13431,"una":13432,"outer":13433,"outlandish":13434,"ripping":13435,"raine":13436,"convict":13437,"condescending":13438,"ritual":13439,"umin":13440,"theirs":13441,"owners":13442,"cese":13443,"hia":13444,"starters":13445,"centuries":13446,"foremost":13447,"nings":13448,"compon":13449,"singers":13450,"restri":13451,"flawlessly":13452,"nonex":13453,"terrified":13454,"posts":13455,"Frances":13456,"laden":13457,"Directed":13458,"ASS":13459,"feminine":13460,"travels":13461,"TOO":13462,"ICT":13463,"reckon":13464,"Sunny":13465,"suspects":13466,"coherence":13467,"evolving":13468,"Russel":13469,"Katniss":13470,"resolve":13471,"escapes":13472,"hunger":13473,"Buy":13474,"seamless":13475,"mountains":13476,"Whitaker":13477,"espionage":13478,"duplic":13479,"frozen":13480,"Antonio":13481,"Southern":13482,"elderly":13483,"exhilarating":13484,"Cliché":13485,"equipment":13486,"Iceland":13487,"(?)":13488,"8th":13489,"Cris":13490,"Eyes":13491,"Hank":13492,"Hered":13493,"LL":13494,"Mandalorian":13495,"Om":13496,"Pas":13497,"Tilda":13498,"UGH":13499,"nado":13500,"pals":13501,"sway":13502,"yl":13503,"advis":13504,"files":13505,"sucking":13506,"usty":13507,"rapt":13508,"neath":13509,"laced":13510,"goods":13511,"conce":13512,"perverse":13513,"items":13514,"newly":13515,"Chal":13516,"obscene":13517,"huh":13518,"uality":13519,"craving":13520,"vocal":13521,"voiced":13522,"insens":13523,"steel":13524,"warriors":13525,"smiled":13526,"stupidly":13527,"ridic":13528,"array":13529,"INK":13530,"brainwashed":13531,"bandwagon":13532,"royd":13533,"affecting":13534,"ACE":13535,"sixties":13536,"unfolded":13537,"POINT":13538,"Goldie":13539,"Chastain":13540,"Annabelle":13541,"tackles":13542,"maintained":13543,"escaped":13544,"Powers":13545,"puzzled":13546,"Lindsay":13547,"rehashed":13548,"Mysterio":13549,"hypocrisy":13550,"Beyonce":13551,"elevated":13552,"Patton":13553,"crammed":13554,"occupied":13555,"podcast":13556,"Blockbuster":13557,"epitome":13558,"Ugly":13559,"costuming":13560,"Dawson":13561,"quarters":13562,"?...":13563,"Apat":13564,"Cow":13565,"Hilton":13566,"Jungle":13567,"Oper":13568,"Odys":13569,"SER":13570,"cutes":13571,"iate":13572,"inep":13573,"rewrite":13574,"orphan":13575,"ales":13576,"leon":13577,"velope":13578,"butter":13579,"deon":13580,"twins":13581,"rubs":13582,"bris":13583,"wastes":13584,"paired":13585,"blond":13586,"waves":13587,"Dono":13588,"monstro":13589,"Marlon":13590,"region":13591,"!!!!!!!":13592,"effortlessly":13593,"kyo":13594,"designer":13595,"representing":13596,"spectacularly":13597,"shocker":13598,"property":13599,"Redempt":13600,"Roma":13601,"aims":13602,"delightfully":13603,"punchline":13604,"grossly":13605,"insights":13606,"Goldblum":13607,"Flor":13608,"palpable":13609,"Judging":13610,"departure":13611,"lustre":13612,"relaxing":13613,"NEED":13614,"Kylo":13615,"flew":13616,"ambition":13617,"experimental":13618,"Glenn":13619,"prejudices":13620,"zoom":13621,"dumpster":13622,"Crime":13623,"Utterly":13624,"pandemic":13625,"Performance":13626,"Roland":13627,"taboo":13628,"Creep":13629,"Pushing":13630,"distasteful":13631,"partially":13632,"\";":13633,"65":13634,"7th":13635,"Az":13636,"Baker":13637,"FI":13638,"Goose":13639,"HAS":13640,"Kun":13641,"Paren":13642,"RA":13643,"Self":13644,"Tun":13645,"coo":13646,"euro":13647,"insuffer":13648,"iser":13649,"isies":13650,"esis":13651,"moms":13652,"unseen":13653,"arest":13654,"poem":13655,"justification":13656,"worries":13657,"romcom":13658,"manic":13659,"savi":13660,"rug":13661,"underdog":13662,"screened":13663,"flip":13664,"Reviews":13665,"crat":13666,"Lohan":13667,"Liked":13668,"impressions":13669,"eventful":13670,"Shir":13671,"Expan":13672,"Holi":13673,"destiny":13674,"Warren":13675,"Gray":13676,"slash":13677,"slapped":13678,"survivor":13679,"stepping":13680,"nelly":13681,"Hardly":13682,"highlighted":13683,"tricked":13684,"drinks":13685,"kinson":13686,"strengths":13687,"longest":13688,"Leonard":13689,"August":13690,"Romania":13691,"feeble":13692,"Animal":13693,"Following":13694,"baffling":13695,"cabin":13696,"accessible":13697,"stroke":13698,"Victoria":13699,"Israeli":13700,"Villain":13701,"obligatory":13702,"Agatha":13703,"Facebook":13704,"transcend":13705,"Elliot":13706,"Hawaii":13707,"Micheal":13708,"Hilary":13709,"NASA":13710,"youngest":13711,"Redemption":13712,"Expanse":13713,"*.":13714,"Bong":13715,"Hog":13716,"Kut":13717,"Kline":13718,"Lone":13719,"Tucker":13720,"Vera":13721,"Vader":13722,"WB":13723,"Wins":13724,"Yawn":13725,"gow":13726,"swords":13727,"uu":13728,"uation":13729,"˜‚":13730,"insecure":13731,"stones":13732,"andered":13733,"asco":13734,"eds":13735,"ilia":13736,"omg":13737,"adise":13738,"whine":13739,"whack":13740,"Theat":13741,"uneducated":13742,"irteen":13743,"neo":13744,"tering":13745,"termin":13746,"amor":13747,"heter":13748,"goals":13749,"appreh":13750,"etal":13751,"accompany":13752,"characteristic":13753,"gime":13754,"surpasses":13755,"aki":13756,"colo":13757,"commendable":13758,"Alba":13759,"inski":13760,"Beth":13761,"iah":13762,"Whenever":13763,"landing":13764,"wipe":13765,"STD":13766,"namely":13767,"Carl":13768,"ATED":13769,"respectable":13770,"strained":13771,"uttered":13772,"Diaries":13773,"Whole":13774,"deadpan":13775,"household":13776,"ARD":13777,"criticizing":13778,"2002":13779,"energetic":13780,"Baron":13781,"bully":13782,"numbingly":13783,"junkie":13784,"witnessing":13785,"atheists":13786,"frightened":13787,"significantly":13788,"tolerance":13789,"desires":13790,"celebrated":13791,"courtroom":13792,"ironically":13793,"Diana":13794,"pirates":13795,"AGAIN":13796,"trademark":13797,"FECT":13798,"Technically":13799,"swimming":13800,"attachment":13801,"Disgusting":13802,"Crawford":13803,"prominent":13804,"insomnia":13805,"agrees":13806,"Pfeiffer":13807,"98":13808,"?.":13809,"Belle":13810,"Elect":13811,"Fab":13812,"Find":13813,"Kr":13814,"Napo":13815,"Oct":13816,"Tried":13817,"hiring":13818,"lat":13819,"vary":13820,"infamous":13821,"anthology":13822,"relied":13823,"onies":13824,"todd":13825,"ligible":13826,"ooh":13827,"unks":13828,"unfinished":13829,"irrever":13830,"newest":13831,"intage":13832,"plug":13833,"boggling":13834,"joyful":13835,"Stunning":13836,"paths":13837,"autistic":13838,"dialect":13839,"Reed":13840,"carbon":13841,"climatic":13842,"handles":13843,"Liu":13844,"supporters":13845,"midway":13846,"uttering":13847,"McAvoy":13848,"Hara":13849,"Shape":13850,"Brody":13851,"ternal":13852,"Saint":13853,"victory":13854,"immediate":13855,"computers":13856,"slip":13857,"puns":13858,"organic":13859,"Claude":13860,"relentlessly":13861,"whims":13862,"Tower":13863,"annoyance":13864,"Studios":13865,"DabDab":13866,"overshadowed":13867,"Scorcese":13868,"Homeland":13869,"enigmatic":13870,"discipl":13871,"fiancé":13872,"Scandina":13873,"Frankenstein":13874,"rhetor":13875,"42":13876,"Baa":13877,"Dil":13878,"OH":13879,"PA":13880,"Rated":13881,"Riley":13882,"Sach":13883,"Using":13884,"fting":13885,"glam":13886,"llo":13887,"lash":13888,"pc":13889,"pard":13890,"tte":13891,"yi":13892,"zan":13893,"token":13894,"chef":13895,"sober":13896,"composition":13897,"immoral":13898,"contempt":13899,"upbeat":13900,"overt":13901,"assess":13902,"Ins":13903,"chester":13904,"izon":13905,"sings":13906,"warfare":13907,"ocy":13908,"darkly":13909,"specul":13910,"shortly":13911,"negatives":13912,"payed":13913,"Extra":13914,"Comfort":13915,"ficially":13916,"archety":13917,"refuses":13918,"omeness":13919,"stranded":13920,"Darkness":13921,"hammy":13922,"Madsen":13923,"Sarandon":13924,"Among":13925,"tunes":13926,"Raymond":13927,"radi":13928,"hipster":13929,"edict":13930,"Cruz":13931,"hurting":13932,"Univers":13933,"deterior":13934,"sync":13935,"trendy":13936,"gigg":13937,"Brides":13938,"Congrats":13939,"sinking":13940,"lux":13941,"Medio":13942,"Kinda":13943,"Barrymore":13944,"GHT":13945,"inherent":13946,"abruptly":13947,"muscle":13948,"PERFECT":13949,"policy":13950,"Ragnarok":13951,"Melanie":13952,"vigilante":13953,"Thurman":13954,"Biblical":13955,"Apatow":13956,"monstrosity":13957,"')":13958,")</":13959,"Cir":13960,"Carly":13961,"Clan":13962,"Das":13963,"Due":13964,"Duck":13965,"Drey":13966,"Darth":13967,"Kuro":13968,"LIT":13969,"Mun":13970,"Milla":13971,"Pep":13972,"Sac":13973,"Vice":13974,"Wing":13975,"bers":13976,"lined":13977,"mr":13978,"pm":13979,"tant":13980,"vintage":13981,"reau":13982,"resent":13983,"atleast":13984,"asser":13985,"arrival":13986,"arrested":13987,"chand":13988,"lef":13989,"verbal":13990,"unsympathetic":13991,"amish":13992,"pocket":13993,"enduring":13994,"usional":13995,"contract":13996,"consequence":13997,"conjuring":13998,"joking":13999,"hile":14000,"undercover":14001,"borg":14002,"teller":14003,"Weap":14004,"cliffe":14005,"marvell":14006,"failures":14007,"Lego":14008,"Neg":14009,"annoyingly":14010,"Comics":14011,"Abhishek":14012,"grees":14013,"niece":14014,"Turn":14015,"Field":14016,"Raaz":14017,"immortal":14018,"awkwardly":14019,"pulp":14020,"behaviors":14021,"winded":14022,"elementary":14023,"dresses":14024,"glorify":14025,"interpreted":14026,"Kenneth":14027,"Hughes":14028,"mesmerized":14029,"Mila":14030,"hunters":14031,"accomplishment":14032,"Moonlight":14033,"evoke":14034,"siblings":14035,"inserted":14036,"hesitate":14037,"utilized":14038,"Straight":14039,"Tamil":14040,"mystical":14041,"glamorous":14042,"SPOILER":14043,"Egyptian":14044,"Cronenberg":14045,",...":14046,"37":14047,"Average":14048,"CL":14049,"Es":14050,"Ell":14051,"Gore":14052,"Hed":14053,"Hence":14054,"Jared":14055,"Mau":14056,"MENT":14057,"OPLE":14058,"Pes":14059,"Tud":14060,"Tree":14061,"bh":14062,"bis":14063,"las":14064,"pizza":14065,"snail":14066,"wits":14067,"wander":14068,"regime":14069,"moa":14070,"modo":14071,"unwanted":14072,"outlook":14073,"geeks":14074,"demented":14075,"ulated":14076,"hea":14077,"agency":14078,"tearing":14079,"prospect":14080,"fulfilling":14081,"funds":14082,"plethor":14083,"acus":14084,"grating":14085,"underneath":14086,"disappointments":14087,"iza":14088,"trials":14089,"triangle":14090,"Alone":14091,"Albert":14092,"friendships":14093,"reasoning":14094,"Beach":14095,"paradox":14096,"queens":14097,"cyber":14098,"earnest":14099,"Carrell":14100,"conceptions":14101,"judges":14102,"foster":14103,"narratives":14104,"clapping":14105,"Geralt":14106,"idiocy":14107,"refused":14108,"ARK":14109,"expressive":14110,"slang":14111,"Samurai":14112,"hostage":14113,"fronts":14114,"Chevy":14115,"Elle":14116,"luckily":14117,"Wilde":14118,"sources":14119,"relieved":14120,"1982":14121,"Joey":14122,"tendency":14123,"Greece":14124,"PEOPLE":14125,"Royal":14126,"ovsky":14127,"FORE":14128,"gimmicks":14129,"limitations":14130,"savage":14131,"harmless":14132,"Gilmore":14133,"Spoiler":14134,"Tonight":14135,"fisted":14136,"coincidence":14137,"bigotry":14138,"stanbul":14139,"obstacles":14140,"cynicism":14141,"saturated":14142,"fierce":14143,"Chainsaw":14144,"nonexistent":14145,"Hereditary":14146,"Parenthood":14147,"plethora":14148,"Abo":14149,"Dom":14150,"FAN":14151,"Gover":14152,"Mask":14153,"Massa":14154,"Miley":14155,"Op":14156,"Pitch":14157,"Tu":14158,"Tues":14159,"Wasted":14160,"fman":14161,"fade":14162,"lists":14163,"pad":14164,"ranted":14165,"tissues":14166,"erile":14167,"rets":14168,"revision":14169,"orchest":14170,"ented":14171,"unintelligent":14172,"unappealing":14173,"abdu":14174,"divine":14175,"rope":14176,"exit":14177,"endor":14178,"tians":14179,"perverted":14180,"tame":14181,"weep":14182,"managing":14183,"baddies":14184,"spon":14185,"diss":14186,"assed":14187,"clusion":14188,"clarity":14189,"persed":14190,"crazed":14191,"carn":14192,"Dec":14193,"attending":14194,"decently":14195,"supply":14196,"Daisies":14197,"successor":14198,"Benedict":14199,"Monroe":14200,"Farlane":14201,"Feig":14202,"lengths":14203,"Eurovision":14204,"Bette":14205,"defending":14206,"cleaning":14207,"Ruth":14208,"Hello":14209,"circus":14210,"arguing":14211,"Nolte":14212,"Written":14213,"links":14214,"crashes":14215,"admired":14216,"SGU":14217,"ACTION":14218,"squeamish":14219,"empowering":14220,"Commun":14221,"immigrants":14222,"eternity":14223,"Shades":14224,"activities":14225,"Varun":14226,"Spring":14227,"electricity":14228,"substitute":14229,"amidst":14230,"McDowell":14231,"aforementioned":14232,"Shirley":14233,"Mediocre":14234,"Creed":14235,"Dha":14236,"Emo":14237,"Efron":14238,"Earl":14239,"Kel":14240,"Late":14241,"NING":14242,"Pack":14243,"Pull":14244,"Rider":14245,"Town":14246,"Wise":14247,"bay":14248,"pans":14249,"pounding":14250,"sie":14251,"tes":14252,"vall":14253,"thugs":14254,"org":14255,"stance":14256,"strung":14257,"topped":14258,"ilation":14259,"omit":14260,"owski":14261,"icons":14262,"pep":14263,"ules":14264,"intr":14265,"tiger":14266,"taker":14267,"weary":14268,"teleg":14269,"overtones":14270,"overwrought":14271,"orean":14272,"estate":14273,"smash":14274,"volumes":14275,"1940":14276,"uniforms":14277,"Toby":14278,"societal":14279,"puerile":14280,"succ":14281,"credited":14282,"Suicide":14283,"respectively":14284,"Contin":14285,"exploding":14286,"loudly":14287,"packs":14288,"mesh":14289,"spotlight":14290,"breathless":14291,"approval":14292,"July":14293,"rewind":14294,"horrified":14295,"delusional":14296,"Parasite":14297,"approached":14298,"favourites":14299,"ESS":14300,"crowded":14301,"qualify":14302,"records":14303,"ethics":14304,"Hamill":14305,"stoner":14306,"exaggerating":14307,"Nonetheless":14308,"Rubbish":14309,"Stevens":14310,"Katie":14311,"Bahubali":14312,"Hillary":14313,"dumped":14314,"rampant":14315,"1969":14316,"Sophia":14317,"gigantic":14318,"Bridge":14319,"Birds":14320,"dramatized":14321,"possession":14322,"Dynam":14323,"encountered":14324,"Snipes":14325,"Arabic":14326,"Narcos":14327,"Demi":14328,"idelines":14329,"Spartacus":14330,"Tatum":14331,"incarnation":14332,"incorporated":14333,"Mikkel":14334,"divided":14335,"biographical":14336,"Kirsten":14337,"Universal":14338,"Kurosa":14339,"telegraph":14340,"43":14341,"Bi":14342,"Cary":14343,"Cyr":14344,"Done":14345,"Fitz":14346,"Filled":14347,"Gere":14348,"Jas":14349,"Kang":14350,"Prest":14351,"Ti":14352,"Tark":14353,"Wik":14354,"doo":14355,"mand":14356,"rabbit":14357,"tub":14358,"uh":14359,"thumb":14360,"reserv":14361,"stig":14362,"itel":14363,"toe":14364,"lex":14365,"uneasy":14366,"idences":14367,"abh":14368,"majest":14369,"deft":14370,"coma":14371,"exposure":14372,"intim":14373,"conform":14374,"canny":14375,"overhyped":14376,"spice":14377,"assign":14378,"Init":14379,"Stories":14380,"underwhelmed":14381,"gile":14382,"surgeon":14383,"centre":14384,"Heard":14385,"relating":14386,"ventures":14387,"rides":14388,"cinematographic":14389,"freaks":14390,"morph":14391,"Together":14392,"Tokyo":14393,"tedium":14394,"menace":14395,"gram":14396,"ATION":14397,"swept":14398,"cruise":14399,"Warning":14400,"studded":14401,"jumpy":14402,"improving":14403,"subtleties":14404,"tested":14405,"quirks":14406,"feminists":14407,"crossing":14408,"ooooo":14409,"BET":14410,"conflicted":14411,"Offic":14412,"healing":14413,"1989":14414,"Paltrow":14415,"Tycoon":14416,"eaten":14417,"celebration":14418,"Planned":14419,"Glass":14420,"Favreau":14421,"DS9":14422,"injury":14423,"craziness":14424,"Hawkins":14425,"Dalton":14426,"Intellig":14427,"Different":14428,"Kutcher":14429,"Above":14430,"Cul":14431,"Card":14432,"DAY":14433,"Hid":14434,"Istanbul":14435,"LS":14436,"MANY":14437,"Spot":14438,"Tran":14439,"Touch":14440,"Video":14441,"Wit":14442,"bol":14443,"coff":14444,"fizz":14445,"greg":14446,"russ":14447,"tweak":14448,"reserved":14449,"ati":14450,"stran":14451,"stairs":14452,"itage":14453,"adel":14454,"forgiving":14455,"rict":14456,"irresponsible":14457,"composer":14458,"lace":14459,"imated":14460,"noisy":14461,"perplex":14462,"whodun":14463,"upsetting":14464,"prised":14465,"Butter":14466,"matin":14467,"geniuses":14468,"excuses":14469,"este":14470,"subtext":14471,"insign":14472,"medy":14473,"Seat":14474,"Anime":14475,"predictably":14476,"Martian":14477,"Argent":14478,"ANG":14479,"READ":14480,"certaint":14481,"typing":14482,"Keith":14483,"McQueen":14484,"McAdams":14485,"Connelly":14486,"dealer":14487,"soup":14488,"Edge":14489,"redeemed":14490,"ASAP":14491,"Jumanji":14492,"noteworthy":14493,"panther":14494,"Mads":14495,"approaching":14496,"Angela":14497,"defining":14498,"suspected":14499,"Magu":14500,"splatter":14501,"competence":14502,"increasing":14503,"Genius":14504,"Croft":14505,"Zombies":14506,"Madea":14507,"arrogance":14508,"eloqu":14509,"oids":14510,"Lowe":14511,"legitimate":14512,"Indy":14513,"fantastical":14514,"LGBTQ":14515,"Kathy":14516,"sacrifices":14517,"shifts":14518,"Armstrong":14519,"Rapace":14520,"degrading":14521,"Virginia":14522,"collaboration":14523,"Brendan":14524,"catastrophe":14525,"seventies":14526,"Sigourney":14527,"Odyssey":14528,"Donovan":14529,"Florida":14530,"(!)":14531,"+.":14532,"<<":14533,"Dane":14534,"Gig":14535,"Mile":14536,"Native":14537,"Purge":14538,"PRO":14539,"Sud":14540,"Tessa":14541,"bars":14542,"dent":14543,"dling":14544,"hers":14545,"lush":14546,"tany":14547,"twe":14548,"zman":14549,"thirsty":14550,"inhuman":14551,"reign":14552,"enity":14553,"stically":14554,"esomeness":14555,"modi":14556,"modest":14557,"omani":14558,"veiled":14559,"liver":14560,"shor":14561,"shes":14562,"elit":14563,"unsatisfied":14564,"idential":14565,"ablan":14566,"riet":14567,"imbec":14568,"amat":14569,"pockets":14570,"seeks":14571,"dos":14572,"agal":14573,"agas":14574,"bob":14575,"displaying":14576,"yea":14577,"playful":14578,"phia":14579,"icky":14580,"hipp":14581,"excre":14582,"Noomi":14583,"waking":14584,"trigg":14585,"leton":14586,"warranted":14587,"bug":14588,"additions":14589,"Marg":14590,"crop":14591,"Lock":14592,"parag":14593,"pictured":14594,"tracking":14595,"supports":14596,"DVDs":14597,"agonizing":14598,"avoids":14599,"Lovely":14600,"Seasons":14601,"lining":14602,"Benjam":14603,"approve":14604,"framed":14605,"fragile":14606,"belt":14607,"fires":14608,"Parks":14609,"absurdly":14610,"amateurs":14611,"crosses":14612,"bait":14613,"meticulous":14614,"IDE":14615,"Juliet":14616,"thesis":14617,"interpretations":14618,"indulgence":14619,"resulted":14620,"urama":14621,"bankrupt":14622,"Gregory":14623,"sooooo":14624,"betrayed":14625,"Catwoman":14626,"enlighten":14627,"encouraged":14628,"encouraging":14629,"tossed":14630,"Studio":14631,"Braveheart":14632,"TLJ":14633,"instincts":14634,"helicopter":14635,"Spirit":14636,"Eisenberg":14637,"Rhys":14638,
[...]
