{"[UNK]":0,"[START]":1,"[END]":2,"[PAD]":3,"\u0003":4,"!":5,"\"":6,"#":7,"$":8,"%":9,"&":10,"'":11,"(":12,")":13,"*":14,"+":15,",":16,"-":17,".":18,"/":19,"0":20,"1":21,"2":22,"3":23,"4":24,"5":25,"6":26,"7":27,"8":28,"9":29,":":30,";":31,"<":32,"=":33,">":34,"?":35,"@":36,"A":37,"B":38,"C":39,"D":40,"E":41,"F":42,"G":43,"H":44,"I":45,"J":46,"K":47,"L":48,"M":49,"N":50,"O":51,"P":52,"Q":53,"R":54,"S":55,"T":56,"U":57,"V":58,"W":59,"X":60,"Y":61,"Z":62,"[":63,"\\":64,"]":65,"^":66,"_":67,"`":68,"a":69,"b":70,"c":71,"d":72,"e":73,"f":74,"g":75,"h":76,"i":77,"j":78,"k":79,"l":80,"m":81,"n":82,"o":83,"p":84,"q":85,"r":86,"s":87,"t":88,"u":89,"v":90,"w":91,"x":92,"y":93,"z":94,"{":95,"|":96,"}":97,"~":98,"":99,"":100,"":101,"":102,"":103,"":104,"":105,"":106,"":107,"":108,"¡":109,"¢":110,"£":111,"¤":112,"¥":113,"¦":114,"§":115,"¨":116,"©":117,"ª":118,"«":119,"¬":120,"­":121,"®":122,"¯":123,"°":124,"±":125,"²":126,"³":127,"´":128,"µ":129,"¶":130,"·":131,"¸":132,"¹":133,"º":134,"»":135,"¼":136,"½":137,"¾":138,"¿":139,"À":140,"Á":141,"Â":142,"Ã":143,"Ä":144,"Å":145,"Ç":146,"È":147,"É":148,"Ë":149,"Í":150,"Î":151,"Ï":152,"Ò":153,"Ó":154,"Õ":155,"Ö":156,"×":157,"Ø":158,"Ü":159,"ß":160,"à":161,"á":162,"â":163,"ã":164,"ä":165,"å":166,"æ":167,"ç":168,"è":169,"é":170,"ê":171,"ë":172,"ì":173,"í":174,"î":175,"ï":176,"ð":177,"ñ":178,"ó":179,"ô":180,"õ":181,"ö":182,"ø":183,"ú":184,"û":185,"ü":186,"ý":187,"ā":188,"č":189,"ē":190,"ğ":191,"ī":192,"İ":193,"ı":194,"Ł":195,"ł":196,"ń":197,"ō":198,"Œ":199,"œ":200,"Ş":201,"ş":202,"Š":203,"š":204,"Ţ":205,"Ÿ":206,"ź":207,"Ż":208,"ż":209,"Ž":210,"ž":211,"ƒ":212,"ˆ":213,"˙":214,"˜":215,"Ι":216,"е":217,"с":218,"ј":219,"ا":220,"ب":221,"د":222,"س":223,"غ":224,"ق":225,"ก":226,"ง":227,"ย":228,"ร":229,"ა":230,"ბ":231,"ი":232,"ლ":233,"ო":234,"რ":235,"ღ":236,"ჯ":237,"ậ":238,"ố":239,"​":240,"‍":241,"‎":242,"–":243,"—":244,"―":245,"‘":246,"’":247,"‚":248,"“":249,"”":250,"„":251,"†":252,"‡":253,"•":254,"…":255,"‪":256,"‬":257,"‰":258,"′":259,"‹":260,"›":261,"※":262,"€":263,"№":264,"™":265,"−":266,"⎯":267,"★":268,"☆":269,"☠":270,"☹":271,"☺":272,"♀":273,"♂":274,"♠":275,"♡":276,"♥":277,"⚫":278,"⛈":279,"✅":280,"✊":281,"✌":282,"✔":283,"✨":284,"❌":285,"❓":286,"❕":287,"❣":288,"❤":289,"⭐":290,"ツ":291,"単":292,"채":293,"":294,"️":295,"﻿":296,"，":297,"：":298,"🅱":299,"🇮":300,"🇯":301,"🇱":302,"🇳":303,"🇵":304,"🇷":305,"🇸":306,"🇺":307,"🌚":308,"🌞":309,"🌟":310,"🌴":311,"🍀":312,"🍅":313,"🍯":314,"🍻":315,"🍿":316,"🎈":317,"🎤":318,"🎥":319,"🎬":320,"🎭":321,"🎯":322,"🎸":323,"🏅":324,"🏆":325,"🏡":326,"🏻":327,"🏼":328,"🏽":329,"🏾":330,"🏿":331,"🐂":332,"🐈":333,"🐊":334,"🐕":335,"🐵":336,"🐻":337,"👀":338,"👁":339,"👈":340,"👊":341,"👌":342,"👍":343,"👎":344,"👏":345,"👐":346,"👑":347,"👗":348,"👙":349,"👠":350,"👥":351,"👨":352,"👩":353,"👼":354,"👽":355,"💁":356,"💃":357,"💅":358,"💐":359,"💓":360,"💔":361,"💕":362,"💖":363,"💗":364,"💙":365,"💜":366,"💞":367,"💟":368,"💣":369,"💥":370,"💩":371,"💪":372,"💯":373,"💰":374,"💸":375,"💺":376,"📍":377,"🔥":378,"🔪":379,"🔫":380,"🖤":381,"😀":382,"😁":383,"😂":384,"😃":385,"😄":386,"😅":387,"😆":388,"😇":389,"😉":390,"😊":391,"😋":392,"😌":393,"😍":394,"😎":395,"😏":396,"😐":397,"😑":398,"😒":399,"😔":400,"😕":401,"😖":402,"😗":403,"😘":404,"😚":405,"😛":406,"😜":407,"😝":408,"😠":409,"😡":410,"😢":411,"😣":412,"😤":413,"😥":414,"😬":415,"😭":416,"😱":417,"😲":418,"😳":419,"😴":420,"😶":421,"😸":422,"😿":423,"🙁":424,"🙂":425,"🙄":426,"🙈":427,"🙊":428,"🙌":429,"🙏":430,"🚀":431,"🚫":432,"🤐":433,"🤓":434,"🤔":435,"🤙":436,"🤞":437,"🤠":438,"🤢":439,"🤣":440,"🤦":441,"🤷":442,"🦄":443,"th":444,"in":445,"er":446,"an":447,"the":448,"is":449,"re":450,"on":451,"at":452,"en":453,"ing":454,"ou":455,"or":456,"st":457,"it":458,"and":459,"al":460,"to":461,"es":462,"as":463,"ed":464,"ar":465,"of":466,"mo":467,"ly":468,"ch":469,"le":470,"vi":471,"ct":472,"se":473,"be":474,"il":475,"om":476,"ve":477,"Th":478,"this":479,"vie":480,"ow":481,"ot":482,"li":483,"ut":484,"ver":485,"ad":486,"wh":487,"movie":488,"ic":489,"that":490,"was":491,"act":492,"for":493,"ent":494,"you":495,"me":496,"ion":497,"gh":498,"sh":499,"ay":500,"ke":501,"el":502,"oo":503,"ere":504,"The":505,"ith":506,"..":507,"un":508,"one":509,"id":510,"ld":511,"ab":512,"ha":513,"with":514,"are":515,"pe":516,"but":517,"ce":518,"out":519,"so":520,"fil":521,"ma":522,"not":523,"film":524,"ge":525,"all":526,"su":527,"ri":528,"ally":529,"ome":530,"ir":531,"de":532,"ust":533,"ers":534,"ra":535,"ul":536,"op":537,"ould":538,"ne":539,"fe":540,"ter":541,"atch":542,"have":543,"com":544,"di":545,"very":546,"ro":547,"ill":548,"ood":549,"ex":550,"watch":551,"It":552,"sc":553,"la":554,"thing":555,"im":556,"ck":557,"am":558,"like":559,"po":560,"lo":561,"some":562,"ant":563,"no":564,"ght":565,"show":566,"any":567,"see":568,"do":569,"end":570,"ory":571,"just":572,"ast":573,"ell":574,"wor":575,"int":576,"ther":577,"ess":578,"reat":579,"rom":580,"This":581,"good":582,"he":583,"ti":584,"us":585,"my":586,"char":587,"pl":588,"story":589,"tr":590,"art":591,"con":592,"if":593,"per":594,"they":595,"nd":596,"ta":597,"pre":598,"ur":599,"can":600,"charact":601,"who":602,"we":603,"go":604,"ven":605,"from":606,"about":607,"ist":608,"ep":609,"ap":610,"up":611,"ous":612,"au":613,"get":614,"what":615,"more":616,"way":617,"has":618,"ive":619,"ment":620,"ol":621,"ough":622,"ation":623,"ig":624,"ine":625,"by":626,"time":627,"qu":628,"ind":629,"really":630,"man":631,"jo":632,"ook":633,"great":634,"ag":635,"ate":636,"te":637,"will":638,"ies":639,"...":640,"rit":641,"would":642,"able":643,"pro":644,"now":645,"sa":646,"ard":647,"did":648,"ople":649,"view":650,"ful":651,"there":652,"ong":653,"der":654,"other":655,"ink":656,"don":657,"people":658,"were":659,"our":660,"um":661,"pt":662,"et":663,"whi":664,"how":665,"fun":666,"ser":667,"every":668,"ity":669,"bad":670,"ite":671,"uch":672,"ble":673,"over":674,"his":675,"your":676,"than":677,"had":678,"ure":679,"bec":680,"bet":681,"even":682,"ci":683,"vies":684,"ever":685,"gu":686,"ss":687,"her":688,"think":689,"ple":690,"irst":691,"movies":692,"acting":693,"much":694,"characters":695,"ound":696,"well":697,"bo":698,"most":699,"sp":700,"ause":701,"dis":702,"could":703,"fa":704,"Wh":705,"its":706,"ade":707,"scen":708,"pect":709,"only":710,"make":711,"too":712,"first":713,"ence":714,"ll":715,"ight":716,"real":717,"thr":718,"because":719,"ny":720,"kes":721,"pr":722,"point":723,"ars":724,"king":725,"does":726,"know":727,"low":728,"look":729,"writ":730,"des":731,"!!":732,"been":733,"say":734,"joy":735,"sel":736,"pp":737,"ors":738,"plot":739,"rect":740,"ish":741,"ack":742,"want":743,"ff":744,"ore":745,"ty":746,"their":747,"which":748,"10":749,"If":750,"watching":751,"made":752,"review":753,"iso":754,"ac":755,"ain":756,"when":757,"enjoy":758,"better":759,"ide":760,"lit":761,"own":762,"age":763,"ved":764,"fter":765,"min":766,"ves":767,"ason":768,"love":769,"episo":770,"fect":771,"tain":772,"off":773,"action":774,"seen":775,"feel":776,"character":777,"them":778,"ie":779,"ort":780,"ye":781,"tw":782,"direct":783,"into":784,"series":785,"many":786,"ving":787,"best":788,"ass":789,"ho":790,"fin":791,"aw":792,"self":793,"ated":794,"ical":795,"ru":796,"part":797,"But":798,"vel":799,"lie":800,"play":801,"less":802,"should":803,"then":804,"And":805,"mis":806,"ious":807,"funny":808,"In":809,"du":810,"tle":811,"expect":812,"ph":813,"ice":814,"ces":815,"cast":816,"new":817,"ought":818,"ertain":819,"ating":820,"ans":821,"ick":822,"lot":823,"There":824,"read":825,"try":826,"stand":827,"mat":828,"br":829,"ame":830,"gr":831,"after":832,"hi":833,"never":834,"back":835,"St":836,"red":837,"actors":838,"work":839,"hor":840,"ense":841,"something":842,"cl":843,"life":844,"under":845,"ting":846,"tra":847,"orig":848,"ud":849,"inal":850,"also":851,"old":852,"day":853,"seem":854,"through":855,"ens":856,"erest":857,"ach":858,"scenes":859,"going":860,"ugh":861,"won":862,"ary":863,"ef":864,"pla":865,"belie":866,"interest":867,"ry":868,"comm":869,"being":870,"here":871,"original":872,"didn":873,"tim":874,"laugh":875,"happ":876,"where":877,"dra":878,"again":879,"ance":880,"ually":881,"comed":882,"ose":883,"nt":884,"ction":885,"gi":886,"bor":887,"she":888,"line":889,"ue":890,"gen":891,"thought":892,"sur":893,"ber":894,"peci":895,"nothing":896,"tal":897,"che":898,"....":899,"got":900,"ark":901,"exc":902,"long":903,"start":904,"og":905,"little":906,"films":907,"wast":908,"ise":909,"give":910,"ase":911,"ster":912,"ak":913,"cent":914,"high":915,"ily":916,"Ch":917,"ten":918,"mer":919,"ire":920,"ute":921,"episode":922,"cre":923,"perfor":924,"fore":925,"need":926,"why":927,"reviews":928,"rible":929,"two":930,"times":931,"est":932,"though":933,"such":934,"worth":935,"may":936,"watched":937,"appoint":938,"right":939,"zing":940,"entertain":941,"ning":942,"still":943,"these":944,"diff":945,"scre":946,"You":947,"makes":948,"boring":949,"pa":950,"ript":951,"those":952,"disappoint":953,"performan":954,"pret":955,"ps":956,"sim":957,"ild":958,"lack":959,"em":960,"ang":961,"done":962,").":963,"ama":964,"same":965,"him":966,"cou":967,"ob":968,"comedy":969,"bit":970,"find":971,"ments":972,"mind":973,"season":974,"tur":975,"doesn":976,"bl":977,"script":978,"ror":979,"comple":980,"down":981,"cine":982,"big":983,"ave":984,"sit":985,"few":986,"oney":987,"far":988,"actually":989,"fan":990,"interesting":991,"pers":992,"So":993,"ions":994,"produ":995,"ng":996,"book":997,"No":998,"fam":999,"comp":1000,"whole":1001,"sure":1002,"ree":1003,"shows":1004,"set":1005,"ations":1006,"co":1007,"rong":1008,"utes":1009,"What":1010,"commend":1011,"hu":1012,"od":1013,"ked":1014,"hum":1015,"ways":1016,"ward":1017,"sol":1018,"iz":1019,"money":1020,"vers":1021,"take":1022,"minutes":1023,"illi":1024,"enough":1025,"before":1026,"vis":1027,"ably":1028,"wood":1029,"effect":1030,"screen":1031,"hard":1032,"ual":1033,"aut":1034,"cra":1035,"world":1036,"cept":1037,"differ":1038,"ins":1039,"wa":1040,"ran":1041,"hour":1042,"mus":1043,"tri":1044,"another":1045,"saw":1046,"fi":1047,"recommend":1048,"let":1049,"ics":1050,"understand":1051,"super":1052,"amazing":1053,"waste":1054,"ult":1055,"creat":1056,"things":1057,"last":1058,"fli":1059,"ash":1060,"tell":1061,"ced":1062,"perfect":1063,"ft":1064,"anything":1065,"kind":1066,"keep":1067,"rating":1068,"main":1069,"come":1070,"raph":1071,"les":1072,"must":1073,"kid":1074,"without":1075,"mot":1076,"years":1077,"ool":1078,"vo":1079,"20":1080,"sub":1081,"scene":1082,"He":1083,"ys":1084,"person":1085,"TV":1086,"dial":1087,"complete":1088,"worst":1089,"finite":1090,"riend":1091,"They":1092,"Al":1093,"As":1094,"while":1095,"loved":1096,"wonder":1097,"How":1098,"pretty":1099,"ial":1100,"ater":1101,"put":1102,"fel":1103,"sense":1104,"Not":1105,"hope":1106,"horror":1107,"different":1108,"mag":1109,"friend":1110,"finitely":1111,"press":1112,"ending":1113,"surpr":1114,"solute":1115,"turn":1116,"cont":1117,"fact":1118,"wait":1119,"olly":1120,"med":1121,"happen":1122,"iful":1123,"director":1124,"Re":1125,"top":1126,"sing":1127,"cle":1128,"beaut":1129,"ste":1130,"episodes":1131,"bas":1132,"ip":1133,"believe":1134,"poor":1135,"light":1136,"audi":1137,"pie":1138,"Jo":1139,"irl":1140,"felt":1141,"ince":1142,"everything":1143,"arly":1144,"fort":1145,"wom":1146,"rel":1147,"Amer":1148,"dy":1149,"vious":1150,"Americ":1151,"war":1152,"ines":1153,"cond":1154,"ollywood":1155,"enjoyed":1156,"making":1157,"ative":1158,"job":1159,"Don":1160,"writing":1161,"lead":1162,"effects":1163,"ren":1164,"music":1165,"vent":1166,"We":1167,"year":1168,"everyone":1169,"isn":1170,"quite":1171,"reme":1172,"bu":1173,"ween":1174,"found":1175,"always":1176,"All":1177,"ress":1178,"istic":1179,"tru":1180,"care":1181,"wasn":1182,"sm":1183,"family":1184,"between":1185,"My":1186,"slow":1187,"absolute":1188,"add":1189,"emot":1190,"beautiful":1191,"sed":1192,"speci":1193,"looking":1194,"por":1195,"ale":1196,"ian":1197,"ional":1198,"ness":1199,"car":1200,"used":1201,"least":1202,"ellent":1203,"icul":1204,"ically":1205,"xt":1206,"upid":1207,"girl":1208,"humor":1209,"De":1210,"Just":1211,"reason":1212,"anyone":1213,"sequ":1214,"star":1215,"seems":1216,"definitely":1217,"vil":1218,"cor":1219,"ris":1220,"cess":1221,"alf":1222,"away":1223,"dict":1224,"For":1225,"mean":1226,"led":1227,"ery":1228,"kill":1229,"almost":1230,"around":1231,"ons":1232,"gue":1233,"mess":1234,"class":1235,"stupid":1236,"ath":1237,"bably":1238,"ks":1239,"terrible":1240,"left":1241,"trying":1242,"went":1243,"piece":1244,"ately":1245,"audience":1246,"na":1247,"might":1248,"drama":1249,"ext":1250,"Se":1251,"seeing":1252,"peri":1253,"Mo":1254,"ying":1255,"child":1256,"),":1257,"pi":1258,"cli":1259,"second":1260,"val":1261,"Hollywood":1262,"performance":1263,"beg":1264,"ings":1265,"That":1266,"half":1267,"sound":1268,"fant":1269,"else":1270,"next":1271,"surpris":1272,"since":1273,"both":1274,"fol":1275,"use":1276,"entertaining":1277,"comes":1278,"liked":1279,"raphy":1280,"disappointed":1281,"excellent":1282,"Be":1283,"unt":1284,"true":1285,"\".":1286,"att":1287,"dec":1288,"role":1289,"sex":1290,"hero":1291,"sent":1292,"fl":1293,"dialo":1294,"ner":1295,"ilar":1296,"hel":1297,"vol":1298,"written":1299,"ible":1300,"ider":1301,"velop":1302,"stu":1303,"hist":1304,"call":1305,"probably":1306,"awful":1307,"special":1308,"--":1309,"rid":1310,"ms":1311,"ality":1312,"entire":1313,"son":1314,"sci":1315,"ign":1316,"crit":1317,"kids":1318,"develop":1319,"fav":1320,"pecially":1321,"poss":1322,"yet":1323,"stead":1324,"Star":1325,"cri":1326,"heart":1327,"each":1328,"onest":1329,"especially":1330,"port":1331,"ia":1332,"rest":1333,"gets":1334,"je":1335,"said":1336,"An":1337,"wrong":1338,"absolutely":1339,"human":1340,"ull":1341,"ile":1342,"thrill":1343,"serious":1344,"era":1345,"predict":1346,"completely":1347,"idea":1348,"gl":1349,"ither":1350,"Some":1351,"actor":1352,"fully":1353,"illiant":1354,"young":1355,"nice":1356,"stop":1357,"cam":1358,"cinemat":1359,"oth":1360,"ply":1361,"19":1362,"lines":1363,"hours":1364,"ond":1365,"gether":1366,"clo":1367,"sho":1368,"deser":1369,"appe":1370,"shot":1371,"oc":1372,"Every":1373,"ney":1374,"TH":1375,"couldn":1376,"together":1377,"res":1378,"gener":1379,"someone":1380,"bre":1381,"ones":1382,"mar":1383,"ists":1384,"mon":1385,"ism":1386,"tray":1387,"ences":1388,"bly":1389,"fre":1390,"wanted":1391,"run":1392,"log":1393,"night":1394,"full":1395,"word":1396,"hand":1397,"ready":1398,"moments":1399,"credi":1400,"cut":1401,"cap":1402,"ography":1403,"tem":1404,"Mar":1405,"lic":1406,"fight":1407,"ited":1408,"follow":1409,"polit":1410,"anim":1411,"IM":1412,"os":1413,"usu":1414,"cons":1415,"sad":1416,"brilliant":1417,"mor":1418,"jokes":1419,"yes":1420,"came":1421,"sty":1422,"dialogue":1423,"lig":1424,"imag":1425,"cur":1426,"inter":1427,"place":1428,"plain":1429,"Un":1430,"tit":1431,"ix":1432,"portray":1433,"predictable":1434,"begin":1435,"!!!":1436,"ject":1437,"experi":1438,"performances":1439,"col":1440,"truly":1441,"guy":1442,"head":1443,"certain":1444,"maybe":1445,"dark":1446,"pow":1447,"To":1448,"Pe":1449,"American":1450,"reg":1451,"body":1452,"non":1453,"rather":1454,"ped":1455,"simply":1456,"cinema":1457,"One":1458,"gave":1459,"eng":1460,"After":1461,"honest":1462,"vable":1463,"fail":1464,"??":1465,"form":1466,"bud":1467,"als":1468,"storyline":1469,"gar":1470,"uring":1471,"eas":1472,"opin":1473,"Le":1474,"viol":1475,"prop":1476,"sup":1477,"ird":1478,"iting":1479,"deli":1480,"arr":1481,"uni":1482,"umb":1483,"cr":1484,"wal":1485,"gg":1486,"ted":1487,"hn":1488,"production":1489,"spe":1490,"side":1491,"having":1492,"tic":1493,"coming":1494,"hop":1495,"getting":1496,"ron":1497,"Lo":1498,"looks":1499,"cing":1500,"sy":1501,"once":1502,"suppo":1503,"cour":1504,"esome":1505,"favor":1506,"played":1507,"astic":1508,"soci":1509,"myself":1510,"ER":1511,"guess":1512,"based":1513,"cho":1514,"Well":1515,"instead":1516,"When":1517,"Great":1518,"rele":1519,"version":1520,"bra":1521,"expected":1522,"nor":1523,"theater":1524,"ich":1525,"forward":1526,"rated":1527,"ames":1528,"takes":1529,"mber":1530,"obvious":1531,"hate":1532,"que":1533,"present":1534,"par":1535,"men":1536,"She":1537,"stars":1538,"Ro":1539,"wish":1540,"already":1541,"hy":1542,"yourself":1543,"John":1544,"fans":1545,"NO":1546,"talent":1547,"Dis":1548,"master":1549,"Li":1550,"Do":1551,"tot":1552,"either":1553,"opinion":1554,"On":1555,"proble":1556,"land":1557,"chan":1558,"strong":1559,"spo":1560,"However":1561,"totally":1562,"cinematography":1563,"goes":1564,"pare":1565,"direction":1566,"ele":1567,"etc":1568,"itself":1569,"horrible":1570,"IN":1571,"short":1572,"susp":1573,"worse":1574,"incredi":1575,"list":1576,"trail":1577,"ended":1578,"ned":1579,"power":1580,"open":1581,"sat":1582,"course":1583,"doing":1584,"fall":1585,"io":1586,"believable":1587,"budget":1588,"anno":1589,"ane":1590,"given":1591,"tempt":1592,"except":1593,"others":1594,"women":1595,"ah":1596,"pu":1597,"thinking":1598,"male":1599,"sch":1600,"decent":1601,"realistic":1602,"history":1603,"crap":1604,"conf":1605,"\",":1606,"wit":1607,"impress":1608,"ross":1609,"At":1610,"miss":1611,"quality":1612,"contin":1613,"ken":1614,"using":1615,"extreme":1616,"wonderful":1617,"allow":1618,"teen":1619,"Ne":1620,"Its":1621,"ories":1622,"started":1623,"Even":1624,"friends":1625,"Why":1626,"ature":1627,"cks":1628,"Chris":1629,"iculous":1630,"face":1631,"ts":1632,"past":1633,"IMD":1634,"parts":1635,"fortun":1636,"level":1637,"fer":1638,"stru":1639,"gest":1640,"awesome":1641,"fantastic":1642,"cy":1643,"Over":1644,"days":1645,"surprised":1646,"intel":1647,"style":1648,"classic":1649,"ming":1650,"actress":1651,"beginning":1652,"exp":1653,"until":1654,"With":1655,"expecting":1656,"along":1657,"writers":1658,"law":1659,"throughout":1660,"sul":1661,"experience":1662,"flix":1663,"unch":1664,"cu":1665,"finish":1666,"guys":1667,"dep":1668,"live":1669,"kept":1670,"Ar":1671,"ention":1672,"quest":1673,"pict":1674,"attempt":1675,"ret":1676,"possible":1677,"pass":1678,"feeling":1679,"ek":1680,"woman":1681,"ler":1682,"cannot":1683,"vin":1684,"ship":1685,"cop":1686,"ridiculous":1687,"camera":1688,"supposed":1689,"sk":1690,"neg":1691,"score":1692,"Watch":1693,"children":1694,"giving":1695,"couple":1696,"fresh":1697,"Net":1698,"fair":1699,"during":1700,"May":1701,"genre":1702,"CG":1703,"event":1704,"chance":1705,"write":1706,"ased":1707,"three":1708,"ouch":1709,"visual":1710,"rent":1711,"fine":1712,"ates":1713,"sequel":1714,"stuff":1715,"acted":1716,"Is":1717,"ote":1718,"ared":1719,"uck":1720,"consider":1721,"Very":1722,"stories":1723,"huge":1724,"hilar":1725,"ouse":1726,"help":1727,"track":1728,"wi":1729,"ST":1730,"black":1731,"gra":1732,"vid":1733,"Yes":1734,"dri":1735,"posit":1736,"boy":1737,"school":1738,"plays":1739,"ingly":1740,"stay":1741,"ities":1742,"saying":1743,"clich":1744,"type":1745,"omb":1746,"ton":1747,"ump":1748,"pot":1749,"suc":1750,"ger":1751,"supp":1752,"overall":1753,"pop":1754,"God":1755,"enjoyable":1756,"bage":1757,"close":1758,"annoying":1759,"seemed":1760,"lost":1761,"Also":1762,"00":1763,"ali":1764,"suspense":1765,"invol":1766,"orry":1767,"Good":1768,"ear":1769,"expectations":1770,"import":1771,"cer":1772,"ace":1773,"Netflix":1774,"fut":1775,"ord":1776,"zy":1777,"AN":1778,"ground":1779,"ined":1780,"aring":1781,"preci":1782,"ank":1783,"RE":1784,"rek":1785,"Go":1786,"extremely":1787,"ize":1788,"aking":1789,"void":1790,"mas":1791,"highly":1792,"fast":1793,"touch":1794,"Br":1795,"pay":1796,"lan":1797,"antly":1798,"illy":1799,"garbage":1800,"took":1801,"hilarious":1802,"feels":1803,"IMDb":1804,"however":1805,"bro":1806,"pain":1807,"message":1808,"remember":1809,"ential":1810,"please":1811,"violence":1812,".\"":1813,"Act":1814,"thriller":1815,"CGI":1816,"fran":1817,"dou":1818,"development":1819,"name":1820,"trailer":1821,"ling":1822,"ream":1823,"dr":1824,"incl":1825,"**":1826,"home":1827,"ots":1828,"happened":1829,"ese":1830,"typ":1831,"bring":1832,"cool":1833,"telling":1834,"bored":1835,"parent":1836,"today":1837,"issu":1838,"vide":1839,"mit":1840,"oud":1841,"support":1842,"favorite":1843,"cked":1844,"ages":1845,"af":1846,"negative":1847,"Can":1848,"OK":1849,"vision":1850,"fortunately":1851,"weak":1852,"simple":1853,"First":1854,"reality":1855,"leave":1856,"scar":1857,"selves":1858,"Man":1859,"lish":1860,"ular":1861,"Disney":1862,"den":1863,"coun":1864,"certainly":1865,"attention":1866,"save":1867,"cred":1868,"Sc":1869,"Maybe":1870,"flick":1871,"song":1872,"become":1873,"ake":1874,"spir":1875,"Overall":1876,"spoil":1877,"future":1878,"tail":1879,"single":1880,"Ke":1881,"political":1882,"looked":1883,"win":1884,"gives":1885,"entertainment":1886,"ident":1887,"DV":1888,"relation":1889,"mid":1890,"seriously":1891,"pac":1892,"av":1893,"ON":1894,"adult":1895,"ino":1896,"wife":1897,"ures":1898,"Car":1899,"plan":1900,"matter":1901,"ility":1902,"Sh":1903,"haps":1904,"die":1905,"ends":1906,"sever":1907,"mention":1908,"Su":1909,"twist":1910,"hit":1911,"aver":1912,"critics":1913,"deep":1914,"scary":1915,"playing":1916,"mark":1917,"moder":1918,"dam":1919,"dist":1920,"haven":1921,"myster":1922,"tried":1923,"igh":1924,"wouldn":1925,"Sp":1926,"theat":1927,"appreci":1928,"cult":1929,"30":1930,"pleas":1931,"yond":1932,"heard":1933,"situ":1934,"roll":1935,"mal":1936,"Now":1937,"zz":1938,"AT":1939,"rate":1940,"bb":1941,"case":1942,"needs":1943,"intellig":1944,"Ple":1945,"Any":1946,"DVD":1947,"US":1948,"exact":1949,"happens":1950,"chang":1951,"emotional":1952,"Per":1953,"leg":1954,"prof":1955,"IS":1956,"viewer":1957,"Wars":1958,"ition":1959,"build":1960,"comic":1961,"Ex":1962,"!!!!":1963,"ok":1964,"antic":1965,"wise":1966,"necess":1967,"pace":1968,"books":1969,"masterpiece":1970,"lea":1971,"count":1972,"lect":1973,"modern":1974,"remind":1975,"previous":1976,"white":1977,"concept":1978,"called":1979,"ered":1980,"happy":1981,"change":1982,"Com":1983,"eyes":1984,"Please":1985,"forget":1986,"ker":1987,"works":1988,"moment":1989,"against":1990,"usual":1991,"cas":1992,"wasted":1993,"rist":1994,"While":1995,"problem":1996,"ided":1997,"taking":1998,"loc":1999,"cause":2000,"respect":2001,"week":2002,"lid":2003,"air":2004,"although":2005,"lear":2006,"detail":2007,"game":2008,"ination":2009,"Mich":2010,"spect":2011,"cover":2012,"sum":2013,"turned":2014,"hind":2015,"Marvel":2016,"AL":2017,"told":2018,"ley":2019,"particul":2020,"beyond":2021,"Wor":2022,"average":2023,"small":2024,"foc":2025,"tech":2026,"ni":2027,"ized":2028,"doub":2029,"fic":2030,"stra":2031,"uss":2032,"exam":2033,"villa":2034,"iness":2035,"words":2036,"laughing":2037,"female":2038,"leep":2039,"atur":2040,"ards":2041,"effort":2042,"ratings":2043,"deserves":2044,"mix":2045,"utter":2046,"important":2047,"hold":2048,"ired":2049,"Ser":2050,"wn":2051,"waiting":2052,"Jack":2053,"Char":2054,"dull":2055,"augh":2056,"Movie":2057,"Mc":2058,"mise":2059,"often":2060,"potential":2061,"lives":2062,"Trek":2063,"matic":2064,"several":2065,"ific":2066,"move":2067,"pur":2068,"shame":2069,"directing":2070,"conne":2071,"writer":2072,"cost":2073,"agree":2074,"viewers":2075,"Da":2076,"sort":2077,"roles":2078,"deliver":2079,"lame":2080,"aster":2081,"15":2082,"dumb":2083,"ety":2084,"mistry":2085,"Har":2086,"bi":2087,"jor":2088,"similar":2089,"bing":2090,"usually":2091,"Di":2092,"reading":2093,"Con":2094,"meaning":2095,"success":2096,"aged":2097,"net":2098,"behind":2099,"franch":2100,"chemistry":2101,"0s":2102,"Ste":2103,"Tom":2104,"lots":2105,"Will":2106,"Oscar":2107,"dialog":2108,"twists":2109,"emotion":2110,"Who":2111,"ING":2112,"dead":2113,"directed":2114,"ator":2115,"verse":2116,"cliché":2117,"ket":2118,"pri":2119,"quick":2120,"themselves":2121,"From":2122,"blood":2123,"trash":2124,"superb":2125,"cking":2126,"taken":2127,"thetic":2128,"explo":2129,"asy":2130,"arch":2131,"casting":2132,"knew":2133,"alone":2134,"ago":2135,"premise":2136,"incredible":2137,"Brit":2138,"poorly":2139,"dle":2140,"swe":2141,"pick":2142,"exactly":2143,"Eng":2144,"soundtrack":2145,"ani":2146,"animation":2147,"NOT":2148,"title":2149,"gs":2150,"pite":2151,"involved":2152,"forced":2153,"flaw":2154,"solid":2155,"known":2156,"unique":2157,"aren":2158,"honestly":2159,"psy":2160,"ky":2161,"itch":2162,"glad":2163,"sometimes":2164,"Bad":2165,"clever":2166,"ael":2167,"hell":2168,"comment":2169,"liter":2170,"prom":2171,"ues":2172,"hol":2173,"positive":2174,"franchise":2175,"Ab":2176,"Sha":2177,"father":2178,"remake":2179,"worthy":2180,"wards":2181,"Ho":2182,"lock":2183,"humour":2184,"yp":2185,"major":2186,"fiction":2187,"talking":2188,"soon":2189,"easy":2190,"brain":2191,"turns":2192,"Oh":2193,"ric":2194,"recent":2195,"Ter":2196,"cheap":2197,"hoping":2198,"deal":2199,"sorry":2200,"ering":2201,"ats":2202,"Indi":2203,"Really":2204,"depth":2205,"minute":2206,"aspect":2207,"finally":2208,"exe":2209,"grou":2210,"sult":2211,"none":2212,"standing":2213,"silly":2214,"late":2215,"range":2216,"house":2217,"ero":2218,"gre":2219,"pil":2220,"dest":2221,"keeps":2222,"terri":2223,"decided":2224,"necessary":2225,"laughs":2226,"break":2227,"jud":2228,"himself":2229,"IT":2230,"cry":2231,"explain":2232,"perfectly":2233,"inst":2234,"ension":2235,"starts":2236,"Mr":2237,"tele":2238,"Nothing":2239,"blow":2240,"anda":2241,"kers":2242,"death":2243,"science":2244,"room":2245,"loud":2246,"Christi":2247,"Po":2248,"clear":2249,"Michael":2250,"team":2251,"THE":2252,"LO":2253,"thy":2254,"New":2255,"laughed":2256,"pure":2257,"sequences":2258,"Of":2259,"weird":2260,"subject":2261,"Like":2262,"bat":2263,"typical":2264,".....":2265,"ational":2266,"People":2267,"ca":2268,"ised":2269,"post":2270,"bother":2271,"thor":2272,"exist":2273,"evil":2274,"easily":2275,"video":2276,"bal":2277,"fo":2278,"esy":2279,"bur":2280,"truth":2281,"actual":2282,"fig":2283,"abo":2284,"doubt":2285,"fell":2286,"ured":2287,"obviously":2288,"events":2289,"excited":2290,"band":2291,"gon":2292,"enn":2293,"ude":2294,"fit":2295,"aste":2296,"narr":2297,"ina":2298,"issues":2299,"wer":2300,"repe":2301,"disappointing":2302,"example":2303,"James":2304,"agon":2305,"Bo":2306,"ides":2307,"girls":2308,"clearly":2309,"intri":2310,"suff":2311,"Or":2312,"setting":2313,"straight":2314,"later":2315,"apt":2316,"En":2317,"flat":2318,"ount":2319,"smart":2320,"bunch":2321,"arely":2322,"Ger":2323,"stick":2324,"histor":2325,"enty":2326,"country":2327,"total":2328,"const":2329,"emotions":2330,"key":2331,"includ":2332,"Fil":2333,"pack":2334,"disappointment":2335,"langu":2336,"sou":2337,"Me":2338,"Although":2339,"Then":2340,"satis":2341,"han":2342,"trans":2343,"voice":2344,"num":2345,"convin":2346,"mostly":2347,"cla":2348,"ding":2349,"joke":2350,"due":2351,"moving":2352,"execut":2353,"natur":2354,"gy":2355,"stun":2356,"personal":2357,"Let":2358,"fantasy":2359,"cial":2360,"needed":2361,"surprise":2362,"201":2363,"early":2364,"mi":2365,"pathetic":2366,"exciting":2367,"created":2368,"treat":2369,"cheesy":2370,"lice":2371,"und":2372,"picture":2373,"gri":2374,"famil":2375,"OR":2376,"ref":2377,"pilot":2378,"mystery":2379,"admit":2380,"points":2381,"question":2382,"........":2383,"middle":2384,"Bl":2385,"rede":2386,"wants":2387,"graph":2388,"els":2389,"Most":2390,"spent":2391,"shi":2392,"Lu":2393,"avoid":2394,"stere":2395,"Black":2396,"row":2397,"ze":2398,"wo":2399,"rodu":2400,"lar":2401,"television":2402,"Tr":2403,"anger":2404,"group":2405,"cru":2406,"pat":2407,"idi":2408,"ising":2409,"showing":2410,"cring":2411,"interested":2412,"appreciate":2413,"above":2414,"talk":2415,"ony":2416,"mosp":2417,"pped":2418,"possi":2419,"listen":2420,"His":2421,"arant":2422,"tries":2423,"space":2424,"background":2425,"aughter":2426,"free":2427,"gone":2428,"edge":2429,"America":2430,"ride":2431,"stereot":2432,"filled":2433,"meet":2434,"amp":2435,"literally":2436,"oose":2437,"iv":2438,"90":2439,"Christ":2440,"tiv":2441,"atmosp":2442,"comments":2443,"ison":2444,"ring":2445,"descri":2446,"seat":2447,"amount":2448,"language":2449,"feature":2450,"uses":2451,"aging":2452,"cers":2453,"nie":2454,"final":2455,"society":2456,"ideas":2457,"Co":2458,"Love":2459,"usion":2460,"VER":2461,"advent":2462,"200":2463,"Em":2464,"English":2465,"py":2466,"lim":2467,"missed":2468,"50":2469,"daughter":2470,"orge":2471,"theme":2472,"ball":2473,"god":2474,"Everything":2475,"intelligent":2476,"grow":2477,"mother":2478,"says":2479,"AR":2480,"brought":2481,"gore":2482,"makers":2483,"bar":2484,"refer":2485,"perhaps":2486,"screenplay":2487,"incredibly":2488,"Bat":2489,"nam":2490,"critic":2491,"elements":2492,"sug":2493,"100":2494,"accept":2495,"bust":2496,"bert":2497,"erial":2498,"check":2499,"editing":2500,"British":2501,"novel":2502,"sexual":2503,"carto":2504,"War":2505,"appear":2506,"express":2507,"suggest":2508,"ents":2509,"Gu":2510,"ining":2511,"Super":2512,"har":2513,"Rob":2514,"near":2515,"logy":2516,"stud":2517,"Story":2518,"superhero":2519,"LE":2520,"Ha":2521,"slight":2522,"sets":2523,"Unfortunately":2524,"box":2525,"pointless":2526,"anymore":2527,"dramatic":2528,"gust":2529,"iously":2530,"material":2531,"Season":2532,"becomes":2533,"powerful":2534,"bed":2535,"ched":2536,"blic":2537,"seasons":2538,"vice":2539,"rac":2540,"relationship":2541,"sick":2542,"musical":2543,"dru":2544,"lad":2545,"ask":2546,"Ma":2547,"mur":2548,"ged":2549,"appeal":2550,"sign":2551,"actions":2552,"social":2553,"medio":2554,"relig":2555,"spend":2556,"order":2557,"shots":2558,"hype":2559,"Pa":2560,"dream":2561,"paced":2562,"natural":2563,"fake":2564,"create":2565,"jump":2566,"pose":2567,"opening":2568,"supporting":2569,"means":2570,"ried":2571,"viewing":2572,"propag":2573,"Gr":2574,"value":2575,"elling":2576,"current":2577,"ability":2578,"songs":2579,"Cl":2580,"vest":2581,"holes":2582,"accent":2583,"otic":2584,"Fran":2585,"uine":2586,"imagine":2587,"learn":2588,"mes":2589,"impro":2590,"basically":2591,"speak":2592,"visuals":2593,"design":2594,"logical":2595,"VE":2596,"scare":2597,"pping":2598,"tale":2599,"icult":2600,"across":2601,"omin":2602,"romance":2603,"gun":2604,"difficult":2605,"Ed":2606,"ier":2607,"mb":2608,"content":2609,"culture":2610,"reviewers":2611,"paid":2612,"adapt":2613,"watchable":2614,"producers":2615,"Acting":2616,"general":2617,"released":2618,"hot":2619,"walked":2620,"Je":2621,"stunning":2622,"complex":2623,"memor":2624,"within":2625,"shown":2626,"docu":2627,"romantic":2628,"worked":2629,"genuine":2630,"capt":2631,"portrayed":2632,"Tur":2633,"eye":2634,"ail":2635,"intrigu":2636,"shoot":2637,"unity":2638,"drop":2639,"failed":2640,"fest":2641,"pull":2642,"Christian":2643,"bbish":2644,"King":2645,"hook":2646,"Qu":2647,"equ":2648,"propaganda":2649,"ices":2650,"period":2651,"sl":2652,"site":2653,"nonsense":2654,"atmosphere":2655,"Sam":2656,"badly":2657,"correct":2658,"Too":2659,"somewhat":2660,"throw":2661,"crazy":2662,"fying":2663,"pho":2664,"zomb":2665,"hear":2666,"crew":2667,"rend":2668,"oun":2669,"whe":2670,"eld":2671,"ene":2672,"unlike":2673,"missing":2674,"extra":2675,"third":2676,"stre":2677,"creep":2678,"rage":2679,"redeem":2680,"tired":2681,"prot":2682,"beautifully":2683,"wr":2684,"mediocre":2685,"gonna":2686,"rench":2687,"oh":2688,"crime":2689,"state":2690,"Direct":2691,"sla":2692,"sens":2693,"80":2694,"outstanding":2695,"including":2696,"accur":2697,"document":2698,"knows":2699,"OU":2700,"gay":2701,"lik":2702,"shed":2703,"greatest":2704,"fighting":2705,"living":2706,"By":2707,"LY":2708,"Thank":2709,"deserve":2710,"Bro":2711,"emb":2712,"Ad":2713,"SE":2714,"four":2715,"roy":2716,"brings":2717,"anks":2718,"sold":2719,"epic":2720,"search":2721,"host":2722,"cei":2723,"impressed":2724,"continue":2725,"ister":2726,"milli":2727,"gan":2728,"atta":2729,"convincing":2730,"High":2731,"round":2732,"happening":2733,"ently":2734,"Best":2735,"tension":2736,"var":2737,"continu":2738,"Sim":2739,"despite":2740,"credits":2741,"villain":2742,"meant":2743,"problems":2744,"particularly":2745,"connect":2746,"Ra":2747,"inary":2748,"iss":2749,"strange":2750,"refresh":2751,"David":2752,"views":2753,"Cap":2754,"filmed":2755,"comb":2756,"likable":2757,"taste":2758,"entertained":2759,"'.":2760,"outh":2761,"rich":2762,"cant":2763,"talented":2764,"invest":2765,"introdu":2766,"ival":2767,"sell":2768,"ury":2769,"subtle":2770,"Only":2771,"ban":2772,"wan":2773,"survi":2774,"release":2775,"gress":2776,"somehow":2777,"unless":2778,"directors":2779,"adults":2780,"cute":2781,"ping":2782,"parents":2783,"spot":2784,"rubbish":2785,"berg":2786,"mil":2787,"ceed":2788,"Fi":2789,"till":2790,"ug":2791,"EN":2792,"disgust":2793,"arrass":2794,"leads":2795,"Other":2796,"hus":2797,"oring":2798,"lin":2799,"Ge":2800,"intense":2801,"concl":2802,"Was":2803,"imp":2804,"stereotyp":2805,"number":2806,"az":2807,"?!":2808,"creative":2809,"12":2810,"scenery":2811,"quickly":2812,"Pr":2813,"force":2814,"ral":2815,"thers":2816,"Film":2817,"plenty":2818,"possibly":2819,"ius":2820,"flu":2821,"Nor":2822,"towards":2823,"husband":2824,"choice":2825,"represent":2826,"embarrass":2827,"ensive":2828,"ships":2829,"ik":2830,"running":2831,"oughly":2832,"buy":2833,"Sure":2834,"rec":2835,"ica":2836,"okay":2837,"Ali":2838,"gues":2839,"depress":2840,"painful":2841,"longer":2842,"adventure":2843,"Ben":2844,"whatever":2845,"progra":2846,"purpose":2847,"umes":2848,"foot":2849,"Hor":2850,"situations":2851,"BC":2852,"imm":2853,"project":2854,"anti":2855,"police":2856,"became":2857,"colle":2858,"ied":2859,"Did":2860,"urt":2861,"public":2862,"tern":2863,"Bra":2864,"jour":2865,"portrayal":2866,"leaves":2867,"appro":2868,"plots":2869,"cringe":2870,"Sm":2871,"strugg":2872,",\"":2873,"added":2874,"step":2875,"Mon":2876,"breath":2877,"killed":2878,"focus":2879,"iar":2880,"insp":2881,"unbelievable":2882,"distur":2883,"Pl":2884,"urther":2885,"Hope":2886,"catch":2887,"Wal":2888,"apart":2889,"justice":2890,"Definitely":2891,"cal":2892,"profess":2893,"date":2894,"working":2895,"screening":2896,"questions":2897,"claim":2898,"These":2899,"tv":2900,"impressive":2901,"mass":2902,"</":2903,"contain":2904,"packed":2905,"cartoon":2906,"realize":2907,"awk":2908,"finished":2909,"Sch":2910,"nearly":2911,"hood":2912,"adv":2913,"fron":2914,"omen":2915,"craft":2916,"Russ":2917,"aby":2918,"canc":2919,"stern":2920,"murder":2921,"II":2922,"Pro":2923,"violent":2924,"13":2925,"ula":2926,"regard":2927,"Her":2928,"IE":2929,"unk":2930,"fails":2931,"situation":2932,"dog":2933,"ances":2934,"unnecessary":2935,"Col":2936,"universe":2937,"wrote":2938,"Des":2939,"Sci":2940,"pra":2941,"developed":2942,"tract":2943,"protagon":2944,"normal":2945,"soph":2946,"flash":2947,"Peter":2948,"fra":2949,"odd":2950,"Indian":2951,"whether":2952,"town":2953,"animated":2954,"bel":2955,"compare":2956,"Che":2957,"bot":2958,"contro":2959,"historical":2960,"regret":2961,"ries":2962,"table":2963,"refreshing":2964,"Gre":2965,"max":2966,"dim":2967,"ctor":2968,"Sand":2969,"accurate":2970,"ib":2971,"engaging":2972,"aught":2973,"familiar":2974,"subst":2975,"indi":2976,"stri":2977,"Ama":2978,"ians":2979,"OM":2980,"among":2981,"gotten":2982,"Spider":2983,"Aw":2984,"nel":2985,"tom":2986,"recommended":2987,"ants":2988,"psycho":2989,"fr":2990,"pres":2991,"wanting":2992,"magic":2993,"produced":2994,"spectac":2995,"apparent":2996,"compared":2997,"ially":2998,"leading":2999,"ordinary":3000,"Big":3001,"changed":3002,"zero":3003,"str":3004,"confusing":3005,"older":3006,"Tru":3007,"bus":3008,"Dark":3009,"ulti":3010,"contri":3011,"comedies":3012,".)":3013,"load":3014,"test":3015,"Dead":3016,"kick":3017,"Everyone":3018,"hat":3019,"ager":3020,"common":3021,"hopes":3022,"Adam":3023,"comfort":3024,"belief":3025,":)":3026,"Look":3027,"soul":3028,"El":3029,"ously":3030,"CH":3031,"Ju":3032,"ives":3033,"arantino":3034,"photo":3035,"Ang":3036,"ogy":3037,"marvel":3038,"genius":3039,"figure":3040,"five":3041,"GO":3042,"ub":3043,"rew":3044,"theatre":3045,"details":3046,"lies":3047,"unfortunately":3048,"pet":3049,"zed":3050,"unrealistic":3051,"horri":3052,"inspir":3053,"costumes":3054,"Mel":3055,"Vi":3056,"asc":3057,"ogn":3058,"copy":3059,"gain":3060,"reve":3061,"sleep":3062,"thank":3063,"decis":3064,"hated":3065,"Tarantino":3066,"stal":3067,"erson":3068,"ctive":3069,"ender":3070,"wondering":3071,"uc":3072,"ener":3073,"Dan":3074,"Seriously":3075,"Show":3076,"avy":3077,"consist":3078,"documentary":3079,"lying":3080,"dont":3081,"bes":3082,"ott":3083,"delivers":3084,"sym":3085,"race":3086,"ivity":3087,"hooked":3088,"career":3089,"walk":3090,"creepy":3091,"personally":3092,"resp":3093,"Far":3094,"achie":3095,"gry":3096,"fire":3097,"nature":3098,"rap":3099,"Fin":3100,"thoroughly":3101,"sn":3102,"program":3103,"uro":3104,"anyway":3105,"ays":3106,"tort":3107,"faith":3108,"compelling":3109,"AS":3110,"Where":3111,"requ":3112,"sweet":3113,"asleep":3114,"utterly":3115,"multi":3116,"sters":3117,"grand":3118,"biggest":3119,"cul":3120,"Im":3121,"moved":3122,"gged":3123,"recogn":3124,"andom":3125,"Never":3126,"rup":3127,"ses":3128,"ilogy":3129,"credit":3130,"inno":3131,"BO":3132,"IL":3133,"Wow":3134,"politics":3135,"otherwise":3136,"Robert":3137,"relate":3138,"awkward":3139,"luck":3140,"dies":3141,"Ry":3142,"Sad":3143,"reach":3144,"indust":3145,"ruined":3146,"Instead":3147,"Paul":3148,"ths":3149,"boys":3150,"tells":3151,"40":3152,"tone":3153,"ital":3154,"medi":3155,"falls":3156,"eron":3157,"managed":3158,"Ano":3159,"progress":3160,"inc":3161,"eless":3162,"lacks":3163,"entious":3164,"nore":3165,"vot":3166,"See":3167,"Another":3168,"ifer":3169,"redeeming":3170,"MO":3171,"shock":3172,"mad":3173,"board":3174,"narrative":3175,"teach":3176,"ging":3177,"ham":3178,"beat":3179,"weren":3180,"stream":3181,"complain":3182,"ties":3183,"result":3184,"tears":3185,"office":3186,"mood":3187,"depict":3188,"Bar":3189,"mir":3190,"earth":3191,"Absolute":3192,"battle":3193,"slightly":3194,"deed":3195,"sitting":3196,"showed":3197,"ient":3198,"popular":3199,"fool":3200,"Christmas":3201,"intriguing":3202,"EVER":3203,"illiam":3204,"pacing":3205,"doll":3206,"cat":3207,"fear":3208,"further":3209,"graphy":3210,"comedic":3211,"fied":3212,"reasons":3213,"kills":3214,"ceived":3215,"Sorry":3216,"note":3217,"ening":3218,"kinda":3219,"Ok":3220,"ution":3221,"boot":3222,"desper":3223,"describe":3224,"Honest":3225,"likes":3226,"inspired":3227,"water":3228,"impossible":3229,"pieces":3230,"AD":3231,"barely":3232,"mote":3233,"neither":3234,"AM":3235,"Last":3236,"flow":3237,"Because":3238,"ades":3239,"witch":3240,"upon":3241,"Perhaps":3242,"specially":3243,"push":3244,"executed":3245,"ior":3246,"cinematic":3247,"Ri":3248,"Red":3249,"pan":3250,"Park":3251,"provo":3252,"disaster":3253,"corn":3254,"11":3255,"proper":3256,"Fe":3257,"Mus":3258,"Sa":3259,"chall":3260,"trilogy":3261,"Jim":3262,"bla":3263,"opport":3264,"perspect":3265,"agend":3266,"basic":3267,"theaters":3268,"phys":3269,"dialogues":3270,"Loved":3271,"touching":3272,"leaving":3273,"particular":3274,"hen":3275,"random":3276,"trust":3277,"quir":3278,"DC":3279,"fasc":3280,"ively":3281,"terror":3282,"following":3283,"fairly":3284,"Batman":3285,"Many":3286,"tar":3287,"Kevin":3288,"large":3289,"city":3290,"notch":3291,"pretentious":3292,"pul":3293,"oppo":3294,"brut":3295,"ampire":3296,"journey":3297,"places":3298,"draw":3299,"witty":3300,"3D":3301,"Aust":3302,"More":3303,"ded":3304,"elled":3305,"?\"":3306,"Fo":3307,"heroes":3308,"younger":3309,"udo":3310,"studi":3311,"industry":3312,"Honestly":3313,"dem":3314,"',":3315,"THIS":3316,"Mad":3317,"actresses":3318,"liber":3319,"knowing":3320,"shallow":3321,"ultim":3322,"ush":3323,"grit":3324,"generation":3325,"scares":3326,"dish":3327,"conclusion":3328,"sen":3329,"vict":3330,"account":3331,"bear":3332,"likely":3333,"empt":3334,"nail":3335,"disturbing":3336,"front":3337,"Mor":3338,"apo":3339,"shouldn":3340,"flaws":3341,"fill":3342,"names":3343,"rie":3344,"bul":3345,"Mur":3346,"memorable":3347,"aspects":3348,"adaptation":3349,"gang":3350,"rious":3351,"wanna":3352,"Still":3353,"relationships":3354,"thats":3355,"nowhere":3356,"emp":3357,"confused":3358,"Smith":3359,"Tra":3360,"sucks":3361,"mbers":3362,"Save":3363,"trad":3364,"Here":3365,"Ye":3366,"standard":3367,"damn":3368,"Ryan":3369,"smo":3370,"concer":3371,"everybody":3372,"killing":3373,"Lee":3374,"commer":3375,"1st":3376,"onder":3377,"considering":3378,"judge":3379,"del":3380,"ateur":3381,"mistake":3382,"scream":3383,"twice":3384,"drawn":3385,"compar":3386,"gers":3387,"Give":3388,"ech":3389,"moves":3390,"plus":3391,"media":3392,"absur":3393,"bland":3394,"rare":3395,"destroy":3396,"mentioned":3397,"zombie":3398,"gent":3399,"tough":3400,"decide":3401,"ify":3402,"scenar":3403,"laughter":3404,"William":3405,"lets":3406,"Americans":3407,"reminds":3408,"Ti":3409,"color":3410,"ises":3411,"heavy":3412,"inside":3413,"???":3414,"issue":3415,"World":3416,"million":3417,"irrit":3418,"trou":3419,"relev":3420,"breaking":3421,"reminded":3422,"feelings":3423,"alien":3424,"delivered":3425,"ather":3426,"block":3427,"thin":3428,"Jason":3429,"Par":3430,"themes":3431,"sequence":3432,"intelligence":3433,"graphic":3434,"Bond":3435,"Men":3436,"paint":3437,"Wood":3438,"mental":3439,"depend":3440,"Ber":3441,"Bill":3442,"ba":3443,"propri":3444,"German":3445,"BS":3446,"Out":3447,"imagination":3448,"itary":3449,"Mart":3450,"walking":3451,"approach":3452,"HO":3453,"lose":3454,"ds":3455,"vote":3456,"higher":3457,"Rom":3458,"Tim":3459,"gory":3460,"Bru":3461,"bomb":3462,"Having":3463,"femin":3464,"Scott":3465,"Night":3466,"dread":3467,"match":3468,"core":3469,"appears":3470,"formula":3471,"spirit":3472,"leng":3473,"Af":3474,"hardly":3475,"wed":3476,"izing":3477,"gover":3478,"Wil":3479,"appropri":3480,"seless":3481,"entirely":3482,"hands":3483,"dimens":3484,"suit":3485,"path":3486,"Charact":3487,"absurd":3488,"French":3489,"Pat":3490,"angry":3491,"exception":3492,"iment":3493,"Step":3494,"substance":3495,"terms":3496,"agenda":3497,"sil":3498,"travel":3499,"Mat":3500,"smile":3501,"ED":3502,"western":3503,"struct":3504,"connection":3505,"Two":3506,"amateur":3507,"thinks":3508,"occas":3509,"reveal":3510,"raid":3511,"mixed":3512,"terrific":3513,"comfortable":3514,"ters":3515,"Thr":3516,"storytelling":3517,"considered":3518,"spectacular":3519,"mm":3520,"venge":3521,"minor":3522,"award":3523,"audiences":3524,"brother":3525,"field":3526,"perspective":3527,"ourit":3528,"moral":3529,"stem":3530,"thrown":3531,"Bet":3532,"Euro":3533,"Hard":3534,"cross":3535,"vir":3536,"references":3537,"disgusting":3538,"protagonist":3539,"anced":3540,"beha":3541,"sounds":3542,"!\"":3543,"aa":3544,"dry":3545,"disc":3546,"Exc":3547,"Jones":3548,"fla":3549,"assu":3550,"ung":3551,"rip":3552,"killer":3553,"nu":3554,"app":3555,"vert":3556,"End":3557,"constantly":3558,"!)":3559,"aim":3560,"offer":3561,"professional":3562,"ape":3563,"ashing":3564,"surprisingly":3565,"mission":3566,"unexpected":3567,"building":3568,"70":3569,"yed":3570,"stood":3571,"oooo":3572,"whose":3573,"discover":3574,"lacking":3575,"humanity":3576,"members":3577,"acc":3578,"insult":3579,"onic":3580,"delight":3581,"iny":3582,"sw":3583,"loss":3584,"mally":3585,"phen":3586,"answ":3587,"AND":3588,"favourit":3589,"Absolutely":3590,"bs":3591,"values":3592,"spoilers":3593,"techno":3594,"grab":3595,"60":3596,"formation":3597,"anime":3598,"een":3599,"folks":3600,"changes":3601,"dimensional":3602,"Jenn":3603,"gic":3604,"Brad":3605,"VIE":3606,"cious":3607,"suppose":3608,"Bruce":3609,"hair":3610,"loves":3611,"overrated":3612,"flict":3613,"trailers":3614,"numb":3615,"adds":3616,"stuck":3617,"teenage":3618,"Highly":3619,"remark":3620,"secre":3621,"news":3622,"captiv":3623,"SO":3624,"games":3625,"immedi":3626,"ppy":3627,"recently":3628,"constant":3629,"famous":3630,"titles":3631,"intellect":3632,"phenomen":3633,"ns":3634,"ilo":3635,"apparently":3636,"surely":3637,"beauty":3638,"Way":3639,"iced":3640,"thus":3641,"premi":3642,"sake":3643,"wasting":3644,"crimin":3645,"George":3646,"Spi":3647,"opportunity":3648,"ES":3649,"Ep":3650,"ander":3651,"faces":3652,"Would":3653,"charming":3654,"Ale":3655,"za":3656,"Captain":3657,"insul":3658,"Jennifer":3659,"Cam":3660,"Law":3661,"Mi":3662,"TO":3663,"cir":3664,"eper":3665,"unfunny":3666,"irty":3667,"apan":3668,"aware":3669,"crow":3670,"affect":3671,"afraid":3672,"street":3673,"motiv":3674,"ished":3675,"enjoying":3676,"skip":3677,"grace":3678,"indeed":3679,"niest":3680,"Bur":3681,"successful":3682,"lay":3683,"soever":3684,"loving":3685,"qual":3686,"understanding":3687,"system":3688,"da":3689,"member":3690,"rupt":3691,"tran":3692,"laughable":3693,"Sar":3694,"exper":3695,"awards":3696,"mature":3697,"putting":3698,"pleasantly":3699,"Ph":3700,"iers":3701,"ost":3702,"Director":3703,"whatsoever":3704,"Terrible":3705,"caught":3706,"fold":3707,"mbl":3708,"attempts":3709,"hom":3710,"punch":3711,"lier":3712,"Cine":3713,"carry":3714,"spec":3715,"religious":3716,"ges":3717,"prefer":3718,"courage":3719,"slowly":3720,"IC":3721,"nud":3722,"vidu":3723,"visually":3724,"fault":3725,"motion":3726,"Dr":3727,"arc":3728,"Those":3729,"recor":3730,"enced":3731,"lazy":3732,"relevant":3733,"Such":3734,"avi":3735,"van":3736,"thanks":3737,"ody":3738,"Anyway":3739,"Amazing":3740,"AC":3741,"Day":3742,"bits":3743,"fash":3744,"meets":3745,"photography":3746,"Boring":3747,"Lit":3748,"fu":3749,"reck":3750,"base":3751,"dan":3752,"blown":3753,"fascin":3754,"offic":3755,"difference":3756,"shocked":3757,"business":3758,"ilt":3759,"presented":3760,"nical":3761,"surprising":3762,"behavi":3763,"educ":3764,"met":3765,"Beaut":3766,"empty":3767,"excuse":3768,"girlfriend":3769,"frust":3770,"nomin":3771,"manages":3772,"held":3773,"Avoid":3774,"acts":3775,"overly":3776,"thrilling":3777,"drug":3778,"wars":3779,"grat":3780,"comput":3781,"succeed":3782,"individu":3783,"Frank":3784,"favourite":3785,"Bre":3786,"Ac":3787,"Jes":3788,"sucked":3789,"funniest":3790,"generally":3791,"orgeous":3792,"military":3793,"wind":3794,"explan":3795,"victim":3796,"Europe":3797,"Get":3798,"yn":3799,"ork":3800,"grew":3801,"BE":3802,"reboot":3803,"summer":3804,"ube":3805,"attract":3806,"notice":3807,"spin":3808,"creating":3809,"Jackson":3810,"wel":3811,"wall":3812,"199":3813,"Once":3814,"Russian":3815,"soap":3816,"product":3817,"deserved":3818,"explos":3819,"asha":3820,"mins":3821,"offensive":3822,"Life":3823,"appropriate":3824,"wow":3825,"forgettable":3826,"stereotypes":3827,"fashion":3828,"Japan":3829,"pse":3830,"Rock":3831,"Action":3832,"Dani":3833,"acy":3834,"Enjoy":3835,"Dra":3836,"Fun":3837,"mouth":3838,"sal":3839,"vul":3840,"outside":3841,"comics":3842,"stopped":3843,"eth":3844,"scient":3845,"vampire":3846,"aside":3847,"turning":3848,"Kid":3849,"scared":3850,"agger":3851,"wooden":3852,"control":3853,"lessly":3854,"Steve":3855,"LOVE":3856,"genuinely":3857,"facts":3858,"multiple":3859,"remote":3860,"somewhere":3861,"nudity":3862,"filming":3863,"gem":3864,"ified":3865,"sadly":3866,"popcorn":3867,"Anyone":3868,"Martin":3869,"depressing":3870,"artistic":3871,"?)":3872,"sour":3873,"intended":3874,"conflict":3875,"shocking":3876,"allowed":3877,"torture":3878,"Wonder":3879,"anted":3880,"ledge":3881,"blockbust":3882,"Ghost":3883,"century":3884,"tre":3885,"wash":3886,"personality":3887,"follows":3888,"Despite":3889,"stage":3890,"target":3891,"><":3892,"Could":3893,"Han":3894,"kish":3895,"atter":3896,"ites":3897,"asked":3898,"ID":3899,"satisfying":3900,"Sandler":3901,"ju":3902,"promising":3903,"agers":3904,"company":3905,"House":3906,"rey":3907,"immediately":3908,"Sun":3909,"mach":3910,"Angel":3911,"umbl":3912,"minator":3913,"aked":3914,"Excellent":3915,"Though":3916,"lived":3917,"logic":3918,"2nd":3919,"Sal":3920,"aga":3921,"ghost":3922,"train":3923,"bringing":3924,"pleasant":3925,"YOU":3926,"six":3927,"provoking":3928,"ague":3929,"addition":3930,"improve":3931,"gorgeous":3932,"sto":3933,"share":3934,"ademy":3935,"dance":3936,"Hol":3937,"inv":3938,"miser":3939,"cancel":3940,"praise":3941,"advert":3942,"convers":3943,"Girl":3944,"dden":3945,"sess":3946,"dete":3947,"psychological":3948,"ands":3949,"charm":3950,"singing":3951,"sister":3952,"below":3953,"nostal":3954,"grown":3955,"balance":3956,"chick":3957,"excite":3958,"pathy":3959,"AY":3960,"fab":3961,"East":3962,"ðŸ":3963,"Had":3964,"ax":3965,"lover":3966,"clean":3967,"climax":3968,"itt":3969,"def":3970,"grad":3971,"pleasure":3972,"clichés":3973,"Watching":3974,"drugs":3975,"hang":3976,"arth":3977,"yeah":3978,"grade":3979,"surprises":3980,"element":3981,"local":3982,"danger":3983,"defin":3984,"vengers":3985,"pract":3986,"impact":3987,"Am":3988,"inner":3989,"DO":3990,"Off":3991,"Tot":3992,"passion":3993,"various":3994,"MOVIE":3995,"cate":3996,"pen":3997,"wide":3998,"Juli":3999,"revol":4000,"sitcom":4001,"baby":4002,"research":4003,"unfold":4004,"assic":4005,"wont":4006,"Finally":4007,"hid":4008,"hasn":4009,"choices":4010,"Gar":4011,"remain":4012,"becoming":4013,"starting":4014,"channel":4015,"reflect":4016,"tun":4017,"Thanks":4018,"iller":4019,"position":4020,"earlier":4021,"authen":4022,"monster":4023,"achieve":4024,"abs":4025,"blind":4026,"Cra":4027,"bri":4028,"revenge":4029,"illa":4030,"ellar":4031,"placed":4032,"highlight":4033,"brilliantly":4034,"cold":4035,"ka":4036,"manner":4037,"umps":4038,"......":4039,"forever":4040,"deeply":4041,"Time":4042,"uff":4043,"ww":4044,"stret":4045,"ization":4046,"childhood":4047,"govern":4048,"suspect":4049,"45":4050,"Saw":4051,"ases":4052,"realism":4053,"80s":4054,"chase":4055,"ups":4056,"Being":4057,"humans":4058,"computer":4059,"Ray":4060,"andy":4061,"icking":4062,"pile":4063,"Does":4064,"ALL":4065,"gripping":4066,"Old":4067,"nicely":4068,"CU":4069,"gross":4070,"junk":4071,"received":4072,"ald":4073,"rock":4074,"soldiers":4075,"rob":4076,"dragged":4077,"rushed":4078,"backs":4079,"excitement":4080,"hill":4081,"rarely":4082,"va":4083,"init":4084,"onto":4085,"teenagers":4086,"planet":4087,"influ":4088,"related":4089,"majority":4090,"dig":4091,"lovely":4092,"locations":4093,"phenomenal":4094,"PO":4095,"Tor":4096,"chill":4097,"uninteresting":4098,"nobody":4099,"repetit":4100,"ugly":4101,"sudden":4102,"trick":4103,"coher":4104,"rence":4105,"Ob":4106,"ildish":4107,"serv":4108,"prison":4109,"crying":4110,"authentic":4111,"Tit":4112,"mary":4113,"suck":4114,"inese":4115,"cares":4116,"imagin":4117,"impression":4118,"loose":4119,"counter":4120,"promise":4121,"atic":4122,"cele":4123,"Turkish":4124,"fly":4125,"itive":4126,"stands":4127,"continues":4128,"Poor":4129,"ana":4130,"sli":4131,"whel":4132,"Are":4133,"Both":4134,"road":4135,"finding":4136,"network":4137,"respons":4138,"Fest":4139,"hip":4140,"trip":4141,"inspiring":4142,"realized":4143,"drink":4144,"Jon":4145,"maker":4146,"herself":4147,"philo":4148,"slap":4149,"scenario":4150,"dad":4151,"gold":4152,"irritating":4153,"fights":4154,"explained":4155,"Stephen":4156,"technology":4157,"Each":4158,"ee":4159,"ga":4160,"ilities":4161,"arent":4162,"origin":4163,"tedious":4164,"levels":4165,"Spiel":4166,"born":4167,"sequels":4168,"frank":4169,"Up":4170,"ONE":4171,"mine":4172,"rd":4173,"originality":4174,"struggle":4175,"Que":4176,"wil":4177,"information":4178,"ulous":4179,"minim":4180,"gling":4181,"Without":4182,"villains":4183,"picked":4184,"tho":4185,"stunt":4186,"amusing":4187,"sexy":4188,"aliens":4189,"quirky":4190,",,":4191,"Dam":4192,"HBO":4193,"UT":4194,"return":4195,"suspenseful":4196,"length":4197,"ahead":4198,"ruin":4199,"anticip":4200,"Ham":4201,"iet":4202,"pun":4203,"vor":4204,"chore":4205,"root":4206,"dreadful":4207,"Cage":4208,"rad":4209,"wart":4210,"surround":4211,"finds":4212,"brutal":4213,"Afric":4214,"York":4215,"advice":4216,"teens":4217,"Cast":4218,"dress":4219,"chop":4220,"childish":4221,"powers":4222,"ultimately":4223,"Have":4224,"inted":4225,"fits":4226,"wing":4227,"bigger":4228,"warming":4229,"graphics":4230,"Mag":4231,"eks":4232,"philosoph":4233,"iro":4234,"challeng":4235,"Kore":4236,"Plot":4237,"biz":4238,"thes":4239,"proves":4240,"sport":4241,"ctions":4242,"insight":4243,"cape":4244,"ki":4245,"wild":4246,"choose":4247,"anywhere":4248,"puts":4249,"Eli":4250,"Fant":4251,"Gold":4252,"Pri":4253,"Pol":4254,"aky":4255,"complic":4256,"features":4257,"religion":4258,"ints":4259,"Stre":4260,"hadn":4261,"followed":4262,"hyped":4263,"Lon":4264,"skills":4265,"safe":4266,"FX":4267,"UN":4268,"WW":4269,"rick":4270,"Fam":4271,"spl":4272,"proud":4273,"months":4274,"secret":4275,"Spielberg":4276,"Nic":4277,"RI":4278,"edy":4279,"elle":4280,"produce":4281,"normally":4282,"drivel":4283,"iff":4284,"ignore":4285,"shooting":4286,"Den":4287,"Mark":4288,"atro":4289,"adays":4290,"scars":4291,"Harry":4292,"ston":4293,"entially":4294,"charis":4295,"relat":4296,"escape":4297,"loy":4298,"nold":4299,"stayed":4300,"avail":4301,"evol":4302,"invent":4303,"commit":4304,"keeping":4305,"India":4306,"alive":4307,"shad":4308,"uncomfortable":4309,"distr":4310,"crappy":4311,"cliche":4312,"cried":4313,"fascinating":4314,"guessing":4315,"studio":4316,"Bla":4317,"Especially":4318,"whom":4319,"ples":4320,"drag":4321,"Chinese":4322,"Bas":4323,"Mal":4324,"Ram":4325,"Sy":4326,"arily":4327,"mainly":4328,"hopefully":4329,"Worst":4330,"ai":4331,"hey":4332,"plaus":4333,"amazed":4334,"producer":4335,"legend":4336,"college":4337,"Richar":4338,"opposite":4339,"Alex":4340,"Rid":4341,"kins":4342,"warm":4343,"hearted":4344,"THING":4345,"haters":4346,"Beautiful":4347,"udes":4348,"magn":4349,"presence":4350,"liberal":4351,"evid":4352,"fat":4353,"vs":4354,"deeper":4355,"000":4356,"Boy":4357,"blah":4358,"government":4359,"orm":4360,"mom":4361,"197":4362,"Yeah":4363,"itude":4364,"kets":4365,"awn":4366,"party":4367,"Bob":4368,"Gi":4369,"stink":4370,"Which":4371,"ticket":4372,"hes":4373,"theless":4374,"alle":4375,"prepare":4376,"speech":4377,"Canad":4378,"pulled":4379,"explanation":4380,"Game":4381,"Yet":4382,"thous":4383,"Sadly":4384,"Episo":4385,"ems":4386,"speaking":4387,"contains":4388,"Lots":4389,"hits":4390,"humorous":4391,"bright":4392,"erely":4393,"unting":4394,"lower":4395,"Thor":4396,"desc":4397,"Lost":4398,"hurt":4399,"ashamed":4400,"crowd":4401,"18":4402,"OF":4403,"arre":4404,"oft":4405,"sembl":4406,"Chan":4407,"creators":4408,"REAL":4409,"connected":4410,"Jess":4411,"relie":4412,"aries":4413,"compla":4414,"minis":4415,"answer":4416,"passed":4417,"driven":4418,"energy":4419,"Take":4420,"cars":4421,"edi":4422,"racist":4423,"contrived":4424,"require":4425,"Fer":4426,"ilst":4427,"filmmakers":4428,"versity":4429,"USA":4430,"Jesus":4431,"MCU":4432,"None":4433,"object":4434,"udos":4435,"Bollywood":4436,"Kate":4437,"cup":4438,"rive":4439,"animals":4440,"Robin":4441,"equally":4442,"died":4443,"preview":4444,"commun":4445,"mindless":4446,"IMDB":4447,"Austral":4448,"fal":4449,"ened":4450,"exagger":4451,"willing":4452,"critical":4453,"location":4454,"Shame":4455,"gritty":4456,"London":4457,"Part":4458,"UK":4459,"obsess":4460,"types":4461,"Characters":4462,"Japanese":4463,"mory":4464,"intent":4465,"dynam":4466,"ski":4467,"seconds":4468,"emotionally":4469,"Festival":4470,"Thom":4471,"former":4472,"wonderfully":4473,"monsters":4474,"ficial":4475,"Jur":4476,"memory":4477,"noticed":4478,"terribly":4479,"Fox":4480,"3rd":4481,"Pre":4482,"Space":4483,"food":4484,"gag":4485,"independ":4486,"standards":4487,"preach":4488,"insane":4489,"flicks":4490,"corny":4491,"eventually":4492,"brothers":4493,"intellectual":4494,"Daniel":4495,"Pi":4496,"format":4497,"witness":4498,"commercial":4499,"bought":4500,"rema":4501,"envi":4502,"drive":4503,"Khan":4504,"porn":4505,"student":4506,"rors":4507,"comparison":4508,"Hen":4509,"Sk":4510,"tight":4511,"satisfied":4512,"decision":4513,"blockbuster":4514,"Rus":4515,"cell":4516,"pal":4517,"uit":4518,"nier":4519,"Gal":4520,"stellar":4521,"cher":4522,"cock":4523,"effective":4524,"heads":4525,"Green":4526,"available":4527,"Lau":4528,"glor":4529,"paying":4530,"zzzz":4531,"trouble":4532,"bility":4533,"ima":4534,"ford":4535,"accom":4536,"phone":4537,"detective":4538,"alling":4539,"gia":4540,"hur":4541,"asp":4542,"Okay":4543,"Richard":4544,"Dep":4545,"ray":4546,"ya":4547,"chuck":4548,"conve":4549,"crafted":4550,"Since":4551,"tor":4552,"knowledge":4553,"traged":4554,"appy":4555,"scripts":4556,"Sometimes":4557,"marke":4558,"sky":4559,"focused":4560,"bloody":4561,"limited":4562,"images":4563,"parody":4564,"Hu":4565,"hon":4566,"tense":4567,"provid":4568,"execution":4569,"growing":4570,"Fl":4571,"dated":4572,"preh":4573,"service":4574,"adding":4575,"harsh":4576,"remotely":4577,"Family":4578,"Cru":4579,"blame":4580,"gut":4581,"anity":4582,"chur":4583,"belong":4584,"forgotten":4585,"198":4586,"satire":4587,"desperate":4588,"Ru":4589,"itional":4590,"exic":4591,"understood":4592,"pair":4593,"Max":4594,"liners":4595,"bore":4596,"White":4597,"politically":4598,"falling":4599,"footage":4600,"bottom":4601,"dancing":4602,"Mac":4603,"Mexic":4604,"lacked":4605,"weekend":4606,"idiots":4607,"Alien":4608,"Williams":4609,"frankly":4610,"Abra":4611,"enter":4612,"painfully":4613,"install":4614,"Little":4615,"25":4616,"Mary":4617,"Person":4618,"bian":4619,"saved":4620,"named":4621,"massive":4622,"Probably":4623,"coherent":4624,"environ":4625,"Amy":4626,"Iron":4627,"hh":4628,"zil":4629,"lovers":4630,"nowadays":4631,"mysterious":4632,"Plus":4633,"bizarre":4634,"****":4635,"frame":4636,"Ir":4637,"LA":4638,"WH":4639,"xious":4640,"threat":4641,"IG":4642,"Steven":4643,"captivating":4644,"Pan":4645,"South":4646,"cash":4647,"Their":4648,"opera":4649,"green":4650,"capable":4651,"portraying":4652,"anybody":4653,"Keep":4654,"families":4655,"14":4656,"Earth":4657,"Oscars":4658,"Rose":4659,"anu":4660,"proved":4661,"Mir":4662,"zen":4663,"lol":4664,"lighting":4665,"lady":4666,"extraordinary":4667,"oul":4668,"superior":4669,"biased":4670,"accompl":4671,"store":4672,"reviewer":4673,"Watched":4674,"Vis":4675,"addict":4676,"tire":4677,"ificent":4678,"source":4679,"City":4680,"Hel":4681,"La":4682,"cable":4683,"prequ":4684,"binge":4685,"sta":4686,"weight":4687,"author":4688,"Terminator":4689,"................":4690,"investig":4691,"Hopefully":4692,"remarkable":4693,"GE":4694,"trek":4695,"fairy":4696,"Actually":4697,"Cameron":4698,"ena":4699,"funnier":4700,"minded":4701,"covery":4702,"Guy":4703,"Cle":4704,"demon":4705,"community":4706,"subtitles":4707,"stupidity":4708,"gging":4709,"winning":4710,"explosions":4711,"16":4712,"Cha":4713,"Pac":4714,"Witch":4715,"cow":4716,"text":4717,"corpor":4718,"interpret":4719,"Johnny":4720,"complicated":4721,"UST":4722,"devil":4723,"finale":4724,"timing":4725,"ipul":4726,"appealing":4727,"Avengers":4728,"Jane":4729,"gate":4730,"accents":4731,"streng":4732,"shadow":4733,"Kat":4734,"fing":4735,"built":4736,"generic":4737,"undred":4738,"embarrassing":4739,"Again":4740,"ben":4741,"kno":4742,"anal":4743,"helped":4744,"exceptional":4745,"Otherwise":4746,"plausible":4747,"BBC":4748,"Naz":4749,"boo":4750,"glo":4751,"Johnson":4752,"appearance":4753,"guns":4754,"West":4755,"national":4756,"heal":4757,"helps":4758,"alloween":4759,"decisions":4760,"Lord":4761,"Pix":4762,"Van":4763,"rig":4764,"depi":4765,"friendship":4766,"topic":4767,"rolling":4768,"collection":4769,"raw":4770,"insulting":4771,"Jessica":4772,"hr":4773,"compe":4774,"minds":4775,"technical":4776,"idiotic":4777,"virt":4778,"circ":4779,"Jurassic":4780,"useless":4781,"vate":4782,"ency":4783,"unwatchable":4784,"bute":4785,"Movies":4786,"holds":4787,"burn":4788,"Hell":4789,"mble":4790,"irth":4791,"arts":4792,"racism":4793,"mare":4794,"asking":4795,"via":4796,"goof":4797,"manipul":4798,"dramas":4799,"festival":4800,"combination":4801,"repetitive":4802,"zon":4803,"ablish":4804,"intention":4805,"urs":4806,"prote":4807,"steal":4808,"decade":4809,"ders":4810,"process":4811,"homo":4812,"busters":4813,"attractive":4814,"fabulous":4815,"ja":4816,"statement":4817,"Brazil":4818,"qualities":4819,"Must":4820,"TR":4821,"nation":4822,"saga":4823,"rell":4824,"argu":4825,"thoughts":4826,"umbs":4827,"behavior":4828,"Pal":4829,"Pitt":4830,"hundred":4831,"appla":4832,"sterday":4833,"experienced":4834,"lucky":4835,"web":4836,"messages":4837,"meaningful":4838,"latest":4839,"WAT":4840,"nal":4841,"chos":4842,"quiet":4843,"ograph":4844,"Seth":4845,"Trump":4846,"Joe":4847,"Second":4848,"portrays":4849,"tragedy":4850,"fright":4851,"door":4852,"believ":4853,"suffer":4854,"vit":4855,"saving":4856,"price":4857,"Allen":4858,"occur":4859,"commentary":4860,"breathtaking":4861,"Wa":4862,"athe":4863,"endless":4864,"spy":4865,"creativity":4866,"regular":4867,"nominated":4868,"gratuit":4869,"NY":4870,"Ron":4871,"Bay":4872,"establish":4873,"changing":4874,"Episode":4875,"false":4876,"ara":4877,"evening":4878,"supernatural":4879,"boredom":4880,"learned":4881,"remains":4882,"Cor":4883,"Jud":4884,"Much":4885,"vast":4886,"stated":4887,"deter":4888,"serial":4889,"failure":4890,"fet":4891,"Sarah":4892,"cise":4893,"oper":4894,"fix":4895,"strongly":4896,"Come":4897,"meta":4898,"depart":4899,"dislike":4900,"blowing":4901,"relatable":4902,"Henry":4903,"manage":4904,"achel":4905,"24":4906,"ggling":4907,"asing":4908,"compet":4909,"disagree":4910,"ignor":4911,"appreciated":4912,"bearable":4913,"Ba":4914,"bound":4915,"tend":4916,"\")":4917,"Mid":4918,"resol":4919,"posed":4920,"warned":4921,"corrupt":4922,"twisted":4923,"signific":4924,"introduced":4925,"AW":4926,"OO":4927,"rul":4928,"unknown":4929,"opt":4930,"Anna":4931,"brief":4932,"Nol":4933,"Nice":4934,"organ":4935,"itation":4936,"umped":4937,"Uni":4938,"Halloween":4939,"Lars":4940,"PC":4941,"park":4942,"indul":4943,"capture":4944,"Hun":4945,"jer":4946,"foreign":4947,"cruel":4948,"besides":4949,"physical":4950,"Academy":4951,"weeks":4952,"Harris":4953,"Kill":4954,"Pret":4955,"drun":4956,"shine":4957,"offers":4958,"Brilliant":4959,"attack":4960,"eat":4961,"ration":4962,"stic":4963,"iles":4964,"(\"":4965,"IF":4966,"Nick":4967,"dare":4968,"melo":4969,"appeared":4970,"edited":4971,"vibe":4972,"omination":4973,"ading":4974,"clue":4975,"ception":4976,"sentiment":4977,"skin":4978,"zombies":4979,"innocent":4980,"Krist":4981,"cgi":4982,"ooper":4983,"survive":4984,"Better":4985,"Personally":4986,"Ty":4987,"mill":4988,"tive":4989,"provide":4990,"angle":4991,"tural":4992,"destroyed":4993,"aven":4994,"somebody":4995,"context":4996,"broken":4997,"Stewart":4998,"Trans":4999,"Woody":5000,"independent":5001,"edom":5002,"beth":5003,"contem":5004,"discuss":5005,"premiere":5006,"HA":5007,"offended":5008,"halfway":5009,"suffering":5010,"Pixar":5011,"crude":5012,"Matt":5013,"Sher":5014,"gle":5015,"mild":5016,"nut":5017,"sides":5018,"tt":5019,"Charlie":5020,"vulgar":5021,"shar":5022,"everywhere":5023,"iest":5024,"lesson":5025,"magical":5026,"Writ":5027,"Your":5028,"lust":5029,"sight":5030,"perfection":5031,"mainstream":5032,"teenager":5033,"accident":5034,"Office":5035,"Hill":5036,"neigh":5037,"Str":5038,"peace":5039,"seemingly":5040,"----":5041,"captured":5042,"mistakes":5043,"involving":5044,"Horrible":5045,"numbers":5046,"EL":5047,"gal":5048,"rina":5049,"flop":5050,"runs":5051,"Perfect":5052,"repeated":5053,"Music":5054,"Bel":5055,"Full":5056,"Run":5057,"hearing":5058,"Int":5059,"sheer":5060,"hoped":5061,"dollars":5062,"relief":5063,"gratuitous":5064,"itions":5065,"ady":5066,"asty":5067,"ache":5068,"begins":5069,"winner":5070,"dealing":5071,".,":5072,"Gra":5073,"nic":5074,"factor":5075,"assume":5076,"magnificent":5077,"Frid":5078,"rix":5079,"feat":5080,"idiot":5081,"horribly":5082,"fare":5083,"lax":5084,"tack":5085,"scripted":5086,"ANY":5087,"Awful":5088,"suddenly":5089,"dirty":5090,"nes":5091,"tons":5092,"army":5093,"irk":5094,"expectation":5095,"underrated":5096,"waited":5097,"curious":5098,"chose":5099,"calling":5100,"fortunate":5101,"Luke":5102,"stereotypical":5103,"cris":5104,"anne":5105,"altern":5106,"Chuck":5107,"formers":5108,"combined":5109,"consistent":5110,"whelming":5111,"flo":5112,"wreck":5113,"ators":5114,"Ford":5115,"credible":5116,"Christop":5117,"WATCH":5118,"Niro":5119,"sin":5120,"ann":5121,"rian":5122,"necessarily":5123,"gender":5124,"stom":5125,"lied":5126,"ishing":5127,"began":5128,"inosa":5129,"Worth":5130,"Enter":5131,"Ka":5132,"hide":5133,"agent":5134,"yesterday":5135,"tragic":5136,"2019":5137,"thrillers":5138,"196":5139,"tedly":5140,"meaningless":5141,"imaginative":5142,"marketing":5143,"lon":5144,"ued":5145,"pictures":5146,"broad":5147,"profound":5148,"millions":5149,"bag":5150,"indie":5151,"iling":5152,"starring":5153,"delivery":5154,"About":5155,"repeat":5156,"controvers":5157,"concerned":5158,"Abrams":5159,"depiction":5160,"Mars":5161,"Und":5162,"yr":5163,"cha":5164,"compreh":5165,"plane":5166,"camp":5167,"Horror":5168,"Obvious":5169,"99":5170,"Sky":5171,"pity":5172,"paper":5173,"ville":5174,"17":5175,"Ken":5176,"Knight":5177,"Pot":5178,"outs":5179,"olf":5180,"pati":5181,"dreams":5182,"card":5183,"students":5184,"Truly":5185,"Miss":5186,"Oli":5187,"Pho":5188,"TER":5189,"incre":5190,"issa":5191,"ende":5192,"icle":5193,"pleased":5194,"complaining":5195,"Lawrence":5196,"Eastwood":5197,"uel":5198,"maint":5199,"colour":5200,"Christopher":5201,"App":5202,"fy":5203,"resul":5204,"plete":5205,"prin":5206,"record":5207,"machine":5208,"Fantastic":5209,"chosen":5210,"BUT":5211,"forgot":5212,"ortion":5213,"Comedy":5214,"Friday":5215,"ners":5216,"lam":5217,"comparing":5218,"memories":5219,"screaming":5220,"hidden":5221,"Back":5222,"Sta":5223,"loo":5224,"rous":5225,"relax":5226,"prove":5227,"served":5228,"guarant":5229,"image":5230,"oman":5231,"user":5232,"include":5233,"costs":5234,"Ig":5235,"vides":5236,"doctor":5237,"cases":5238,"figured":5239,"expression":5240,"Free":5241,"Vin":5242,"nap":5243,"trend":5244,"disbelief":5245,"voices":5246,"Almost":5247,"Sur":5248,"bon":5249,"bang":5250,"jay":5251,"worry":5252,"answers":5253,"pray":5254,"accu":5255,"circum":5256,"thro":5257,"reaction":5258,"liking":5259,"shaky":5260,"heck":5261,"everyday":5262,"treated":5263,"environment":5264,"maintain":5265,"hating":5266,"resembl":5267,"orable":5268,"abor":5269,"ift":5270,"upset":5271,"hole":5272,"blue":5273,"izes":5274,"illion":5275,"Du":5276,"dom":5277,"lor":5278,"Ital":5279,"serve":5280,"!!!!!":5281,"leader":5282,"bothered":5283,"apocal":5284,"Mer":5285,"wis":5286,"remakes":5287,"associ":5288,"youth":5289,"finest":5290,"prepared":5291,"Long":5292,"Rachel":5293,"andon":5294,"toler":5295,"spending":5296,"spoiler":5297,"ountain":5298,"stunts":5299,"Bes":5300,"Hop":5301,"Joker":5302,"attitude":5303,"syn":5304,"annoyed":5305,"angles":5306,"Lucas":5307,"expressions":5308,"True":5309,"Queen":5310,"BT":5311,"gru":5312,"deb":5313,"tear":5314,"Someone":5315,"freedom":5316,"handed":5317,"Spiderman":5318,"Lyn":5319,"MA":5320,"Top":5321,"switch":5322,"asure":5323,"previews":5324,"therefore":5325,"clothes":5326,"tonight":5327,"Battle":5328,"criticism":5329,"stomach":5330,"Min":5331,"OD":5332,"escap":5333,"buff":5334,"feminist":5335,"stretch":5336,"Sil":5337,"Wall":5338,"tripe":5339,"Sus":5340,"jointed":5341,"vari":5342,"nostalgia":5343,"RA":5344,"Twil":5345,"llen":5346,"cops":5347,"individual":5348,"Obviously":5349,"ano":5350,"classics":5351,"Unlike":5352,"experiences":5353,"ichol":5354,"roller":5355,"flawless":5356,"Basically":5357,"icide":5358,"forth":5359,"rog":5360,"handle":5361,"hyster":5362,"Fr":5363,"demo":5364,"expl":5365,"desire":5366,"nightmare":5367,"2018":5368,"Superman":5369,"Twilight":5370,"Res":5371,"Val":5372,"ey":5373,"sole":5374,"phy":5375,"relative":5376,"THAT":5377,"included":5378,"struggles":5379,"flashbacks":5380,"circumst":5381,"Bul":5382,"Rick":5383,"Shi":5384,"hall":5385,"ji":5386,"Asian":5387,"internet":5388,"Blood":5389,"African":5390,"Nichol":5391,"rely":5392,"whilst":5393,"heavi":5394,"provides":5395,"guest":5396,"market":5397,"Breaking":5398,"welcome":5399,"hun":5400,"enge":5401,"central":5402,"sensitive":5403,"Rod":5404,"uous":5405,"indu":5406,"agre":5407,"landsc":5408,"fictional":5409,"strength":5410,"ION":5411,"SR":5412,"bond":5413,"online":5414,"noon":5415,"Sean":5416,"opinions":5417,"captures":5418,"occasion":5419,"installment":5420,"poster":5421,"speed":5422,"Jeff":5423,"embarrassed":5424,"Check":5425,"Melissa":5426,"rant":5427,"vy":5428,"uted":5429,"inte":5430,"Stone":5431,"darker":5432,"Willis":5433,"demand":5434,"slapstick":5435,"PLE":5436,"cook":5437,"mend":5438,"skept":5439,"unusual":5440,"noxious":5441,"blat":5442,"Phil":5443,"category":5444,"gags":5445,"vac":5446,"lif":5447,"racial":5448,"losing":5449,"udd":5450,"creates":5451,"creatures":5452,"VERY":5453,"Ghostbusters":5454,"atives":5455,"shines":5456,"artist":5457,"ousy":5458,"oles":5459,"giant":5460,"Ree":5461,"Rey":5462,"colors":5463,"engaged":5464,"bbed":5465,"countries":5466,"acceptable":5467,"Looking":5468,"Paris":5469,"Gib":5470,"hab":5471,"squ":5472,"debut":5473,"flawed":5474,"Del":5475,"Kudos":5476,"PG":5477,"feed":5478,"weap":5479,"Complete":5480,"cultural":5481,"Ap":5482,"San":5483,"batt":5484,"tast":5485,"ifi":5486,"Stan":5487,"excess":5488,"decades":5489,"techni":5490,"properly":5491,"benef":5492,"Pretty":5493,"Jam":5494,"pecial":5495,"onsens":5496,"cliches":5497,"currently":5498,"invested":5499,"''":5500,"fif":5501,"gin":5502,"pool":5503,"zilla":5504,"scale":5505,"sacri":5506,"warn":5507,"efforts":5508,"Bef":5509,"Dou":5510,"Gen":5511,"Rog":5512,"bab":5513,"page":5514,"otten":5515,"spider":5516,"touches":5517,"Emma":5518,"Fire":5519,"Has":5520,"Moo":5521,"dinosa":5522,"gment":5523,"soft":5524,"intrigue":5525,"SEE":5526,"Patrick":5527,"Before":5528,"candy":5529,"disjointed":5530,"brave":5531,"struggling":5532,"miserably":5533,"UL":5534,"ko":5535,"Think":5536,"iring":5537,"performed":5538,"coaster":5539,"Death":5540,"tickets":5541,"study":5542,"Eliza":5543,"atrocious":5544,"Nolan":5545,"Brie":5546,"asher":5547,"ram":5548,"viewed":5549,"described":5550,"Wilson":5551,"Moore":5552,"Billy":5553,"lection":5554,"hack":5555,"function":5556,"Clint":5557,"Mike":5558,"NE":5559,"Pic":5560,"stone":5561,"bell":5562,"oph":5563,"perform":5564,"downhill":5565,"Keanu":5566,"dangerous":5567,"Totally":5568,"Korean":5569,"BLE":5570,"Satur":5571,"itiz":5572,"shall":5573,"Christians":5574,"cancelled":5575,"Jedi":5576,"bank":5577,"sey":5578,"warning":5579,"Anne":5580,"Something":5581,"Russell":5582,"Cons":5583,"rout":5584,"erous":5585,"Things":5586,"obnoxious":5587,"lights":5588,"spoof":5589,"importantly":5590,"sophistic":5591,"depicted":5592,"Murphy":5593,"aimed":5594,"Gree":5595,"Orig":5596,"sun":5597,"inct":5598,"iled":5599,"Funny":5600,"heavily":5601,"Cla":5602,"Hugh":5603,"Waste":5604,"ato":5605,"edgy":5606,"veh":5607,"ado":5608,"maid":5609,"assion":5610,"rights":5611,"address":5612,"Perry":5613,"Danny":5614,"ILL":5615,"Kristen":5616,"Under":5617,"DE":5618,"rat":5619,"tial":5620,"pretend":5621,"prior":5622,"patri":5623,"Au":5624,"Hitch":5625,"Pow":5626,"Tri":5627,"fed":5628,"urge":5629,"horrend":5630,"Real":5631,"stays":5632,"sharp":5633,"Gibson":5634,"Woman":5635,"robot":5636,"psych":5637,"amateurish":5638,"criminal":5639,"onsensical":5640,"Fu":5641,"Right":5642,"TF":5643,"WO":5644,"unoriginal":5645,"ption":5646,"Special":5647,"link":5648,"send":5649,"thumbs":5650,"ghter":5651,"rio":5652,"umber":5653,"blew":5654,"amazingly":5655,"Leon":5656,"Arth":5657,"intrigued":5658,"traditional":5659,"protect":5660,"Evil":5661,"bow":5662,"gas":5663,"intens":5664,"arted":5665,"boss":5666,"cameos":5667,"Simply":5668,"bill":5669,"spre":5670,"ops":5671,"twenty":5672,"sett":5673,"!!!!!!!!":5674,"Saturday":5675,"Imag":5676,"Try":5677,"edit":5678,"separ":5679,"cancer":5680,"Inter":5681,"Force":5682,"popul":5683,"Should":5684,"sexuality":5685,"canceled":5686,"rules":5687,"fle":5688,"forces":5689,"irm":5690,"contra":5691,"wearing":5692,"quit":5693,"proof":5694,"brand":5695,"talks":5696,"caric":5697,"Actors":5698,"double":5699,"spoiled":5700,"believably":5701,"Bor":5702,"Kar":5703,"sle":5704,"thew":5705,"aron":5706,"hash":5707,"rush":5708,"visit":5709,"creation":5710,"generous":5711,"driving":5712,"slasher":5713,"responsible":5714,"church":5715,"flying":5716,"noir":5717,"worthwhile":5718,"struction":5719,"boyfriend":5720,"existence":5721,"representation":5722,"arently":5723,"Na":5724,"merely":5725,"nia":5726,"nasty":5727,"auto":5728,"drags":5729,"talents":5730,"allows":5731,"supposedly":5732,"scores":5733,"Godzilla":5734,"touched":5735,"Carthy":5736,"Add":5737,"GRE":5738,"Hero":5739,"Te":5740,"sar":5741,"essence":5742,"gotta":5743,"stereoty":5744,"thusi":5745,"Fred":5746,"Rating":5747,"SU":5748,"naked":5749,"skill":5750,"versions":5751,"summary":5752,"convinced":5753,"required":5754,"Roman":5755,"Besides":5756,"Zomb":5757,"lift":5758,"outing":5759,"dialogs":5760,"Ignore":5761,"Cr":5762,"lately":5763,"wra":5764,"mob":5765,"afternoon":5766,"stume":5767,"crash":5768,"***":5769,"McCarthy":5770,"Sunday":5771,"Home":5772,"Ky":5773,"List":5774,"gig":5775,"stat":5776,"rival":5777,"cameo":5778,"Series":5779,"reference":5780,"regarding":5781,"answered":5782,"Reeves":5783,"></":5784,"Ca":5785,"Jer":5786,"Produ":5787,"enix":5788,"compan":5789,"JJ":5790,"Sing":5791,"yer":5792,"didnt":5793,"married":5794,"????":5795,"provided":5796,"Bu":5797,"CK":5798,"shut":5799,"unbearable":5800,"scr":5801,"aston":5802,"worried":5803,"quot":5804,"makeup":5805,"productions":5806,"rolls":5807,"transl":5808,"speaks":5809,"Morgan":5810,"European":5811,"Potter":5812,"eight":5813,"formed":5814,"deals":5815,"basis":5816,"terrifying":5817,"regardless":5818,"Amazon":5819,"Depp":5820,"PE":5821,"fles":5822,"mate":5823,"andering":5824,"bles":5825,"personalities":5826,"Thrones":5827,"victims":5828,"competent":5829,"Lynch":5830,"BAD":5831,"nonsensical":5832,"poo":5833,"pointed":5834,"identity":5835,"movement":5836,"existent":5837,"Canadian":5838,"PS":5839,"Vo":5840,"reminis":5841,"river":5842,"fellow":5843,"conversation":5844,"Australian":5845,"circumstances":5846,"BI":5847,"Sound":5848,"brit":5849,"exceed":5850,"overdone":5851,"disgrace":5852,"steals":5853,"carried":5854,"covered":5855,"breaks":5856,"sympathy":5857,"voted":5858,"revealed":5859,"tremend":5860,"celebr":5861,"Dar":5862,"kin":5863,"ls":5864,"sinc":5865,"diversity":5866,"finity":5867,"dying":5868,"Arnold":5869,"rolled":5870,"Awesome":5871,"90s":5872,"Make":5873,"dama":5874,"ambit":5875,"tie":5876,"goers":5877,"spark":5878,"matters":5879,"Larson":5880,"contrast":5881,"caricature":5882,"CW":5883,"Scre":5884,"__":5885,"plo":5886,"aks":5887,"Howard":5888,"cording":5889,"earned":5890,"ANT":5891,"innov":5892,"homage":5893,"poign":5894,"imagery":5895,"EVERY":5896,"challenge":5897,"drunk":5898,"Elizabeth":5899,"CI":5900,"Cooper":5901,"Jake":5902,"ura":5903,"isher":5904,"ensemble":5905,"cuts":5906,"applaud":5907,"Ant":5908,"Lou":5909,"Next":5910,"gree":5911,"pred":5912,"producing":5913,"caring":5914,"clichéd":5915,"contribut":5916,"descript":5917,"Apparently":5918,"RO":5919,"pit":5920,"esque":5921,"Reg":5922,"naive":5923,"Apart":5924,"pic":5925,"ancy":5926,"reward":5927,"enthusi":5928,"alright":5929,"whats":5930,"greatly":5931,"mini":5932,"Josh":5933,"risk":5934,"campy":5935,"favorites":5936,"explic":5937,"horrific":5938,"fooled":5939,"pushing":5940,"bull":5941,"erie":5942,"unpredictable":5943,"lessons":5944,"dude":5945,"precious":5946,"historically":5947,"introduction":5948,"Julia":5949,"Baby":5950,"blast":5951,"toi":5952,"west":5953,"indic":5954,"partner":5955,"compelled":5956,"kinds":5957,"topics":5958,"puzz":5959,"Cinemat":5960,"Brid":5961,"Mind":5962,"Sw":5963,"Tony":5964,"dar":5965,"ease":5966,"inn":5967,"seven":5968,"essentially":5969,"enjoyment":5970,"resident":5971,"elect":5972,"numerous":5973,"ladies":5974,"jumping":5975,"Phoenix":5976,"Jamie":5977,"Dog":5978,"zel":5979,"lem":5980,"sees":5981,"beloved":5982,"adm":5983,"rain":5984,"fee":5985,"ptic":5986,"facial":5987,"crack":5988,"Discovery":5989,"Michelle":5990,"England":5991,"designed":5992,"survival":5993,"charisma":5994,"exaggerated":5995,"Pict":5996,"Bird":5997,"area":5998,"faced":5999,"olds":6000,"originals":6001,"downright":6002,"Hey":6003,"destro":6004,"continued":6005,"Fiction":6006,"Picard":6007,"attr":6008,"cials":6009,"thrills":6010,"males":6011,"holding":6012,"listening":6013,"ibility":6014,"emphas":6015,"REALLY":6016,"bic":6017,"replace":6018,"trop":6019,"glued":6020,"builds":6021,"prime":6022,"swearing":6023,"Jean":6024,"dropped":6025,"loyal":6026,"horrendous":6027,"Ash":6028,"dys":6029,"island":6030,"abuse":6031,"filmmaker":6032,"Stay":6033,"costume":6034,"porary":6035,"closer":6036,"Matrix":6037,"Dial":6038,"Hanks":6039,"Nat":6040,"Tal":6041,"resc":6042,"consc":6043,"igno":6044,"trave":6045,"Leg":6046,"protagonists":6047,"dynamic":6048,"skeptical":6049,"Lady":6050,"Spe":6051,"Same":6052,"Stop":6053,"awe":6054,"anish":6055,"toward":6056,"usive":6057,"handled":6058,"woke":6059,"incident":6060,"goofy":6061,"intensity":6062,"Cent":6063,"NG":6064,"TS":6065,"eager":6066,"ws":6067,"vili":6068,"Three":6069,"ogical":6070,"bitter":6071,"creature":6072,"cartoons":6073,"Didn":6074,"Arthur":6075,"Hist":6076,"holi":6077,"tribute":6078,"minimum":6079,"GREAT":6080,"++":6081,"70s":6082,"LD":6083,"birth":6084,"veter":6085,"ridiculously":6086,"equal":6087,"sympathetic":6088,"juven":6089,"Thomas":6090,"flesh":6091,"DON":6092,"SG":6093,"Scar":6094,"gam":6095,"snow":6096,"conserv":6097,"blend":6098,"narration":6099,"Freeman":6100,"Haw":6101,"NBC":6102,"ored":6103,"Noah":6104,"friendly":6105,"Cruise":6106,"Made":6107,"arti":6108,"ketch":6109,"initial":6110,"hunt":6111,"forms":6112,"bodies":6113,"brick":6114,".......":6115,"steam":6116,"animal":6117,"2017":6118,"teacher":6119,"fetched":6120,"\"?":6121,"Ak":6122,"Iran":6123,"Ku":6124,"Ms":6125,"XX":6126,"orter":6127,"club":6128,"superficial":6129,"daily":6130,"Street":6131,"thony":6132,"elly":6133,"outrage":6134,"irt":6135,"border":6136,"reasonable":6137,"formulaic":6138,"Matthew":6139,"complaint":6140,"competit":6141,"metaph":6142,"mildly":6143,"toilet":6144,"KE":6145,"tly":6146,"stain":6147,"haunting":6148,"feet":6149,"buying":6150,"affair":6151,"continuity":6152,"conversations":6153,"robots":6154,"Pacino":6155,"Got":6156,"rise":6157,"riage":6158,"horse":6159,"bled":6160,"Eddie":6161,"experiment":6162,"absor":6163,"influence":6164,"Clo":6165,"Half":6166,"rough":6167,"stress":6168,"omed":6169,"ques":6170,"checking":6171,"carries":6172,"paralle":6173,"Roy":6174,"marks":6175,"Quite":6176,"Brothers":6177,"structure":6178,"frustrating":6179,"Transformers":6180,"Cinematography":6181,"Hall":6182,"Ros":6183,"cket":6184,"report":6185,"icip":6186,"convent":6187,"court":6188,"purely":6189,"football":6190,"Bravo":6191,"Mil":6192,"Swed":6193,"cies":6194,"tick":6195,"construct":6196,"Anderson":6197,"dramat":6198,"Forget":6199,"Anthony":6200,"cutting":6201,"spoken":6202,"alike":6203,"remembered":6204,"netflix":6205,"OME":6206,"pseudo":6207,":/":6208,"Hot":6209,"Plan":6210,"eating":6211,"nause":6212,"ole":6213,"rep":6214,"ilty":6215,"Alan":6216,"valu":6217,"includes":6218,"HOW":6219,"Salman":6220,"department":6221,"Crow":6222,"Down":6223,"Fast":6224,"Tay":6225,"illogical":6226,"lovable":6227,"Unless":6228,"clichÃ":6229,"Shakes":6230,"settings":6231,"mesmer":6232,"Ridley":6233,"Imagine":6234,"Jen":6235,"Jord":6236,"lousy":6237,"cia":6238,"pson":6239,"sadness":6240,"Disappoint":6241,"immers":6242,"drinking":6243,"Italian":6244,"Ted":6245,"arter":6246,"shark":6247,"comical":6248,"ief":6249,"brow":6250,"Western":6251,"heartwarming":6252,"month":6253,"North":6254,"Burton":6255,"specific":6256,"Hitchcock":6257,"Kim":6258,"Mis":6259,"bath":6260,"gor":6261,"glim":6262,"mu":6263,"aded":6264,"abilities":6265,"ceive":6266,"trite":6267,"highest":6268,"lesbian":6269,"glass":6270,"collect":6271,"commercials":6272,"interpretation":6273,"battles":6274,"Dor":6275,"Whe":6276,"WOR":6277,"nit":6278,"oe":6279,"encourage":6280,"unlikable":6281,"amir":6282,"isters":6283,"interaction":6284,"arrow":6285,"ACT":6286,"eson":6287,"frequ":6288,"rented":6289,"Carrey":6290,"Spanish":6291,"SH":6292,"Wat":6293,"vague":6294,"shop":6295,"eland":6296,"raised":6297,"thern":6298,"Luc":6299,"pulls":6300,"agreed":6301,"Fre":6302,"FOR":6303,"Gy":6304,"recall":6305,"captain":6306,"legal":6307,"Cost":6308,"recognize":6309,"window":6310,"Craig":6311,"lifting":6312,"reminiscent":6313,"Bang":6314,"jumps":6315,"filler":6316,"degree":6317,"wear":6318,"goal":6319,"arded":6320,"borrow":6321,"Recommend":6322,"fallen":6323,"concepts":6324,"communic":6325,"poignant":6326,"Cong":6327,"blo":6328,"dd":6329,"gn":6330,"rop":6331,"vity":6332,"omy":6333,"outcome":6334,"term":6335,"Seems":6336,"favour":6337,"Holmes":6338,"Damon":6339,"sophisticated":6340,"Original":6341,"abortion":6342,"display":6343,"particip":6344,"udic":6345,"genres":6346,"Parker":6347,"nailed":6348,"scientific":6349,"distracting":6350,"SRK":6351,"Shakespe":6352,"AST":6353,"Ever":6354,"umph":6355,"credibility":6356,"dollar":6357,"senseless":6358,"Wayne":6359,"Er":6360,"nically":6361,"unable":6362,"greater":6363,"reviewed":6364,"lifetime":6365,"possess":6366,"expensive":6367,"desperately":6368,"Blair":6369,"CE":6370,"Care":6371,"bum":6372,"alco":6373,"meh":6374,"unfortunate":6375,"picks":6376,"nails":6377,"ignorant":6378,".'":6379,"Dun":6380,"Fall":6381,"Gener":6382,"Ul":6383,"mut":6384,"tham":6385,"arrog":6386,"rave":6387,"concent":6388,"tea":6389,"awa":6390,"advanced":6391,"Interest":6392,"juvenile":6393,"Cli":6394,"CBS":6395,"Lind":6396,"Ver":6397,"Washing":6398,"WAY":6399,"tour":6400,"apes":6401,"serves":6402,"angers":6403,"engross":6404,"grave":6405,"ultimate":6406,"Pen":6407,"Ren":6408,"vince":6409,"wick":6410,"chap":6411,"acle":6412,"thoughtful":6413,"empathy":6414,"NOTHING":6415,"significant":6416,"option":6417,"WOW":6418,"):":6419,"Greg":6420,"MI":6421,"aqu":6422,"realise":6423,"brilli":6424,"soldier":6425,"depicts":6426,"accomplish":6427,"Av":6428,"Hit":6429,"Rep":6430,"Slow":6431,"redu":6432,"assa":6433,"model":6434,"ilton":6435,"ables":6436,"ifically":6437,"195":6438,"morning":6439,"advise":6440,"thousands":6441,"Wait":6442,"Sherlock":6443,"Washington":6444,"Bot":6445,"sor":6446,"soo":6447,"isms":6448,"atar":6449,"adorable":6450,"unbelievably":6451,"backdrop":6452,"letting":6453,"bbing":6454,"novels":6455,"silent":6456,"tune":6457,"Based":6458,"Die":6459,"Fan":6460,"Miller":6461,"MUST":6462,"mile":6463,"watches":6464,"dogs":6465,"ourne":6466,"awake":6467,"Remember":6468,"enemy":6469,"Cinema":6470,"officer":6471,"obsessed":6472,"\"...":6473,"Light":6474,"fish":6475,"sne":6476,"inch":6477,"tied":6478,"bucks":6479,"darkness":6480,"Except":6481,"focuses":6482,"miserable":6483,"250":6484,"Bell":6485,"Gl":6486,"Master":6487,"Our":6488,"bie":6489,"gap":6490,"racy":6491,"intro":6492,"civili":6493,"talked":6494,"treatment":6495,"Direction":6496,"Character":6497,"frightening":6498,"guarantee":6499,"relatively":6500,"FBI":6501,"bashing":6502,"mic":6503,"sque":6504,"ept":6505,"mans":6506,"cient":6507,"cared":6508,"pushed":6509,"passes":6510,"Whoever":6511,"mbol":6512,"umbling":6513,"requires":6514,"Irish":6515,"prequel":6516,"knock":6517,"Sab":6518,"soooo":6519,"sketch":6520,"ita":6521,"filmmaking":6522,"ourselves":6523,"spital":6524,"surreal":6525,"akens":6526,"balanced":6527,"2016":6528,"Viet":6529,"gangster":6530,"Endgame":6531,"motivation":6532,"determin":6533,"Jordan":6534,"ABC":6535,"Dol":6536,"revel":6537,"sea":6538,"adap":6539,"enjoys":6540,"rule":6541,"ashed":6542,"extent":6543,"cliff":6544,"balls":6545,"Through":6546,"Flash":6547,"udicrous":6548,"brilliance":6549,"ego":6550,"uninspired":6551,"lore":6552,"artsy":6553,"whoever":6554,"mentally":6555,"offered":6556,"simpl":6557,"martial":6558,"Doctor":6559,"occasional":6560,"thology":6561,"Universe":6562,"contemporary":6563,"Les":6564,"aired":6565,"pup":6566,"rical":6567,"goodness":6568,"inder":6569,"---":6570,"delightful":6571,"individuals":6572,"choreography":6573,"evidence":6574,"scratch":6575,"Hul":6576,"IQ":6577,"latter":6578,"orient":6579,"ideo":6580,"condition":6581,"sounded":6582,"Anim":6583,"symbol":6584,"delivering":6585,"surrounding":6586,"Nazi":6587,"Shakespeare":6588,"ov":6589,"anic":6590,"icles":6591,"shell":6592,"likeable":6593,"loses":6594,"guilty":6595,"bold":6596,"elsewhere":6597,"stylish":6598,"rental":6599,"fitting":6600,"improved":6601,"OMG":6602,"Total":6603,"Dow":6604,"domin":6605,"lu":6606,"inappropriate":6607,"asks":6608,"haha":6609,"combat":6610,"cheer":6611,"undance":6612,"smooth":6613,"sentimental":6614,"Entertain":6615,"vehicle":6616,"Call":6617,"Usu":6618,"Wick":6619,"cence":6620,"db":6621,"foul":6622,"ios":6623,"yptic":6624,"chair":6625,"lowing":6626,"politic":6627,"broke":6628,"videos":6629,"Davis":6630,"Hardy":6631,"stole":6632,"practically":6633,"philosophy":6634,"thousand":6635,"virtually":6636,"description":6637,"://":6638,"AX":6639,"Certain":6640,"sink":6641,"station":6642,"noise":6643,"weal":6644,"disrespect":6645,"orsese":6646,"kidding":6647,"medical":6648,"capital":6649,"importance":6650,"learning":6651,"immense":6652,"emplo":6653,"umbled":6654,"originally":6655,"indulgent":6656,"Harrison":6657,"conscious":6658,"Dad":6659,"SS":6660,"Went":6661,"nine":6662,"rum":6663,"unconvincing":6664,"exer":6665,"antagon":6666,"overwhelming":6667,"thru":6668,"Godfather":6669,"ypse":6670,"advance":6671,"recognition":6672,"Taylor":6673,"Tube":6674,"atory":6675,"surface":6676,"Young":6677,"Dont":6678,"redem":6679,"educated":6680,"philosophical":6681,"finger":6682,"PER":6683,"utch":6684,"Whate":6685,"1000":6686,"beings":6687,"Child":6688,"slightest":6689,"throwing":6690,"claimed":6691,"progresses":6692,"LOVED":6693,"France":6694,"FO":6695,"cis":6696,"hint":6697,"htt":6698,"alot":6699,"vices":6700,"semi":6701,"exas":6702,"afterwards":6703,"comedian":6704,"relent":6705,"Donald":6706,"marriage":6707,"sports":6708,"Rambo":6709,";)":6710,"Jar":6711,"WAS":6712,"incoherent":6713,"rehash":6714,"mel":6715,"elo":6716,"promot":6717,"players":6718,"rank":6719,"cycl":6720,"profanity":6721,"previously":6722,"Germany":6723,"Samuel":6724,"gentle":6725,"Whatever":6726,"Fol":6727,"Water":6728,"jack":6729,"threw":6730,"sec":6731,"suicide":6732,"endure":6733,"fund":6734,"props":6735,"Scorsese":6736,"Tyler":6737,"Pla":6738,"isa":6739,"admir":6740,"iron":6741,"immature":6742,"directly":6743,"checked":6744,"center":6745,"jobs":6746,"curi":6747,"nostalgic":6748,"axy":6749,"innovative":6750,"ASE":6751,"Son":6752,"Set":6753,"aust":6754,"cake":6755,"ique":6756,"wen":6757,"reput":6758,"prise":6759,"cheese":6760,"creator":6761,"carefully":6762,"Emily":6763,"atherine":6764,"neighbor":6765,"results":6766,"blatant":6767,"tremendous":6768,":-":6769,"AV":6770,"Ve":6771,"dinner":6772,"tian":6773,"convince":6774,"uplifting":6775,"spite":6776,"ffle":6777,"ruins":6778,"harder":6779,"wondered":6780,"monot":6781,"hopeless":6782,"wished":6783,"Brown":6784,"hatred":6785,"wannabe":6786,"guts":6787,"Statham":6788,"stereotype":6789,"Games":6790,"ears":6791,"ala":6792,"chases":6793,"beit":6794,"diverse":6795,"Andrew":6796,"2020":6797,"volta":6798,"United":6799,"apocalyptic":6800,"LI":6801,"Lan":6802,"ME":6803,"replaced":6804,"vile":6805,"entin":6806,"swear":6807,"inspiration":6808,"vampires":6809,"intentionally":6810,"established":6811,"Either":6812,"IR":6813,"Port":6814,"bid":6815,"mod":6816,"lyn":6817,"forgiven":6818,"osity":6819,"bias":6820,"Blade":6821,"Blue":6822,"2001":6823,"Grand":6824,"attached":6825,"improvement":6826,"convey":6827,"corporate":6828,"Jr":6829,"Sn":6830,"TNG":6831,"bumps":6832,"tube":6833,"asion":6834,"elf":6835,"brid":6836,"Stupid":6837,"believed":6838,"messed":6839,"instantly":6840,"luster":6841,"endearing":6842,"occasionally":6843,"Gary":6844,"Zero":6845,"ludicrous":6846,"eric":6847,"meth":6848,"shaking":6849,"rape":6850,"laid":6851,"reviewing":6852,"tracks":6853,"Deep":6854,"Moon":6855,"heartfelt":6856,"interactions":6857,"honesty":6858,"explore":6859,"Play":6860,"smoking":6861,"streets":6862,"Air":6863,"Cas":6864,"Dick":6865,"Gri":6866,"ught":6867,"eness":6868,"encounter":6869,"mock":6870,"secur":6871,"lize":6872,"haunt":6873,"ural":6874,"Andy":6875,"Stall":6876,"confron":6877,"appalling":6878,"Mexican":6879,"associated":6880,"Dialo":6881,"Aamir":6882,"Gun":6883,"Veron":6884,"redi":6885,"devoid":6886,"lowest":6887,"misleading":6888,"empower":6889,"sentence":6890,"Liam":6891,"distri":6892,"slop":6893,"ENT":6894,"Wonderful":6895,"Picture":6896,"Happy":6897,"evo":6898,"si":6899,"thet":6900,"exists":6901,"justify":6902,"prejud":6903,"adequ":6904,"inson":6905,"resist":6906,"IMAX":6907,"buddy":6908,"opened":6909,"involve":6910,"Boys":6911,"Simon":6912,"Murray":6913,"Title":6914,"riveting":6915,"Skip":6916,"analy":6917,"Buff":6918,"Ext":6919,"Pul":6920,"Wish":6921,"hollywood":6922,"rates":6923,"stale":6924,"ads":6925,"suits":6926,"illness":6927,"voluted":6928,"univers":6929,"Need":6930,"Franco":6931,"charismatic":6932,"floor":6933,"HU":6934,"Sum":6935,"betray":6936,"alled":6937,"irrelevant":6938,"YouTube":6939,"Myster":6940,"imagined":6941,"passing":6942,"suitable":6943,"Kids":6944,"revolution":6945,"minimal":6946,"accuracy":6947,"renew":6948,"enthr":6949,"idence":6950,"ours":6951,"ounding":6952,"international":6953,"severe":6954,"instance":6955,"immick":6956,"Travolta":6957,"ignored":6958,"Bottom":6959,"redemption":6960,"ARE":6961,"Pred":6962,"lone":6963,"oid":6964,"tiny":6965,"unfair":6966,"ifying":6967,"urban":6968,"2015":6969,"freaking":6970,"presents":6971,"identify":6972,"suffers":6973,"Drama":6974,"chapter":6975,"Sony":6976,"jaw":6977,"wig":6978,"ingredi":6979,"ils":6980,"ella":6981,"decl":6982,"oples":6983,"storylines":6984,"consequences":6985,"prede":6986,"tales":6987,"merit":6988,"unlikely":6989,"unlikeable":6990,"beliefs":6991,"AMA":6992,"hanging":6993,"initially":6994,"hundreds":6995,"Greek":6996,"Id":6997,"gimmick":6998,"tones":6999,"albeit":7000,"asts":7001,"conspir":7002,"promo":7003,"assass":7004,"Nobody":7005,"Art":7006,"planned":7007,"advant":7008,"GOOD":7009,"succeeds":7010,"celebrit":7011,"controversial":7012,"Friend":7013,"rebel":7014,"seats":7015,"ulations":7016,"prevent":7017,"quote":7018,"developing":7019,"engage":7020,"baff":7021,"discovered":7022,"staff":7023,"History":7024,"predecess":7025,"Dian":7026,"Gor":7027,"Jac":7028,"bare":7029,"ec":7030,"vom":7031,"boat":7032,"hospital":7033,"miscast":7034,"compli":7035,"Lewis":7036,"Atl":7037,"washed":7038,"anticipation":7039,"ardi":7040,"seam":7041,"lifel":7042,"imate":7043,"compassion":7044,"xture":7045,"selling":7046,"masses":7047,"loads":7048,"loaded":7049,"stretched":7050,"wrapped":7051,"22":7052,"21st":7053,"aid":7054,"sme":7055,"unforgettable":7056,"suited":7057,"spell":7058,"ruining":7059,"Stu":7060,"wake":7061,"Aside":7062,"decides":7063,"correctness":7064,"ounce":7065,"depressed":7066,"Russia":7067,"colorful":7068,"Toro":7069,"princi":7070,"throat":7071,"variety":7072,"dinosaurs":7073,"Interesting":7074,"4th":7075,"Sto":7076,"french":7077,"gro":7078,"reactions":7079,"encies":7080,"abys":7081,"dear":7082,"raunch":7083,"ultra":7084,"scifi":7085,"heaven":7086,"convoluted":7087,"yourselves":7088,"Heath":7089,"Neeson":7090,"detailed":7091,"private":7092,"Grant":7093,"disgusted":7094,"Jimmy":7095,"www":7096,"patience":7097,"Veronica":7098,"Dy":7099,"Low":7100,"NL":7101,"Sin":7102,"jam":7103,"pir":7104,"ini":7105,"onse":7106,"arri":7107,"chant":7108,"ifies":7109,"plains":7110,"fired":7111,"presentation":7112,"Bring":7113,"Edward":7114,"Quentin":7115,"Colin":7116,"faithful":7117,"dedic":7118,"achievement":7119,"belongs":7120,"Bible":7121,"Crit":7122,"EX":7123,"Led":7124,"Med":7125,"Rings":7126,"Texas":7127,"lord":7128,"removed":7129,"lean":7130,"forgive":7131,"dozen":7132,"inding":7133,"teeth":7134,"selfish":7135,"rude":7136,"hire":7137,"triumph":7138,"misses":7139,"planning":7140,"posted":7141,"patient":7142,"Walking":7143,"president":7144,"Barry":7145,"300":7146,"Brian":7147,"Lin":7148,"President":7149,"uk":7150,"select":7151,"shit":7152,"imdb":7153,"istan":7154,"heroine":7155,"mixture":7156,"affected":7157,"Zombie":7158,"tropes":7159,"Stallone":7160,"AP":7161,"Apo":7162,"Glad":7163,"NEVER":7164,"TIM":7165,"zes":7166,"inaccurate":7167,"diction":7168,"join":7169,"guard":7170,"according":7171,"States":7172,"clum":7173,"underlying":7174,"generations":7175,"gger":7176,"Comm":7177,"ification":7178,"successfully":7179,"suffered":7180,"Emp":7181,"achieved":7182,"fashioned":7183,"Ferrell":7184,"preachy":7185,"Oliver":7186,"explor":7187,"!).":7188,"?).":7189,"Dream":7190,"Land":7191,"Women":7192,"stiff":7193,"omer":7194,"implausible":7195,"China":7196,"screw":7197,"kidnap":7198,"stein":7199,"masterful":7200,"struck":7201,"Brook":7202,"batman":7203,"musicals":7204,"Caprio":7205,"Seeing":7206,"unfolds":7207,"zzzzzzzz":7208,"Fight":7209,"FUL":7210,"Ira":7211,"Sex":7212,"awhile":7213,"uty":7214,"anta":7215,"believing":7216,"accepted":7217,"feminism":7218,"hysterical":7219,"weapons":7220,"Cat":7221,"Eric":7222,"butt":7223,"destruction":7224,"backstory":7225,"embra":7226,"portra":7227,"Carol":7228,"dropping":7229,"aughters":7230,"challenging":7231,"Channel":7232,"IGH":7233,"Reynold":7234,"Consider":7235,"Kin":7236,"Rem":7237,"bone":7238,"ffect":7239,"isol":7240,"ota":7241,"ader":7242,"adoles":7243,"peoples":7244,"ripped":7245,"lasted":7246,"extended":7247,"folk":7248,"confusion":7249,"staying":7250,"naturally":7251,"Trust":7252,"specifically":7253,"landscape":7254,"Book":7255,"Dare":7256,"Fro":7257,"Luck":7258,"Mul":7259,"cab":7260,"mash":7261,"rhy":7262,"errors":7263,"isation":7264,"limit":7265,"artists":7266,"ette":7267,"develops":7268,"deserving":7269,"Script":7270,"atmospher":7271,"superheroes":7272,"streaming":7273,"terrorist":7274,"Kidman":7275,"WWII":7276,"hrs":7277,"status":7278,"simplistic":7279,"Empire":7280,"Ret":7281,"bless":7282,"labor":7283,"rink":7284,"stro":7285,"inevit":7286,"overcome":7287,"feld":7288,"Joaqu":7289,"porno":7290,"crimes":7291,"resour":7292,"largely":7293,"spiritual":7294,"Mexico":7295,"itizen":7296,"admire":7297,"exercise":7298,"AA":7299,"Award":7300,"Sop":7301,"Six":7302,"Wed":7303,"bble":7304,"daughters":7305,"mountain":7306,"picking":7307,"andal":7308,"beating":7309,"ada":7310,"turkey":7311,"hardcore":7312,"Rober":7313,"hitting":7314,"Jackie":7315,"LOT":7316,"votes":7317,"studios":7318,"Denzel":7319,"Clearly":7320,"excessive":7321,"travesty":7322,"SI":7323,"fate":7324,"sisters":7325,"tact":7326,"aser":7327,"vich":7328,"iconic":7329,"kings":7330,"coura":7331,"fancy":7332,"woods":7333,"2000":7334,"brains":7335,"Island":7336,"countless":7337,"Charlize":7338,"explaining":7339,"adventures":7340,"fourth":7341,"END":7342,"represented":7343,"mirror":7344,"Kubrick":7345,"Reynolds":7346,"Bale":7347,"Bourne":7348,"Hay":7349,"Log":7350,"Psy":7351,"aes":7352,"ware":7353,"wolf":7354,"chain":7355,"abandon":7356,"pets":7357,"ami":7358,"polish":7359,"suspend":7360,"explored":7361,"instant":7362,"response":7363,"dressed":7364,"population":7365,"Scarlet":7366,"competition":7367,"http":7368,"curiosity":7369,"UP":7370,"clow":7371,"jumped":7372,"ancient":7373,"icing":7374,"poet":7375,"poses":7376,"trapped":7377,"cheek":7378,"messy":7379,"glory":7380,"morons":7381,"Carp":7382,"stunned":7383,"Adams":7384,"RIBLE":7385,"legendary":7386,"corruption":7387,"inducing":7388,"functional":7389,":(":7390,"Driver":7391,"Kind":7392,"Pure":7393,"Sho":7394,"bird":7395,"emer":7396,"explains":7397,"amal":7398,"los":7399,"quis":7400,"umble":7401,"ideal":7402,"phr":7403,"headed":7404,"legacy":7405,"ennis":7406,"GOT":7407,"draws":7408,"criminals":7409,"committed":7410,"Pulp":7411,"CT":7412,"rational":7413,"relies":7414,"abomination":7415,"worthless":7416,"cinemas":7417,"solve":7418,"flight":7419,"differently":7420,"camer":7421,"hypo":7422,"attempting":7423,"mysteries":7424,"caused":7425,"searching":7426,"Sandra":7427,"scenarios":7428,"scientist":7429,"holiday":7430,"Grace":7431,"Tre":7432,"Ze":7433,"hence":7434,"aton":7435,"alleg":7436,"entry":7437,"shape":7438,"raise":7439,"mented":7440,"simp":7441,"visible":7442,"venture":7443,"desert":7444,"weakness":7445,"village":7446,"2014":7447,"Golden":7448,"Visually":7449,"prequels":7450,"gruesome":7451,"conservative":7452,"Sabrina":7453,"abysmal":7454,"Put":7455,"ibly":7456,"sno":7457,"zo":7458,"moon":7459,"areas":7460,"dose":7461,"pless":7462,"whenever":7463,"horrors":7464,"superbly":7465,"interviews":7466,"locaust":7467,"kicks":7468,"Panther":7469,"PLEASE":7470,"CIA":7471,"Der":7472,"Jere":7473,"Kong":7474,"goose":7475,"thick":7476,"lia":7477,"sus":7478,"exter":7479,"ummy":7480,"training":7481,"gian":7482,"Stargate":7483,"campa":7484,"morality":7485,"expand":7486,"legit":7487,"Shaw":7488,"judging":7489,"burst":7490,"subtlety":7491,"ghosts":7492,"choreograph":7493,"Buffy":7494,"ZING":7495,"fart":7496,"orc":7497,"nose":7498,"spare":7499,"similarities":7500,"embarrassment":7501,"marvelous":7502,"reached":7503,"honor":7504,"Kyle":7505,"constructed":7506,"Bi":7507,"Final":7508,"Hems":7509,"cali":7510,"eerie":7511,"mund":7512,"pin":7513,"liever":7514,"users":7515,"myth":7516,"ciating":7517,"access":7518,"Intern":7519,"reads":7520,"happiness":7521,"farce":7522,"smiling":7523,"calls":7524,"walker":7525,"fluff":7526,"Grey":7527,"silence":7528,"Holland":7529,"challenges":7530,"rescue":7531,"Vietnam":7532,"Hemsworth":7533,"Bry":7534,"Gos":7535,"Sat":7536,"Vampire":7537,"gla":7538,"recei":7539,"opic":7540,"believes":7541,"hub":7542,"audio":7543,"Justin":7544,"heroic":7545,"hearts":7546,"deliber":7547,"groups":7548,"Jewish":7549,"reveals":7550,"discus":7551,"Girls":7552,"spread":7553,"advantage":7554,"Joaquin":7555,"Dennis":7556,"Penn":7557,"TA":7558,"theory":7559,"esh":7560,"shake":7561,"upcoming":7562,"promote":7563,"centric":7564,"thrilled":7565,"headache":7566,"theatrical":7567,"Couldn":7568,"YOUR":7569,"chuckle":7570,"benefit":7571,"Screen":7572,".</":7573,"Hoff":7574,"Rome":7575,"WTF":7576,"aff":7577,"hates":7578,"wins":7579,"moti":7580,"vic":7581,"vey":7582,"oppress":7583,"umbo":7584,"bleak":7585,"spook":7586,"disgu":7587,"differences":7588,"recommendation":7589,"Everybody":7590,"wishing":7591,"typically":7592,"harm":7593,"Broad":7594,"motivations":7595,"advertising":7596,"slick":7597,"Nicole":7598,"tiresome":7599,"health":7600,"arrogant":7601,"reputation":7602,"Iraq":7603,"!?":7604,"COM":7605,"FUN":7606,"Mom":7607,"Pop":7608,"Wi":7609,"fice":7610,"tin":7611,"vig":7612,"ira":7613,"opens":7614,"goer":7615,"greatness":7616,"sav":7617,"Whit":7618,"academy":7619,"Chic":7620,"compens":7621,"staring":7622,"failing":7623,"helping":7624,"Const":7625,"claims":7626,"pathize":7627,"vulner":7628,"tricks":7629,"accomplished":7630,"cardboard":7631,"Usually":7632,"Ledger":7633,"campaign":7634,"Gil":7635,"Hood":7636,"Kurt":7637,"Ten":7638,"Teen":7639,"avid":7640,"tha":7641,"choo":7642,"measure":7643,"keys":7644,"Infinity":7645,"dragging":7646,"nah":7647,"closed":7648,"sensational":7649,"immig":7650,"III":7651,"Science":7652,"Awakens":7653,"habit":7654,"Crowe":7655,"Gyllen":7656,"ffleck":7657,"Hoffman":7658,"Boo":7659,"Hart":7660,"Kelly":7661,"bollywood":7662,"sons":7663,"anor":7664,"lest":7665,"section":7666,"omor":7667,"une":7668,"filling":7669,"tered":7670,"conceived":7671,"cos":7672,"attempted":7673,"amongst":7674,"frustrated":7675,"nominations":7676,"Certainly":7677,"method":7678,"security":7679,"Further":7680,"Ind":7681,"SNL":7682,"VFX":7683,"lly":7684,"nar":7685,"pitch":7686,"geek":7687,"ularly":7688,"neat":7689,"height":7690,"badass":7691,"bling":7692,"blur":7693,"Belie":7694,"Road":7695,"subjects":7696,"represents":7697,"inspire":7698,"Predator":7699,"Kirk":7700,"Main":7701,"Song":7702,"Shel":7703,"tz":7704,"recycl":7705,"alie":7706,"viet":7707,"ental":7708,"seeking":7709,"minus":7710,"uded":7711,"effectively":7712,"walks":7713,"Granted":7714,"ILM":7715,"terrorists":7716,"education":7717,"digital":7718,"chilling":7719,"golden":7720,"Australia":7721,"Roberts":7722,"Coun":7723,"Lar":7724,"Sir":7725,"tong":7726,"arm":7727,"behave":7728,"icient":7729,"haal":7730,"ills":7731,"ante":7732,"plat":7733,"...\"":7734,"fame":7735,"offering":7736,"command":7737,"difficul":7738,"humble":7739,"Jolie":7740,"closing":7741,"cynical":7742,"Lets":7743,"consistently":7744,"Streep":7745,"Costner":7746,"ingredients":7747,"AMAZING":7748,"Carpenter":7749,"35":7750,"Four":7751,"Fore":7752,"olo":7753,"wound":7754,"receive":7755,"arl":7756,"league":7757,"omi":7758,"hired":7759,"plague":7760,"akin":7761,"copied":7762,"sorts":7763,"Turkey":7764,"projects":7765,"Bradley":7766,"Hamilton":7767,"stinker":7768,"Runner":7769,"Whether":7770,"TIME":7771,"$$":7772,"Cri":7773,"Hob":7774,"Lion":7775,"Lef":7776,"Los":7777,"Nar":7778,"firm":7779,"goo":7780,"rotten":7781,"dire":7782,"essential":7783,"dissa":7784,"endings":7785,"mask":7786,"reflection":7787,"possibility":7788,"journal":7789,"minority":7790,"explicit":7791,"Gene":7792,"dump":7793,"gift":7794,"task":7795,"wrench":7796,"forcing":7797,"extr":7798,"charge":7799,"ruciating":7800,"player":7801,"excruciating":7802,"angst":7803,"nights":7804,"Rogen":7805,"Arab":7806,"Going":7807,"ONG":7808,"south":7809,"physically":7810,"stock":7811,"melodrama":7812,"Bullock":7813,"Power":7814,"outrageous":7815,"adapted":7816,"Extreme":7817,"21":7818,"Affleck":7819,"Cu":7820,"Ta":7821,"cities":7822,"adore":7823,"cean":7824,"rior":7825,"irony":7826,"ett":7827,"overacting":7828,"Bey":7829,"engine":7830,"hyper":7831,"stronger":7832,"madness":7833,"rooting":7834,"evident":7835,"global":7836,"destroying":7837,"metaphor":7838,"Avatar":7839,"Bon":7840,"Cali":7841,"Mother":7842,"ueless":7843,"believer":7844,"ambi":7845,"antics":7846,"pled":7847,"trade":7848,"grate":7849,"buck":7850,"fortune":7851,"spoiling":7852,"ika":7853,"Victor":7854,"layers":7855,"babies":7856,"anormal":7857,"MAN":7858,"Spo":7859,"aper":7860,"dge":7861,"gie":7862,"incess":7863,"ilted":7864,"Theron":7865,"spots":7866,"writes":7867,"casts":7868,"horrid":7869,"insist":7870,"morals":7871,"focusing":7872,"Tommy":7873,"OUT":7874,"contained":7875,"innocence":7876,"Muslim":7877,"ungle":7878,"Given":7879,"featuring":7880,"conventional":7881,"exploration":7882,"Jeremy":7883,"During":7884,"Kane":7885,"fx":7886,"iven":7887,"mere":7888,"beats":7889,"unpleasant":7890,"nod":7891,"aces":7892,"chest":7893,"aken":7894,"factory":7895,"Isra":7896,"cleverly":7897,"complexity":7898,"sleeping":7899,"hesit":7900,"BOR":7901,"Dia":7902,"agh":7903,"aur":7904,"dun":7905,"fond":7906,"trolls":7907,"enlight":7908,"stol":7909,"chasing":7910,"aman":7911,"serving":7912,"ranks":7913,"resort":7914,"handsome":7915,"ahl":7916,"allowing":7917,"Neil":7918,"LOL":7919,"figures":7920,"pulling":7921,"Rather":7922,"Looks":7923,"techniques":7924,"artificial":7925,"Bal":7926,"FILM":7927,"Sup":7928,"bia":7929,"tro":7930,"vous":7931,"inser":7932,"onde":7933,"worn":7934,"conven":7935,"acity":7936,"fia":7937,"renting":7938,"clips":7939,"ypical":7940,"miles":7941,"steps":7942,"revolves":7943,"hurts":7944,"solely":7945,"raunchy":7946,"atmospheric":7947,"Chicago":7948,"Easter":7949,"Fort":7950,"HS":7951,"Kings":7952,"stit":7953,"chron":7954,"unimaginative":7955,"happily":7956,"centered":7957,"Note":7958,"Scen":7959,"Superb":7960,"expert":7961,"Doesn":7962,"Roseanne":7963,"chaos":7964,"Jose":7965,"Patt":7966,"Ton":7967,"Ut":7968,"dre":7969,"infeld":7970,"returns":7971,"disliked":7972,"misery":7973,"Devil":7974,"Toy":7975,"elev":7976,"banter":7977,"Helen":7978,"veteran":7979,"glimpse":7980,"choreographed":7981,"tongue":7982,"stolen":7983,"Cus":7984,"Ven":7985,"cand":7986,"sand":7987,"rocks":7988,"loser":7989,"agan":7990,"plastic":7991,"aka":7992,"Leo":7993,"Firstly":7994,"greed":7995,"questionable":7996,"avoided":7997,"ringe":7998,"equival":7999,"Aliens":8000,"Indiana":8001,"opposed":8002,"premier":8003,"highlights":8004,"Thompson":8005,"discussion":8006,"separate":8007,"Clooney":8008,"adolescent":8009,"Hunt":8010,"Lat":8011,"NT":8012,"esp":8013,"peror":8014,"orton":8015,"ensible":8016,"anged":8017,"cram":8018,"iley":8019,"casual":8020,"Raj":8021,"strict":8022,"WHY":8023,"Hunger":8024,"Completely":8025,"Apple":8026,"Furious":8027,"oms":8028,"active":8029,"haust":8030,"definite":8031,"americ":8032,"hase":8033,"umar":8034,"doesnt":8035,"lackluster":8036,"worlds":8037,"dystop":8038,"nett":8039,"historic":8040,"Mean":8041,"ounced":8042,"snoo":8043,"Liter":8044,"Recommended":8045,"adequate":8046,"lonely":8047,"Cur":8048,"GH":8049,"eli":8050,"ium":8051,"infer":8052,"ont":8053,"pec":8054,"tax":8055,"timeless":8056,"assist":8057,"persons":8058,"fantast":8059,"Annie":8060,"shoes":8061,"generated":8062,"arring":8063,"Point":8064,"sticks":8065,"meeting":8066,"accurately":8067,"School":8068,"tradition":8069,"Strong":8070,"Jerry":8071,"Gyllenhaal":8072,"Califor":8073,"75":8074,"FE":8075,"Fav":8076,"cust":8077,"narc":8078,"nomination":8079,"erotic":8080,"isons":8081,"Thought":8082,"button":8083,"illust":8084,"exhaust":8085,"usions":8086,"contr":8087,"occup":8088,"nibal":8089,"grim":8090,"calm":8091,"split":8092,"distribut":8093,"International":8094,"LG":8095,"Pet":8096,"Wel":8097,"athing":8098,"pants":8099,"argue":8100,"joker":8101,"aker":8102,"explores":8103,"banal":8104,"demons":8105,"reflects":8106,"chopath":8107,"Nazis":8108,"Shield":8109,"settling":8110,"Bush":8111,"Gab":8112,"Hum":8113,"fist":8114,"yell":8115,"react":8116,"enem":8117,"uns":8118,"setup":8119,"legs":8120,"technically":8121,"DiCaprio":8122,"existed":8123,"2012":8124,"intentional":8125,"routine":8126,"exceeded":8127,"Diaz":8128,"enemies":8129,"60s":8130,"Rol":8131,"egg":8132,"fought":8133,"tad":8134,"xic":8135,"ona":8136,"encing":8137,"iter":8138,"beer":8139,"shy":8140,"females":8141,"saves":8142,"characterization":8143,"grasp":8144,"buzz":8145,"appreciation":8146,"introduce":8147,"Schind":8148,"brutality":8149,"crossed":8150,"succeeded":8151,"Rocky":8152,"sitcoms":8153,"alternative":8154,"ambitious":8155,"resources":8156,"Bald":8157,"Fans":8158,"Mu":8159,"Ral":8160,"WE":8161,"Wes":8162,"Zone":8163,"inconsistent":8164,"ata":8165,"alt":8166,"ardo":8167,"lime":8168,"divor":8169,"heist":8170,"realised":8171,"phones":8172,"forest":8173,"Compare":8174,"hollow":8175,"brainless":8176,"satisfy":8177,"pressure":8178,"Korea":8179,"companies":8180,"Hitler":8181,"clumsy":8182,"mundane":8183,"Hud":8184,"JW":8185,"Owen":8186,"meat":8187,"excl":8188,"seek":8189,"hem":8190,"consu":8191,"uristic":8192,"mankind":8193,"pretending":8194,"nerd":8195,"onda":8196,"suspic":8197,"listed":8198,"Islam":8199,"Enough":8200,"blical":8201,"Deadpool":8202,"glorious":8203,"Hopkins":8204,"conspiracy":8205,"Daredevil":8206,"Utter":8207,"equivalent":8208,"Camp":8209,"Dave":8210,"Drew":8211,"Ian":8212,"Jan":8213,"Say":8214,"Vill":8215,"dro":8216,"kh":8217,"lum":8218,"ario":8219,"admission":8220,"ironic":8221,"ament":8222,"mythology":8223,"contest":8224,"vised":8225,"heartbreaking":8226,"queen":8227,"lawyer":8228,"examples":8229,"dynamics":8230,"investigation":8231,"sacrifice":8232,"astonishing":8233,"Retur":8234,"wrenching":8235,"BB":8236,"Dem":8237,"Nancy":8238,"Vince":8239,"Word":8240,"cative":8241,"imo":8242,"thal":8243,"theus":8244,"reli":8245,"storm":8246,"youtube":8247,"exposition":8248,"olas":8249,"letter":8250,"Read":8251,"atho":8252,"Beyond":8253,"licity":8254,"easier":8255,"ERS":8256,"Charles":8257,"larger":8258,"hotel":8259,"continuation":8260,"transport":8261,"inventive":8262,"Visual":8263,"Katrina":8264,"sarcast":8265,"Natalie":8266,"Gordon":8267,"portrait":8268,"quisite":8269,"Effect":8270,"bber":8271,"rings":8272,"isy":8273,"refund":8274,"itar":8275,"arms":8276,"ili":8277,"iders":8278,"Stars":8279,"laws":8280,"Army":8281,"cliched":8282,"Anyways":8283,"doubts":8284,"Mrs":8285,"depression":8286,"Russians":8287,"GOD":8288,"grity":8289,"BEST":8290,"remaining":8291,"addicted":8292,"integrity":8293,"tastes":8294,"Extremely":8295,"LGBT":8296,"Ralph":8297,"Def":8298,"Rad":8299,"khan":8300,"encoura":8301,"util":8302,"mail":8303,"olves":8304,"span":8305,"facing":8306,"dubbed":8307,"stops":8308,"masterpieces":8309,"featured":8310,"Makes":8311,"physics":8312,"Casting":8313,"parallel":8314,"Watson":8315,"smell":8316,")...":8317,"28":8318,"AG":8319,"Unt":8320,"Vaugh":8321,"yelling":8322,"oop":8323,"idel":8324,"ometheus":8325,"iger":8326,"clueless":8327,"riding":8328,"lands":8329,"chances":8330,"STAR":8331,"niper":8332,"psychopath":8333,"criticize":8334,"murdered":8335,"apolo":8336,"Canada":8337,"Nicholas":8338,"sloppy":8339,"!.":8340,"Eas":8341,"Jay":8342,"MY":8343,"native":8344,"sive":8345,"zzy":8346,"strate":8347,"altogether":8348,"lims":8349,"actic":8350,"actica":8351,"tag":8352,"ouses":8353,"deriv":8354,"angel":8355,"Nope":8356,"rested":8357,"glas":8358,"regards":8359,"retro":8360,"potentially":8361,"blows":8362,"deaths":8363,"Cohen":8364,"bombs":8365,"invasion":8366,"chills":8367,"complaints":8368,"resolution":8369,"lifeless":8370,"BORING":8371,"AF":8372,"Alice":8373,"EP":8374,"Live":8375,"Laugh":8376,"nity":8377,"ativity":8378,"enorm":8379,"aling":8380,"forman":8381,"optim":8382,"launch":8383,"astron":8384,"iston":8385,"agents":8386,"cheated":8387,"lasts":8388,"subplots":8389,"truck":8390,"valid":8391,"attend":8392,"sexist":8393,"1980":8394,"profit":8395,"Expect":8396,"murders":8397,"signed":8398,"adaptations":8399,"accounts":8400,"virus":8401,"official":8402,"advertise":8403,"Polit":8404,"Middle":8405,"sincerely":8406,"antagonist":8407,"Friends":8408,"Chi":8409,"Fa":8410,"Ran":8411,"fro":8412,"nay":8413,"pig":8414,"thood":8415,"uration":8416,"wet":8417,"upper":8418,"sson":8419,"trained":8420,"craw":8421,"hopeful":8422,"closely":8423,"Conn":8424,"Guess":8425,"SciFi":8426,"spectacle":8427,"busy":8428,"defined":8429,"radio":8430,"objective":8431,"Douglas":8432,"HUGE":8433,"Considering":8434,"sarcastic":8435,"Ass":8436,"Cop":8437,"Met":8438,"Ritch":8439,"Snow":8440,"zer":8441,"stare":8442,"unreal":8443,"fac":8444,"eleg":8445,"confident":8446,"cultures":8447,"summar":8448,"crush":8449,"Prometheus":8450,"Surely":8451,"Nevertheless":8452,"medium":8453,"hubali":8454,"Literally":8455,"atholic":8456,"Along":8457,"Mitch":8458,"kis":8459,"pages":8460,"eral":8461,"rein":8462,"riel":8463,"timeline":8464,"proced":8465,"displayed":8466,"finan":8467,"cracking":8468,"moronic":8469,"Carter":8470,"satisf":8471,"2008":8472,"praised":8473,"tortured":8474,"Nicolas":8475,"WHAT":8476,"Surpr":8477,"technique":8478,"picable":8479,"Swedish":8480,"Schindler":8481,"Ag":8482,"Ele":8483,"Know":8484,"Pun":8485,"Vir":8486,"dup":8487,"juring":8488,"uct":8489,"yo":8490,"stilted":8491,"metal":8492,"sums":8493,"impec":8494,"precise":8495,"acknow":8496,"lifestyle":8497,"linear":8498,"sites":8499,"Solo":8500,"screenwriter":8501,"uniform":8502,"faster":8503,"ATE":8504,"ennial":8505,"attacks":8506,"Normally":8507,"thankfully":8508,"definition":8509,"providing":8510,"damage":8511,"Believe":8512,"dreary":8513,"Easily":8514,"!),":8515,"5th":8516,"Cho":8517,"Holly":8518,"Wolf":8519,"nan":8520,"sided":8521,"wrap":8522,"inher":8523,"undoub":8524,"exposed":8525,"sco":8526,"tier":8527,"cohes":8528,"handful":8529,"register":8530,"Keaton":8531,"theatres":8532,"Films":8533,"Titanic":8534,"responsibility":8535,"Private":8536,"website":8537,"repeatedly":8538,"demographic":8539,"valuable":8540,"reduced":8541,"AI":8542,"Cre":8543,"Pak":8544,"Sundance":8545,"bilities":8546,"billion":8547,"glowing":8548,"zone":8549,"ligh":8550,"unky":8551,"racing":8552,"territ":8553,"serie":8554,"cret":8555,"turing":8556,"Johan":8557,"IMO":8558,"retarded":8559,"struggled":8560,"voting":8561,"transp":8562,"Africa":8563,"stinks":8564,"intentions":8565,"crisis":8566,"opsis":8567,"frequently":8568,"Congrat":8569,"Throughout":8570,"immensely":8571,"Baldwin":8572,"Goth":8573,"Kath":8574,"Nik":8575,"Sever":8576,"tape":8577,"proceed":8578,"isogy":8579,"screens":8580,"trivi":8581,"Alf":8582,"grip":8583,"disturbed":8584,"Walter":8585,"depicting":8586,"tradi":8587,"Frankly":8588,"anticipated":8589,"splend":8590,"formative":8591,"................................":8592,"Roger":8593,"dysfunctional":8594,"Ritchie":8595,"95":8596,"Aqu":8597,"Aaron":8598,"HOR":8599,"OP":8600,"PR":8601,"SW":8602,"Squ":8603,"T2":8604,"ime":8605,"revi":8606,"ando":8607,"iler":8608,"whim":8609,"ooding":8610,"posing":8611,"essa":8612,"...)":8613,"mistaken":8614,"oblig":8615,"turd":8616,"directorial":8617,"restaur":8618,"titled":8619,"driver":8620,"!!!!!!":8621,"covers":8622,"networks":8623,"promised":8624,"Poss":8625,"possibilities":8626,"Coen":8627,"Mont":8628,"horrifying":8629,"River":8630,"Austin":8631,"practical":8632,"homosexual":8633,"alternate":8634,"tasteless":8635,"sneak":8636,"Left":8637,"iveness":8638,"Cal":8639,"Gone":8640,"Tow":8641,"sappy":8642,"inane":8643,"terminator":8644,"interview":8645,"parano":8646,"NOW":8647,"involves":8648,"supported":8649,"undant":8650,"2005":8651,"Club":8652,"Francis":8653,"strip":8654,"troubled":8655,"attered":8656,"advertised":8657,"authenticity":8658,"witnessed":8659,"neighb":8660,"fleshed":8661,"caliber":8662,"Blan":8663,"Kling":8664,"Mery":8665,"Typical":8666,"cro":8667,"lens":8668,"oon":8669,"alo":8670,"unanswered":8671,"neck":8672,"doct":8673,"mentality":8674,"spaces":8675,"psons":8676,"appearing":8677,"Shah":8678,"repeating":8679,"senses":8680,"popularity":8681,"Germans":8682,"Angelina":8683,"loosely":8684,"Prime":8685,"melodramatic":8686,"undoubtedly":8687,"National":8688,"hanger":8689,"mist":8690,"ponder":8691,"anx":8692,"states":8693,"cted":8694,"whis":8695,"shay":8696,"butch":8697,"poon":8698,"justified":8699,"contradi":8700,"mani":8701,"ortal":8702,"smarter":8703,"killers":8704,"licate":8705,"cringy":8706,"Saving":8707,"penny":8708,"Skywalker":8709,"mesmerizing":8710,"engrossing":8711,"haunted":8712,"derivative":8713,"Meryl":8714,"\").":8715,"Catherine":8716,"WI":8717,"duty":8718,"rer":8719,"som":8720,"thed":8721,"devast":8722,"ulate":8723,"mates":8724,"Soviet":8725,"Joan":8726,"spoke":8727,"Scary":8728,"ONLY":8729,"Short":8730,"correctly":8731,"catching":8732,"motivated":8733,"Upon":8734,"Stanley":8735,"renewed":8736,"vomit":8737,"Critics":8738,"Pier":8739,"Sit":8740,"hints":8741,"pand":8742,"thm":8743,"stab":8744,"unnecessarily":8745,"nods":8746,"plate":8747,"iffer":8748,"understated":8749,"berry":8750,"renal":8751,"ocide":8752,"negativity":8753,"inspirational":8754,"Nicholson":8755,"Regard":8756,"Scarlett":8757,"cameras":8758,"California":8759,"DI":8760,"Dawn":8761,"HE":8762,"Py":8763,"Santa":8764,"TT":8765,"dum":8766,"eff":8767,"etern":8768,"jail":8769,"kudos":8770,"misogy":8771,"patch":8772,"toys":8773,"sham":8774,"heap":8775,"pregn":8776,"Butler":8777,"Start":8778,"comedians":8779,"understandable":8780,"reasonably":8781,"Seinfeld":8782,"useful":8783,"confess":8784,"suggested":8785,"Robbie":8786,"programming":8787,"comparable":8788,"argument":8789,"synopsis":8790,"Ricky":8791,"poetic":8792,"Father":8793,"MU":8794,"NC":8795,"Pass":8796,"Wild":8797,"cous":8798,"dust":8799,"gments":8800,"nels":8801,"rics":8802,"enberg":8803,"string":8804,"verted":8805,"boots":8806,"dragon":8807,"screwed":8808,"Heart":8809,"Dean":8810,"Marc":8811,"grief":8812,"painting":8813,"faults":8814,"Toronto":8815,"nuts":8816,"--------":8817,"bathroom":8818,"motives":8819,"AB":8820,"Pil":8821,"SHOW":8822,"Ugh":8823,"bin":8824,"econ":8825,"sche":8826,"vain":8827,"thirty":8828,"ert":8829,"asingly":8830,"motive":8831,"Third":8832,"oops":8833,"ria":8834,"riot":8835,"aggress":8836,"civil":8837,"Incredi":8838,"duo":8839,"sheep":8840,"blank":8841,"izable":8842,"Always":8843,"Justice":8844,"Beat":8845,"nervous":8846,"Margot":8847,"Today":8848,"passable":8849,"ALLY":8850,"promises":8851,"News":8852,"transition":8853,"strings":8854,"behaviour":8855,"Angeles":8856,"Witcher":8857,"cruelty":8858,"comprehensible":8859,"caricatures":8860,"models":8861,"narciss":8862,"Vaughn":8863,"Cool":8864,"Dies":8865,"Oc":8866,"Pie":8867,"SC":8868,"Tam":8869,"kicking":8870,"nur":8871,"inf":8872,"lee":8873,"sha":8874,"notes":8875,"tery":8876,"therap":8877,"romp":8878,"pride":8879,"desired":8880,"owner":8881,"Ann":8882,"suspension":8883,"futuristic":8884,"refuse":8885,"Clark":8886,"adaption":8887,"Simple":8888,"?!?!":8889,"rapid":8890,"matched":8891,"furious":8892,"conflicts":8893,"obsession":8894,"Hunter":8895,"princess":8896,"sacrific":8897,"Singh":8898,"Fut":8899,"Mason":8900,"Rotten":8901,"rin":8902,"yawn":8903,"stir":8904,"shout":8905,"shouting":8906,"immer":8907,"intric":8908,"Whilst":8909,"casted":8910,"nevertheless":8911,"merits":8912,"blonde":8913,"fighter":8914,"relations":8915,"Sub":8916,"Performan":8917,"dimension":8918,"strike":8919,"programme":8920,"progression":8921,"vais":8922,"bonus":8923,"Remind":8924,"Cusack":8925,"Until":8926,"CAN":8927,"IO":8928,"Isa":8929,"Were":8930,"cats":8931,"yy":8932,"reson":8933,"ingen":8934,"stron":8935,"tool":8936,"asm":8937,"bey":8938,"lap":8939,"imit":8940,"taught":8941,"spends":8942,"Chur":8943,"Solid":8944,"corner":8945,"marily":8946,"crass":8947,"Arrow":8948,"pays":8949,"package":8950,"racies":8951,"throws":8952,"continuing":8953,"exceptionally":8954,"westerns":8955,"captivated":8956,"Galactica":8957,"Battlestar":8958,"symbolism":8959,"Logan":8960,"spooky":8961,"recycled":8962,"Clar":8963,"Hath":8964,"Ice":8965,"Tar":8966,"avengers":8967,"incompetent":8968,"retire":8969,"toss":8970,"lion":8971,"shorter":8972,"elabor":8973,"sue":8974,"scri":8975,"ambig":8976,"hobic":8977,"woven":8978,"programs":8979,"hammer":8980,"occasions":8981,"revealing":8982,"jerk":8983,"accuracies":8984,"editor":8985,"alcohol":8986,"determined":8987,"Leslie":8988,"american":8989,"territory":8990,"Ci":8991,"DS":8992,"Money":8993,"Wahl":8994,"athan":8995,"lers":8996,"wack":8997,"repul":8998,"supre":8999,"scra":9000,"doors":9001,"bye":9002,"Incredible":9003,"grass":9004,"Stra":9005,"downs":9006,"izations":9007,"cycle":9008,"Actor":9009,"Carrie":9010,"pleasing":9011,"Holy":9012,"nonetheless":9013,"banned":9014,"wedding":9015,"silver":9016,"whelmed":9017,"Beautifully":9018,"cells":9019,"Mirror":9020,"scope":9021,"BIG":9022,"Face":9023,"Ko":9024,"Tech":9025,"san":9026,"alas":9027,"abrupt":9028,"sustain":9029,"device":9030,"showcase":9031,"ssip":9032,"phony":9033,"bitch":9034,"slower":9035,"THER":9036,"monolo":9037,"Room":9038,"drown":9039,"Emmy":9040,"Broke":9041,"claiming":9042,"flashback":9043,"numbing":9044,"layered":9045,"evolution":9046,"ELL":9047,"clown":9048,"Several":9049,"Age":9050,"CSI":9051,"Goo":9052,"Jude":9053,"Oz":9054,"Vol":9055,"bable":9056,"cé":9057,"gather":9058,"ume":9059,"ugs":9060,"vap":9061,"rever":9062,"stup":9063,"libr":9064,"roots":9065,"sprink":9066,"acing":9067,"offend":9068,"grot":9069,"entertainer":9070,"pressed":9071,"Joel":9072,"logies":9073,"capturing":9074,"Peele":9075,"satir":9076,"mentioning":9077,"Harley":9078,"archy":9079,"amounts":9080,"Christianity":9081,"apartment":9082,"professor":9083,"Vijay":9084,"Shows":9085,"recognized":9086,"witches":9087,"Berlin":9088,"Dragon":9089,"defend":9090,"ignorance":9091,"HAVE":9092,"increasingly":9093,"Leonardo":9094,"musc":9095,"glamor":9096,"BR":9097,"Bol":9098,"Bos":9099,"Won":9100,"duration":9101,"gad":9102,"tender":9103,"wave":9104,"staged":9105,"lican":9106,"whining":9107,"icon":9108,"shif":9109,"unsettling":9110,"exquisite":9111,"imi":9112,"wears":9113,"prostit":9114,"overlooked":9115,"disease":9116,"izard":9117,"iano":9118,"ridden":9119,"Serbian":9120,"Charmed":9121,"Gervais":9122,"strangely":9123,"cringeworthy":9124,"transc":9125,"frustration":9126,"Oldman":9127,"wilder":9128,"speechless":9129,"integr":9130,"sincere":9131,"Anton":9132,"Legend":9133,"eagerly":9134,"goosebumps":9135,"grateful":9136,"snooze":9137,"trivial":9138,"Job":9139,"Pir":9140,"Sell":9141,"Shad":9142,"bible":9143,"cere":9144,"jan":9145,"rants":9146,"sword":9147,"reci":9148,"nest":9149,"wayne":9150,"guilt":9151,"pointing":9152,"minal":9153,"Andre":9154,"granted":9155,"motor":9156,"voy":9157,"iped":9158,"Somehow":9159,"194":9160,"scored":9161,"respond":9162,"teaches":9163,"beaten":9164,"opportun":9165,"officers":9166,"Garner":9167,"Laurie":9168,"fingers":9169,"occurred":9170,"Firefly":9171,"Louis":9172,"darn":9173,"Ultim":9174,"politicians":9175,"Broadway":9176,"Congratulations":9177,"FF":9178,"Stran":9179,"WAR":9180,"bby":9181,"eed":9182,"sill":9183,"size":9184,"vine":9185,"thom":9186,"enhan":9187,"chor":9188,"vivid":9189,"beach":9190,"iding":9191,"dilem":9192,"phan":9193,"workers":9194,"illian":9195,"persona":9196,"secondary":9197,"Bean":9198,"morrow":9199,"styles":9200,"publ":9201,"finishing":9202,"buster":9203,"Julie":9204,"Moreover":9205,"secrets":9206,"influenced":9207,"atoes":9208,"translation":9209,"wealthy":9210,"Strange":9211,"Fel":9212,"Sid":9213,"ez":9214,"mou":9215,"ule":9216,"rewatch":9217,"adrenal":9218,"geon":9219,"detract":9220,"displays":9221,"biting":9222,"extre":9223,"heading":9224,"annoy":9225,"witched":9226,"earn":9227,"commented":9228,"Blu":9229,"appearances":9230,"Guys":9231,"Cheers":9232,"Jonathan":9233,"Predict":9234,"Laura":9235,"Writing":9236,"sinister":9237,"guests":9238,"landscapes":9239,"Carell":9240,"inevitable":9241,"Psycho":9242,"Gosling":9243,"Screenplay":9244,"compensate":9245,"satisfaction":9246,"Wahlberg":9247,"Dab":9248,"Dexter":9249,"Fury":9250,"Ja":9251,"Lilly":9252,"Pay":9253,"Seven":9254,"cave":9255,"lane":9256,"informative":9257,"offee":9258,"whiny":9259,"weet":9260,"aud":9261,"timely":9262,"umer":9263,"overused":9264,"understatement":9265,"alongside":9266,"payoff":9267,"spirited":9268,"Shining":9269,"shameful":9270,"dumbed":9271,"primarily":9272,"dealt":9273,"existing":9274,"burning":9275,"grows":9276,"suggests":9277,"Thankfully":9278,"striking":9279,"randomly":9280,"NYC":9281,"controversy":9282,"exploring":9283,"Joseph":9284,"Hook":9285,"Hilar":9286,"Norton":9287,"Shy":9288,"bash":9289,"mish":9290,"pump":9291,"wine":9292,"thon":9293,"inconsist":9294,"degrad":9295,"download":9296,"lasting":9297,"Aniston":9298,"shoe":9299,"curse":9300,"wishes":9301,"confir":9302,"structive":9303,"helpful":9304,"drives":9305,"mixing":9306,"backgrounds":9307,"profession":9308,"recognizable":9309,"mmm":9310,"Break":9311,"blockbusters":9312,"insightful":9313,"torn":9314,"healthy":9315,"stealing":9316,"steaming":9317,"Fortun":9318,"impeccable":9319,"restaurant":9320,"silliness":9321,"\"!":9322,"Dust":9323,"Days":9324,"Ellen":9325,"Glo":9326,"SF":9327,"TW":9328,"Var":9329,"east":9330,"mud":9331,"rome":9332,"zens":9333,"inj":9334,"remove":9335,"myst":9336,"plans":9337,"percent":9338,"disast":9339,"acles":9340,"couples":9341,"Myers":9342,"distance":9343,"judgment":9344,"woe":9345,"Storyline":9346,"Jews":9347,"reaching":9348,"progressed":9349,"nuclear":9350,"targeted":9351,"passionate":9352,"hiding":9353,"Poorly":9354,"Castle":9355,"Stranger":9356,"Kapoor":9357,"Claire":9358,"pitiful":9359,"absorbed":9360,"Penny":9361,"promoting":9362,"Studi":9363,"Apocal":9364,"Larry":9365,"dystopian":9366,"Diesel":9367,"Ban":9368,"Bud":9369,"Creat":9370,"fur":9371,"fuss":9372,"hatt":9373,"ske":9374,"iner":9375,"endo":9376,"andro":9377,"tomorrow":9378,"adul":9379,"astounding":9380,"Started":9381,"2010":9382,"sexually":9383,"freak":9384,"animations":9385,"guessed":9386,"Liber":9387,"confidence":9388,"movements":9389,"questioning":9390,"pattern":9391,"2006":9392,"Prince":9393,"Monty":9394,"belly":9395,"Foster":9396,"carrying":9397,"Beauty":9398,"Jesse":9399,"absence":9400,"resembles":9401,"oriented":9402,":-)":9403,"Furthermore":9404,"Bate":9405,"Cant":9406,"Eve":9407,"Mountain":9408,"Year":9409,"aire":9410,"bender":9411,"drew":9412,"hil":9413,"mond":9414,"phe":9415,"tank":9416,"Thing":9417,"activ":9418,"amused":9419,"congrat":9420,"eps":9421,"manga":9422,"overshadow":9423,"discovery":9424,"accomp":9425,"ieval":9426,"holy":9427,"comprom":9428,"letdown":9429,"Reading":9430,"attended":9431,"Network":9432,"wives":9433,"counting":9434,"priest":9435,"Britain":9436,"2007":9437,"Quinn":9438,"rounded":9439,"Truth":9440,"Stiller":9441,"nuanced":9442,"arcs":9443,"Human":9444,"comprehend":9445,"Olivia":9446,"____":9447,"WORST":9448,"celebrity":9449,"predecessor":9450,"compliment":9451,"ardians":9452,"rhythm":9453,"Ev":9454,"Gad":9455,"JUST":9456,"Rap":9457,"Sally":9458,"caut":9459,"gard":9460,"kiss":9461,"oscar":9462,"thless":9463,"thearted":9464,"arse":9465,"beast":9466,"watcher":9467,"updated":9468,"descent":9469,"despair":9470,"Stand":9471,"pses":9472,"obsc":9473,"factual":9474,"climate":9475,"sadistic":9476,"momentum":9477,"primary":9478,"Lovecraft":9479,"2004":9480,"designs":9481,"contribute":9482,"kicked":9483,"ACK":9484,"WW2":9485,"invented":9486,"skipped":9487,"BTW":9488,"cancercancer":9489,"Team":9490,"Akshay":9491,"Disappointing":9492,"universal":9493,"contrary":9494,"Bog":9495,"Clover":9496,"ELY":9497,"Mic":9498,"Rich":9499,"gins":9500,"ras":9501,"inaccuracies":9502,"edon":9503,"Than":9504,"mechan":9505,"sorely":9506,"idey":9507,"merc":9508,"izz":9509,"Pegg":9510,"channels":9511,"Jackman":9512,"documentaries":9513,"Simpsons":9514,"Pratt":9515,"Spike":9516,"ethnic":9517,"distracted":9518,"Galaxy":9519,"applause":9520,"Rodri":9521,"weapon":9522,"plod":9523,"Diane":9524,"eccentric":9525,"abandoned":9526,"amalan":9527,"Constant":9528,"inferior":9529,"Compared":9530,"23":9531,"Catholic":9532,"Dwayne":9533,"Zo":9534,"dating":9535,"wrest":9536,"inept":9537,"aters":9538,"sticking":9539,"secut":9540,"vein":9541,"addiction":9542,"unden":9543,"pod":9544,"istics":9545,"mann":9546,"overs":9547,"hoom":9548,"anson":9549,"matically":9550,"underwhelming":9551,"performing":9552,"coinc":9553,"submit":9554,"contact":9555,"fantas":9556,"hateful":9557,"spoon":9558,"deadly":9559,"narrator":9560,"Project":9561,"lengthy":9562,"educational":9563,"Judy":9564,"emphasis":9565,"Hulk":9566,"Fortunately":9567,"3d":9568,"?),":9569,"Fonda":9570,"Spart":9571,"SJW":9572,"iently":9573,"eling":9574,"unning":9575,"digest":9576,"dozens":9577,"fundam":9578,"fathom":9579,"lesser":9580,"cheering":9581,"Reese":9582,"critique":9583,"generate":9584,"logically":9585,"releases":9586,"covering":9587,"ussie":9588,"psychology":9589,"Redford":9590,"salv":9591,"washing":9592,"glasses":9593,"assault":9594,"revelation":9595,"neighborhood":9596,"dedicated":9597,"astronaut":9598,"grotesque":9599,"Fear":9600,"IV":9601,"Ly":9602,"Oly":9603,"Twin":9604,"WILL":9605,"dumber":9606,"tree":9607,"infect":9608,"inger":9609,"noted":9610,"decor":9611,"urity":9612,"quer":9613,"spit":9614,"distract":9615,"Independ":9616,"rison":9617,"Moder":9618,"breathe":9619,"moron":9620,"colla":9621,"ERO":9622,"hugely":9623,"respected":9624,"emotionless":9625,"trashy":9626,"Colbert":9627,"strikes":9628,"stranger":9629,"Few":9630,"drawing":9631,"scientists":9632,"Malko":9633,"demonstr":9634,"Trying":9635,"attracted":9636,"loyalty":9637,"sooo":9638,"Children":9639,"assassin":9640,"Sopran":9641,"orcist":9642,"Bateman":9643,"Drac":9644,"Hats":9645,"JO":9646,"Roth":9647,"dome":9648,"elic":9649,"easter":9650,"iat":9651,"jarring":9652,"pher":9653,"von":9654,"arity":9655,"chased":9656,"entit":9657,"sher":9658,"keen":9659,"oopers":9660,"fears":9661,"polar":9662,"anyways":9663,"ums":9664,"trial":9665,"classes":9666,"mighty":9667,"jection":9668,"Shar":9669,"aughey":9670,"continuous":9671,"introducing":9672,"foolish":9673,"smoke":9674,"assumed":9675,"challenged":9676,"Blake":9677,"Dialogue":9678,"splendid":9679,"undeni":9680,"Fat":9681,"Lam":9682,"gif":9683,"ppl":9684,"sigh":9685,"tf":9686,"infant":9687,"incomprehensible":9688,"assure":9689,"ilight":9690,"forgetting":9691,"tage":9692,"twilight":9693,"hibit":9694,"solved":9695,"singer":9696,"predictability":9697,"clothing":9698,"Box":9699,"cringing":9700,"catchy":9701,"praising":9702,"Spacey":9703,"throats":9704,"apocalypse":9705,"Trier":9706,"borderline":9707,"Lucifer":9708,"Summer":9709,"extras":9710,"Hudson":9711,"lighthearted":9712,"\"/":9713,"Ball":9714,"Cry":9715,"Case":9716,"Hate":9717,"QT":9718,"Tat":9719,"Tol":9720,"coffee":9721,"eg":9722,"eyed":9723,"gloss":9724,"uma":9725,"vors":9726,"reject":9727,"oured":9728,"bearing":9729,"idow":9730,"aret":9731,"arty":9732,"wonders":9733,"20th":9734,"careful":9735,"tempted":9736,"casm":9737,"McCon":9738,"Connor":9739,"Files":9740,"Norwe":9741,"Farrell":9742,"Berg":9743,"Hannibal":9744,"gradually":9745,"Maggie":9746,"evolve":9747,"Linda":9748,"Downey":9749,"Regardless":9750,"strongest":9751,"26":9752,"Cavi":9753,"MTV":9754,"Non":9755,"Sel":9756,"Soph":9757,"Win":9758,"eve":9759,"fs":9760,"isnt":9761,"utions":9762,"elite":9763,"ustrop":9764,"robe":9765,"scape":9766,"persu":9767,"funded":9768,"waist":9769,"sublime":9770,"Dete":9771,"starred":9772,"Thats":9773,"seriousness":9774,"appeals":9775,"hilariously":9776,"Cannes":9777,"reminder":9778,"Police":9779,"Orville":9780,"Lucy":9781,"Classic":9782,"OULD":9783,"Prof":9784,"Schumer":9785,"sophomor":9786,"Angels":9787,"Viol":9788,"Muslims":9789,"absurdity":9790,"awareness":9791,"Hannah":9792,"imaginable":9793,"boost":9794,"psychotic":9795,"Planet":9796,"employe":9797,"secure":9798,"Possibly":9799,"Hathaway":9800,"Fy":9801,"Hindi":9802,"Spr":9803,"Wind":9804,"Za":9805,"dick":9806,"rab":9807,"returned":9808,"stan":9809,"itudes":9810,"ids":9811,"devices":9812,"sometime":9813,"pered":9814,"manu":9815,"sayers":9816,"State":9817,"farm":9818,"craz":9819,"careers":9820,"igned":9821,"closure":9822,"marine":9823,"binged":9824,"Terry":9825,"2013":9826,"slam":9827,"cartoonish":9828,"Timo":9829,"nuance":9830,"preferred":9831,"Miranda":9832,"manipulative":9833,"resolved":9834,"AWFUL":9835,"Silver":9836,"bridge":9837,"Virgin":9838,"Cavill":9839,"Dak":9840,"Event":9841,"Less":9842,"bun":9843,"houses":9844,"tles":9845,"absent":9846,"brat":9847,"brooding":9848,"leted":9849,"ysis":9850,"reluct":9851,"Dear":9852,"DeNiro":9853,"runtime":9854,"parties":9855,"ucker":9856,"Shane":9857,"distinct":9858,"biopic":9859,"2011":9860,"boxes":9861,"publicity":9862,"screams":9863,"invited":9864,"Alexander":9865,"homopho":9866,"millennial":9867,"performers":9868,"itizens":9869,"puzzle":9870,"thetically":9871,"Cold":9872,"Citizen":9873,"Making":9874,"Reven":9875,"pandering":9876,"squir":9877,"zation":9878,"engl":9879,"leap":9880,"forgi":9881,"mafia":9882,"raving":9883,"rol":9884,"imitation":9885,"dol":9886,"perpet":9887,"yours":9888,"holic":9889,"Inside":9890,"Indeed":9891,"Secret":9892,"consists":9893,"groundbreaking":9894,"grey":9895,"transformation":9896,"expressed":9897,"combine":9898,"AME":9899,"comparisons":9900,"remained":9901,"sucker":9902,"surrounded":9903,"announced":9904,"cookie":9905,"spiderman":9906,"sarcasm":9907,"rewarding":9908,"Entertaining":9909,"Country":9910,"Support":9911,"library":9912,"Dracula":9913,"Sophie":9914,"CO":9915,"FIN":9916,"Lot":9917,"OID":9918,"Rand":9919,"Vie":9920,"daring":9921,"eh":9922,"isingly":9923,"returning":9924,"eline":9925,"unnatural":9926,"peak":9927,"define":9928,"lake":9929,"urous":9930,"weigh":9931,"directions":9932,"hog":9933,"clues":9934,"genocide":9935,"steady":9936,"jeal":9937,"claustrop":9938,"progressive":9939,"swim":9940,"Philli":9941,"punches":9942,"sales":9943,"hungry":9944,"patriot":9945,"Punisher":9946,"Sellers":9947,"sophomoric":9948,"Ethan":9949,"Hawk":9950,"Tell":9951,"mim":9952,"sab":9953,"til":9954,"vas":9955,"wolves":9956,"zi":9957,"info":9958,"innu":9959,"remade":9960,"stim":9961,"tops":9962,"lyrics":9963,"neth":9964,"illusion":9965,"label":9966,"pol":9967,"update":9968,"pros":9969,"guide":9970,"guided":9971,"lless":9972,"thrones":9973,"desp":9974,"despicable":9975,"whereas":9976,"classical":9977,"leftist":9978,"aneously":9979,"expense":9980,"Scot":9981,"purchase":9982,"2009":9983,"limits":9984,"demands":9985,"Enjoyed":9986,"Philip":9987,"fifteen":9988,"dinosaur":9989,"nauseating":9990,"prejudice":9991,"Frozen":9992,"aesthetic":9993,"Johansson":9994,"MUCH":9995,"Felt":9996,"Predictable":9997,"Shyamalan":9998,"inconsistencies":9999,"Cloverfield":10000,");":10001,"AK":10002,"Curt":10003,"Row":10004,"Rise":10005,"WHO":10006,"pill":10007,"isz":10008,"reun":10009,"ingu":10010,"alter":10011,"unsure":10012,"unexplained":10013,"sugar":10014,"rambl":10015,"locked":10016,"urg":10017,"wholes":10018,"mentary":10019,"discer":10020,"themed":10021,"traum":10022,"uding":10023,"bigot":10024,"Rebel":10025,"1970":10026,"imagining":10027,"Peaks":10028,"presenting":10029,"Arm":10030,"Armen":10031,"Goodman":10032,"Gerard":10033,"growth":10034,"acceptance":10035,"attacked":10036,"Princess":10037,"Plenty":10038,"souls":10039,"flows":10040,"aaaa":10041,"affects":10042,"recorded":10043,"Huge":10044,"nightmares":10045,"enormous":10046,"Modern":10047,"Adri":10048,"Cinder":10049,"Dumb":10050,"Five":10051,"Jaw":10052,"Kumar":10053,"Neither":10054,"Rian":10055,"WAST":10056,"citizens":10057,"tall":10058,"toy":10059,"chief":10060,"shared":10061,"dece":10062,"boom":10063,"acqu":10064,"unior":10065,"Sheen":10066,"deny":10067,"DVR":10068,"Spen":10069,"respective":10070,"Harvey":10071,"positively":10072,"sufficient":10073,"soulless":10074,"Meh":10075,"survived":10076,"Train":10077,"flavor":10078,"ripoff":10079,"boundaries":10080,"broadcast":10081,"resemblance":10082,"vacation":10083,"AVOID":10084,"polished":10085,"Effects":10086,"WITH":10087,"Hilarious":10088,"Detective":10089,"Dakota":10090,"innuendo":10091,"Gard":10092,"Lane":10093,"Rain":10094,"UE":10095,"VHS":10096,"iod":10097,"sam":10098,"tat":10099,"incar":10100,"bean":10101,"illegal":10102,"adjust":10103,"activity":10104,"kel":10105,"filth":10106,"enders":10107,"getic":10108,"funding":10109,"newsp":10110,"coach":10111,"medieval":10112,"clim":10113,"crity":10114,"cursing":10115,"cuz":10116,"massa":10117,"counts":10118,"Coming":10119,"Tomatoes":10120,"moody":10121,"desperation":10122,"provocative":10123,"bullets":10124,"Bern":10125,"grabs":10126,"Alec":10127,"insults":10128,"layer":10129,"explanations":10130,"lifted":10131,"relentless":10132,"monoton":10133,"Portman":10134,"Brooks":10135,"embrace":10136,"vulnerable":10137,"Pierce":10138,"Cut":10139,"Dist":10140,"Ol":10141,"Pu":10142,"Rent":10143,"Sou":10144,"Sonic":10145,"Wire":10146,"boun":10147,"pon":10148,"injustice":10149,"anxious":10150,"vibr":10151,"lip":10152,"versus":10153,"ghan":10154,"shining":10155,"notion":10156,"opted":10157,"iments":10158,"amuse":10159,"pover":10160,"antis":10161,"plant":10162,"auth":10163,"ets":10164,"Stri":10165,"settle":10166,"understands":10167,"voc":10168,"medic":10169,"Weisz":10170,"styl":10171,"League":10172,"norm":10173,"rooms":10174,"truthful":10175,"gods":10176,"protest":10177,"Adventure":10178,"continuously":10179,"treasure":10180,"robber":10181,"Titans":10182,"wildly":10183,"Ridiculous":10184,"cellul":10185,"Ronan":10186,"yrs":10187,"severely":10188,"deliberately":10189,"Scenes":10190,"Dustin":10191,"/\"":10192,"ET":10193,"Kno":10194,"Mem":10195,"Si":10196,"Sor":10197,"Wol":10198,"kar":10199,"rang":10200,"inject":10201,"wasnt":10202,"shades":10203,"pez":10204,"devi":10205,"preposter":10206,"standout":10207,"mindset":10208,"Jodie":10209,"killings":10210,"imaginary":10211,"collabor":10212,"ordin":10213,"airs":10214,"smaller":10215,"nihil":10216,"sooner":10217,"Indians":10218,"truths":10219,"narrow":10220,"admittedly":10221,"describes":10222,"suggestion":10223,"mediocrity":10224,"?!?":10225,"odds":10226,"species":10227,"fascinated":10228,"choppy":10229,"tolerate":10230,"electric":10231,"Talk":10232,"++++":10233,"wicked":10234,"disrespectful":10235,"confront":10236,"isolated":10237,"Bryan":10238,"Gabriel":10239,"vapid":10240,"opportunities":10241,"Malkovich":10242,"McConaughey":10243,"Aussie":10244,"Fell":10245,"Mach":10246,"SPO":10247,"Vik":10248,"WR":10249,"YES":10250,"hoo":10251,"lun":10252,"ology":10253,"winter":10254,"incorrect":10255,"ento":10256,"stumbled":10257,"toes":10258,"entity":10259,"elve":10260,"ooby":10261,"hai":10262,"doomed":10263,"gency":10264,"cracy":10265,"subplot":10266,"relson":10267,"entirety":10268,"shoved":10269,"Anything":10270,"Period":10271,"Shaun":10272,"judged":10273,"Robot":10274,"investment":10275,"substant":10276,"ucci":10277,"reaches":10278,"terrorism":10279,"bullet":10280,"irritated":10281,"basement":10282,"anticipating":10283,"Susp":10284,"Nathan":10285,"Production":10286,"immersed":10287,"losers":10288,"simplicity":10289,"eggs":10290,"Connery":10291,"Sopranos":10292,"AIN":10293,"BL":10294,"CR":10295,"Dhoom":10296,"aving":10297,"bene":10298,"ckets":10299,"etry":10300,"echo":10301,"iator":10302,"piano":10303,"sadd":10304,"itty":10305,"kest":10306,"uncle":10307,"idy":10308,"feast":10309,"lows":10310,"Inception":10311,"dud":10312,"reader":10313,"viscer":10314,"insanity":10315,"superman":10316,"Donnie":10317,"leaders":10318,"addin":10319,"licop":10320,"Lopez":10321,"grounded":10322,"southern":10323,"Cox":10324,"Major":10325,"ails":10326,"statements":10327,"Elli":10328,"MORE":10329,"Barbar":10330,"AMC":10331,"discovers":10332,"warmth":10333,"addictive":10334,"homosexuality":10335,"Bridges":10336,"Royale":10337,"gaps":10338,"disguised":10339,"Songs":10340,"Hobbit":10341,"satirical":10342,"celluloid":10343,"Ah":10344,"Hr":10345,"Kay":10346,"Mess":10347,"Sep":10348,"Taken":10349,"dale":10350,"dled":10351,"pes":10352,"pable":10353,"pale":10354,"ablo":10355,"deleted":10356,"viewings":10357,"dismal":10358,"disregard":10359,"realm":10360,"realizing":10361,"realizes":10362,"Chop":10363,"coupled":10364,"buried":10365,"sounding":10366,"Beast":10367,"experiencing":10368,"paranormal":10369,"Ross":10370,"Isn":10371,"akest":10372,"Shan":10373,"exploitation":10374,"Terri":10375,"listened":10376,"survivors":10377,"Brave":10378,"panic":10379,"Saul":10380,"Wilder":10381,"connections":10382,"assuming":10383,"Ending":10384,"tuned":10385,"chuckles":10386,"ographic":10387,"uddled":10388,"Heroes":10389,"quotes":10390,"Iranian":10391,"strictly":10392,"wacky":10393,"entitled":10394,"monotonous":10395,"Fisher":10396,"Hy":10397,"SP":10398,"Sold":10399,"Tw":10400,"cig":10401,"href":10402,"ocean":10403,"pha":10404,"tan":10405,"itor":10406,"assum":10407,"vileg":10408,"segment":10409,"lized":10410,"urb":10411,"ourney":10412,"realities":10413,"simult":10414,"Heaven":10415,"magaz":10416,"sedu":10417,"classy":10418,"volume":10419,"portion":10420,"closest":10421,"counters":10422,"Worse":10423,"anied":10424,"itchen":10425,"subjected":10426,"causes":10427,"sickening":10428,"Raimi":10429,"Fargo":10430,"remarks":10431,"Epic":10432,"Miami":10433,"Amanda":10434,"Fantasy":10435,"Secondly":10436,"tacky":10437,"escapism":10438,"Naomi":10439,"Dogs":10440,"Hawai":10441,"Hallmark":10442,"borrowed":10443,"Brokeback":10444,"adrenaline":10445,"Cinderella":10446,"?\".":10447,"Mah":10448,"Rag":10449,"Scor":10450,"cs":10451,"emo":10452,"nude":10453,"rats":10454,"sir":10455,"sane":10456,"slice":10457,"uate":10458,"uated":10459,"wider":10460,"yaw":10461,"thread":10462,"infinity":10463,"revers":10464,"enforce":10465,"ilia":10466,"melan":10467,"cker":10468,"polic":10469,"noble":10470,"pton":10471,"overlong":10472,"faint":10473,"asses":10474,"Therefore":10475,"surg":10476,"surpassed":10477,".........":10478,"observ":10479,"tribut":10480,"additional":10481,"placement":10482,"Leave":10483,"Leigh":10484,"30s":10485,"Harrelson":10486,"straightforward":10487,"Pathetic":10488,"rendition":10489,"attach":10490,"combines":10491,"maxim":10492,"Outstanding":10493,"fuel":10494,"Bacon":10495,"Mission":10496,"fantastically":10497,"Blo":10498,"Fed":10499,"Finding":10500,"Parent":10501,"Wrong":10502,"cater":10503,"dv":10504,"din":10505,"jungle":10506,"och":10507,"sma":10508,"switched":10509,"zene":10510,"antha":10511,"tomat":10512,"races":10513,"clone":10514,"interests":10515,"gible":10516,"coon":10517,"worldwide":10518,"ranking":10519,"Weak":10520,"smug":10521,"193":10522,"1960":10523,"logist":10524,"internal":10525,"realistically":10526,"distant":10527,"Holocaust":10528,"conclude":10529,"concerning":10530,"accused":10531,"unfolding":10532,"fixed":10533,"debate":10534,"enthusiasm":10535,"forgiveness":10536,"Wedding":10537,"tactics":10538,"phrase":10539,"Python":10540,"english":10541,"authors":10542,"=\"/":10543,"Alit":10544,"Brend":10545,"Close":10546,"Firth":10547,"Rudd":10548,"UM":10549,"Von":10550,"eous":10551,"factors":10552,"mult":10553,"slea":10554,"slaughter":10555,"vag":10556,"poetry":10557,"therland":10558,"tee":10559,"phant":10560,"redundant":10561,"clunky":10562,"excell":10563,"amaze":10564,"colm":10565,"popping":10566,"midnight":10567,"weekly":10568,"biography":10569,"picky":10570,"bury":10571,"fellas":10572,"Grade":10573,"Brosn":10574,"photograph":10575,"Bobby":10576,"insanely":10577,"accidentally":10578,"Kenned":10579,"guaranteed":10580,"Susan":10581,"birthday":10582,"empowerment":10583,"involvement":10584,"baffled":10585,"Luckily":10586,"discussing":10587,"platform":10588,"Alfred":10589,"intricate":10590,"elaborate":10591,"Civil":10592,"gadgets":10593,"accompanied":10594,"Norwegian":10595,"WASTE":10596,"/\">":10597,"50s":10598,"Bess":10599,"Cate":10600,"DIS":10601,"Hand":10602,"Hal":10603,"Might":10604,"Others":10605,"PP":10606,"UR":10607,"Wy":10608,"Want":10609,"bast":10610,"iety":10611,"kn":10612,"wy":10613,"incorpor":10614,"enchant":10615,"anders":10616,"armed":10617,"mos":10618,"mode":10619,"chi":10620,"Thus":10621,"outright":10622,"notable":10623,"gems":10624,"rier":10625,"deaf":10626,"ravel":10627,"wee":10628,"quarter":10629,"dub":10630,"gray":10631,"angels":10632,"scription":10633,"motions":10634,"Aladdin":10635,"Decent":10636,"Develop":10637,"Moss":10638,"cutter":10639,"IMHO":10640,"socially":10641,"depends":10642,"Actress":10643,"afford":10644,"literature":10645,"ART":10646,"improbable":10647,"Samantha":10648,"Walker":10649,"Danish":10650,"shockingly":10651,"fills":10652,"Between":10653,"dazz":10654,"punish":10655,"believability":10656,"Shia":10657,"Audi":10658,"Voy":10659,"rewarded":10660,"destroys":10661,"Hotel":10662,"forgivable":10663,"Bates":10664,"Block":10665,"Banks":10666,"Cy":10667,"Dread":10668,"Fif":10669,"HH":10670,"Pers":10671,"Passion":10672,"Ref":10673,"Sense":10674,"pause":10675,"slot":10676,"unravel":10677,"sume":10678,"pos":10679,"preced":10680,"cially":10681,"disney":10682,"brown":10683,"scripting":10684,"Joy":10685,"rising":10686,"bothers":10687,"nerves":10688,"menacing":10689,"umpy":10690,"GoT":10691,"distort":10692,"legends":10693,"Harold":10694,"privile":10695,"destined":10696,"ennes":10697,"gripped":10698,"ORY":10699,"accepting":10700,"Vikings":10701,"Berry":10702,"VIEW":10703,"insulted":10704,"Malcolm":10705,"preaching":10706,"patriotic":10707,"MIB":10708,"Mystery":10709,"revolutionary":10710,"selected":10711,"Israel":10712,"Words":10713,"dumbest":10714,"NCIS":10715,"Evans":10716,"Mickey":10717,"tomato":10718,"privilege":10719,"CON":10720,"Dirty":10721,"Ker":10722,"Mik":10723,"Navy":10724,"Ring":10725,"equality":10726,"fri":10727,"gall":10728,"hats":10729,"oil":10730,"rot":10731,"tens":10732,"wink":10733,"stable":10734,"aly":10735,"semble":10736,"ithik":10737,"rial":10738,"deta":10739,"robbed":10740,"illing":10741,"amond":10742,"wholly":10743,"weakest":10744,"disconnected":10745,"phon":10746,"backwards":10747,"completed":10748,"cope":10749,"Heat":10750,"Beck":10751,"nerds":10752,"mony":10753,"privileg":10754,"exploit":10755,"OUR":10756,"Adult":10757,"belle":10758,"gained":10759,"rupted":10760,"fools":10761,"pushes":10762,"brutally":10763,"empire":10764,"fabric":10765,"categor":10766,"chops":10767,"atheist":10768,"AWES":10769,"galaxy":10770,"blatantly":10771,"Banglad":10772,"squee":10773,"enthralling":10774,"receiving":10775,"pregnant":10776,"repulsive":10777,"Apocalypse":10778,"Independence":10779,"Alita":10780,"Brosnan":10781,")!":10782,"==":10783,"Pain":10784,"Rush":10785,"Sol":10786,"TL":10787,"Zoo":10788,"hal":10789,"lab":10790,"pins":10791,"wagon":10792,"chat":10793,"ches":10794,"segments":10795,"bears":10796,"shank":10797,"aboo":10798,"math":10799,"geared":10800,"nope":10801,"asted":10802,"ndrome":10803,"weir":10804,"weather":10805,"offense":10806,"traits":10807,"subsequ":10808,"ipid":10809,"excellently":10810,"releasing":10811,"Within":10812,"positions":10813,"Sutherland":10814,"Meg":10815,"Superbad":10816,"signs":10817,"Geor":10818,"cringey":10819,"concern":10820,"Scottish":10821,"loyd":10822,"analysis":10823,"chaotic":10824,"Central":10825,"Disappointed":10826,"Animation":10827,"wealth":10828,"Dylan":10829,"FUNNY":10830,"financial":10831,"Blanch":10832,"aggressive":10833,"claustrophobic":10834,"Curtis":10835,"wholesome":10836,"preposterous":10837,"AWESOME":10838,"500":10839,"Kend":10840,"Lie":10841,"Pine":10842,"ZERO":10843,"gus":10844,"glit":10845,"rr":10846,"rural":10847,"theories":10848,"retelling":10849,"orrow":10850,"stating":10851,"seld":10852,"selection":10853,"Throw":10854,"lips":10855,"shel":10856,"shred":10857,"unner":10858,"unsatisfying":10859,"outdated":10860,"erspoon":10861,"composed":10862,"illed":10863,"endured":10864,"helicop":10865,"convi":10866,"istent":10867,"proving":10868,"print":10869,"fined":10870,"maturity":10871,"worker":10872,"wardrobe":10873,"Review":10874,"stopping":10875,"neyed":10876,"forming":10877,"Shark":10878,"Tomorrow":10879,"Guardians":10880,"Admit":10881,"sympathize":10882,"perspectives":10883,"judgement":10884,"chicks":10885,"practice":10886,"dignity":10887,"radical":10888,"vulgarity":10889,"Griff":10890,"enthralled":10891,"Atlantis":10892,"IGHT":10893,"optimistic":10894,"HORRIBLE":10895,"Klingons":10896,"recipe":10897,"Aud":10898,"Bran":10899,"Came":10900,"Dutch":10901,"Hom":10902,"Lack":10903,"Ot":10904,"Pad":10905,"Tiger":10906,"Zach":10907,"bio":10908,"dreck":10909,"pound":10910,"uity":10911,"yers":10912,"orn":10913,"uneven":10914,"abusive":10915,"mast":10916,"neur":10917,"perception":10918,"overblown":10919,"partly":10920,"readers":10921,"grind":10922,"seasoned":10923,"blink":10924,"Bee":10925,"March":10926,"delicious":10927,"anka":10928,"scariest":10929,"Boston":10930,"executive":10931,"Supergirl":10932,"Haven":10933,"learns":10934,"Directing":10935,"sensit":10936,"Alicia":10937,"Small":10938,"flag":10939,"circle":10940,"homes":10941,"cowboy":10942,"colours":10943,"automatically":10944,"Freddie":10945,"communication":10946,"Masterpiece":10947,"assistant":10948,"econom":10949,"zenegger":10950,"Ame":10951,"Cher":10952,"Daf":10953,"Ga":10954,"Gru":10955,"HD":10956,"Hur":10957,"Halle":10958,"Ni":10959,"Side":10960,"Troy":10961,"cel":10962,"mig":10963,"mush":10964,"pis":10965,"wich":10966,"instru":10967,"reboots":10968,"ito":10969,"arn":10970,"vian":10971,"shirt":10972,"pee":10973,"joined":10974,"overlook":10975,"becca":10976,"acid":10977,"acclaimed":10978,"ruthless":10979,"trap":10980,"begging":10981,"sentences":10982,"awfully":10983,"restra":10984,"marry":10985,"sidekick":10986,"confuse":10987,"Witherspoon":10988,"Exorcist":10989,"causing":10990,"transformers":10991,"milk":10992,"frames":10993,"teaching":10994,"miracle":10995,"Murder":10996,"conveyed":10997,"arguments":10998,"tolerable":10999,"hunter":11000,"SUCK":11001,"attraction":11002,"Century":11003,"engrossed":11004,"cliffhanger":11005,"Dialogues":11006,"betrayal":11007,"Mulan":11008,"cohesive":11009,"Clarke":11010,"Spencer":11011,"Development":11012,"Cou":11013,"Fair":11014,"Jaa":11015,"cards":11016,"ige":11017,"tends":11018,"edition":11019,"behold":11020,"shelf":11021,"lope":11022,"weed":11023,"eping":11024,"igner":11025,"irsty":11026,"orses":11027,"Into":11028,"emic":11029,"warrior":11030,"Forrest":11031,"shoots":11032,"scarier":11033,"Spy":11034,"McKin":11035,"Cole":11036,"Editing":11037,"Turner":11038,"Kingdom":11039,"Wasn":11040,"Schwar":11041,"flashy":11042,"testament":11043,"thankful":11044,"Afghan":11045,"pathos":11046,"vengeance":11047,"swing":11048,"Camera":11049,"detect":11050,"Oldboy":11051,"evolved":11052,"SyFy":11053,"manipulation":11054,"organization":11055,"crisp":11056,"Place":11057,"choosing":11058,"Sheldon":11059,"Hrithik":11060,"simultaneously":11061,"seldom":11062,"!,":11063,"Bil":11064,"Body":11065,"Cour":11066,"Cross":11067,"Hep":11068,"Pur":11069,"Pink":11070,"SA":11071,"dil":11072,"hunting":11073,"kni":11074,"wre":11075,"ée":11076,"inexplic":11077,"alley":11078,"moan":11079,"ctic":11080,"bee":11081,"Ther":11082,"verine":11083,"forbid":11084,"eliness":11085,"scam":11086,"apers":11087,"Whedon":11088,"offs":11089,"intoler":11090,"underground":11091,"illions":11092,"bucket":11093,"risks":11094,"clip":11095,"attitudes":11096,"flood":11097,"capacity":11098,"intertw":11099,"lander":11100,"alizing":11101,"Score":11102,"Abby":11103,"Meet":11104,"Thriller":11105,"Sara":11106,"umbles":11107,"Foxx":11108,"Writer":11109,"Vincent":11110,"hackneyed":11111,"veterans":11112,"ideology":11113,"mockery":11114,"Satan":11115,"difficulties":11116,"divorce":11117,"drove":11118,"Jaws":11119,"Chopra":11120,"Kennedy":11121,"\"-":11122,"))":11123,"48":11124,"Awards":11125,"DID":11126,"Eg":11127,"Line":11128,"Mot":11129,"SOME":11130,"bite":11131,"jun":11132,"nis":11133,"sends":11134,"ym":11135,"ista":11136,"retired":11137,"ora":11138,"stark":11139,"itz":11140,"mothers":11141,"sect":11142,"sored":11143,"defe":11144,"neut":11145,"watchers":11146,"noises":11147,"ilda":11148,"coat":11149,"visions":11150,"Reilly":11151,"Rebecca":11152,"guez":11153,"Marshall":11154,"engers":11155,"Living":11156,"Mann":11157,"buildings":11158,"Conjuring":11159,"instinct":11160,"Post":11161,"Blunt":11162,"Christina":11163,"barrel":11164,"ordered":11165,"Madison":11166,"liberals":11167,"traveling":11168,"nuances":11169,"walls":11170,"Polish":11171,"distraction":11172,"stakes":11173,"Hellboy":11174,"OOOO":11175,"IFF":11176,"TERRIBLE":11177,"EVERYTHING":11178,"FOX":11179,"Wife":11180,"IOUS":11181,"supreme":11182,"substantial":11183,"Dreadful":11184,"47":11185,"Bus":11186,"Gro":11187,"Len":11188,"Lem":11189,"Prison":11190,"Rel":11191,"aunt":11192,"inja":11193,"retain":11194,"ensure":11195,"orian":11196,"album":11197,"uninspiring":11198,"abused":11199,"raises":11200,"canon":11201,"ookie":11202,"discrimin":11203,"underdeveloped":11204,"origins":11205,"ograp":11206,"mermaid":11207,"recommending":11208,"ipes":11209,"monkey":11210,"interact":11211,"rett":11212,"schools":11213,"Gossip":11214,"biblical":11215,"franchises":11216,"transfer":11217,"wheel":11218,"slavery":11219,"oddly":11220,"voters":11221,"gangsters":11222,"relevance":11223,"intellectually":11224,"Thoroughly":11225,"Pacific":11226,"compete":11227,"loneliness":11228,"loop":11229,"urai":11230,"Gregor":11231,"scratching":11232,"believers":11233,"Return":11234,"acknowledge":11235,"Google":11236,"plodding":11237,"demonstrates":11238,"visceral":11239,"privileged":11240,"McKinnon":11241,"ographer":11242,"27":11243,"2D":11244,">>":11245,"Buck":11246,"Gay":11247,"Kil":11248,"Later":11249,"Lake":11250,"Lara":11251,"jol":11252,"lins":11253,"ological":11254,"punk":11255,"sof":11256,"tiring":11257,"uge":11258,"itter":11259,"mold":11260,"forty":11261,"mega":11262,"imately":11263,"tip":11264,"conscience":11265,"apply":11266,"pric":11267,"misfortune":11268,"dubbing":11269,"newer":11270,"Stark":11271,"righteous":11272,"coz":11273,"insipid":11274,"lette":11275,"nerve":11276,"portrayals":11277,"Peck":11278,"pedest":11279,"Disgust":11280,"paste":11281,"REVIEW":11282,"Sharon":11283,"distress":11284,"Megan":11285,"2003":11286,"13th":11287,"concerns":11288,"Miche":11289,"skipping":11290,"nutshell":11291,"Borat":11292,"dissapointed":11293,"trope":11294,"apologi":11295,"elegant":11296,"Squad":11297,"reruns":11298,"Rodriguez":11299,"Ari":11300,"FR":11301,"IVE":11302,"Lol":11303,"Mend":11304,"bones":11305,"nick":11306,"recru":11307,"vell":11308,"ida":11309,"nephe":11310,"dimin":11311,"charged":11312,"bleed":11313,"owned":11314,"centers":11315,"obst":11316,"produces":11317,"solution":11318,"contender":11319,"Joss":11320,"founded":11321,"smiles":11322,"morally":11323,"schlock":11324,"STORY":11325,"Steel":11326,"instal":11327,"teams":11328,"treats":11329,"convincingly":11330,"ibilities":11331,"Austen":11332,"painted":11333,"officially":11334,"dressing":11335,"1984":11336,"hhhh":11337,"arguably":11338,"vastly":11339,"options":11340,"Enterprise":11341,"demanding":11342,"Pirates":11343,"stimul":11344,"SPOIL":11345,"Suspense":11346,"melancho":11347,"Bun":11348,"Ewan":11349,"Hust":11350,"Happ":11351,"Todd":11352,"mons":11353,"oir":11354,"pant":11355,"wire":11356,"informed":11357,"istry":11358,"request":11359,"sevent":11360,"Thumbs":11361,"meas":11362,"sharing":11363,"elder":11364,"haw":11365,"macho":11366,"consum":11367,"upside":11368,"john":11369,"boards":11370,"plotting":11371,"assy":11372,"hokey":11373,"timed":11374,"laughably":11375,"ashes":11376,"comeback":11377,"helpless":11378,"glance":11379,"continually":11380,"commenting":11381,"instances":11382,"LOW":11383,"LOTR":11384,"translate":11385,"avoiding":11386,"Quaid":11387,"Pros":11388,"Elba":11389,"Fincher":11390,"Feel":11391,"Feels":11392,"ICE":11393,"Obama":11394,"threatening":11395,"wisdom":11396,"enthusiastic":11397,"bullshit":11398,"promoted":11399,"Jacob":11400,"Beyon":11401,"Campbell":11402,"Mitchell":11403,"Aquaman":11404,"misogyn":11405,"cousin":11406,"Pilot":11407,"Ultimately":11408,"Olym":11409,"poverty":11410,"excellence":11411,".(":11412,"Ay":11413,"Agent":11414,"Bab":11415,"Cub":11416,"Doo":11417,"Ill":11418,"OL":11419,"Sof":11420,"Tax":11421,"Wright":11422,"Yu":11423,"dwell":11424,"mute":11425,"tu":11426,"wtf":11427,"infl":11428,"reel":11429,"reverse":11430,"arian":11431,"vibes":11432,"meal":11433,"uno":11434,"raising":11435,"intimate":11436,"tration":11437,"prev":11438,"newcom":11439,"Stick":11440,"Chron":11441,"disappoints":11442,"emed":11443,"visiting":11444,"dictator":11445,"Been":11446,"colon":11447,"masterfully":11448,"INT":11449,"positives":11450,"Cannot":11451,"Scooby":11452,"spectrum":11453,"pilots":11454,"existential":11455,"crucial":11456,"bottle":11457,"Impossible":11458,"agendas":11459,"liberties":11460,"BSG":11461,"Times":11462,"professionals":11463,"delighted":11464,"1995":11465,"Brazilian":11466,"fifty":11467,"psychiat":11468,"translated":11469,"vaguely":11470,"hattan":11471,"gifted":11472,"Parents":11473,")?":11474,"49":11475,"Bri":11476,"Dest":11477,"Irel":11478,"Kick":11479,"KING":11480,"Miles":11481,"Rene":11482,"Tele":11483,"Ug":11484,"Yout":11485,"cens":11486,"kitchen":11487,"mers":11488,"inity":11489,"todays":11490,"ari":11491,"ilarly":11492,"entered":11493,"shap":11494,"ully":11495,"netic":11496,"dive":11497,"presum":11498,"longing":11499,"blends":11500,"code":11501,"subpar":11502,"basket":11503,"Weird":11504,"1990":11505,"1950":11506,"1980s":11507,"clock":11508,"handling":11509,"sched":11510,"neglect":11511,"distingu":11512,"promin":11513,"depths":11514,"instit":11515,"describing":11516,"Emperor":11517,"slave":11518,"murderer":11519,"Greta":11520,"substit":11521,"Finn":11522,"Lastly":11523,"ushka":11524,"baseball":11525,"spinning":11526,"Angelo":11527,"Craw":11528,"stoned":11529,"fifth":11530,"Rogers":11531,"addressed":11532,"predator":11533,"Speaking":11534,"alcoholic":11535,"Repub":11536,"Entertainment":11537,"Needless":11538,"candid":11539,"Surprisingly":11540,"neighbors":11541,"enforcement":11542,"Dafoe":11543,"Hepburn":11544,"Ana":11545,"DJ":11546,"Eva":11547,"Killer":11548,"bt":11549,"bour":11550,"bins":11551,"bots":11552,"cure":11553,"hung":11554,"jar":11555,"mart":11556,"sending":11557,"uto":11558,"inability":11559,"atics":11560,"Theory":11561,"poke":11562,"anytime":11563,"inton":11564,"troops":11565,"olate":11566,"characteristics":11567,"humili":11568,"screenwriters":11569,"ranked":11570,"warrant":11571,"conditions":11572,"Maria":11573,"license":11574,"regularly":11575,"garner":11576,"exceptions":11577,"copies":11578,"consideration":11579,"Manhattan":11580,"Spir":11581,"Charlot":11582,"ITS":11583,"Gerwig":11584,"Walken":11585,"ASH":11586,"mannerisms":11587,"prisoners":11588,"Damn":11589,"objects":11590,"Judge":11591,"drunken":11592,"contempl":11593,"Gravity":11594,"route":11595,"companion":11596,"poop":11597,"applauded":11598,"Hawke":11599,"XXXX":11600,"1950s":11601,"seamlessly":11602,"groan":11603,"zzzzzzzzzzzzzzzz":11604,"firmly":11605,"excruciatingly":11606,"Meanwhile":11607,"reliable":11608,"Pakistan":11609,"paranoia":11610,"Church":11611,"vibrant":11612,"Schwarzenegger":11613,"-)":11614,"Bull":11615,"Easy":11616,"Fle":11617,"Fish":11618,"Graph":11619,"Hi":11620,"Loc":11621,"Nation":11622,"Pick":11623,"Smo":11624,"TE":11625,"WANT":11626,"lis":11627,"mouse":11628,"nations":11629,"pom":11630,"incon":11631,"error":11632,"stor":11633,"stitch":11634,"worship":11635,"manager":11636,"disappear":11637,"shoulders":11638,"misunderstood":11639,"bral":11640,"traff":11641,"blunt":11642,"visited":11643,"trio":11644,"lighten":11645,"sexism":11646,"riddled":11647,"runner":11648,"depending":11649,"skit":11650,"identical":11651,"Terror":11652,"fox":11653,"catast":11654,"discovering":11655,"1994":11656,"defense":11657,"Magic":11658,"RIP":11659,"Party":11660,"praying":11661,"Italy":11662,"Valley":11663,"kidnapped":11664,"journalist":11665,"convenient":11666,"Incredibly":11667,"Ireland":11668,"Cran":11669,"Coppo":11670,"CRA":11671,"Fli":11672,"Fass":11673,"Fringe":11674,"GG":11675,"Lloyd":11676,"Mill":11677,"Sleep":11678,"SFX":11679,"Tara":11680,"cage":11681,"hance":11682,"muddled":11683,"sid":11684,"slack":11685,"ugen":11686,"enig":11687,"toon":11688,"ows":11689,"lian":11690,"aden":11691,"solo":11692,"devoted":11693,"roof":11694,"exhilar":11695,"exotic":11696,"shower":11697,"endlessly":11698,"inters":11699,"condu":11700,"qui":11701,"services":11702,"anski":11703,"grin":11704,"trauma":11705,"borders":11706,"cheating":11707,"angled":11708,"flies":11709,"voir":11710,"Seen":11711,"Anti":11712,"interval":11713,"garian":11714,"umbai":11715,"Bride":11716,"Conf":11717,"languages":11718,"clapped":11719,"Mostly":11720,"improves":11721,"Melan":11722,"recording":11723,"Crazy":11724,"hideous":11725,"feedback":11726,"Crash":11727,"metaphors":11728,"Fanning":11729,"Idris":11730,"weaknesses":11731,"suspicious":11732,"precisely":11733,"devastating":11734,"fantasies":11735,"Violence":11736,"Besson":11737,"Blanchett":11738,"Cro":11739,"Dall":11740,"Hurt":11741,"Kash":11742,"Lith":11743,"Lily":11744,"Liz":11745,"Million":11746,"RR":11747,"Spect":11748,"Tem":11749,"bent":11750,"dirt":11751,"pour":11752,"sna":11753,"inhabit":11754,"ancing":11755,"atomy":11756,"ching":11757,"ador":11758,"endgame":11759,"epit":11760,"fulfilled":11761,"plex":11762,"dismiss":11763,"fathers":11764,"idest":11765,"holocaust":11766,"rukh":11767,"Inst":11768,"Storm":11769,"empathize":11770,"obli":11771,"subscri":11772,"onson":11773,"stylized":11774,"Uncle":11775,"Unbelievable":11776,"Peace":11777,"sociop":11778,"ERE":11779,"paring":11780,"Rogue":11781,"mascul":11782,"remembering":11783,"patron":11784,"cringed":11785,"Julianne":11786,"Giving":11787,"knocked":11788,"significance":11789,"Bella":11790,"profoundly":11791,"slept":11792,"mobile":11793,"Caine":11794,"Sweden":11795,"frequent":11796,"arrived":11797,"Eastern":11798,"Future":11799,"domestic":11800,"Bergman":11801,"Supporting":11802,"tattoo":11803,"beneath":11804,"Republican":11805,",'":11806,"Apr":11807,"CA":11808,"Cos":11809,"Hans":11810,"Karen":11811,"Molly":11812,"gul":11813,"ptive":11814,"eries":11815,"resur":11816,"enna":11817,"enhance":11818,"arrive":11819,"chris":11820,"oming":11821,"owed":11822,"lified":11823,"unit":11824,"defeat":11825,"scoring":11826,"poison":11827,"tron":11828,"aux":11829,"fulfill":11830,"pron":11831,"ideals":11832,"misguided":11833,"chees":11834,"entertains":11835,"subtly":11836,"smith":11837,"breathing":11838,"stuffed":11839,"drift":11840,"Shrek":11841,"Express":11842,"mixes":11843,"burned":11844,"Clay":11845,"beside":11846,"trusted":11847,"studied":11848,"gloomy":11849,"Midnight":11850,"organized":11851,"patients":11852,"Internet":11853,"Scream":11854,"Fallen":11855,"Clich":11856,"admirable":11857,"analyze":11858,"decline":11859,"celebrities":11860,"difficulty":11861,"Toni":11862,"Barbara":11863,"maximum":11864,"Admittedly":11865,"priceless":11866,"Coppola":11867,"Dallas":11868,"Amir":11869,"Evan":11870,"Flo":11871,"Page":11872,"Rh":11873,"Sue":11874,"Uk":11875,"nom":11876,"sniper":11877,"ugg":11878,"onna":11879,"static":11880,"aris":11881,"champ":11882,"leen":11883,"Thunder":11884,"verage":11885,"shan":11886,"unrelated":11887,"construction":11888,"venue":11889,"quant":11890,"directs":11891,"expects":11892,"Chlo":11893,"20s":11894,"lightly":11895,"monu":11896,"Nemo":11897,"dribble":11898,"orders":11899,"mitive":11900,"Order":11901,"drops":11902,"sensation":11903,"hosts":11904,"attacking":11905,"refreshingly":11906,"introduces":11907,"Smart":11908,"Monday":11909,"indian":11910,"grabbed":11911,"Daniels":11912,"researched":11913,"Garcia":11914,"Mirren":11915,"manipulated":11916,"Romanian":11917,"Listen":11918,"predic":11919,"consciousness":11920,"Casino":11921,"discussed":11922,"insert":11923,"kissing":11924,"rapidly":11925,"confirmed":11926,"Casey":11927,"Kendrick":11928,"April":11929,"85":11930,"Coo":11931,"FA":11932,"HIGH":11933,"JP":11934,"Mia":11935,"Ned":11936,"Rat":11937,"Zack":11938,"bread":11939,"cus":11940,"ect":11941,"fence":11942,"kung":11943,"meandering":11944,"shing":11945,"abstr":11946,"ciously":11947,"disorder":11948,"ishes":11949,"Stal":11950,"steer":11951,"hyp":11952,"Arrested":11953,"hilarity":11954,"weaker":11955,"McGregor":11956,"prize":11957,"Warner":11958,"rendered":11959,"Byr":11960,"conclusions":11961,"explosive":11962,"Hangover":11963,"Syl":11964,"squad":11965,"Karl":11966,"damaged":11967,"communicate":11968,"concentrate":11969,"civilization":11970,"Hulu":11971,"monotone":11972,"predecessors":11973,"Poppins":11974,"transported":11975,"ambiguous":11976,"TWD":11977,"Armenian":11978,"Ragnar":11979,"CRE":11980,"DD":11981,"Drive":11982,"Gang":11983,"Him":11984,"NA":11985,"PRE":11986,"Took":11987,"WA":11988,"Watt":11989,"citizen":11990,"fru":11991,"horses":11992,"remaking":11993,"toxic":11994,"ashi":11995,"ooo":11996,"irts":11997,"delicate":11998,"labe":11999,"perman":12000,"canned":12001,"auer":12002,"promotion":12003,"realization":12004,"ppers":12005,"accol":12006,"backed":12007,"clin":12008,"achron":12009,"cream":12010,"couch":12011,"Revol":12012,"foundation":12013,"Sea":12014,"click":12015,"breed":12016,"buddies":12017,"pub":12018,"STOP":12019,"drum":12020,"Spidey":12021,"respects":12022,"Conan":12023,"transformed":12024,"stepped":12025,"ibbean":12026,"sensu":12027,"ONEY":12028,"commitment":12029,"fairytale":12030,"fleet":12031,"bloated":12032,"participate":12033,"sorrow":12034,"arrives":12035,"Shawshank":12036,"heights":12037,"Kingsley":12038,"Political":12039,"contradict":12040,"patriotism":12041,"Shannon":12042,"Charlotte":12043,"BG":12044,"Bow":12045,"Cars":12046,"Fal":12047,"Kra":12048,"Lame":12049,"MONEY":12050,"PD":12051,"Us":12052,"dross":12053,"evalu":12054,"jac":12055,"knight":12056,"lur":12057,"pumped":12058,"uber":12059,"yard":12060,"recreate":12061,"mocking":12062,"ila":12063,"ille":12064,"Thurs":12065,"unaware":12066,"unintentionally":12067,"riors":12068,"rainy":12069,"lav":12070,"amid":12071,"condem":12072,"apple":12073,"itect":12074,"characterisation":12075,"castle":12076,"ensed":12077,"cents":12078,"Soon":12079,"insom":12080,"subscription":12081,"pier":12082,"shocks":12083,"landed":12084,"election":12085,"airing":12086,"Daisy":12087,"primitive":12088,"subjective":12089,"posters":12090,"burg":12091,"countryside":12092,"wrought":12093,"sensible":12094,"Columb":12095,"petty":12096,"bullying":12097,"Romance":12098,"Lifetime":12099,"Rockwell":12100,"Jonah":12101,"Syd":12102,"Alexand":12103,"speeches":12104,"marketed":12105,"authority":12106,"Survi":12107,"maintaining":12108,"Hoping":12109,"buffs":12110,"Interstellar":12111,"absorbing":12112,"replic":12113,"General":12114,"LIKE":12115,"ambiance":12116,"narcissistic":12117,"cerebral":12118,"Profess":12119,"Voyager":12120,"tomatoes":12121,"55":12122,"EU":12123,"Glover":12124,"Mummy":12125,"Phan":12126,"Push":12127,"Ur":12128,"Winter":12129,"aves":12130,"cen":12131,"ffe":12132,"anna":12133,"asi":12134,"adminis":12135,"comings":12136,"astound":12137,"condesc":12138,"upt":12139,"overacted":12140,"hoot":12141,"amazes":12142,"solving":12143,"Head":12144,"Heck":12145,"bubble":12146,"Mocking":12147,"crook":12148,"opener":12149,"007":12150,"Caribbean":12151,"distaste":12152,"purposes":12153,"bians":12154,"literary":12155,"underest":12156,"refuge":12157,"ailed":12158,"snap":12159,"grandmother":12160,"complained":12161,"Years":12162,"flair":12163,"appalled":12164,"unexpectedly":12165,"1998":12166,"products":12167,"atrocity":12168,"1970s":12169,"demonst":12170,"coward":12171,"Palma":12172,"Rogan":12173,"giggle":12174,"Deepika":12175,"isolation":12176,"phrases":12177,"advertisement":12178,"therapy":12179,"Reminds":12180,"Isaac":12181,"Boll":12182,"disastrous":12183,"Thanos":12184,"sheriff":12185,"Timothy":12186,"magazine":12187,"?'":12188,"Dull":12189,"Hack":12190,"Idi":12191,"Mack":12192,"Mix":12193,"Mumbai":12194,"Orange":12195,"Spain":12196,"bending":12197,"hart":12198,"len":12199,"ola":12200,"pus":12201,"sanity":12202,"tent":12203,"widow":12204,"threads":12205,"asite":12206,"shod":12207,"shift":12208,"unhappy":12209,"abundance":12210,"sues":12211,"destructive":12212,"dod":12213,"aura":12214,"overwhelmed":12215,"disci":12216,"disservice":12217,"liest":12218,"cloud":12219,"giar":12220,"pretends":12221,"emperor":12222,"fanatic":12223,"suburban":12224,"porter":12225,"valent":12226,"soundtracks":12227,"Anushka":12228,"rung":12229,"Robo":12230,"witted":12231,"Brando":12232,"twisting":12233,"Brits":12234,"prompt":12235,"posting":12236,"agony":12237,"satisfactory":12238,"Blind":12239,"Warrior":12240,"royal":12241,"approved":12242,"teachers":12243,"panned":12244,"TOS":12245,"Burn":12246,"furi":12247,"explosion":12248,"safely":12249,"atrocities":12250,"1977":12251,"NEW":12252,"Carey":12253,"sketches":12254,"chooses":12255,"Faith":12256,"butchered":12257,"stupidest":12258,"dilemma":12259,"Gadot":12260,"obscure":12261,"Constantine":12262,"infantile":12263,"sleazy":12264,"Egyp":12265,"Youtube":12266,"Phantom":12267,"Cats":12268,"Dal":12269,"Ki":12270,"Katherine":12271,"MM":12272,"Pand":12273,"Sen":12274,"Uma":12275,"cart":12276,"dic":12277,"mum":12278,"plight":12279,"wers":12280,"wore":12281,"xta":12282,"zard":12283,"zie":12284,"err":12285,"attribut":12286,"orite":12287,"anded":12288,"beware":12289,"lighter":12290,"adopted":12291,"enters":12292,"aya":12293,"abound":12294,"raved":12295,"amed":12296,"artistry":12297,"owns":12298,"ortions":12299,"shoulder":12300,"afterward":12301,"plagiar":12302,"blended":12303,"decency":12304,"deciding":12305,"glaring":12306,"Somebody":12307,"Marie":12308,"coln":12309,"satur":12310,"gravity":12311,"Gods":12312,"Scand":12313,"Cartoon":12314,"profile":12315,"Comp":12316,"summed":12317,"Pope":12318,"intensely":12319,"Monster":12320,"Woods":12321,"matches":12322,"structured":12323,"assured":12324,"homeless":12325,"According":12326,"Sunshine":12327,"Garbage":12328,"Hammer":12329,"heartedly":12330,"hurry":12331,"Ruby":12332,"Westworld":12333,"virtue":12334,"briefly":12335,"HAHA":12336,"Writers":12337,"galore":12338,"Reser":12339,"settled":12340,"astonished":12341,"holidays":12342,"promotes":12343,"Vegas":12344,"pirate":12345,"andalorian":12346,"Pattinson":12347,"Humor":12348,"yellow":12349,"Knowing":12350,"enhanced":12351,"Scotland":12352,"robbery":12353,"Cuba":12354,"6th":12355,"Aron":12356,"Burt":12357,"Crap":12358,"Daw":12359,"Eis":12360,"FY":12361,"Fine":12362,"Gilliam":12363,"Nine":12364,"dates":12365,"gence":12366,"phase":12367,"xx":12368,"leans":12369,"vicious":12370,"whites":12371,"keeper":12372,"filmo":12373,"raped":12374,"neider":12375,"combo":12376,"illon":12377,"doom":12378,"inks":12379,"overboard":12380,"bolic":12381,"spring":12382,"dudes":12383,"amet":12384,"undertones":12385,"odder":12386,"kindness":12387,"controlled":12388,"ignoring":12389,"montage":12390,"fighters":12391,"regurg":12392,"university":12393,"lively":12394,"Bronson":12395,"spirits":12396,"reminding":12397,"Brother":12398,"implic":12399,"containing":12400,"strangers":12401,"Showtime":12402,"salt":12403,"relatives":12404,"Episodes":12405,"conveys":12406,"installments":12407,"globe":12408,"1960s":12409,"resulting":12410,"hysterically":12411,"stereotyped":12412,"Homecoming":12413,"Jenkins":12414,"Doll":12415,"Lincoln":12416,"Welcome":12417,"naysayers":12418,"registered":12419,"doctors":12420,"anxiety":12421,"mouthed":12422,"fundamental":12423,"Crystal":12424,"WRONG":12425,"subsequent":12426,"sociopath":12427,"resurrect":12428,"\"),":12429,"01":12430,"Band":12431,"Bander":12432,"Cron":12433,"Comb":12434,"Kal":12435,"Lisa":12436,"Manson":12437,"Os":12438,"OVER":12439,"Sny":12440,"baked":12441,"bumbling":12442,"nell":12443,"uries":12444,"tober":12445,"choc":12446,"liar":12447,"iciently":12448,"outfits":12449,"dev":12450,"defi":12451,"comend":12452,"divid":12453,"hek":12454,"hears":12455,"werewolf":12456,"prince":12457,"acies":12458,"enson":12459,"placing":12460,"rightly":12461,"pauses":12462,"cracks":12463,"topia":12464,"Weaver":12465,"atha":12466,"Sequ":12467,"talentless":12468,"Suff":12469,"USE":12470,"respectful":12471,"Christie":12472,"LOST":12473,"suffice":12474,"Guiller":12475,"boxing":12476,"Class":12477,"redeemable":12478,"connects":12479,"connecting":12480,"Fiennes":12481,"disturb":12482,"Schneider":12483,"flowing":12484,"flowed":12485,"senior":12486,"Betty":12487,"Garfield":12488,"reflected":12489,"Quest":12490,"safety":12491,"Channing":12492,"Irons":12493,"anuary":12494,"investigate":12495,"boobs":12496,"jerker":12497,"Killing":12498,"resembling":12499,"maids":12500,"Producers":12501,"omeday":12502,"blessed":12503,"allegory":12504,"hesitant":12505,"Revenge":12506,"newspaper":12507,"Afghanistan":12508,"pomp":12509,"Byrne":12510,"Guillermo":12511,"Away":12512,"Ble":12513,"Cube":12514,"Eugen":12515,"Fem":12516,"NAS":12517,"PL":12518,"Por":12519,"Zoe":12520,"bir":12521,"ginal":12522,"iuses":12523,"junior":12524,"anachron":12525,"ongoing":12526,"encounters":12527,"Thur":12528,"adored":12529,"entering":12530,"pest":12531,"map":12532,"notably":12533,"exhibit":12534,"scattered":12535,"heat":12536,"trow":12537,"proven":12538,"acclaim":12539,"cheered":12540,"needless":12541,"Social":12542,"flims":12543,"basics":12544,"Week":12545,"Dece":12546,"rises":12547,"meanings":12548,"heroism":12549,"ggy":12550,"Doom":12551,"lando":12552,"Arnie":12553,"skull":12554,"THEY":12555,"adventurous":12556,"Batwoman":12557,"criticized":12558,"religions":12559,"surviving":12560,"massively":12561,"abyrin":12562,"unkirk":12563,"Cheap":12564,"Saoir":12565,"traditions":12566,"applied":12567,"swallow":12568,"experts":12569,"ICK":12570,"juxta":12571,"kien":12572,"evolves":12573,"Boyle":12574,"Chastain":12575,"Vanessa":12576,"addresses":12577,"billed":12578,"Addition":12579,"celebrate":12580,"arrowing":12581,"determination":12582,"Wednes":12583,"Zeal":12584,"alleged":12585,"Venom":12586,"Latin":12587,"elimin":12588,"Pointless":12589,"Gotham":12590,"monologues":12591,"sprinkled":12592,"astronauts":12593,"reluctant":12594,"dvd":12595,"Otto":12596,"Court":12597,"abstract":12598,"hypnot":12599,"33":12600,"CD":12601,"FAR":12602,"Uwe":12603,"Zac":12604,"gel":12605,"gories":12606,"jaded":12607,"skilled":12608,"vital":12609,"thie":12610,"relying":12611,"ench":12612,"ouge":12613,"iti":12614,"seas":12615,"masters":12616,"gear":12617,"irrational":12618,"laz":12619,"artwork":12620,"uming":12621,"fines":12622,"coast":12623,"izza":12624,"Alas":12625,"girlfriends":12626,"Dev":12627,"classified":12628,"athon":12629,"critically":12630,"19th":12631,"Shet":12632,"INE":12633,"shorts":12634,"openly":12635,"confirm":12636,"ANK":12637,"denomin":12638,"Key":12639,"Comic":12640,"architect":12641,"ITY":12642,"weirdness":12643,"..........":12644,"Supernatural":12645,"Robinson":12646,"Ground":12647,"Simpson":12648,"consistency":12649,"achieves":12650,"snappy":12651,"awkwardness":12652,"bombed":12653,"expertly":12654,"mouths":12655,"trees":12656,"IDS":12657,"chicken":12658,"daddy":12659,"glorified":12660,"Waiting":12661,"Intel":12662,"endeav":12663,"vacuous":12664,"Soundtrack":12665,"replacement":12666,"Jenny":12667,"Lights":12668,"Metal":12669,"ipedia":12670,"DabDab":12671,"manufact":12672,"stylistic":12673,"Bangladesh":12674,"squeeze":12675,"neurotic":12676,"instalment":12677,"shoddy":12678,"Banderas":12679,"December":12680,"abyrinth":12681,"120":12682,"BA":12683,"Bach":12684,"Dunkirk":12685,"Hil":12686,"January":12687,"KK":12688,"Kaz":12689,"Mass":12690,"Natur":12691,"PI":12692,"Rest":12693,"Sty":12694,"YE":12695,"btw":12696,"blog":12697,"eer":12698,"jest":12699,"lend":12700,"mumbling":12701,"slog":12702,"troll":12703,"alert":12704,"behaving":12705,"vet":12706,"icy":12707,"filthy":12708,"notor":12709,"detr":12710,"posure":12711,"heim":12712,"couldnt":12713,"hia":12714,"mercy":12715,"performer":12716,"downside":12717,"reek":12718,"submarine":12719,"Demo":12720,"jewel":12721,"tempo":12722,"temper":12723,"budgets":12724,"syndrome":12725,"paro":12726,"blacks":12727,"0000":12728,"Goodfellas":12729,"masala":12730,"paycheck":12731,"inclusion":12732,"bike":12733,"greedy":12734,"equip":12735,"gays":12736,"fraud":12737,"stray":12738,"Patric":12739,"affection":12740,"machines":12741,"session":12742,"robotic":12743,"Magn":12744,"exaggeration":12745,"Chucky":12746,"Merlin":12747,"Silent":12748,"feeding":12749,"eighties":12750,"contributed":12751,"dramatically":12752,"puppets":12753,"dominated":12754,"Stock":12755,"receives":12756,"vigil":12757,"google":12758,"custom":12759,"Francisco":12760,"nurse":12761,"woeful":12762,"eastern":12763,"rambling":12764,"discern":12765,"Bloom":12766,"conviction":12767,"Taxi":12768,"Saoirse":12769,"denominator":12770,"29":12771,"Clive":12772,"Count":12773,"Eye":12774,"Eyes":12775,"Hong":12776,"Ic":12777,"Kris":12778,"Kept":12779,"Mandalorian":12780,"Pfe":12781,"Sig":12782,"Sniper":12783,"iors":12784,"mort":12785,"xy":12786,"inction":12787,"reporter":12788,"aled":12789,"chie":12790,"moviegoers":12791,"Theat":12792,"rapt":12793,"dizzy":12794,"imple":12795,"dope":12796,"intend":12797,"convict":12798,"agues":12799,"sail":12800,"spont":12801,"101":12802,"twelve":12803,"Starts":12804,"somethings":12805,"drain":12806,"mayhem":12807,"nings":12808,"pathis":12809,"blum":12810,"studies":12811,"paren":12812,"IND":12813,"cynic":12814,"Brandon":12815,"linger":12816,"midst":12817,"planes":12818,"marked":12819,"niche":12820,"Daily":12821,"gladly":12822,"burden":12823,"transitions":12824,"gypt":12825,"Code":12826,"periods":12827,"throwback":12828,"slaves":12829,"fluid":12830,"flashes":12831,"Nightmare":12832,"Willem":12833,"ACE":12834,"ðŸŒ":12835,"categories":12836,"Dench":12837,"communist":12838,"Lauren":12839,"quietly":12840,"occurs":12841,"sentimentality":12842,"discussions":12843,"increase":12844,"Silence":12845,"Rodden":12846,"benefits":12847,"vehicles":12848,"Freddy":12849,"contribution":12850,"incidents":12851,"possessed":12852,"concentration":12853,"leaning":12854,"procedural":12855,"uniformly":12856,"Montana":12857,"caution":12858,"Bogart":12859,"wrestling":12860,"Tolkien":12861,"jealous":12862,"masturb":12863,"Cranston":12864,"Watts":12865,"Snyder":12866,"Amit":12867,"DR":12868,"Dur":12869,"Domin":12870,"Eight":12871,"Hands":12872,"June":12873,"Lang":12874,"MAR":12875,"Open":12876,"Odys":12877,"bc":12878,"cough":12879,"dash":12880,"ev":12881,"ku":12882,"ofsky":12883,"chapt":12884,"lete":12885,"verts":12886,"youn":12887,"shes":12888,"unbiased":12889,"diamond":12890,"imperson":12891,"poem":12892,"showcases":12893,"pert":12894,"peril":12895,"greats":12896,"etti":12897,"bodi":12898,"characterizations":12899,"obscene":12900,"fian":12901,"nerdy":12902,"cinematographer":12903,"followers":12904,"Whenever":12905,"landish":12906,"puke":12907,"copying":12908,"skits":12909,"Shot":12910,"damned":12911,"McG":12912,"Trekk":12913,"shameless":12914,"exploited":12915,"psyched":12916,"stunningly":12917,"catches":12918,"Walt":12919,"culmin":12920,"watered":12921,"troubles":12922,"Nights":12923,"mmmm":12924,"remarkably":12925,"slide":12926,"semblance":12927,"Russo":12928,"Chap":12929,"operation":12930,"peaceful":12931,"rollercoaster":12932,"Resident":12933,"hunger":12934,"Sanjay":12935,"awaiting":12936,"smoothly":12937,"employed":12938,"expanded":12939,"Wiig":12940,"exhausted":12941,"distribution":12942,"spaceship":12943,"October":12944,"Liberal":12945,"Hawaii":12946,"sensitivity":12947,"pedestrian":12948,"Chronicles":12949,"Television":12950,"exhilarating":12951,"chapters":12952,"Bing":12953,"Catch":12954,"Gave":12955,"IP":12956,"Mort":12957,"PTS":12958,"Rex":12959,"Spl":12960,"Taking":12961,"bru":12962,"harrowing":12963,"ien":12964,"sity":12965,"someday":12966,"ati":12967,"esis":12968,"chord":12969,"sections":12970,"beard":12971,"bewilder":12972,"shiny":12973,"Theater":12974,"una":12975,"unfamiliar":12976,"unconventional":12977,"dee":12978,"raz":12979,"roe":12980,"rose":12981,"scandal":12982,"planted":12983,"overbearing":12984,"grumpy":12985,"fier":12986,"superpowers":12987,"Jokes":12988,"monkeys":12989,"morbid":12990,"Pearl":12991,"enger":12992,"Levy":12993,"powered":12994,"winners":12995,"buildup":12996,"150":12997,"sweat":12998,"cheaply":12999,"terrified":13000,"Orlando":13001,"executives":13002,"sickness":13003,"approx":13004,"regarded":13005,"Color":13006,"Elton":13007,"virgin":13008,"aiming":13009,"Wayans":13010,"affecting":13011,"1999":13012,"ethical":13013,"sixties":13014,"influences":13015,"repetition":13016,"coherence":13017,"rooted":13018,"Polanski":13019,"patiently":13020,"Duke":13021,"Speed":13022,"awaited":13023,"ironically":13024,"Snatch":13025,"principal":13026,"Brooklyn":13027,"stroke":13028,"Dern":13029,"frozen":13030,"Shahrukh":13031,"pandemic":13032,"pumping":13033,"employees":13034,"despise":13035,"photographed":13036,"enchanting":13037,"detectives":13038,"labeled":13039,"Thursday":13040,"Additionally":13041,"Wednesday":13042,"equipment":13043,"Patricia":13044,"Iceland":13045,"Chase":13046,"Doc":13047,"Ess":13048,"Ebert":13049,"Escape":13050,"Found":13051,"Gaga":13052,"Mandy":13053,"Rarely":13054,"Tina":13055,"Yep":13056,"batch":13057,"cue":13058,"cott":13059,"gum":13060,"sly":13061,"vation":13062,"wizard":13063,"infuri":13064,"stages":13065,"escal":13066,"velope":13067,"utt":13068,"shant":13069,"unclear":13070,"outlandish":13071,"sued":13072,"exchange":13073,"doc":13074,"romcom":13075,"arters":13076,"inee":13077,"ritual":13078,"spine":13079,"disp":13080,"disappeared":13081,"tooth":13082,"fanboys":13083,"compon":13084,"huh":13085,"singers":13086,"cord":13087,"tember":13088,"Leone":13089,"toned":13090,"effortlessly":13091,"flawlessly":13092,"kyo":13093,"nonex":13094,"destination":13095,"gripe":13096,"referring":13097,"Quiet":13098,"Bros":13099,"varied":13100,"sells":13101,"spectacularly":13102,"grandfather":13103,"Musical":13104,"quirk":13105,"Morty":13106,"appropriately":13107,"minorities":13108,"delightfully":13109,"phenomenon":13110,"shares":13111,"shadows":13112,"resolve":13113,"Graham":13114,"switching":13115,"cooking":13116,"Romania":13117,"Kylo":13118,"Buy":13119,"affairs":13120,"Lindsay":13121,"Reno":13122,"thetics":13123,"Gladiator":13124,"methods":13125,"AGAIN":13126,"summarize":13127,"manifest":13128,"eternal":13129,"scheme":13130,"Performances":13131,"detached":13132,"Kilmer":13133,"nephew":13134,"Crawford":13135,"Chloe":13136,"flimsy":13137,"PTSD":13138,"Ald":13139,"Egypt":13140,"FRE":13141,"Gump":13142,"Hale":13143,"Name":13144,"Ocean":13145,"Paren":13146,"Rab":13147,"Rac":13148,"Wo":13149,"Yash":13150,"cuss":13151,"dwar":13152,"gid":13153,"las":13154,"muse":13155,"sins":13156,"uation":13157,"ugu":13158,"eration":13159,"iser":13160,"recover":13161,"ales":13162,"chal":13163,"elson":13164,"outer":13165,"geist":13166,"ripping":13167,"dime":13168,"imperfect":13169,"poser":13170,"tially":13171,"tible":13172,"pering":13173,"taint":13174,"viewpoint":13175,"hishek":13176,"itsch":13177,"owners":13178,"standalone":13179,"cles":13180,"underwater":13181,"excels":13182,"centuries":13183,"Chal":13184,"oda":13185,"versat":13186,"Alba":13187,"pressing":13188,"predicted":13189,"shove":13190,"bravery":13191,"forwarding":13192,"aneous":13193,"Anybody":13194,"psyche":13195,"literal":13196,"repeats":13197,"treating":13198,"hardest":13199,"Directors":13200,"survivor":13201,"Prab":13202,"bully":13203,"Roma":13204,"Chain":13205,"Judging":13206,"Born":13207,"ambition":13208,"Ashton":13209,"collective":13210,"micro":13211,"deliberate":13212,"immigration":13213,"Forest":13214,"trademark":13215,"obligatory":13216,"maniac":13217,"Antonio":13218,"massacre":13219,"Vikander":13220,"knife":13221,"prominent":13222,"Cliché":13223,"distasteful":13224,"filmography":13225,"Pfeiffer":13226,"Roddenberry":13227,"8th":13228,"93":13229,"911":13230,"Avoy":13231,"Hank":13232,"Jai":13233,"Jungle":13234,"Juno":13235,"Kirst":13236,"Lor":13237,"MS":13238,"Milla":13239,"QU":13240,"Sic":13241,"Tomb":13242,"afore":13243,"dot":13244,"fus":13245,"fting":13246,"mn":13247,"niss":13248,"pion":13249,"rhe":13250,"slo":13251,"sits":13252,"taboo":13253,"vfx":13254,"˜‚":13255,"insuffer":13256,"resemble":13257,"ouf":13258,"christ":13259,"leon":13260,"idal":13261,"arest":13262,"heter":13263,"trump":13264,"article":13265,"lling":13266,"kingdom":13267,"misplaced":13268,"gio":13269,"surpasses":13270,"performs":13271,"blu":13272,"inski":13273,"vocal":13274,"Reason":13275,"stupidly":13276,"climatic":13277,"closet":13278,"Pete":13279,"?????":13280,"Lead":13281,"cratic":13282,"ridiculousness":13283,"eventful":13284,"STER":13285,"biograph":13286,"Newman":13287,"Boss":13288,"Superhero":13289,"Robbins":13290,"VEN":13291,"energetic":13292,"Paranormal":13293,"feminine":13294,"tuning":13295,"tricked":13296,"evolving":13297,"GET":13298,"strengths":13299,"glee":13300,"ANYTHING":13301,"prayer":13302,"stretches":13303,"adox":13304,"Powers":13305,"indication":13306,"resistance":13307,"birds":13308,"elevated":13309,"exhausting":13310,"itarian":13311,"ingenious":13312,"amusement":13313,"Sofia":13314,"pompous":13315,"*.":13316,"Candy":13317,"FI":13318,"Fate":13319,"Oct":13320,"Odd":13321,"Tale":13322,"Vio":13323,"Wanted":13324,"Yawn":13325,"euro":13326,"gow":13327,"hing":13328,"kne":13329,"lou":13330,"nado":13331,"yi":13332,"inations":13333,"instein":13334,"invisible":13335,"resent":13336,"whack":13337,"ionage":13338,"unfinished":13339,"butter":13340,"deon":13341,"demean":13342,"usage":13343,"plug":13344,"umin":13345,"items":13346,"newly":13347,"crete":13348,"paired":13349,"pathetically":13350,"productive":13351,"craving":13352,"Asians":13353,"iah":13354,"monstro":13355,"Union":13356,"nonstop":13357,"Lohan":13358,"north":13359,"Liu":13360,"Liked":13361,"shortcomings":13362,"decently":13363,"retched":13364,"drab":13365,"McDow":13366,"pursuit":13367,"purchased":13368,"archety":13369,"Host":13370,"Christine":13371,"2002":13372,"laden":13373,"royd":13374,"Monsters":13375,"ASS":13376,"Wouldn":13377,"courageous":13378,"ICT":13379,"avier":13380,",,,,":13381,"Damme":13382,"threatened":13383,"crisy":13384,"maintained":13385,"escapes":13386,"Leonard":13387,"flew":13388,"Sounds":13389,"Brides":13390,"darkest":13391,"feeble":13392,"immersive":13393,"seamless":13394,"pirates":13395,"limitations":13396,"Biblical":13397,"Favorite":13398,"occupied":13399,"Villain":13400,"Visuals":13401,"Creep":13402,"Performance":13403,"homophobic":13404,"climactic":13405,"Southern":13406,"September":13407,"Audrey":13408,"accolades":13409,"condescending":13410,"Reservoir":13411,"Aronofsky":13412,"youngest":13413,"!\".":13414,"(?)":13415,")</":13416,"65":13417,"98":13418,"Cris":13419,"Hence":13420,"Las":13421,"Om":13422,"Rour":13423,"TRE":13424,"TIFF":13425,"aint":13426,"gli":13427,"hiring":13428,"rance":13429,"incapable":13430,"erase":13431,"orphan":13432,"moms":13433,"adise":13434,"icap":13435,"ela":13436,"files":13437,"neo":13438,"tering":13439,"composition":13440,"rocked":13441,"laced":13442,"appreh":13443,"manic":13444,"funeral":13445,"spon":13446,"seeming":13447,"happier":13448,"starters":13449,"similarly":13450,"downfall":13451,"dialect":13452,"smiled":13453,"developments":13454,"restri":13455,"Marlon":13456,"darkly":13457,"region":13458,"array":13459,"masquer":13460,"Holi":13461,"brainwashed":13462,"grees":13463,"posts":13464,"Trilogy":13465,"Frances":13466,"Turks":13467,"Foot":13468,"thinly":13469,"grabbing":13470,"numbingly":13471,"widely":13472,"hipster":13473,"surroundings":13474,"kinson":13475,"edict":13476,"witnessing":13477,"significantly":13478,"NEED":13479,"Greece":13480,"August":13481,"linked":13482,"spreading":13483,"SUPER":13484,"celebrated":13485,"parallels":13486,"Diana":13487,"mountains":13488,"accessible":13489,"Gilmore":13490,"Crime":13491,"Beyonce":13492,"Israeli":13493,"Utterly":13494,"Tower":13495,"overshadowed":13496,"undeniable":13497,"Disgusting":13498,"elderly":13499,"Ugly":13500,"enigmatic":13501,"insomnia":13502,"Dawson":13503,"Rourke":13504,"<<":13505,"Az":13506,"Average":13507,"Cow":13508,"Cass":13509,"Das":13510,"Es":13511,"Goose":13512,"Kung":13513,"NN":13514,"Ric":13515,"dumped":13516,"fodder":13517,"iate":13518,"scept":13519,"rewrite":13520,"relied":13521,"andered":13522,"asco":13523,"unseen":13524,"unks":13525,"raine":13526,"expose":13527,"amor":13528,"justification":13529,"hea":13530,"etal":13531,"rug":13532,"rubs":13533,"matrix":13534,"hile":13535,"Stunning":13536,"clusion":13537,"ensen":13538,"izon":13539,"autistic":13540,"insens":13541,"warriors":13542,"flare":13543,"handles":13544,"partially":13545,"schmal":13546,"STD":13547,"ANG":13548,"Shir":13549,"ATED":13550,"ficially":13551,"bandwagon":13552,"constit":13553,"transform":13554,"refused":13555,"ARK":13556,"Norway":13557,"stranded":13558,"shocker":13559,"travels":13560,"noticeable":13561,"Sunny":13562,"unfolded":13563,"slip":13564,"puns":13565,"Clever":13566,"frightened":13567,"departure":13568,"Bahubali":13569,"floating":13570,"escaped":13571,"tremendously":13572,"puzzled":13573,"conservatives":13574,"lux":13575,"rehashed":13576,"Following":13577,"baffling":13578,"dedication":13579,"Commun":13580,"Sophia":13581,"TAIN":13582,"dumpster":13583,"Victoria":13584,"Patton":13585,"FECT":13586,"Roland":13587,"inherent":13588,"transparent":13589,"glamorous":13590,"injury":13591,"surgery":13592,"neutral":13593,"censor":13594,"presumably":13595,"administration":13596,"Scandina":13597,"Cronenberg":13598,"NASA":13599,"\";":13600,"Baker":13601,"Creek":13602,"Due":13603,"Hered":13604,"Jared":13605,"Kut":13606,"Kline":13607,"LIT":13608,"OPLE":13609,"Slater":13610,"VO":13611,"ZZ":13612,"coo":13613,"hater":13614,"lined":13615,"nm":13616,"pad":13617,"pals":13618,"sway":13619,"sung":13620,"wandering":13621,"incomplete":13622,"inflict":13623,"insecure":13624,"ange":13625,"atleast":13626,"modest":13627,"lex":13628,"verbal":13629,"sucking":13630,"newest":13631,"termin":13632,"immoral":13633,"dock":13634,"goods":13635,"articul":13636,"conce":13637,"whodun":13638,"igning":13639,"quarters":13640,"boggling":13641,"twin":13642,"Init":13643,"bris":13644,"needing":13645,"beforehand":13646,"triangle":13647,"flip":13648,"voiced":13649,"sings":13650,"steel":13651,"cliffe":13652,"volumes":13653,"ocy":13654,"uniforms":13655,"masks":13656,"Comics":13657,"Hara":13658,"Whole":13659,"Shape":13660,"household":13661,"destiny":13662,"narratives":13663,"calcul":13664,"IES":13665,"horrified":13666,"employ":13667,"Wilde":13668,"Bette":13669,"Hardly":13670,"punchline":13671,"reckon":13672,"computers":13673,"penis":13674,"highlighted":13675,"Cruz":13676,"Stevens":13677,"lustre":13678,"Hills":13679,"tackles":13680,"tolerance":13681,"sync":13682,"PEOPLE":13683,"EVERYONE":13684,"experimental":13685,"Generation":13686,"Animal":13687,"Mysterio":13688,"hesitate":13689,"espionage":13690,"crammed":13691,"whims":13692,"Tamil":13693,"Straight":13694,"Technically":13695,"muscle":13696,"published":13697,"degrading":13698,"Studios":13699,"podcast":13700,"swimming":13701,"Homeland":13702,"CRAP":13703,"Fassbender":13704,"Pushing":13705,"Zealand":13706,"fierce":13707,"nonexistent":13708,"Parenthood":13709,"monstrosity":13710,"Bong":13711,"Baa":13712,"Done":13713,"Elect":13714,"Hog":13715,"Hindu":13716,"LONG":13717,"Mun":13718,"Pitch":13719,"Purge":13720,"Rider":13721,"Riley":13722,"SER":13723,"Tun":13724,"UGH":13725,"Wik":13726,"bump":13727,"llo":13728,"sis":13729,"sie":13730,"swords":13731,"tant":13732,"yl":13733,"thir":13734,"inform":13735,"isies":13736,"revision":13737,"stones":13738,"arrival":13739,"chand":13740,"owe":13741,"uneducated":13742,"demise":13743,"imper":13744,"contempt":13745,"goals":13746,"overt":13747,"designer":13748,"joyful":13749,"cese":13750,"underdog":13751,"gime":13752,"wastes":13753,"aki":13754,"paths":13755,"screened":13756,"waves":13757,"teller":13758,"Dec":13759,"Martian":13760,"lical":13761,"Tokyo":13762,"INK":13763,"namely":13764,"supporters":13765,"Carl":13766,"Carrell":13767,"!!!!!!!":13768,"strained":13769,"uttered":13770,"McAvoy":13771,"Diaries":13772,"expressive":13773,"harat":13774,"Gray":13775,"Franken":13776,"Brody":13777,"Prop":13778,"representing":13779,"stepping":13780,"omeness":13781,"Darkness":13782,"Elf":13783,"Elle":13784,"rewind":13785,"awkwardly":13786,"hammy":13787,"Baron":13788,"Parks":13789,"Feig":13790,"victory":13791,"Sarandon":13792,"tunes":13793,"suspects":13794,"grossly":13795,"drinks":13796,"Goldblum":13797,"exaggerating":13798,"Russel":13799,"1982":13800,"Katie":13801,"Judd":13802,"Tycoon":13803,"desires":13804,"agrees":13805,"Hughes":13806,"mesmerized":13807,"PERFECT":13808,"Snipes":13809,"empowering":13810,"Barrymore":13811,"Kinda":13812,"Agatha":13813,"Beatles":13814,"Wolverine":13815,"policy":13816,"attachment":13817,"punishment":13818,"Micheal":13819,"Melanie":13820,"epitome":13821,"saturated":13822,"Thurman":13823,"Odyssey":13824,"Abo":13825,"Apat":13826,"DER":13827,"Differ":13828,"Emo":13829,"Gore":13830,"Grow":13831,"Jas":13832,"LL":13833,"Mask":13834,"Op":13835,"Oper":13836,"Pas":13837,"TM":13838,"Vera":13839,"Wing":13840,"bay":13841,"mr":13842,"mand":13843,"pizza":13844,"vary":13845,"zan":13846,"thugs":13847,"inep":13848,"reau":13849,"onies":13850,"asser":13851,"moa":13852,"verge":13853,"ented":13854,"unintelligent":13855,"ido":13856,"exit":13857,"imated":13858,"weep":13859,"weary":13860,"upbeat":13861,"agno":13862,"baddies":13863,"theirs":13864,"accompany":13865,"characteristic":13866,"twins":13867,"assed":13868,"disappointments":13869,"commendable":13870,"friendships":13871,"Seat":13872,"ridic":13873,"Lego":13874,"specul":13875,"puer":13876,"cyber":13877,"supply":13878,"midway":13879,"McAdams":13880,"exploding":13881,"loudly":13882,"clapping":13883,"idiocy":13884,"novelty":13885,"Benedict":13886,"immortal":13887,"Saint":13888,"relieved":13889,"Flor":13890,"Annabelle":13891,"longest":13892,"Kenneth":13893,"relaxing":13894,"Swinton":13895,"hunters":13896,"Royal":13897,"courtroom":13898,"Mila":13899,"Glenn":13900,"encountered":13901,"prejudices":13902,"cabin":13903,"Whitaker":13904,"fisted":13905,"transcend":13906,"coincidence":13907,"incarnation":13908,"Elliot":13909,"Blockbuster":13910,"SPOILER":13911,"seventies":13912,"catastrop":13913,"Egyptian":13914,"Belle":13915,"Dha":13916,"Fab":13917,"HAS":13918,"Kun":13919,"Kang":13920,"Rated":13921,"Self":13922,"Tark":13923,"Tree":13924,"Tried":13925,"WB":13926,"gren":13927,"glam":13928,"lat":13929,"topped":13930,"eds":13931,"arrested":13932,"forgiving":13933,"noisy":13934,"contract":13935,"tame":13936,"tearing":13937,"savi":13938,"diss":13939,"prude":13940,"clarity":13941,"chester":13942,"foremost":13943,"colo":13944,"iza":13945,"subtext":13946,"Alone":13947,"medy":13948,"Dono":13949,"Beth":13950,"landing":13951,"shortly":13952,"Neg":13953,"negatives":13954,"annoyingly":13955,"Extra":13956,"respectable":13957,"uttering":13958,"similarity":13959,"Abhishek":13960,"judges":13961,"foster":13962,"niece":13963,"signature":13964,"Samurai":13965,"spotlight":13966,"Monroe":13967,"Madsen":13968,"elementary":13969,"junkie":13970,"POINT":13971,"palpable":13972,"Katniss":13973,"Nolte":13974,"halluc":13975,"Claude":13976,"gigg":13977,"celebration":13978,"dramatized":13979,"Planned":13980,"accomplishment":13981,"FORE":13982,"evoke":13983,"shitty":13984,"Sixth":13985,"Narcos":13986,"utilized":13987,"abruptly":13988,"Hawkins":13989,"obstacles":13990,"puerile":13991,"\"(":13992,"42":13993,"43":13994,"Card":13995,"Cob":13996,"Carly":13997,"Dom":13998,"Ell":13999,"Hilton":14000,"Kr":14001,"Lone":14002,"Napo":14003,"OH":14004,"Prest":14005,"Sac":14006,"Sach":14007,"Tu":14008,"Vice":14009,"Ward":14010,"laser":14011,"snail":14012,"wits":14013,"infamous":14014,"anthology":14015,"regime":14016,"stance":14017,"toe":14018,"unwanted":14019,"abh":14020,"abdu":14021,"irrever":14022,"neath":14023,"rope":14024,"pocket":14025,"tiger":14026,"perverse":14027,"Butter":14028,"grating":14029,"este":14030,"uality":14031,"Heard":14032,"Albert":14033,"Weap":14034,"crat":14035,"tedium":14036,"queens":14037,"Neigh":14038,"Argent":14039,"wipe":14040,"Suicide":14041,"ATION":14042,"Expan":14043,"criticizing":14044,"slang":14045,"Directed":14046,"stereotyping":14047,"ternal":14048,"regretted":14049,"nelly":14050,"fires":14051,"Redempt":14052,"quirks":14053,"lengths":14054,"aims":14055,"immediate":14056,"records":14057,"sources":14058,"cleaning":14059,"Hamill":14060,"1989":14061,"interpreted":14062,"Paltrow":14063,"competence":14064,"Univers":14065,"Written":14066,"crashes":14067,"pooh":14068,"admired":14069,"Birds":14070,"Ashley":14071,"pornography":14072,"Favreau":14073,"encouraging":14074,"Kathy":14075,"DS9":14076,"annoyance":14077,"mystical":14078,"rabbit":14079,"helicopter":14080,"Spirit":14081,"discipl":14082,"Chainsaw":14083,"Kutcher":14084,"Above":14085,"Expanse":14086,"')":14087,"(!)":14088,".).":14089,"7th":14090,"?,":14091,"?...":14092,"Cul":14093,"FAN":14094,"Kel":14095,"LS":14096,"PA":14097,"Pack":14098,"Pull":14099,"Sud":14100,"Spot":14101,"Tall":14102,"Touch":14103,"Tilda":14104,"Wu":14105,"Wins":14106,"bol":14107,"binding":14108,"gically":14109,"hers":14110,"ii":14111,"lists":14112,"pm":14113,"pard":14114,"pounding":14115,"ranted":14116,"tany":14117,"wander":14118,"inhuman":14119,"orchest":14120,"itel":14121,"token":14122,"iless":14123,"owski":14124,"advis":14125,"irresponsible":14126,"usty":14127,"ules":14128,"coma":14129,"amish":14130,"dos":14131,"worries":14132,"heels":14133,"charmed":14134,"perverted":14135,"taker":14136,"managing":14137,"joins":14138,"agas":14139,"assess":14140,"undercover":14141,"gile":14142,"persed":14143,"insign":14144,"Reed":14145,"ventures":14146,"smash":14147,"carbon":14148,"humorless":14149,"attending":14150,"predictably":14151,"societal":14152,"paradox":14153,"impressions":14154,"passengers":14155,"succ":14156,"payed":14157,"Conclusion":14158,"successor":14159,"refuses":14160,"Lovely":14161,"Edge":14162,"slash":14163,"Raaz":14164,"fronts":14165,"luckily":14166,"pulp":14167,"pulse":14168,"Tracy":14169,"crowded":14170,"qualify":14171,"Raymond":14172,"radi":14173,"insights":14174,"honour":14175,"churning":14176,"Rubbish":14177,"circus":14178,"Joey":14179,"deterior":14180,"tackle":14181,"1969":14182,"rampant":14183,"bankrupt":14184,"links":14185,"Zombies":14186,"Bridge":14187,"Madea":14188,"ovsky":14189,"gimmicks":14190,"hypocrisy":14191,"immigrants":14192,"GHT":14193,"Radcliffe":14194,"crawl":14195,"duped":14196,"Facebook":14197,"Varun":14198,"Rapace":14199,"craziness":14200,"Brendan":14201,"intertwined":14202,"basketball":14203,"amidst":14204,"chocolate":14205,"divided":14206,"Hilary":14207,"Theatre":14208,"psychedelic":14209,"aforementioned":14210,"rhetor":14211,"Shirley":14212,"Redemption":14213,"44":14214,"?.":14215,"Cir":14216,"Cary":14217,"Duck":14218,"Efron":14219,"Gig":14220,"Kuro":14221,"Labyrinth":14222,"Pep":14223,"Rim":14224,"Town":14225,"Tud":14226,"Winst":14227,"bh":14228,"bers":14229,"dent":14230,"dling":14231,"dangers":14232,"lining":14233,"pans":14234,"russ":14235,"tte":14236,"tweak":14237,"tub":14238,"uh":14239,"stig":14240,"stran":14241,"stairs":14242,"modo":14243,"lef":14244,"ilation":14245,"omit":14246,"ligible":14247,"adel":14248,"uncan":14249,"unsympathetic":14250,"petit":14251,"supr":14252,"rict":14253,"degrees":14254,"seeks":14255,"enduring":14256,"intage":14257,"consequence":14258,"quasi":14259,"manji":14260,"fulfilling":14261,"spice":14262,"orean":14263,"acus":14264,"phia":14265,"daytime":14266,"borg":14267,"centre":14268,"blings":14269,"blond":14270,"trigger":14271,"relating":14272,"bush":14273,"athers":14274,"Beach":14275,"marathon":14276,"freaks":14277,"morph":14278,"Together":14279,"Lev":14280,"menace":14281,"certaint":14282,"Keith":14283,"spector":14284,"swept":14285,"dealer":14286,"smartly":14287,"Warren":14288,"Field":14289,"Cheesy":14290,"Parasite":14291,"bait":14292,"approached":14293,"TOO":14294,"meticulous":14295,"winded":14296,"Getting":14297,"ethics":14298,"Angela":14299,"planets":14300,"hurting":14301,"Hello":14302,"tendency":14303,"organic":14304,"eaten":14305,"skinny":14306,"DEAD":14307,"electron":14308,"Congrats":14309,"possession":14310,"Daddy":14311,"Lowe":14312,"oppression":14313,"enlighten":14314,"Tonight":14315,"Venice":14316,"Creed":14317,"Gothic":14318,"shifts":14319,"Studio":14320,"salvage":14321,"Tatum":14322,"stanbul":14323,"polite":14324,"Scorcese":14325,"Branagh":14326,"substitute":14327,"Ragnarok":14328,"Intellig":14329,"vigilante":14330,"cynicism":14331,"fiancé":14332,"Hereditary":14333,"Apatow":14334,"Seattle":14335,"37":14336,"Cook":14337,"Chad":14338,"Clan":14339,"DAY":14340,"Find":14341,"Gall":14342,"HATE":14343,"Jill":14344,"Jump":14345,"Late":14346,"Mau":14347,"PT":14348,"Tues":14349,"Vers":14350,"Vader":14351,"Yi":14352,"coff":14353,"doo":14354,"dul":14355,"dess":14356,"tes":14357,"rets":14358,"reserved":14359,"resume":14360,"todd":14361,"esomeness":14362,"omg":14363,"whine":14364,"unappealing":14365,"unacceptable":14366,"pep":14367,"sover":14368,"majest":14369,"geeks":14370,"demented":14371,"ulated":14372,"imbec":14373,"tians":14374,"usional":14375,"consult":14376,"persever":14377,"overwrought":14378,"plethor":14379,"yea":14380,"Noomi":14381,"trials":14382,"trigg":14383,"leton":14384,"lesbians":14385,"Reviews":14386,"warfare":14387,"bug":14388,"corpse":14389,"Begins":14390,"mario":14391,"marvell":14392,"Toby":14393,"failures":14394,"earnest":14395,"credited":14396,"moderately":14397,"respectively":14398,"airplane":14399,"McQueen":14400,"Daisies":14401,"agonizing":14402,"Boot":14403,"Geralt":14404,"studded":14405,"mesh":14406,"Turn":14407,"slapped":14408,"subtleties":14409,"Brain":14410,"approval":14411,"fragile":14412,"Farlane":14413,"Ryder":14414,"ADE":14415,"panther":14416,"property":14417,"fascist":14418,"Mads":14419,"crossing":14420,"favourites":14421,"premiered":14422,"behaviors":14423,"BET":14424,"defending":14425,"defining":14426,"splatter":14427,"stoner":14428,"glorify":14429,"aspiring":14430,"Ruth":14431,"arguing":14432,"operas":14433,"trendy":14434,"Hopper":14435,"Genius":14436,"squeamish":14437,"relentlessly":14438,"eloqu":14439,"Dynam":14440,"legitimate":14441,"harmless":14442,"vulnerability":14443,"fantastical":14444,"mishmash":14445,"activities":14446,"Spartacus":14447,"incorporated":14448,"Mikkel":14449,"stimulating":14450,"Beyoncé":14451,"Renee":14452,"Robocop":14453,"Kirsten":14454,"Universal":14455,"plethora":14456,",...":14457,"BRA":14458,"CL":14459,"Cum":14460,"Chapp":14461,"Dil":14462,"Dane":14463,"Drey":14464,"Darth":14465,"Dillon":14466,"Earl":14467,"Filled":14468,"Hed":14469,"Male":14470,"MANY":14471,"Nye":14472,"Nelson":14473,"Using":14474,"Vic":14475,"Wit":14476,"Wasted":14477,"bally":14478,"brush":14479,"cutes":14480,"dang":14481,"gart":14482,"hul":14483,"lure":14484,"lunch":14485,"pc":14486,"vintage":14487,"woo":14488,"zman":14489,"rev":14490,"reserv":14491,"reception":14492,"atable":14493,"stack":14494,"stically":14495,"strung":14496,"modi":14497,"chef":14498,"veer":14499,"liver":14500,"kelo":14501,"erek":14502,"idential":14503,"sober":14504,"rag":14505,"exposure":14506,"lage":14507,"impy":14508,"pockets":14509,"endor":14510,"upsetting":14511,"agency":14512,"overhyped":14513,"overtones":14514,"spi":14515,"acade":14516,"rubber":14517,"matin":14518,"underneath":14519,"plagu":14520,"surpass":14521,"surgeon":14522,"excre":14523,"Chand":14524,"foreshadow":14525,"estate":14526,"crazed":14527,"magically":14528,"controll":14529,"condensed":14530,"reasoning":14531,"Bear":14532,"rides":14533,"camps":14534,"cinematographic":14535,"missions":14536,"supports":14537,"tails":14538,"Keira":14539,"zzie":14540,"Comed":14541,"costuming":14542,"deadpan":14543,"ITE":14544,"packs":14545,"hostage":14546,"murderers":14547,"framed":14548,"belt":14549,"tested":14550,"crosses":14551,"ooooo":14552,"Blah":14553,"conveying":14554,"depictions":14555,"jazz":14556,"indulgence":14557,"jerking":14558,"stretching":14559,"habits":14560,"!!!!!!!!!!!!!!!!":14561,"emphasize":14562,"sooooo":14563,"hopelessly":14564,"Arabic":14565,"acknowled":14566,"Riverdale":14567,"retirement":14568,"Shades":14569,"Virginia":14570,"yawning":14571,"dubious":14572,"shaped":14573,"Rhys":14574,"regurgit":14575,"pathise":14576,"McDowell":14577,"Florida":14578,"Kurosa":14579,"ABS":14580,"Bart":14581,"Cards":14582,"Cyr":14583,"DY":14584,"Gover":14585,"Hid":14586,"HAR":14587,"Istanbul":14588,"Mam":14589,"NING":14590,"Pes":14591,"Prom":14592,"Rip":14593,"Tran":14594,"Tucker":14595,"Video":14596,"Vito":14597,"Wong":14598,"Yor":14599,"dit":14600,"fade":14601,"sale":14602,"umentary":14603,"yle":14604,"thirsty":14605,"org":14606,"whist":14607,"icons":14608,"shore":14609,"ooh":14610,"union":14611,"idan":14612,"devot":14613,"deception":14614,"lace":14615,"amped":14616,"poll":14617,"conjuring":14618,"persecut":14619,"perplex":14620,"iggs":14621,"teleg":14622,"displaying":14623,"!!)":14624,"10s":14625,"assign":14626,"assigned":14627,"playful":14628,"cler":14629,"geniuses":14630,"Whats":14631,"Asia":14632,"warranted":14633,"slows":14634,
[...]
