#version: 0.2 - Trained by `huggingface/tokenizers`
t h
i n
e r
a n
th e
i s
r e
o n
a t
e n
in g
o u
o r
s t
i t
an d
a l
t o
e s
a s
e d
a r
o f
m o
l y
c h
l e
v i
c t
s e
b e
i l
o m
v e
T h
th is
vi e
o w
o t
l i
u t
v er
a d
w h
mo vie
i c
th at
w as
a ct
f or
en t
y ou
m e
i on
g h
s h
a y
k e
e l
o o
er e
Th e
i th
. .
u n
on e
i d
l d
a b
h a
w ith
a re
p e
b ut
c e
ou t
s o
f il
m a
n ot
fil m
g e
al l
s u
r i
al ly
om e
i r
d e
u st
er s
r a
u l
o p
ou ld
n e
f e
t er
at ch
ha ve
c om
d i
ver y
r o
il l
oo d
e x
w atch
I t
s c
l a
th ing
i m
c k
a m
li ke
p o
l o
s ome
an t
n o
gh t
sh ow
an y
se e
d o
en d
or y
j ust
a st
el l
w or
in t
th er
es s
re at
r om
Th is
g ood
h e
t i
u s
m y
ch ar
p l
st ory
t r
ar t
c on
i f
p er
the y
n d
t a
p re
u r
c an
char act
wh o
w e
g o
v en
f rom
ab out
is t
e p
a p
u p
ou s
a u
ge t
wh at
mo re
w ay
h as
i ve
m ent
o l
ou gh
at ion
i g
in e
b y
ti me
q u
in d
re ally
m an
j o
oo k
g reat
a g
at e
t e
w ill
i es
.. .
r it
w ould
ab le
p ro
n ow
s a
ar d
d id
op le
vie w
f ul
th ere
on g
d er
o ther
in k
d on
pe ople
w ere
ou r
u m
p t
e t
wh i
h ow
f un
s er
e very
it y
b ad
it e
u ch
b le
o ver
h is
you r
th an
h ad
u re
be c
be t
e ven
c i
vi es
e ver
g u
s s
h er
th ink
p le
ir st
mo vies
act ing
m uch
charact ers
ou nd
w ell
b o
mo st
s p
au se
d is
c ould
f a
W h
it s
ad e
sc en
pe ct
on ly
ma ke
to o
f irst
en ce
l l
i ght
re al
th r
bec ause
n y
k es
p r
po int
ar s
k ing
do es
k now
l ow
l ook
w rit
d es
! !
be en
s ay
jo y
se l
p p
or s
pl ot
re ct
is h
a ck
w ant
f f
o re
t y
the ir
whi ch
1 0
I f
watch ing
m ade
re view
is o
a c
a in
wh en
en joy
bet ter
id e
l it
ow n
a ge
v ed
f ter
m in
v es
as on
lo ve
ep iso
fe ct
ta in
of f
act ion
se en
fe el
charact er
the m
i e
or t
y e
t w
di rect
in to
ser ies
m any
v ing
be st
as s
h o
f in
a w
sel f
at ed
ic al
r u
p art
B ut
ve l
li e
pl ay
l ess
sh ould
the n
A nd
m is
i ous
fun ny
I n
d u
t le
ex pect
p h
ic e
c es
c ast
ne w
ou ght
er tain
at ing
an s
ic k
l ot
Th ere
re ad
tr y
st and
m at
b r
a me
g r
a fter
h i
ne ver
b ack
S t
re d
act ors
wor k
h or
en se
some thing
c l
li fe
un der
t ing
t ra
or ig
u d
in al
al so
o ld
d ay
see m
thr ough
en s
ere st
a ch
scen es
go ing
u gh
w on
ar y
e f
p la
be lie
int erest
r y
com m
be ing
h ere
orig inal
did n
t im
la ugh
ha pp
wh ere
d ra
ag ain
an ce
u ally
com ed
o se
n t
ct ion
g i
b or
sh e
l ine
u e
g en
th ought
su r
b er
pe ci
no thing
t al
ch e
.. ..
g ot
ar k
ex c
l ong
st art
o g
lit tle
film s
w ast
is e
g ive
as e
st er
a k
c ent
hi gh
i ly
C h
t en
m er
i re
ut e
episo de
c re
per for
f ore
ne ed
wh y
review s
ri ble
tw o
tim es
e st
th ough
su ch
wor th
m ay
watch ed
ap point
ri ght
z ing
ent ertain
n ing
st ill
the se
di ff
sc re
Y ou
ma kes
bor ing
p a
ri pt
th ose
dis appoint
perfor man
pre t
p s
s im
il d
la ck
e m
an g
d one
) .
a ma
sa me
h im
c ou
o b
comed y
b it
f ind
ment s
m ind
se ason
t ur
does n
b l
sc ript
r or
com ple
d own
c ine
b ig
a ve
s it
fe w
one y
f ar
act ually
f an
interest ing
p ers
S o
ion s
pro du
n g
b ook
N o
f am
com p
who le
su re
re e
show s
se t
ation s
c o
r ong
ut es
Wh at
comm end
h u
o d
k ed
h um
way s
w ard
so l
i z
m oney
ver s
ta ke
min utes
il li
en ough
be fore
v is
ab ly
w ood
ef fect
scre en
h ard
u al
a ut
c ra
wor ld
ce pt
diff er
in s
w a
r an
h our
m us
t ri
an other
sa w
f i
re commend
le t
ic s
under stand
su per
ama zing
wast e
ul t
c reat
thing s
la st
f li
as h
t ell
c ed
per fect
f t
any thing
k ind
ke ep
r ating
ma in
c ome
ra ph
l es
m ust
k id
with out
mo t
ye ars
oo l
v o
2 0
su b
scen e
H e
y s
pers on
T V
di al
comple te
wor st
fin ite
ri end
The y
A l
A s
whi le
lo ved
won der
H ow
pret ty
i al
at er
p ut
f el
s ense
N ot
ho pe
hor ror
differ ent
ma g
f riend
finite ly
pre ss
end ing
sur pr
sol ute
tur n
con t
f act
wa it
ol ly
m ed
happ en
if ul
direct or
R e
to p
s ing
c le
be aut
st e
episo des
b as
i p
belie ve
po or
li ght
au di
p ie
J o
ir l
fel t
in ce
every thing
ar ly
for t
w om
re l
A mer
d y
vi ous
Amer ic
w ar
in es
con d
olly wood
enjoy ed
ma king
at ive
jo b
D on
writ ing
le ad
effect s
re n
mus ic
v ent
W e
ye ar
every one
is n
qu ite
re me
b u
we en
f ound
al ways
A ll
re ss
ist ic
tr u
c are
was n
s m
fam ily
bet ween
M y
s low
ab solute
ad d
e mot
beaut iful
s ed
s peci
look ing
p or
al e
i an
ion al
n ess
c ar
us ed
le ast
ell ent
ic ul
ic ally
x t
up id
g irl
hum or
D e
J ust
re ason
any one
se qu
st ar
seem s
de finitely
vi l
c or
r is
c ess
al f
a way
di ct
F or
me an
l ed
er y
k ill
al most
ar ound
on s
gu e
m ess
cl ass
st upid
a th
b ably
k s
ter rible
le ft
try ing
w ent
pie ce
ate ly
audi ence
n a
m ight
dra ma
ex t
S e
see ing
per i
M o
y ing
ch ild
) ,
p i
c li
se cond
v al
H ollywood
performan ce
be g
ing s
Th at
h alf
s ound
f ant
el se
ne xt
surpr is
s ince
bo th
f ol
u se
entertain ing
com es
li ked
raph y
disappoint ed
exc ellent
B e
un t
tr ue
" .
at t
de c
ro le
se x
her o
s ent
f l
dial o
n er
il ar
h el
v ol
writ ten
i ble
id er
vel op
st u
h ist
c all
pro bably
aw ful
speci al
- -
r id
m s
al ity
ent ire
s on
sc i
ig n
c rit
kid s
de velop
fa v
peci ally
po ss
y et
ste ad
St ar
c ri
he art
e ach
one st
es pecially
p ort
i a
re st
get s
j e
sa id
A n
w rong
absolute ly
hu man
ul l
i le
thr ill
ser ious
er a
pre dict
complete ly
ide a
g l
ith er
S ome
act or
ful ly
illi ant
you ng
n ice
st op
c am
cine mat
o th
p ly
1 9
l ines
hour s
on d
ge ther
c lo
sh o
des er
ap pe
sh ot
o c
E very
ne y
T H
could n
to gether
re s
gen er
some one
b re
on es
m ar
ist s
m on
is m
tr ay
en ces
b ly
f re
want ed
r un
lo g
n ight
ful l
wor d
h and
read y
mo ments
cre di
c ut
c ap
og raphy
te m
M ar
li c
f ight
it ed
fol low
po lit
an im
I M
o s
u su
con s
s ad
br illiant
m or
jo kes
y es
c ame
st y
dialo gue
li g
i mag
c ur
in ter
pla ce
pla in
U n
t it
i x
por tray
predict able
beg in
!! !
je ct
ex peri
performan ces
c ol
tru ly
gu y
he ad
c ertain
may be
d ark
p ow
T o
P e
Americ an
re g
bo dy
n on
ra ther
p ed
sim ply
cine ma
O ne
g ave
en g
A fter
h onest
v able
fa il
? ?
for m
b ud
al s
story line
g ar
ur ing
e as
op in
L e
vi ol
pr op
su p
ir d
it ing
de li
ar r
un i
um b
c r
w al
g g
t ed
h n
produ ction
s pe
s ide
ha ving
t ic
com ing
h op
get ting
r on
L o
look s
c ing
s y
on ce
sup po
c our
es ome
fav or
play ed
ast ic
so ci
my self
E R
gu ess
bas ed
ch o
W ell
in stead
Wh en
G reat
re le
vers ion
b ra
expect ed
n or
the ater
i ch
for ward
r ated
am es
ta kes
m ber
ob vious
h ate
qu e
pre sent
p ar
m en
S he
st ars
R o
w ish
al ready
h y
your self
Jo hn
f ans
N O
tal ent
D is
ma ster
L i
D o
to t
e ither
opin ion
O n
pro ble
l and
ch an
st rong
s po
How ever
tot ally
cinemat ography
go es
p are
direct ion
e le
et c
it self
hor rible
I N
sh ort
su sp
wor se
in credi
l ist
tra il
end ed
n ed
pow er
op en
s at
cour se
do ing
f all
i o
belie vable
bud get
an no
an e
gi ven
tem pt
ex cept
oth ers
wom en
a h
p u
think ing
m ale
s ch
de cent
real istic
hist ory
cra p
con f
" ,
w it
im press
ro ss
A t
mis s
qu ality
cont in
k en
us ing
ext reme
wonder ful
all ow
te en
N e
It s
or ies
start ed
E ven
friend s
Wh y
at ure
ck s
Ch ris
icul ous
fa ce
t s
p ast
IM D
part s
fort un
le vel
f er
st ru
ge st
aw esome
fant astic
c y
O ver
day s
surpris ed
int el
sty le
class ic
m ing
act ress
begin ning
ex p
unt il
W ith
expect ing
al ong
writ ers
la w
through out
su l
experi ence
fli x
un ch
c u
fin ish
gu ys
de p
li ve
ke pt
A r
ent ion
qu est
pi ct
at tempt
re t
poss ible
p ass
feel ing
e k
wom an
l er
can not
v in
sh ip
c op
rid iculous
cam era
suppo sed
s k
ne g
sc ore
W atch
child ren
gi ving
cou ple
fre sh
N et
fa ir
d uring
M ay
gen re
C G
e vent
ch ance
writ e
as ed
th ree
ou ch
vis ual
re nt
f ine
at es
sequ el
stu ff
act ed
I s
ot e
are d
u ck
cons ider
V ery
st ories
hu ge
h ilar
ou se
hel p
tra ck
w i
S T
b lack
g ra
vi d
Y es
d ri
po sit
bo y
sch ool
play s
ing ly
st ay
it ies
say ing
cli ch
ty pe
om b
t on
um p
p ot
su c
g er
su pp
over all
p op
G od
enjoy able
b age
clo se
anno ying
seem ed
lo st
Al so
0 0
al i
susp ense
in vol
or ry
G ood
e ar
expect ations
im port
c er
a ce
Net flix
f ut
or d
z y
A N
gr ound
in ed
ar ing
pre ci
an k
R E
re k
G o
extreme ly
iz e
a king
vo id
m as
high ly
f ast
t ouch
B r
p ay
l an
ant ly
il ly
gar bage
too k
hilar ious
feel s
IMD b
how ever
b ro
p ain
mess age
reme mber
ent ial
ple ase
viol ence
. "
A ct
thrill er
CG I
f ran
d ou
develop ment
n ame
trail er
l ing
re am
d r
in cl
* *
h ome
ot s
happen ed
es e
ty p
br ing
c ool
tell ing
bo red
pare nt
to day
is su
vi de
m it
ou d
supp ort
favor ite
ck ed
ag es
a f
neg ative
C an
O K
vis ion
fortun ately
we ak
sim ple
F irst
real ity
le ave
sc ar
sel ves
M an
l ish
ul ar
Dis ney
d en
cou n
certain ly
att ention
sa ve
c red
S c
May be
fli ck
s ong
bec ome
a ke
sp ir
Over all
spo il
fut ure
ta il
sing le
K e
polit ical
look ed
w in
gi ves
entertain ment
id ent
D V
rel ation
m id
serious ly
p ac
a v
O N
ad ult
in o
wi fe
ure s
C ar
pl an
mat ter
il ity
S h
ha ps
di e
end s
se ver
ment ion
S u
tw ist
h it
a ver
crit ics
de ep
sc ary
play ing
m ark
mo der
d am
d ist
ha ven
my ster
tri ed
i gh
would n
S p
the at
ap preci
c ult
3 0
ple as
y ond
he ard
sit u
ro ll
m al
N ow
z z
A T
r ate
b b
c ase
need s
intel lig
P le
A ny
DV D
U S
ex act
happ ens
ch ang
emot ional
P er
le g
pr of
I S
view er
W ars
it ion
bu ild
com ic
E x
!! !!
o k
ant ic
w ise
ne cess
pa ce
book s
master piece
le a
cou nt
le ct
moder n
re mind
pre vious
wh ite
con cept
call ed
er ed
happ y
chan ge
C om
e yes
Ple ase
for get
k er
work s
mo ment
again st
usu al
c as
wast ed
r ist
Wh ile
proble m
id ed
ta king
lo c
c ause
res pect
we ek
li d
a ir
al though
le ar
de tail
g ame
in ation
M ich
s pect
c over
su m
turn ed
h ind
Mar vel
A L
to ld
le y
part icul
be yond
W or
aver age
sm all
f oc
te ch
n i
iz ed
dou b
f ic
st ra
us s
ex am
vil la
in ess
word s
laugh ing
fe male
le ep
at ur
ard s
ef fort
rating s
deser ves
m ix
ut ter
import ant
ho ld
i red
S er
w n
wait ing
J ack
Ch ar
d ull
au gh
Mo vie
M c
mis e
of ten
pot ential
li ves
T rek
mat ic
sever al
if ic
mo ve
p ur
sh ame
direct ing
con ne
writ er
co st
ag ree
view ers
D a
s ort
ro les
deli ver
la me
ast er
1 5
d umb
et y
mis try
H ar
b i
j or
sim ilar
b ing
usu ally
D i
read ing
C on
mean ing
suc cess
ag ed
ne t
be hind
fran ch
che mistry
0 s
S te
T om
lot s
W ill
O scar
dial og
tw ists
emot ion
Wh o
IN G
de ad
direct ed
at or
ver se
clich é
ke t
p ri
qu ick
them selves
F rom
bl ood
tr ash
super b
ck ing
ta ken
the tic
exp lo
as y
ar ch
cast ing
k new
al one
a go
pre mise
incredi ble
B rit
poor ly
d le
s we
p ick
exact ly
E ng
sound track
an i
anim ation
NO T
tit le
g s
p ite
invol ved
for ced
f law
so lid
know n
uni que
are n
honest ly
ps y
k y
it ch
gl ad
some times
B ad
cle ver
a el
h ell
com ment
lit er
p rom
u es
h ol
posit ive
franch ise
A b
S ha
fa ther
re make
worth y
ward s
H o
lo ck
hum our
y p
ma jor
fi ction
tal king
so on
eas y
bra in
turn s
O h
r ic
re cent
T er
che ap
hop ing
de al
s orry
er ing
at s
In di
Re ally
dep th
min ute
as pect
fin ally
ex e
gr ou
sul t
n one
stand ing
s illy
l ate
ran ge
h ouse
er o
g re
p il
de st
keep s
ter ri
dec ided
necess ary
laugh s
bre ak
j ud
him self
I T
c ry
ex plain
perfect ly
in st
ens ion
start s
M r
te le
No thing
b low
and a
k ers
de ath
sci ence
ro om
l oud
Chris ti
P o
cle ar
Mich ael
te am
TH E
L O
th y
Ne w
laugh ed
p ure
sequ ences
O f
we ird
sub ject
Li ke
b at
typ ical
.. ...
ation al
Pe ople
c a
is ed
po st
b other
th or
ex ist
e vil
eas ily
vide o
b al
f o
es y
b ur
tru th
act ual
f ig
ab o
doub t
f ell
ure d
obvious ly
event s
exc ited
b and
g on
en n
u de
f it
ast e
n arr
in a
issu es
w er
re pe
disappoint ing
exam ple
J ames
ag on
B o
id es
girl s
cle arly
int ri
su ff
O r
set ting
stra ight
l ater
ap t
E n
fl at
ou nt
sm art
b unch
are ly
G er
st ick
hist or
ent y
coun try
to tal
con st
emot ions
ke y
incl ud
F il
p ack
disappoint ment
lan gu
s ou
M e
Al though
Th en
sat is
h an
tr ans
vo ice
n um
con vin
most ly
c la
d ing
jo ke
du e
mo ving
exe cut
n atur
g y
st un
person al
L et
fant asy
ci al
need ed
surpr ise
20 1
e arly
m i
pa thetic
exc iting
creat ed
t reat
che esy
li ce
un d
pict ure
g ri
fam il
O R
re f
pil ot
myster y
ad mit
point s
quest ion
.... ....
mid dle
B l
re de
want s
g raph
el s
Mo st
sp ent
sh i
L u
a void
st ere
B lack
r ow
z e
w o
ro du
l ar
tele vision
T r
ang er
grou p
c ru
p at
id i
is ing
show ing
cr ing
interest ed
appreci ate
abo ve
tal k
on y
mo sp
pp ed
poss i
list en
H is
ar ant
tri es
sp ace
back ground
augh ter
f ree
g one
ed ge
Americ a
r ide
stere ot
fil led
me et
am p
liter ally
oo se
i v
9 0
Ch rist
ti v
at mosp
com ments
is on
r ing
des cri
se at
am ount
langu age
fe ature
us es
ag ing
c ers
n ie
fin al
soci ety
ide as
C o
Lo ve
us ion
V ER
ad vent
20 0
E m
Eng lish
p y
li m
mis sed
5 0
d aughter
or ge
the me
b all
go d
Every thing
intellig ent
gr ow
mo ther
say s
A R
br ought
go re
ma kers
b ar
re fer
per haps
screen play
incredi bly
B at
n am
crit ic
ele ments
su g
10 0
ac cept
b ust
ber t
er ial
che ck
ed iting
Brit ish
no vel
sex ual
car to
W ar
appe ar
ex press
sug gest
ent s
G u
in ing
Su per
h ar
R ob
ne ar
log y
st ud
St ory
super hero
L E
H a
s light
set s
Un fortunately
bo x
point less
any more
dra matic
g ust
ious ly
mat erial
Se ason
be comes
power ful
b ed
ch ed
b lic
season s
vi ce
ra c
relation ship
s ick
mus ical
d ru
l ad
as k
M a
m ur
g ed
appe al
s ign
action s
soci al
med io
re lig
sp end
or der
shot s
hy pe
P a
d ream
pac ed
natur al
fa ke
creat e
j ump
po se
open ing
support ing
me ans
ri ed
view ing
prop ag
G r
val ue
ell ing
cur rent
ab ility
song s
C l
ve st
hol es
ac cent
ot ic
F ran
u ine
imag ine
lear n
m es
im pro
bas ically
spe ak
visual s
des ign
log ical
V E
sc are
pp ing
tal e
ic ult
ac ross
om in
rom ance
g un
diff icult
E d
i er
m b
cont ent
cult ure
review ers
pa id
ad apt
watch able
produ cers
Act ing
gener al
rele ased
h ot
wal ked
J e
stun ning
comple x
me mor
with in
show n
do cu
rom antic
work ed
gen uine
cap t
portray ed
T ur
e ye
a il
intri gu
sho ot
un ity
dr op
fail ed
fe st
p ull
Christi an
bb ish
K ing
h ook
Q u
e qu
propag anda
ic es
peri od
s l
s ite
non sense
atmosp here
S am
bad ly
cor rect
T oo
some what
thr ow
cra zy
f ying
p ho
z omb
he ar
cre w
re nd
ou n
wh e
el d
en e
un like
mis sing
ex tra
th ird
st re
cre ep
ra ge
rede em
ti red
pr ot
beautiful ly
w r
medio cre
gon na
ren ch
o h
cri me
st ate
Di rect
s la
s ens
8 0
out standing
includ ing
ac cur
docu ment
know s
O U
g ay
li k
sh ed
great est
fight ing
li ving
B y
L Y
Th ank
deser ve
B ro
em b
A d
S E
f our
ro y
br ings
an ks
so ld
ep ic
se arch
ho st
ce i
impress ed
contin ue
is ter
m illi
g an
at ta
convin cing
H igh
r ound
happen ing
ent ly
B est
t ension
v ar
contin u
S im
des pite
cred its
villa in
me ant
proble ms
particul arly
conne ct
R a
in ary
is s
st range
re fresh
Da vid
view s
C ap
film ed
com b
lik able
t aste
entertain ed
' .
ou th
ri ch
c ant
talent ed
in vest
int rodu
i val
se ll
ur y
sub tle
On ly
b an
w an
sur vi
rele ase
g ress
some how
un less
direct ors
adult s
c ute
p ing
parent s
sp ot
ru bbish
ber g
m il
ce ed
F i
t ill
u g
E N
dis gust
arr ass
lead s
O ther
h us
or ing
l in
G e
int ense
con cl
W as
im p
stereot yp
num ber
a z
? !
creat ive
1 2
scen ery
quick ly
P r
for ce
r al
th ers
Fil m
pl enty
possi bly
i us
fl u
N or
to wards
hus band
cho ice
re present
emb arrass
ens ive
shi ps
i k
run ning
ough ly
bu y
S ure
re c
ic a
ok ay
A li
gu es
de press
pain ful
long er
advent ure
B en
what ever
pro gra
pur pose
um es
fo ot
H or
situ ations
B C
im m
pro ject
ant i
po lice
bec ame
col le
i ed
D id
ur t
pu blic
ter n
B ra
j our
portray al
lea ves
ap pro
plot s
cring e
S m
stru gg
, "
add ed
st ep
M on
bre ath
kill ed
foc us
i ar
in sp
un believable
dist ur
P l
ur ther
Ho pe
c atch
W al
ap art
just ice
De finitely
c al
prof ess
d ate
wor king
screen ing
quest ions
cla im
Th ese
t v
impress ive
m ass
< /
con tain
pack ed
carto on
real ize
aw k
finish ed
S ch
ne arly
h ood
ad v
f ron
om en
cra ft
R uss
ab y
can c
ster n
mur der
I I
P ro
viol ent
1 3
ul a
reg ard
H er
I E
un k
fail s
situ ation
do g
an ces
un necessary
C ol
uni verse
wr ote
D es
S ci
p ra
develop ed
tr act
prot agon
nor mal
so ph
fl ash
Pe ter
f ra
od d
Indi an
whe ther
to wn
anim ated
be l
comp are
C he
b ot
cont ro
histor ical
reg ret
ri es
t able
refresh ing
G re
ma x
di m
ct or
S and
accur ate
i b
eng aging
au ght
famil iar
sub st
in di
st ri
A ma
i ans
O M
am ong
got ten
Sp ider
A w
n el
to m
recommend ed
ant s
psy cho
f r
pre s
want ing
mag ic
produ ced
spect ac
ap parent
comp ared
i ally
lead ing
ord inary
B ig
chang ed
z ero
st r
conf using
old er
T ru
b us
D ark
ul ti
con tri
comed ies
. )
lo ad
te st
De ad
k ick
Every one
h at
ag er
comm on
hop es
A dam
com fort
belie f
: )
L ook
sou l
E l
ous ly
C H
J u
i ves
arant ino
pho to
A ng
og y
mar vel
gen ius
fig ure
f ive
G O
u b
re w
theat re
detail s
li es
un fortunately
pe t
z ed
un realistic
hor ri
in spir
cost umes
M el
V i
as c
og n
cop y
g ain
re ve
s leep
than k
dec is
h ated
T arantino
st al
ers on
ct ive
end er
wonder ing
u c
en er
D an
Ser iously
S how
av y
cons ist
document ary
ly ing
don t
b es
ot t
deli vers
sy m
ra ce
iv ity
hook ed
care er
wal k
creep y
person ally
re sp
F ar
ach ie
gr y
f ire
n ature
ra p
F in
thor oughly
s n
progra m
u ro
any way
ay s
t ort
fa ith
comp elling
A S
Wh ere
re qu
swe et
as leep
utter ly
m ulti
st ers
gr and
big gest
c ul
I m
mo ved
gg ed
rec ogn
and om
N ever
r up
s es
il ogy
cred it
in no
B O
I L
W ow
polit ics
other wise
Ro bert
rel ate
awk ward
l uck
di es
R y
S ad
re ach
ind ust
ru ined
In stead
Pa ul
th s
bo ys
tell s
4 0
t one
it al
med i
fall s
er on
man aged
A no
pro gress
in c
el ess
lack s
ent ious
no re
v ot
Se e
Ano ther
if er
redeem ing
M O
sho ck
m ad
bo ard
narr ative
te ach
g ing
ha m
be at
wer en
st ream
com plain
ti es
re sult
te ars
off ice
mo od
de pict
B ar
m ir
ear th
Ab solute
bat tle
slight ly
de ed
sit ting
show ed
i ent
pop ular
f ool
Christ mas
intrigu ing
E VER
illi am
pac ing
do ll
c at
fe ar
f urther
g raphy
comed ic
fi ed
reason s
kill s
cei ved
S orry
not e
en ing
kind a
O k
ut ion
bo ot
des per
descri be
H onest
li kes
insp ired
w ater
im possible
pie ces
A D
b arely
mo te
ne ither
A M
L ast
f low
Be cause
ad es
wit ch
up on
Per haps
speci ally
pu sh
execut ed
i or
cinemat ic
R i
R ed
p an
P ark
pro vo
dis aster
cor n
1 1
prop er
F e
M us
S a
ch all
tr ilogy
J im
b la
op port
pers pect
ag end
bas ic
theat ers
ph ys
dialo gues
Lo ved
touch ing
lea ving
particul ar
h en
r andom
tr ust
qu ir
D C
f asc
ive ly
ter ror
follow ing
fair ly
Bat man
M any
t ar
Ke vin
lar ge
c ity
not ch
pret entious
p ul
op po
br ut
amp ire
jour ney
pla ces
dra w
wit ty
3 D
A ust
M ore
d ed
ell ed
? "
F o
hero es
young er
u do
stu di
indust ry
Honest ly
de m
' ,
TH IS
M ad
actress es
li ber
know ing
sh allow
ul tim
u sh
g rit
gener ation
scare s
dis h
concl usion
s en
vi ct
ac count
be ar
like ly
em pt
na il
distur bing
fron t
M or
a po
should n
flaw s
fil l
n ames
ri e
b ul
M ur
memor able
aspect s
adapt ation
g ang
ri ous
wan na
St ill
relation ships
that s
now here
em p
conf used
Sm ith
T ra
su cks
mb ers
S ave
tr ad
H ere
Y e
stand ard
dam n
Ry an
s mo
con cer
every body
kill ing
Le e
comm er
1 st
on der
consider ing
jud ge
d el
ate ur
mis take
scre am
tw ice
dra wn
comp ar
g ers
G ive
e ch
mo ves
pl us
med ia
ab sur
bl and
r are
dest roy
mention ed
zomb ie
g ent
t ough
dec ide
if y
scen ar
laugh ter
W illiam
let s
Americ ans
remind s
T i
col or
is es
he avy
ins ide
?? ?
issu e
Wor ld
milli on
ir rit
tr ou
rele v
bre aking
remind ed
feel ings
ali en
deliver ed
a ther
b lock
th in
J ason
P ar
them es
sequ ence
intellig ence
graph ic
B ond
M en
pa int
W ood
ment al
dep end
B er
B ill
b a
prop ri
Ger man
B S
O ut
imag ination
it ary
M art
wal king
appro ach
H O
lo se
d s
v ote
high er
R om
T im
g ory
B ru
b omb
Ha ving
fe min
Sc ott
N ight
d read
m atch
c ore
appe ars
form ula
spir it
l eng
A f
hard ly
w ed
i zing
go ver
W il
ap propri
sel ess
entire ly
hand s
dim ens
su it
pa th
Char act
absur d
F rench
P at
an gry
except ion
im ent
St ep
subst ance
ter ms
agend a
s il
tra vel
M at
sm ile
E D
we stern
stru ct
conne ction
T wo
am ateur
think s
oc cas
reve al
ra id
mix ed
terri fic
comfort able
t ers
Th r
story telling
consider ed
spectac ular
m m
ven ge
min or
aw ard
audi ences
bro ther
fi eld
perspect ive
ou rit
mor al
st em
thr own
B et
E uro
H ard
c ross
vi r
refer ences
disgust ing
protagon ist
an ced
be ha
sound s
! "
a a
d ry
dis c
Ex c
J ones
f la
as su
un g
ri p
kill er
n u
ap p
ver t
E nd
const antly
! )
a im
off er
profess ional
a pe
ash ing
surpris ingly
miss ion
un expected
build ing
7 0
y ed
st ood
oo oo
who se
dis cover
lack ing
human ity
me mbers
ac c
in sult
on ic
de light
in y
s w
lo ss
m ally
ph en
ans w
AN D
fav ourit
Absolute ly
b s
val ues
spoil ers
tech no
gr ab
6 0
form ation
ani me
e en
fol ks
chang es
dimens ional
J enn
g ic
Br ad
V IE
ci ous
suppo se
Bru ce
ha ir
lo ves
over rated
fli ct
trail ers
n umb
add s
stu ck
teen age
High ly
re mark
se cre
new s
cap tiv
S O
g ames
im medi
pp y
recent ly
const ant
fam ous
tit les
intel lect
phen omen
n s
il o
apparent ly
sure ly
beaut y
W ay
ic ed
th us
pre mi
sa ke
wast ing
cri min
Ge orge
S pi
opport unity
E S
E p
and er
fa ces
W ould
char ming
A le
z a
Cap tain
in sul
Jenn ifer
C am
L aw
M i
T O
c ir
e per
un funny
ir ty
ap an
aw are
cr ow
af fect
af raid
stre et
mo tiv
ish ed
enjoy ing
sk ip
gra ce
in deed
nie st
B ur
success ful
l ay
so ever
lo ving
qu al
understand ing
sy stem
d a
me mber
rup t
tr an
laugh able
S ar
ex per
aw ards
mat ure
put ting
pleas antly
P h
i ers
o st
Direct or
what soever
Ter rible
c aught
f old
m bl
attempt s
h om
p unch
li er
C ine
car ry
spe c
relig ious
g es
pre fer
cou rage
slow ly
I C
n ud
vi du
vis ually
fa ult
mot ion
D r
ar c
Th ose
re cor
en ced
la zy
relev ant
S uch
a vi
v an
than ks
od y
Any way
Ama zing
A C
D ay
b its
f ash
meet s
photo graphy
B oring
L it
f u
re ck
b ase
d an
blow n
fasc in
off ic
differ ence
sho cked
bus iness
il t
present ed
n ical
surpris ing
beha vi
ed uc
me t
Be aut
empt y
exc use
girl friend
fr ust
n omin
man ages
hel d
A void
act s
over ly
thrill ing
dru g
w ars
gr at
comp ut
suc ceed
indi vidu
Fran k
favourit e
B re
A c
J es
su cked
fun niest
gener ally
orge ous
mil itary
w ind
ex plan
vict im
Euro pe
G et
y n
or k
gre w
B E
re boot
sum mer
u be
at tract
not ice
sp in
creat ing
Jack son
w el
w all
19 9
On ce
Russ ian
so ap
produ ct
deser ved
explo s
as ha
min s
off ensive
Li fe
appropri ate
w ow
forget table
stereotyp es
fash ion
J apan
p se
Ro ck
A ction
D ani
ac y
En joy
D ra
F un
m outh
s al
v ul
out side
com ics
stop ped
e th
sci ent
v ampire
as ide
tur ning
K id
sc ared
ag ger
wood en
contro l
less ly
Ste ve
LO VE
genuine ly
fact s
multi ple
re mote
some where
nud ity
film ing
ge m
if ied
sad ly
pop corn
Any one
Mart in
depress ing
art istic
? )
s our
int ended
con flict
sho cking
allow ed
tort ure
W onder
ant ed
led ge
block bust
G host
cent ury
t re
was h
person ality
follow s
Des pite
st age
tar get
> <
C ould
H an
k ish
at ter
it es
as ked
I D
satis fying
Sand ler
j u
prom ising
ag ers
comp any
H ouse
re y
immedi ately
S un
ma ch
Ang el
um bl
min ator
ak ed
Exc ellent
Th ough
li ved
log ic
2 nd
S al
ag a
gh ost
tra in
bring ing
pleas ant
Y OU
s ix
provo king
ag ue
add ition
impro ve
g orgeous
st o
sh are
ade my
d ance
H ol
in v
mis er
canc el
pra ise
ad vert
con vers
G irl
d den
s ess
de te
psycho logical
and s
char m
sing ing
s ister
be low
no stal
gr own
bal ance
ch ick
exc ite
pa thy
A Y
f ab
E ast
ð Ÿ
H ad
a x
lo ver
cle an
cli max
it t
de f
gr ad
pleas ure
cliché s
Watch ing
dru gs
h ang
ar th
ye ah
gr ade
surpris es
ele ment
loc al
d anger
de fin
ven gers
pr act
imp act
A m
in ner
D O
O ff
T ot
pass ion
var ious
MO VIE
c ate
p en
w ide
Ju li
re vol
sit com
b aby
re search
un fold
ass ic
won t
Fin ally
h id
has n
cho ices
G ar
re main
be coming
start ing
chan nel
ref lect
t un
Th anks
ill er
posit ion
ear lier
au then
mon ster
achie ve
ab s
bl ind
C ra
b ri
re venge
ill a
ell ar
pla ced
high light
brilliant ly
c old
k a
man ner
um ps
.... ..
fore ver
deep ly
Ti me
u ff
w w
st ret
iz ation
child hood
gover n
su spect
4 5
S aw
as es
real ism
8 0s
ch ase
up s
Be ing
human s
comput er
R ay
and y
ic king
pi le
Do es
AL L
gri pping
O ld
nice ly
C U
g ross
j unk
re ceived
al d
ro ck
sold iers
ro b
dra gged
ru shed
back s
excite ment
h ill
r arely
v a
in it
on to
teen agers
plan et
in flu
rel ated
major ity
di g
love ly
loc ations
phenomen al
P O
T or
ch ill
un interesting
no body
repe tit
ug ly
su dden
tr ick
co her
ren ce
O b
il dish
ser v
pr ison
cry ing
authen tic
T it
m ary
su ck
ines e
care s
imag in
impress ion
l oose
coun ter
prom ise
at ic
ce le
Tur kish
f ly
it ive
stand s
contin ues
Po or
an a
s li
wh el
A re
B oth
ro ad
find ing
net work
resp ons
F est
hi p
tri p
inspir ing
real ized
dr ink
J on
ma ker
her self
ph ilo
sla p
scenar io
d ad
go ld
irrit ating
fight s
explain ed
Step hen
techno logy
E ach
e e
g a
il ities
are nt
orig in
ted ious
level s
Spi el
bor n
sequel s
fran k
U p
ON E
m ine
r d
original ity
strugg le
Q ue
w il
in formation
ul ous
min im
gl ing
With out
villa ins
pick ed
th o
st unt
am using
sex y
ali ens
quir ky
, ,
D am
H BO
U T
re turn
suspense ful
leng th
a head
ru in
antic ip
H am
i et
p un
v or
ch ore
ro ot
dread ful
C age
r ad
w art
sur round
find s
brut al
Af ric
Y ork
ad vice
te ens
C ast
d ress
ch op
ch ildish
pow ers
ultim ately
H ave
int ed
f its
w ing
big ger
war ming
graph ics
M ag
e ks
philo soph
ir o
chall eng
K ore
P lot
b iz
the s
pro ves
sp ort
ction s
ins ight
ca pe
k i
w ild
ch oose
any where
put s
E li
F ant
G old
P ri
P ol
ak y
comp lic
feature s
relig ion
int s
St re
had n
follow ed
hy ped
L on
s kills
sa fe
F X
U N
W W
r ick
F am
s pl
pr oud
mon ths
secre t
Spiel berg
N ic
R I
ed y
el le
produ ce
nor mally
dri vel
if f
ig nore
shoot ing
D en
M ark
at ro
ad ays
sc ars
Har ry
st on
ent ially
char is
rel at
es cape
lo y
no ld
stay ed
av ail
e vol
in vent
comm it
keep ing
Indi a
al ive
sh ad
un comfortable
dis tr
cra ppy
cli che
cri ed
fascin ating
guess ing
studi o
B la
E specially
wh om
pl es
dra g
Ch inese
B as
M al
R am
S y
ar ily
main ly
hope fully
Wor st
a i
he y
pla us
ama zed
produ cer
leg end
colle ge
Ri char
oppo site
Ale x
R id
k ins
war m
heart ed
TH ING
hat ers
Beaut iful
u des
mag n
pres ence
liber al
e vid
f at
v s
de eper
00 0
Bo y
bla h
govern ment
or m
mo m
19 7
Ye ah
it ude
ke ts
aw n
part y
B ob
G i
st ink
Wh ich
tic ket
h es
the less
al le
pre pare
spe ech
Can ad
pul led
explan ation
G ame
Y et
th ous
Sad ly
Ep iso
em s
spe aking
contain s
L ots
h its
humor ous
b right
ere ly
un ting
low er
Th or
des c
Lo st
h urt
asha med
crow d
1 8
O F
ar re
of t
se mbl
Ch an
creat ors
RE AL
connect ed
J ess
re lie
ar ies
com pla
min is
ans wer
pass ed
dri ven
ener gy
T ake
c ars
ed i
rac ist
contri ved
requ ire
F er
il st
film makers
vers ity
US A
Jes us
M CU
N one
ob ject
udo s
B ollywood
K ate
c up
ri ve
anim als
Rob in
equ ally
di ed
pre view
comm un
mind less
IMD B
Aust ral
f al
en ed
ex agger
will ing
crit ical
loc ation
Sha me
grit ty
Lon don
P art
U K
ob sess
typ es
Charact ers
Japan ese
m ory
int ent
dy nam
sk i
second s
emotion ally
Fest ival
Th om
for mer
wonder fully
mon sters
fic ial
J ur
me mory
not iced
terri bly
Fo x
3 rd
P re
S pace
f ood
g ag
in depend
stand ards
pre ach
ins ane
fli cks
cor ny
event ually
bro thers
intellect ual
Dani el
P i
for mat
wit ness
commer cial
b ought
re ma
en vi
dri ve
K han
por n
stud ent
r ors
compar ison
H en
S k
ti ght
satis fied
decis ion
blockbust er
R us
c ell
p al
u it
ni er
G al
st ellar
ch er
co ck
effect ive
head s
Gre en
avail able
L au
gl or
pay ing
zz zz
trou ble
b ility
i ma
for d
ac com
ph one
dete ctive
all ing
gi a
h ur
as p
Ok ay
Richar d
D ep
r ay
y a
ch uck
con ve
craft ed
S ince
t or
know ledge
tra ged
ap py
script s
Some times
mar ke
sk y
foc used
blood y
lim ited
imag es
par ody
H u
h on
t ense
pro vid
execut ion
grow ing
F l
d ated
pre h
ser vice
add ing
har sh
remote ly
Fam ily
C ru
b lame
g ut
an ity
ch ur
be long
for gotten
19 8
sat ire
desper ate
R u
it ional
ex ic
under stood
pa ir
Ma x
lin ers
bo re
Wh ite
polit ically
fall ing
foot age
bot tom
dan cing
M ac
M exic
lack ed
week end
idi ots
Ali en
William s
frank ly
A bra
ent er
pain fully
inst all
Lit tle
2 5
M ary
P erson
b ian
sa ved
nam ed
mass ive
Pro bably
coher ent
envi ron
A my
I ron
h h
z il
lo vers
now adays
myster ious
Pl us
biz arre
** **
fra me
I r
L A
W H
x ious
th reat
I G
Ste ven
captiv ating
P an
S outh
c ash
The ir
op era
gre en
cap able
portray ing
any body
Ke ep
famil ies
1 4
E arth
O scars
R ose
an u
pro ved
M ir
z en
lo l
light ing
lad y
extra ordinary
ou l
super ior
bi ased
accom pl
st ore
review er
Watch ed
V is
ad dict
ti re
ific ent
sour ce
C ity
H el
L a
c able
pre qu
bing e
st a
we ight
au thor
Ter minator
........ ........
invest ig
Hope fully
remark able
G E
t rek
fair y
Act ually
Cam eron
en a
fun nier
mind ed
co very
Gu y
C le
de mon
comm unity
sub titles
stupid ity
gg ing
win ning
explos ions
1 6
C ha
P ac
W itch
c ow
t ext
cor por
inter pret
John ny
complic ated
U ST
de vil
fin ale
tim ing
ip ul
appeal ing
A vengers
J ane
g ate
accent s
stre ng
shad ow
K at
f ing
bu ilt
gener ic
und red
embarrass ing
A gain
b en
k no
an al
hel ped
except ional
Other wise
plaus ible
B BC
N az
b oo
g lo
John son
appear ance
gun s
W est
n ational
he al
hel ps
allow een
decis ions
L ord
P ix
V an
ri g
de pi
friend ship
top ic
roll ing
colle ction
ra w
insul ting
Jess ica
h r
com pe
mind s
tech nical
idi otic
vir t
cir c
Jur assic
u seless
v ate
en cy
un watchable
but e
Mo vies
hold s
bur n
H ell
m ble
ir th
art s
rac ism
m are
as king
vi a
go of
man ipul
dra mas
fest ival
comb ination
repetit ive
z on
ab lish
int ention
ur s
pr ote
ste al
dec ade
d ers
pro cess
ho mo
bust ers
attract ive
fab ulous
j a
state ment
Bra zil
qual ities
M ust
T R
n ation
s aga
re ll
ar gu
thought s
umb s
behavi or
P al
P itt
h undred
ap pla
ster day
experi enced
luck y
we b
mess ages
meaning ful
late st
W AT
n al
ch os
qu iet
og raph
Se th
Tr ump
Jo e
Se cond
portray s
traged y
f right
do or
belie v
suff er
v it
sa ving
pr ice
All en
oc cur
comment ary
breath taking
W a
a the
end less
sp y
creat ivity
reg ular
nomin ated
grat uit
N Y
R on
B ay
est ablish
chang ing
Episo de
fal se
ar a
even ing
super natural
bored om
lear ned
rema ins
C or
J ud
M uch
v ast
st ated
de ter
ser ial
fail ure
fe t
Sar ah
c ise
op er
fi x
strong ly
C ome
me ta
de part
dis like
blow ing
relat able
Hen ry
man age
ach el
2 4
g gling
as ing
com pet
dis agree
ign or
appreci ated
bear able
B a
b ound
t end
" )
M id
re sol
po sed
war ned
cor rupt
twist ed
sign ific
introdu ced
A W
O O
r ul
un known
op t
An na
bri ef
N ol
N ice
or gan
it ation
um ped
Un i
H alloween
L ars
P C
p ark
ind ul
capt ure
H un
j er
fore ign
cru el
bes ides
phys ical
Ac ademy
we eks
Har ris
K ill
P ret
d run
sh ine
off ers
Br illiant
atta ck
e at
r ation
st ic
il es
( "
I F
N ick
d are
me lo
appe ared
ed ited
vi be
om ination
ad ing
cl ue
cept ion
sent iment
sk in
zomb ies
inno cent
K rist
c gi
oo per
survi ve
Bet ter
Person ally
T y
m ill
ti ve
pro vide
ang le
tur al
destroy ed
a ven
some body
cont ext
bro ken
Ste wart
Tr ans
Wood y
independ ent
ed om
be th
con tem
disc uss
premi ere
H A
off ended
half way
suff ering
Pix ar
cru de
M att
S her
g le
m ild
n ut
s ides
t t
Char lie
vul gar
sh ar
every where
ie st
less on
mag ical
W rit
Y our
l ust
s ight
perfect ion
main stream
teen ager
acc ident
Off ice
H ill
ne igh
S tr
pe ace
seem ingly
-- --
capt ured
mis takes
invol ving
Hor rible
numb ers
E L
g al
r ina
fl op
run s
Per fect
repe ated
Mus ic
B el
F ull
R un
he aring
In t
she er
hop ed
doll ars
relie f
gratuit ous
it ions
ad y
ast y
ach e
beg ins
win ner
deal ing
. ,
G ra
n ic
fact or
assu me
magn ificent
F rid
ri x
fe at
idi ot
horri bly
f are
la x
ta ck
script ed
AN Y
Aw ful
sudden ly
d irty
n es
t ons
ar my
ir k
expect ation
under rated
wait ed
cu rious
ch ose
call ing
fortun ate
Lu ke
stereotyp ical
c ris
an ne
al tern
Ch uck
form ers
comb ined
consist ent
whel ming
f lo
w reck
at ors
For d
credi ble
Chris top
WAT CH
N iro
s in
an n
ri an
necess arily
g ender
st om
li ed
ish ing
beg an
ino sa
Wor th
En ter
K a
h ide
ag ent
ye sterday
tra gic
20 19
thrill ers
19 6
ted ly
meaning less
imagin ative
marke ting
l on
u ed
pict ures
bro ad
prof ound
milli ons
b ag
in die
il ing
star ring
deli very
Ab out
repe at
contro vers
concer ned
Abra ms
depi ction
M ars
U nd
y r
ch a
com preh
pl ane
cam p
Hor ror
Ob vious
9 9
S ky
p ity
pa per
vil le
1 7
K en
K night
P ot
out s
ol f
pat i
dream s
c ard
stud ents
Tru ly
M iss
O li
P ho
T ER
in cre
is sa
en de
ic le
ple ased
complain ing
Law rence
East wood
u el
ma int
col our
Christop her
A pp
f y
re sul
ple te
pr in
recor d
mach ine
Fant astic
chos en
B UT
for got
ort ion
Com edy
Frid ay
n ers
la m
comp aring
memor ies
scream ing
hid den
B ack
S ta
l oo
r ous
re lax
pro ve
ser ved
gu arant
ima ge
om an
us er
incl ude
cost s
I g
vi des
do ctor
cas es
fig ured
express ion
F ree
V in
n ap
t rend
dis belief
vo ices
Al most
S ur
b on
b ang
j ay
wor ry
answ ers
pr ay
ac cu
circ um
th ro
re action
li king
sh aky
he ck
every day
treat ed
environ ment
maint ain
h ating
re sembl
or able
ab or
if t
up set
ho le
bl ue
iz es
illi on
D u
d om
l or
It al
ser ve
!! !!!
lead er
bother ed
apo cal
M er
w is
re makes
as soci
you th
fine st
prepare d
L ong
R achel
and on
to ler
sp ending
spoil er
oun tain
stunt s
B es
H op
Jo ker
att itude
sy n
anno yed
ang les
Lu cas
express ions
Tru e
Que en
B T
g ru
de b
te ar
Some one
fre edom
hand ed
Spider man
L yn
M A
T op
s witch
as ure
pre views
there fore
clo thes
ton ight
Bat tle
critic ism
stom ach
M in
O D
es cap
bu ff
femin ist
stret ch
S il
W all
tri pe
S us
jo inted
var i
nostal gia
R A
T wil
ll en
cop s
individu al
Obvious ly
an o
class ics
Un like
experi ences
ich ol
roll er
flaw less
Bas ically
ic ide
for th
ro g
hand le
hy ster
F r
de mo
ex pl
des ire
night mare
201 8
Super man
Twil ight
R es
V al
e y
so le
ph y
rel ative
TH AT
includ ed
strugg les
flash backs
circum st
B ul
R ick
S hi
h all
j i
As ian
inter net
Bl ood
Afric an
N ichol
re ly
wh ilst
he avi
pro vides
gu est
mar ket
Bre aking
wel come
h un
en ge
cent ral
sens itive
R od
u ous
ind u
ag re
land sc
fiction al
streng th
I ON
S R
b ond
on line
no on
Se an
opin ions
capt ures
occas ion
install ment
po ster
spe ed
Je ff
embarrass ed
Che ck
Mel issa
r ant
v y
ut ed
int e
St one
dark er
Will is
dem and
slap stick
P LE
c ook
m end
s kept
un usual
no xious
bl at
Ph il
cate gory
gag s
v ac
li f
ra cial
lo sing
ud d
creat es
creat ures
VER Y
Ghost busters
at ives
sh ines
art ist
ous y
ol es
gi ant
Re e
Re y
col ors
eng aged
bb ed
count ries
accept able
Look ing
Par is
G ib
h ab
s qu
de but
flaw ed
D el
K udos
P G
fe ed
we ap
Com plete
cul tural
A p
S an
b att
t ast
if i
St an
exc ess
dec ades
tech ni
proper ly
ben ef
Pret ty
J am
peci al
ons ens
clich es
current ly
invest ed
' '
f if
g in
p ool
z illa
sc ale
sa cri
war n
effort s
B ef
D ou
G en
R og
b ab
p age
ot ten
sp ider
touch es
Em ma
F ire
H as
M oo
d inosa
g ment
s oft
intri gue
SE E
Pat rick
Bef ore
c andy
dis jointed
bra ve
stru ggling
miser ably
U L
k o
Th ink
ir ing
perfor med
co aster
De ath
tic kets
stud y
Eli za
atro cious
Nol an
B rie
as her
ra m
view ed
descri bed
Wil son
Moo re
B illy
le ction
ha ck
fun ction
Cl int
Mi ke
N E
P ic
st one
be ll
op h
perfor m
down hill
Ke anu
danger ous
Tot ally
Kore an
B LE
S atur
it iz
sh all
Christi ans
canc elled
J edi
b ank
se y
war ning
An ne
Some thing
Rus sell
C ons
r out
er ous
Th ings
ob noxious
light s
spo of
import antly
soph istic
depict ed
Mur phy
aim ed
G ree
O rig
s un
in ct
il ed
Fun ny
heavi ly
C la
H ugh
W aste
at o
ed gy
ve h
ad o
ma id
ass ion
right s
add ress
Per ry
Dan ny
IL L
Krist en
Und er
D E
r at
ti al
pret end
pri or
pat ri
A u
H itch
P ow
T ri
f ed
ur ge
hor rend
Re al
stay s
shar p
Gib son
W oman
ro bot
psy ch
amateur ish
crimin al
onsens ical
F u
R ight
T F
W O
un original
pt ion
S pecial
l ink
s end
th umbs
gh ter
ri o
um ber
ble w
amazing ly
Le on
Ar th
intrigu ed
trad itional
prote ct
E vil
b ow
g as
int ens
art ed
bo ss
came os
Sim ply
b ill
s pre
op s
tw enty
set t
!!!! !!!!
Satur day
I mag
T ry
ed it
se par
can cer
In ter
For ce
pop ul
Sh ould
sexual ity
cancel ed
rul es
f le
for ces
ir m
con tra
we aring
qu it
pro of
br and
tal ks
car ic
Act ors
dou ble
spoil ed
believ ably
B or
K ar
s le
the w
ar on
has h
ru sh
vis it
creat ion
gener ous
dri ving
sl asher
respons ible
chur ch
f lying
no ir
worth while
stru ction
boy friend
exist ence
represent ation
arent ly
N a
m erely
n ia
n asty
au to
dra gs
talent s
allow s
supposed ly
score s
God zilla
touch ed
Car thy
Ad d
G RE
H ero
T e
s ar
ess ence
got ta
stereot y
thus i
F red
R ating
S U
n aked
s kill
vers ions
sum mary
convin ced
requ ired
Rom an
Bes ides
Z omb
li ft
out ing
dialog s
Ig nore
C r
l ately
w ra
mo b
after noon
stu me
cr ash
** *
Mc Carthy
Sun day
H ome
K y
L ist
g ig
st at
ri val
came o
Ser ies
refer ence
regard ing
answ ered
Ree ves
> </
C a
J er
P rodu
en ix
comp an
J J
S ing
y er
didn t
mar ried
?? ??
provid ed
B u
C K
sh ut
un bearable
sc r
ast on
wor ried
qu ot
make up
production s
roll s
trans l
speak s
Mor gan
Europe an
Pot ter
e ight
for med
de als
bas is
terri fying
regard less
Ama zon
Dep p
P E
f les
m ate
and ering
bl es
personal ities
Thr ones
victim s
compet ent
Lyn ch
B AD
n onsensical
p oo
point ed
ident ity
move ment
exist ent
Canad ian
P S
V o
re minis
ri ver
fell ow
convers ation
Austral ian
circumst ances
B I
S ound
b rit
ex ceed
over done
dis grace
ste als
car ried
cover ed
break s
sym pathy
vot ed
reveal ed
tre mend
cele br
D ar
k in
l s
s inc
di versity
fin ity
dy ing
Ar nold
roll ed
Aw esome
9 0s
M ake
d ama
am bit
ti e
go ers
sp ark
mat ters
Lars on
contra st
caric ature
C W
S cre
_ _
p lo
ak s
How ard
cor ding
ear ned
AN T
inno v
hom age
po ign
imag ery
EVER Y
chall enge
drun k
Eliza beth
C I
C ooper
J ake
u ra
is her
ense mble
cut s
appla ud
A nt
L ou
N ext
g ree
pre d
produ cing
car ing
cliché d
contri but
desc ript
App arently
R O
p it
es que
Re g
na ive
A part
p ic
an cy
re ward
en thusi
al right
what s
great ly
min i
Jo sh
ris k
cam py
favor ites
exp lic
horri fic
fool ed
push ing
b ull
er ie
un predictable
less ons
du de
preci ous
histor ically
introdu ction
Juli a
B aby
b last
to i
we st
ind ic
part ner
comp elled
kind s
top ics
pu zz
Cine mat
B rid
M ind
S w
T ony
d ar
e ase
in n
se ven
ess entially
enjoy ment
res ident
ele ct
num erous
lad ies
jump ing
Pho enix
Jam ie
D og
z el
le m
se es
be loved
ad m
ra in
fe e
pt ic
fa cial
cra ck
Dis covery
Mich elle
Eng land
design ed
survi val
charis ma
exagger ated
Pi ct
B ird
are a
fa ced
old s
original s
down right
He y
dest ro
continu ed
Fi ction
Pic ard
at tr
ci als
thrill s
mal es
hold ing
listen ing
ib ility
emp has
REAL LY
b ic
re place
tr op
gl ued
build s
pri me
swe aring
Je an
drop ped
loy al
horrend ous
A sh
d ys
is land
ab use
film maker
St ay
co stume
por ary
clo ser
Mat rix
D ial
H anks
N at
T al
re sc
con sc
ig no
tra ve
Le g
protagon ists
dynam ic
skept ical
L ady
S pe
S ame
S top
a we
an ish
to ward
us ive
hand led
wo ke
inc ident
goof y
intens ity
C ent
N G
T S
e ager
w s
vi li
Th ree
og ical
bit ter
creat ure
carto ons
Did n
Arth ur
H ist
ho li
tri bute
minim um
GRE AT
+ +
7 0s
L D
b irth
ve ter
ridiculous ly
equ al
sym pathetic
ju ven
Thom as
fles h
D ON
S G
S car
g am
s now
con serv
bl end
narr ation
Free man
H aw
N BC
ore d
No ah
friend ly
Cru ise
M ade
ar ti
ket ch
init ial
h unt
for ms
bo dies
br ick
.... ...
ste am
anim al
201 7
teach er
fet ched
" ?
A k
I ran
K u
M s
X X
or ter
cl ub
super ficial
da ily
Stre et
th ony
el ly
out rage
ir t
bor der
reason able
formula ic
Mat thew
compla int
compe tit
meta ph
mild ly
toi let
K E
t ly
st ain
ha unting
fe et
bu ying
af fair
continu ity
convers ations
rob ots
Pac ino
G ot
r ise
ri age
hor se
bl ed
Ed die
exper iment
abs or
influ ence
C lo
H alf
r ough
st ress
om ed
qu es
che cking
car ries
par alle
Ro y
mark s
Qu ite
Bro thers
struct ure
frust rating
Trans formers
Cinemat ography
H all
R os
c ket
re port
ic ip
con vent
cour t
pure ly
foot ball
Bra vo
M il
S wed
c ies
t ick
con struct
And erson
dra mat
For get
An thony
cut ting
spo ken
ali ke
remember ed
net flix
OM E
pse udo
: /
H ot
P lan
e ating
n ause
o le
re p
il ty
Al an
val u
incl udes
HO W
Sal man
depart ment
C row
D own
F ast
T ay
ill ogical
lo vable
Un less
clich Ã
Sha kes
setting s
mes mer
Rid ley
Imag ine
J en
J ord
l ousy
ci a
ps on
sad ness
Dis appoint
imm ers
drink ing
Ital ian
T ed
ar ter
sh ark
com ical
ie f
br ow
We stern
heart warming
mon th
Nor th
Bur ton
spec ific
Hitch cock
K im
M is
b ath
g or
g lim
m u
ad ed
ab ilities
ce ive
tr ite
high est
les bian
gl ass
col lect
commer cials
interpret ation
batt les
D or
W he
W OR
n it
o e
en courage
un likable
am ir
ist ers
inter action
arr ow
AC T
es on
fre qu
rent ed
Car rey
Sp anish
S H
W at
v ague
sh op
el and
ra ised
ther n
Lu c
pull s
agre ed
F re
F OR
G y
re call
cap tain
leg al
Co st
recogn ize
wind ow
Cra ig
lif ting
reminis cent
B ang
j umps
fil ler
de gree
we ar
go al
ard ed
bor row
Re commend
fall en
concept s
commun ic
poign ant
C ong
b lo
d d
g n
r op
v ity
om y
out come
ter m
Se ems
fav our
Hol mes
Dam on
sophistic ated
Orig inal
ab ortion
dis play
part icip
ud ic
gen res
Park er
nail ed
scient ific
distr acting
SR K
Shakes pe
A ST
E ver
um ph
credi bility
doll ar
sen seless
Way ne
E r
n ically
un able
great er
review ed
life time
poss ess
exp ensive
desper ately
Bla ir
C E
C are
b um
al co
me h
un fortunate
pick s
nail s
ignor ant
. '
D un
F all
G ener
U l
m ut
th am
ar rog
ra ve
con cent
te a
aw a
adv anced
Int erest
juven ile
C li
C BS
L ind
V er
W ashing
W AY
t our
ap es
ser ves
ang ers
eng ross
gra ve
ultim ate
P en
R en
v ince
w ick
ch ap
ac le
thought ful
em pathy
NO THING
signific ant
opt ion
WO W
) :
G reg
M I
a qu
real ise
br illi
sold ier
depict s
accompl ish
A v
H it
R ep
S low
re du
as sa
mo del
il ton
ab les
if ically
19 5
mor ning
adv ise
thous ands
Wa it
Sher lock
Washing ton
B ot
s or
s oo
is ms
at ar
ad orable
un believably
back drop
let ting
bb ing
novel s
sil ent
tun e
B ased
D ie
F an
M iller
M UST
m ile
watch es
do gs
our ne
aw ake
Re member
ene my
Cine ma
offic er
obsess ed
" ...
L ight
f ish
s ne
in ch
ti ed
bu cks
dark ness
Ex cept
foc uses
miser able
2 50
B ell
G l
M aster
O ur
b ie
g ap
ra cy
int ro
ci vili
tal ked
treat ment
Direct ion
Charact er
fright ening
guarant ee
relative ly
F BI
b ashing
m ic
s que
ep t
man s
ci ent
care d
pu shed
pass es
Who ever
mb ol
umbl ing
require s
Ir ish
prequ el
kno ck
S ab
s oooo
s ketch
it a
film making
our selves
sp ital
sur real
ak ens
bal anced
201 6
Vi et
gang ster
End game
motiv ation
deter min
Jord an
A BC
D ol
re vel
se a
ad ap
enjoy s
ru le
ash ed
ext ent
cli ff
ball s
Thr ough
Fl ash
udic rous
brilli ance
e go
un inspired
lo re
art sy
who ever
ment ally
off ered
sim pl
mar tial
Do ctor
occas ional
tho logy
Uni verse
contem porary
L es
a ired
p up
r ical
good ness
ind er
-- -
delight ful
individu als
chore ography
evid ence
scr atch
H ul
I Q
l atter
or ient
ide o
cond ition
sound ed
An im
sy mbol
deliver ing
surround ing
Naz i
Shakespe are
o v
an ic
ic les
sh ell
like able
lo ses
gu ilty
bo ld
else where
sty lish
rent al
fit ting
impro ved
OM G
Tot al
D ow
d omin
l u
in appropriate
as ks
ha ha
com bat
che er
und ance
smo oth
sentiment al
Enter tain
veh icle
C all
U su
W ick
c ence
d b
f oul
i os
y ptic
ch air
low ing
polit ic
bro ke
vide os
Da vis
Hard y
sto le
pract ically
philosoph y
thous and
virt ually
descript ion
:/ /
A X
C ertain
s ink
st ation
no ise
we al
dis respect
ors ese
kid ding
med ical
cap ital
import ance
lear ning
imm ense
emp lo
umbl ed
origin ally
indul gent
Harris on
consc ious
D ad
S S
W ent
n ine
r um
un convincing
ex er
ant agon
over whelming
thr u
God father
yp se
adv ance
recogn ition
Tay lor
T ube
at ory
sur face
You ng
Don t
rede m
educ ated
philosoph ical
fing er
P ER
ut ch
Wh ate
10 00
being s
Ch ild
slight est
throw ing
claim ed
progress es
LOVE D
Fr ance
F O
c is
h int
h tt
al ot
vi ces
se mi
ex as
after wards
comed ian
rel ent
Don ald
mar riage
sport s
Ram bo
; )
J ar
W AS
in coherent
re hash
me l
el o
pro mot
play ers
ran k
cy cl
prof anity
previous ly
Ger many
Sam uel
gent le
Whate ver
F ol
W ater
j ack
th rew
se c
su icide
end ure
fun d
prop s
Sc orsese
Ty ler
P la
is a
ad mir
ir on
im mature
direct ly
che cked
cent er
job s
cu ri
nostal gic
ax y
innov ative
A SE
S on
S et
a ust
c ake
i que
w en
re put
pr ise
che ese
creat or
care fully
Em ily
ather ine
neigh bor
resul ts
blat ant
tremend ous
: -
A V
V e
d inner
ti an
con vince
up lifting
sp ite
ff le
ru ins
hard er
wonder ed
mon ot
hop eless
wish ed
Br own
hat red
wanna be
gut s
Sta tham
stereoty pe
G ames
e ars
al a
ch ases
be it
di verse
And rew
20 20
vol ta
Un ited
apocal yptic
L I
L an
M E
re placed
vi le
ent in
swe ar
inspir ation
vampire s
intention ally
establish ed
E ither
I R
P ort
b id
mo d
ly n
for given
os ity
bi as
Bl ade
Bl ue
200 1
Gr and
atta ched
improve ment
conve y
corpor ate
J r
S n
T NG
b umps
t ube
as ion
el f
br id
St upid
belie ved
mess ed
inst antly
lust er
ende aring
occasion ally
G ary
Z ero
l udicrous
er ic
me th
sh aking
ra pe
la id
review ing
tra cks
De ep
Mo on
heart felt
inter actions
honest y
explo re
Pl ay
smo king
street s
A ir
C as
D ick
G ri
u ght
en ess
en counter
mo ck
se cur
li ze
ha unt
ur al
And y
St all
conf ron
app alling
Mexic an
associ ated
Dial o
A amir
G un
V eron
re di
de void
low est
mis leading
em power
sent ence
Li am
dist ri
sl op
EN T
Wonder ful
Pict ure
H appy
e vo
s i
the t
ex ists
just ify
pre jud
ade qu
ins on
res ist
IM AX
bud dy
open ed
invol ve
Bo ys
Sim on
Mur ray
Tit le
rive ting
Sk ip
anal y
B uff
E xt
P ul
W ish
h ollywood
r ates
st ale
ad s
su its
ill ness
vol uted
uni vers
Ne ed
Fran co
charis matic
flo or
H U
S um
be tray
all ed
ir relevant
You Tube
My ster
imag ined
pass ing
suit able
Kid s
revol ution
minim al
accu racy
re new
en thr
id ence
our s
ound ing
inter national
sever e
inst ance
imm ick
Tra volta
igno red
Bot tom
redem ption
A RE
P red
l one
o id
t iny
un fair
if ying
ur ban
20 15
fre aking
present s
ident ify
suff ers
Dra ma
chap ter
S ony
j aw
w ig
ing redi
il s
el la
de cl
op les
story lines
con sequences
pre de
tal es
mer it
unlike ly
unlike able
belief s
AM A
hang ing
init ially
hundred s
Gree k
I d
g immick
t ones
al beit
ast s
con spir
pro mo
ass ass
No body
Ar t
plan ned
adv ant
GO OD
succeed s
cele brit
controvers ial
F riend
re bel
se ats
ul ations
pre vent
qu ote
develop ing
eng age
ba ff
discover ed
sta ff
Hist ory
prede cess
D ian
G or
J ac
b are
e c
v om
bo at
ho spital
mis cast
comp li
Le wis
At l
wash ed
anticip ation
ar di
se am
li fel
im ate
comp assion
xt ure
sell ing
mass es
load s
load ed
stret ched
wra pped
2 2
2 1st
a id
s me
un forgettable
su ited
sp ell
ru ining
St u
wa ke
As ide
dec ides
correct ness
oun ce
depress ed
Russ ia
color ful
Tor o
prin ci
thro at
vari ety
dinosa urs
Interest ing
4 th
S to
f rench
g ro
re actions
en cies
ab ys
de ar
ra unch
ul tra
sc ifi
he aven
con voluted
your selves
He ath
Ne eson
detail ed
pri vate
Gr ant
disgust ed
Jim my
ww w
pati ence
Veron ica
D y
L ow
N L
S in
j am
p ir
in i
on se
ar ri
ch ant
if ies
pla ins
fi red
present ation
Br ing
Ed ward
Qu entin
Col in
faith ful
ded ic
achieve ment
belong s
B ible
C rit
E X
L ed
M ed
R ings
T exas
l ord
re moved
le an
for give
do zen
ind ing
te eth
self ish
ru de
hi re
tri umph
miss es
plan ning
post ed
pat ient
Wal king
pres ident
Bar ry
3 00
B rian
L in
P resident
u k
se lect
sh it
im db
ist an
hero ine
mi xture
affect ed
Zomb ie
trop es
Stall one
A P
A po
G lad
N EVER
T IM
z es
in accurate
di ction
jo in
gu ard
ac cording
St ates
cl um
under lying
gener ations
gg er
Com m
ific ation
success fully
suff ered
Em p
achie ved
fashion ed
Fer rell
preach y
Oli ver
expl or
! ).
? ).
D ream
L and
W omen
st iff
om er
im plausible
Ch ina
scre w
kid nap
ste in
master ful
stru ck
Br ook
bat man
musical s
Cap rio
See ing
unfold s
zzzz zzzz
F ight
F UL
I ra
S ex
a while
ut y
ant a
belie ving
accept ed
femin ism
hyster ical
weap ons
C at
E ric
but t
de struction
back story
em bra
port ra
Car ol
drop ping
aught ers
challeng ing
Chan nel
IG H
Rey nold
Cons ider
K in
R em
b one
f fect
is ol
ot a
ad er
ad oles
pe oples
ri pped
last ed
ext ended
fol k
conf usion
stay ing
natur ally
Tr ust
spec ifically
landsc ape
B ook
D are
F ro
L uck
M ul
c ab
m ash
r hy
er rors
is ation
li mit
art ists
et te
develop s
deser ving
Sc ript
atmosp her
superhero es
stream ing
terror ist
Kid man
WW II
hr s
stat us
simpl istic
Emp ire
R et
b less
l abor
r ink
st ro
ine vit
over come
fel d
Jo aqu
por no
cri mes
res our
large ly
spirit ual
Mexic o
itiz en
adm ire
exer cise
A A
A ward
S op
S ix
W ed
b ble
d aughters
m ountain
p icking
and al
be ating
ad a
tur key
hard core
Ro ber
hit ting
Jack ie
LO T
vot es
studi os
Den zel
Cle arly
excess ive
trave sty
S I
f ate
s isters
t act
as er
vi ch
ic onic
king s
cou ra
fan cy
wood s
20 00
bra ins
Is land
count less
Char lize
explain ing
advent ures
four th
EN D
represent ed
mir ror
Ku brick
Reynold s
B ale
B ourne
H ay
L og
P sy
a es
w are
w olf
ch ain
ab andon
pe ts
am i
po lish
susp end
explo red
inst ant
resp onse
dress ed
popul ation
Scar let
competit ion
htt p
curi osity
U P
c low
j umped
an cient
ic ing
po et
po ses
tra pped
che ek
mess y
gl ory
mor ons
Car p
stun ned
Adam s
RI BLE
legend ary
corrupt ion
indu cing
function al
: (
D river
K ind
P ure
S ho
b ird
e mer
ex plains
am al
lo s
qu is
um ble
ide al
ph r
head ed
leg acy
enn is
GO T
draw s
crimin als
commit ted
Pul p
C T
r ational
re lies
ab omination
worth less
cine mas
sol ve
fli ght
different ly
cam er
hy po
attempt ing
myster ies
ca used
search ing
Sand ra
scenar ios
scient ist
holi day
G race
T re
Z e
h ence
at on
al leg
ent ry
sh ape
ra ise
ment ed
sim p
vis ible
vent ure
deser t
weak ness
villa ge
201 4
Gold en
Vis ually
prequ els
gru esome
conserv ative
Sab rina
abys mal
P ut
i bly
s no
z o
mo on
are as
do se
pl ess
when ever
hor rors
super bly
inter views
loc aust
kick s
Pan ther
PLE ASE
CI A
D er
J ere
K ong
g oose
th ick
li a
su s
ex ter
um my
tra ining
gi an
Star gate
cam pa
mor ality
exp and
leg it
Sha w
jud ging
bur st
subtle ty
ghost s
chore ograph
Buff y
Z ING
f art
or c
no se
sp are
similar ities
embarrass ment
marvel ous
reach ed
hon or
Ky le
construct ed
B i
F inal
H ems
c ali
e erie
m und
p in
li ever
us ers
my th
ci ating
ac cess
In tern
read s
happ iness
far ce
sm iling
call s
wal ker
flu ff
Gre y
sil ence
Hol land
challeng es
resc ue
Viet nam
Hems worth
B ry
G os
S at
V ampire
g la
re cei
op ic
belie ves
hu b
audi o
Just in
hero ic
heart s
deli ber
grou ps
Je wish
reve als
disc us
Girl s
spre ad
advant age
Joaqu in
D ennis
P enn
T A
the ory
es h
sh ake
up coming
pro mote
cent ric
thrill ed
head ache
theat rical
Could n
YOU R
chuck le
benef it
Scre en
. </
H off
R ome
W TF
a ff
h ates
w ins
mo ti
vi c
ve y
op press
um bo
ble ak
sp ook
dis gu
differ ences
recommend ation
Every body
wish ing
typ ically
har m
Bro ad
motiv ations
advert ising
sli ck
Nic ole
tire some
heal th
arrog ant
reput ation
Ira q
! ?
C OM
F UN
M om
P op
W i
f ice
t in
vi g
ir a
op ens
go er
great ness
sa v
Wh it
ac ademy
Ch ic
comp ens
star ing
fail ing
help ing
Con st
claim s
path ize
vul ner
trick s
accompl ished
card board
Usu ally
Led ger
campa ign
G il
H ood
K urt
T en
T een
a vid
th a
ch oo
me asure
ke ys
In finity
dra gging
na h
clo sed
sens ational
imm ig
II I
Sci ence
Aw akens
hab it
Crow e
Gy llen
ffle ck
Hoff man
B oo
H art
K elly
b ollywood
s ons
an or
le st
se ction
om or
un e
fil ling
ter ed
con ceived
co s
attempt ed
among st
frust rated
nomin ations
Certain ly
meth od
secur ity
F urther
I nd
S NL
V FX
l ly
n ar
p itch
ge ek
ul arly
ne at
he ight
bad ass
bl ing
bl ur
Be lie
Ro ad
subject s
represent s
insp ire
Pred ator
K irk
M ain
S ong
S hel
t z
re cycl
al ie
vie t
ent al
see king
min us
ud ed
effect ively
wal ks
Gr anted
IL M
terror ists
educ ation
dig ital
chill ing
gold en
Austral ia
Rober ts
C oun
L ar
S ir
t ong
ar m
be have
ic ient
ha al
ill s
ant e
pl at
... "
fa me
off ering
comm and
diff icul
hum ble
Jo lie
clo sing
cy nical
Let s
consist ently
Stre ep
Cost ner
ingredi ents
AMA ZING
Carp enter
3 5
F our
F ore
o lo
w ound
re ceive
ar l
le ague
om i
hi red
pla gue
ak in
cop ied
sort s
Tur key
project s
Brad ley
Ham ilton
stink er
Run ner
Whe ther
TIM E
$ $
C ri
H ob
L ion
L ef
L os
N ar
f irm
g oo
r otten
di re
ess ential
dis sa
ending s
mas k
ref lection
possi bility
jour nal
minor ity
explic it
G ene
d ump
g ift
t ask
w rench
for cing
ex tr
char ge
ru ciating
play er
exc ruciating
ang st
night s
Ro gen
Ar ab
Go ing
ON G
sou th
phys ically
sto ck
melo drama
Bul lock
Pow er
outrage ous
adap ted
Ext reme
2 1
A ffleck
C u
T a
c ities
ad ore
ce an
ri or
ir ony
et t
over acting
Be y
eng ine
hy per
strong er
mad ness
root ing
evid ent
glo bal
destro ying
metaph or
Av atar
B on
C ali
M other
u eless
be liever
am bi
ant ics
pl ed
tr ade
gr ate
bu ck
fortun e
spoil ing
ik a
Vi ctor
lay ers
bab ies
anor mal
M AN
S po
a per
d ge
g ie
in cess
il ted
Th eron
sp ots
writ es
cast s
hor rid
ins ist
mor als
foc using
Tom my
OU T
contain ed
inno cence
Mus lim
ung le
Gi ven
feat uring
convent ional
explor ation
Jere my
D uring
K ane
f x
i ven
m ere
be ats
un pleasant
no d
ac es
che st
ak en
fact ory
Is ra
clever ly
complex ity
sleep ing
hes it
B OR
D ia
a gh
a ur
d un
f ond
t rolls
en light
st ol
ch asing
am an
ser ving
ran ks
res ort
hand some
ah l
allow ing
Ne il
LO L
fig ures
pull ing
Ra ther
Look s
techni ques
arti ficial
B al
F ILM
S up
b ia
t ro
v ous
in ser
on de
wor n
con ven
ac ity
fi a
ren ting
cli ps
yp ical
mil es
step s
revol ves
hur ts
sole ly
raunch y
atmospher ic
Chic ago
E aster
F ort
H S
K ings
st it
ch ron
un imaginative
happ ily
cent ered
Not e
Sc en
Super b
exper t
Does n
Rose anne
cha os
J ose
P att
T on
U t
d re
in feld
re turns
dis liked
mis ery
De vil
To y
ele v
ban ter
Hel en
veter an
glim pse
choreograph ed
tong ue
stol en
C us
V en
c and
s and
ro cks
lo ser
ag an
pla stic
ak a
Le o
First ly
gre ed
question able
avoid ed
ring e
equ ival
Ali ens
Indian a
oppo sed
premi er
highlight s
Thom pson
discuss ion
separ ate
Clo oney
adoles cent
H unt
L at
N T
es p
per or
ort on
ens ible
ang ed
cra m
ile y
cas ual
Ra j
stri ct
WH Y
Hun ger
Complete ly
Ap ple
Fu rious
om s
act ive
ha ust
de finite
am eric
has e
um ar
does nt
lack luster
world s
dy stop
net t
histor ic
Me an
oun ced
sn oo
Lit er
Recommend ed
adequ ate
lone ly
C ur
G H
e li
i um
in fer
on t
pe c
ta x
time less
ass ist
person s
fant ast
An nie
sho es
gener ated
arr ing
Po int
stick s
meet ing
accur ately
Sch ool
trad ition
Str ong
Jer ry
Gyllen haal
Cali for
7 5
F E
F av
c ust
n arc
n omination
er otic
is ons
Th ought
but ton
ill ust
ex haust
us ions
con tr
oc cup
ni bal
gri m
cal m
spl it
distri but
Intern ational
L G
P et
W el
a thing
p ants
ar gue
jo ker
ak er
explo res
ban al
dem ons
reflect s
chop ath
Naz is
Shi eld
sett ling
B ush
G ab
H um
f ist
y ell
re act
en em
un s
set up
leg s
tech nically
Di Caprio
exist ed
201 2
intent ional
rout ine
exceed ed
Dia z
enem ies
6 0s
R ol
e gg
f ought
t ad
x ic
on a
en cing
it er
be er
sh y
fe males
sa ves
character ization
gr asp
bu zz
appreci ation
introdu ce
Sch ind
brut ality
cross ed
succeed ed
Rock y
sitcom s
altern ative
ambit ious
resour ces
B ald
F ans
M u
R al
W E
W es
Z one
in consistent
at a
al t
ar do
li me
di vor
he ist
real ised
ph ones
fore st
Com pare
hol low
brain less
satis fy
pres sure
Kore a
compan ies
Hit ler
clum sy
mund ane
H ud
J W
O wen
me at
ex cl
see k
he m
con su
ur istic
man kind
pret ending
ner d
ond a
susp ic
list ed
Is lam
En ough
blic al
Dead pool
glor ious
Hop kins
conspir acy
Dare devil
Ut ter
equival ent
C amp
D ave
D rew
I an
J an
S ay
V ill
d ro
k h
l um
ar io
ad mission
ir onic
am ent
my thology
con test
vis ed
heart breaking
que en
law yer
exam ples
dynam ics
investig ation
sacri fice
aston ishing
Ret ur
wrench ing
B B
D em
N ancy
V ince
W ord
c ative
i mo
th al
the us
re li
st orm
you tube
ex position
ol as
let ter
Re ad
ath o
Be yond
lic ity
eas ier
ER S
Char les
lar ger
hot el
continu ation
tran sport
invent ive
Vis ual
Kat rina
sar cast
Nat alie
Gor don
portra it
quis ite
E ffect
b ber
r ings
is y
re fund
it ar
ar ms
il i
id ers
St ars
law s
Ar my
clich ed
Any ways
doub ts
Mr s
depress ion
Russ ians
GO D
grit y
BE ST
remain ing
addict ed
inte grity
tast es
Extreme ly
LG BT
Ral ph
D ef
R ad
k han
en coura
ut il
ma il
ol ves
sp an
fa cing
du bbed
stop s
master pieces
feature d
Ma kes
phys ics
Cast ing
paralle l
Wat son
sme ll
) ...
2 8
A G
U nt
V augh
y elling
oo p
id el
ome theus
ig er
cl ueless
rid ing
land s
chan ces
ST AR
ni per
psy chopath
critic ize
murder ed
apo lo
Canad a
Nichol as
slop py
! .
E as
J ay
M Y
n ative
s ive
z zy
st rate
al together
li ms
act ic
act ica
ta g
ous es
der iv
ang el
No pe
rest ed
gl as
reg ards
ret ro
pot entially
blow s
death s
Co hen
bomb s
inv asion
chill s
compla ints
resol ution
lifel ess
BOR ING
A F
A lice
E P
L ive
L augh
n ity
at ivity
en orm
al ing
for man
op tim
la unch
ast ron
ist on
ag ents
che ated
last s
sub plots
tru ck
val id
att end
sex ist
19 80
prof it
Ex pect
mur ders
sign ed
adapt ations
account s
vir us
offic ial
advert ise
Pol it
Mid dle
sinc erely
antagon ist
Friend s
C hi
F a
R an
f ro
n ay
p ig
th ood
ur ation
we t
up per
ss on
tra ined
cra w
hope ful
close ly
Con n
Gu ess
Sci Fi
spectac le
bus y
defin ed
rad io
object ive
Dou glas
HU GE
Consider ing
sarcast ic
A ss
C op
M et
R itch
S now
z er
st are
un real
fa c
ele g
conf ident
cult ures
sum mar
cru sh
Pr ometheus
Sure ly
Never theless
medi um
hub ali
Liter ally
atho lic
A long
M itch
k is
p ages
er al
re in
ri el
time line
pro ced
dis played
fin an
cra cking
mor onic
Car ter
satis f
200 8
pra ised
tort ured
Nic olas
WH AT
Sur pr
techni que
pic able
Swed ish
Schind ler
A g
E le
K now
P un
V ir
d up
j uring
u ct
y o
st ilted
me tal
su ms
im pec
pre cise
ack now
life style
line ar
sit es
So lo
screen writer
uni form
fast er
AT E
enn ial
atta cks
Nor mally
thank fully
defin ition
provid ing
dama ge
Belie ve
dre ary
Eas ily
! ),
5 th
C ho
H olly
W olf
n an
s ided
w rap
in her
un doub
ex posed
sc o
ti er
co hes
hand ful
reg ister
Ke aton
theat res
Fil ms
Tit anic
respons ibility
Pri vate
web site
repeated ly
demo graphic
valu able
redu ced
A I
C re
P ak
S undance
b ilities
b illion
g lowing
z one
li gh
un ky
ra cing
ter rit
ser ie
cre t
tur ing
Jo han
IM O
ret arded
strugg led
vot ing
tran sp
Afric a
stink s
intent ions
cris is
ops is
frequ ently
Cong rat
Through out
immense ly
Bald win
G oth
K ath
N ik
S ever
ta pe
pro ceed
iso gy
scre ens
tri vi
Al f
gri p
distur bed
Wal ter
depict ing
trad i
Frank ly
anticip ated
spl end
format ive
................ ................
Rog er
dys functional
Ritch ie
9 5
A qu
A aron
H OR
O P
P R
S W
S qu
T 2
i me
re vi
and o
il er
wh im
ood ing
po sing
ess a
... )
mis taken
ob lig
tur d
director ial
rest aur
tit led
dri ver
!!!! !!
cover s
net works
prom ised
Po ss
possi bilities
Co en
Mon t
horri fying
Ri ver
Aust in
pract ical
homo sexual
altern ate
tast eless
sne ak
Lef t
iven ess
C al
G one
T ow
s appy
in ane
ter minator
inter view
par ano
NO W
invol ves
support ed
und ant
200 5
Cl ub
Fran cis
stri p
trou bled
atter ed
advert ised
authentic ity
witness ed
neigh b
flesh ed
cali ber
B lan
K ling
M ery
T ypical
c ro
l ens
o on
al o
un answered
ne ck
do ct
ment ality
sp aces
ps ons
appe aring
Sha h
repe ating
sens es
popular ity
German s
Angel ina
loose ly
Pri me
melo dramatic
undoub tedly
N ational
h anger
m ist
p onder
an x
st ates
ct ed
wh is
sh ay
but ch
po on
just ified
con tradi
man i
ort al
sm arter
kill ers
lic ate
cring y
Sa ving
pen ny
Sky walker
mesmer izing
engross ing
haunt ed
deriv ative
Mery l
" ).
C atherine
W I
d uty
r er
s om
the d
de vast
ul ate
mat es
So viet
Jo an
spo ke
Sc ary
ON LY
Sh ort
correct ly
catch ing
motiv ated
Up on
Stan ley
renew ed
vom it
Crit ics
P ier
S it
h ints
p and
th m
st ab
un necessarily
no ds
pl ate
if fer
under stated
ber ry
ren al
oc ide
neg ativity
inspir ational
Nichol son
Reg ard
Scarlet t
camer as
Califor nia
D I
D awn
H E
P y
S anta
T T
d um
e ff
e tern
j ail
k udos
m isogy
p atch
to ys
sh am
he ap
pre gn
But ler
St art
comed ians
understand able
reason ably
Se infeld
use ful
conf ess
suggest ed
Rob bie
program ming
compar able
argu ment
syn opsis
Rick y
poet ic
F ather
M U
N C
P ass
W ild
c ous
d ust
g ments
n els
r ics
en berg
st ring
ver ted
bo ots
dra gon
scre wed
He art
De an
Mar c
gri ef
paint ing
fault s
Tor onto
nut s
---- ----
bath room
moti ves
A B
P il
S HOW
U gh
b in
e con
s che
v ain
th irty
er t
as ingly
mo tive
Th ird
oo ps
ri a
ri ot
ag gress
ci vil
In credi
du o
she ep
bl ank
iz able
Al ways
Just ice
Be at
ner vous
Mar got
To day
pass able
AL LY
prom ises
New s
trans ition
str ings
behavi our
Angel es
Witch er
cruel ty
compreh ensible
caricature s
mod els
narc iss
Vaugh n
C ool
D ies
O c
P ie
S C
T am
k icking
n ur
in f
le e
sh a
not es
ter y
ther ap
rom p
pr ide
des ired
own er
An n
susp ension
fut uristic
ref use
Cl ark
adapt ion
Sim ple
?! ?!
rap id
match ed
fu rious
conflict s
obsess ion
Hun ter
prin cess
sacri fic
Sing h
F ut
M ason
R otten
r in
y awn
st ir
sh out
sh outing
im mer
int ric
Wh ilst
cast ed
never theless
mer its
bl onde
fi ghter
rel ations
Su b
Per forman
dim ension
stri ke
program me
progress ion
va is
bon us
Rem ind
Cus ack
Unt il
C AN
I O
I sa
W ere
c ats
y y
re son
ing en
st ron
to ol
as m
be y
la p
im it
ta ught
sp ends
Ch ur
So lid
cor ner
mar ily
cr ass
Ar row
pay s
pack age
rac ies
throw s
continu ing
exception ally
western s
captiv ated
Gal actica
Battle star
symbol ism
Log an
spook y
recycl ed
C lar
H ath
I ce
T ar
a vengers
in competent
re tire
to ss
li on
sh orter
el abor
su e
sc ri
am big
ho bic
wo ven
progra ms
ham mer
occas ions
reveal ing
jer k
accu racies
edit or
alco hol
determin ed
Les lie
americ an
territ ory
C i
D S
M oney
W ahl
a than
l ers
w ack
re pul
su pre
sc ra
do ors
by e
In credible
gr ass
St ra
down s
iz ations
cy cle
Act or
Car rie
pleas ing
Ho ly
none theless
ban ned
wed ding
sil ver
whel med
Beautiful ly
cell s
Mir ror
sco pe
B IG
F ace
K o
T ech
s an
al as
ab rupt
su stain
de vice
show case
ss ip
ph ony
bit ch
slow er
TH ER
mon olo
Ro om
dr own
Em my
Bro ke
claim ing
flash back
numb ing
lay ered
evol ution
EL L
clow n
Sever al
A ge
C SI
G oo
J ude
O z
V ol
b able
c é
g ather
u me
u gs
v ap
re ver
st up
li br
ro ots
sp rink
ac ing
off end
gr ot
entertain er
press ed
Jo el
log ies
cap turing
Pe ele
sat ir
mention ing
Har ley
arch y
amount s
Christian ity
apart ment
profess or
Vi jay
Show s
recogn ized
witch es
Ber lin
Dra gon
def end
ignor ance
HA VE
incre asingly
Leon ardo
mu sc
gla mor
B R
B ol
B os
W on
d uration
g ad
t ender
w ave
st aged
li can
wh ining
ic on
sh if
un settling
ex quisite
im i
we ars
pro stit
over looked
dis ease
iz ard
ian o
rid den
Ser bian
Char med
Ger vais
strange ly
cringe worthy
tran sc
frust ration
Old man
wil der
speech less
inte gr
sinc ere
Ant on
Leg end
eager ly
goose bumps
grate ful
snoo ze
trivi al
J ob
P ir
S ell
S had
b ible
c ere
j an
r ants
s word
re ci
ne st
way ne
gu ilt
point ing
min al
And re
gr anted
mot or
vo y
ip ed
Some how
19 4
score d
resp ond
teach es
beat en
opport un
offic ers
Gar ner
Lau rie
fing ers
occur red
Fire fly
Lou is
dar n
Ul tim
politic ians
Broad way
Congrat ulations
F F
S tran
W AR
b by
e ed
s ill
s ize
v ine
th om
en han
ch or
vi vid
be ach
id ing
di lem
ph an
work ers
illi an
person a
second ary
Be an
mor row
sty les
pu bl
finish ing
bust er
Ju lie
More over
secre ts
influ enced
ato es
transl ation
weal thy
Stran ge
F el
S id
e z
m ou
u le
re watch
ad renal
ge on
de tract
dis plays
bit ing
ext re
head ing
anno y
wit ched
ear n
comment ed
Bl u
appear ances
Gu ys
Che ers
Jon athan
Pre dict
Lau ra
Writ ing
sin ister
guest s
landsc apes
Care ll
inevit able
Psy cho
Gos ling
Screen play
compens ate
satisf action
Wahl berg
D ab
D exter
F ury
J a
L illy
P ay
S even
c ave
l ane
in formative
of fee
wh iny
we et
au d
time ly
um er
over used
under statement
along side
pay off
spir ited
Sh ining
shame ful
dumb ed
pri marily
deal t
exist ing
bur ning
grow s
suggest s
Thank fully
stri king
random ly
NY C
controvers y
expl oring
Jose ph
H ook
H ilar
N orton
S hy
b ash
m ish
p ump
w ine
th on
in consist
de grad
down load
last ing
An iston
sho e
cur se
wish es
conf ir
stru ctive
help ful
dri ves
mix ing
background s
profess ion
recogn izable
mm m
Bre ak
blockbust ers
insight ful
tor n
heal thy
steal ing
steam ing
Fort un
impec cable
restaur ant
sill iness
" !
D ust
D ays
E llen
G lo
S F
T W
V ar
e ast
m ud
r ome
z ens
in j
re move
my st
pl ans
per cent
dis ast
ac les
cou ples
My ers
dist ance
jud gment
wo e
Story line
Je ws
reach ing
progress ed
nu clear
target ed
passion ate
hid ing
Poor ly
Cast le
Str anger
Ka poor
Cla ire
pit iful
absor bed
Pen ny
promo ting
Stu di
Apo cal
Lar ry
dystop ian
Dies el
B an
B ud
C reat
f ur
f uss
h att
s ke
in er
en do
and ro
to morrow
ad ul
ast ounding
St arted
20 10
sex ually
fre ak
anim ations
guess ed
Li ber
conf idence
move ments
question ing
pat tern
200 6
Pr ince
Mon ty
bel ly
Fo ster
carry ing
Beaut y
Jes se
abs ence
resembl es
orient ed
:- )
Further more
B ate
C ant
E ve
M ountain
Y ear
a ire
b ender
d rew
h il
m ond
p he
t ank
Th ing
act iv
am used
con grat
ep s
man ga
over shadow
dis covery
ac comp
ie val
ho ly
comp rom
let down
Re ading
att ended
Net work
wi ves
coun ting
pri est
Brit ain
200 7
Qu inn
round ed
Tru th
Still er
nu anced
arc s
Hu man
compreh end
Oli via
__ __
WOR ST
celebrit y
predecess or
compli ment
ardi ans
rhy thm
E v
G ad
J UST
R ap
S ally
c aut
g ard
k iss
o scar
th less
the arted
ar se
be ast
watch er
up dated
des cent
des pair
St and
ps es
ob sc
fact ual
cli mate
sad istic
moment um
pri mary
Love craft
200 4
design s
contri bute
kick ed
AC K
WW 2
invent ed
ski pped
BT W
cancer cancer
Te am
Ak shay
Disappoint ing
univers al
contr ary
B og
C lover
E LY
M ic
R ich
g ins
r as
in accuracies
ed on
Th an
me chan
so rely
ide y
mer c
iz z
Pe gg
chan nels
Jack man
document aries
Sim psons
Pr att
Spi ke
eth nic
distr acted
Gal axy
appla use
Rod ri
weap on
plo d
Dian e
ec centric
abandon ed
amal an
Const ant
infer ior
Compare d
2 3
C atholic
D wayne
Z o
d ating
w rest
in ept
at ers
st icking
se cut
ve in
ad diction
un den
po d
ist ics
man n
over s
ho om
ans on
mat ically
under whelming
perfor ming
co inc
sub mit
cont act
fant as
hate ful
spo on
dead ly
narr ator
Pro ject
leng thy
educ ational
Jud y
emphas is
Hul k
Fortun ately
3 d
? ),
F onda
S part
S JW
i ently
el ing
un ning
di gest
do zens
fun dam
fa thom
less er
che ering
Re ese
crit ique
gener ate
log ically
rele ases
cover ing
uss ie
psycho logy
Red ford
sal v
wash ing
glass es
assa ult
revel ation
neighbor hood
dedic ated
astron aut
grot esque
F ear
I V
L y
O ly
T win
W ILL
d umber
t ree
in fect
ing er
not ed
de cor
ur ity
qu er
sp it
dis tract
In depend
ris on
Mo der
bre athe
mor on
col la
ER O
huge ly
respect ed
emotion less
trash y
Col bert
stri kes
str anger
Fe w
draw ing
scient ists
Mal ko
demon str
Try ing
attr acted
loyal ty
soo o
Child ren
assass in
Sop ran
orc ist
Bate man
D rac
H ats
J O
R oth
d ome
e lic
e aster
i at
j arring
p her
v on
ar ity
ch ased
ent it
sh er
ke en
oo pers
fe ars
po lar
any ways
um s
tri al
class es
might y
je ction
Sh ar
augh ey
continu ous
introdu cing
fool ish
smo ke
assu med
challeng ed
Bla ke
Dialo gue
splend id
unden i
F at
L am
g if
p pl
s igh
t f
in fant
in comprehensible
as sure
il ight
for getting
ta ge
tw ilight
hi bit
sol ved
sing er
predict ability
clo thing
Bo x
cring ing
catch y
pra ising
Space y
thro ats
apocal ypse
Tri er
border line
Luc ifer
Sum mer
extr as
Hud son
ligh thearted
" /
B all
C ry
C ase
H ate
Q T
T at
T ol
c offee
e g
e yed
g loss
u ma
v ors
re ject
ou red
be aring
id ow
are t
art y
won ders
20 th
care ful
tempt ed
cas m
Mc Con
Con nor
Fil es
Nor we
Far rell
Ber g
Han nibal
grad ually
Mag gie
evol ve
Lind a
Dow ney
Regard less
stron gest
2 6
C avi
M TV
N on
S el
S oph
W in
e ve
f s
is nt
ut ions
el ite
ust rop
ro be
sc ape
per su
fun ded
wa ist
sub lime
De te
star red
That s
serious ness
appe als
hilarious ly
Can nes
remind er
Po lice
Or ville
Lu cy
Cl assic
OU LD
Pr of
Sch umer
soph omor
Ang els
Vi ol
Mus lims
absurd ity
aware ness
Han nah
imagin able
boo st
psych otic
Plan et
emplo ye
sec ure
Poss ibly
Hath away
F y
H indi
S pr
W ind
Z a
d ick
r ab
re turned
st an
it udes
id s
de vices
some time
per ed
man u
say ers
St ate
far m
cra z
care ers
ign ed
clo sure
mar ine
bing ed
Ter ry
201 3
sla m
cartoon ish
Ti mo
nu ance
prefer red
Mir anda
manipul ative
resol ved
AW FUL
Sil ver
brid ge
Vir gin
Cavi ll
D ak
E vent
L ess
b un
h ouses
t les
ab sent
br at
br ooding
let ed
ys is
rel uct
De ar
De Niro
run time
par ties
uck er
Sh ane
dist inct
bi opic
201 1
box es
public ity
scream s
inv ited
Alex ander
homo pho
mill ennial
perform ers
itiz ens
puzz le
thet ically
C old
C itizen
M aking
R even
p andering
s quir
z ation
en gl
le ap
for gi
ma fia
ra ving
ro l
im itation
do l
per pet
your s
ho lic
In side
In deed
Se cret
cons ists
ground breaking
gre y
trans formation
express ed
comb ine
AM E
compar isons
remain ed
suck er
surround ed
ann ounced
cook ie
spider man
sar casm
reward ing
Entertain ing
Coun try
Sup port
libr ary
Drac ula
Soph ie
C O
F IN
L ot
O ID
R and
V ie
d aring
e h
is ingly
re turning
el ine
un natural
pe ak
de fine
la ke
ur ous
we igh
direct ions
ho g
cl ues
gen ocide
stead y
je al
cla ustrop
progress ive
sw im
Ph illi
punch es
sal es
hun gry
patri ot
Pun isher
Sell ers
sophomor ic
E than
H awk
T ell
m im
s ab
t il
v as
w olves
z i
in fo
in nu
re made
st im
to ps
ly rics
ne th
ill usion
la bel
po l
up date
pro s
gu ide
gu ided
ll ess
thr ones
des p
des picable
where as
class ical
left ist
ane ously
exp ense
Sc ot
pur chase
200 9
lim its
dem ands
Enjoy ed
Phil ip
fif teen
dinosa ur
nause ating
prejud ice
Fro zen
aes thetic
Johan sson
MU CH
Fel t
Predict able
Shy amalan
inconsist encies
Clover field
) ;
A K
C urt
R ow
R ise
W HO
p ill
is z
re un
ing u
al ter
un sure
un explained
su gar
ra mbl
lo cked
ur g
who les
ment ary
dis cer
them ed
tra um
ud ing
big ot
Re bel
19 70
imag ining
Pe aks
present ing
Ar m
Ar men
Good man
Ger ard
grow th
accept ance
atta cked
Pr incess
Pl enty
soul s
flow s
aa aa
affect s
recor ded
Hu ge
nightmare s
enorm ous
Moder n
A dri
C inder
D umb
F ive
J aw
K umar
N either
R ian
W AST
c itizens
t all
to y
ch ief
sh ared
de ce
bo om
ac qu
uni or
She en
den y
DV R
Sp en
respect ive
Har vey
positive ly
suff icient
sou lless
Me h
survi ved
Tra in
fla vor
rip off
bound aries
broad cast
resembl ance
vac ation
AV OID
polish ed
Effect s
WI TH
Hilar ious
Dete ctive
Dak ota
innu endo
G ard
L ane
R ain
U E
V HS
i od
s am
t at
in car
be an
il legal
ad just
act ivity
ke l
fil th
end ers
get ic
fun ding
new sp
co ach
med ieval
cli m
crit y
cur sing
cu z
mas sa
count s
Com ing
Tom atoes
mood y
desper ation
provo cative
bul lets
Ber n
grab s
Ale c
insul ts
lay er
explan ations
lift ed
relent less
monot on
Port man
Brook s
embra ce
vulner able
Pier ce
C ut
D ist
O l
P u
R ent
S ou
S onic
W ire
b oun
p on
in justice
an xious
vi br
li p
ver sus
gh an
sh ining
not ion
op ted
im ents
am use
po ver
ant is
pl ant
au th
et s
St ri
set tle
understand s
vo c
med ic
We isz
sty l
Le ague
nor m
room s
truth ful
god s
prot est
Ad venture
continu ously
tre asure
rob ber
Tit ans
wild ly
Rid iculous
cell ul
Ron an
yr s
severe ly
deliber ately
Scen es
Dust in
/ "
E T
K no
M em
S i
S or
W ol
k ar
r ang
in ject
was nt
sh ades
pe z
de vi
pre poster
stand out
mind set
Jo die
kill ings
imag inary
col labor
ord in
air s
small er
ni hil
soon er
Indi ans
truth s
narr ow
admit tedly
descri bes
suggest ion
medio crity
?! ?
odd s
spec ies
fascin ated
chop py
toler ate
elect ric
Tal k
++ ++
wick ed
disrespect ful
confron t
isol ated
Bry an
Gab riel
vap id
opportun ities
Malko vich
McCon aughey
A ussie
F ell
M ach
S PO
V ik
W R
Y ES
h oo
l un
o logy
w inter
in correct
en to
st umbled
to es
ent ity
el ve
oo by
ha i
do omed
gen cy
cra cy
sub plot
rel son
entire ty
sho ved
Any thing
Per iod
Sha un
jud ged
Rob ot
invest ment
subst ant
uc ci
reach es
terror ism
bul let
irrit ated
base ment
anticip ating
Sus p
Na than
Produ ction
immers ed
los ers
simp licity
egg s
Conn ery
Sopran os
A IN
B L
C R
D hoom
a ving
b ene
c kets
e try
e cho
i ator
p iano
s add
it ty
ke st
un cle
id y
fe ast
low s
In ception
du d
read er
vis cer
ins anity
super man
Don nie
lead ers
add in
lic op
Lo pez
ground ed
sou thern
Co x
Ma jor
ail s
state ments
El li
MO RE
Bar bar
AM C
discover s
warm th
addict ive
homo sexuality
Brid ges
Roy ale
gap s
disgu ised
Song s
Hob bit
satir ical
cellul oid
A h
H r
K ay
M ess
S ep
T aken
d ale
d led
p es
p able
p ale
ab lo
de leted
view ings
dis mal
dis regard
real m
real izing
real izes
Ch op
cou pled
bu ried
sound ing
Be ast
experi encing
par anormal
Ro ss
Is n
ake st
Sh an
explo itation
Ter ri
listen ed
survi vors
Bra ve
pan ic
Sa ul
Wil der
connection s
assu ming
End ing
tun ed
chuck les
ograph ic
udd led
Hero es
quot es
Iran ian
strict ly
wack y
entit led
monoton ous
F isher
H y
S P
S old
T w
c ig
h ref
o cean
p ha
t an
it or
as sum
vi leg
se gment
li zed
ur b
our ney
real ities
sim ult
He aven
mag az
sed u
class y
vol ume
port ion
close st
count ers
Wor se
ani ed
itch en
subject ed
ca uses
sick ening
Ra imi
Far go
remark s
Ep ic
Mi ami
Am anda
Fant asy
Second ly
tack y
escap ism
Na omi
Dog s
Haw ai
Hall mark
borrow ed
Broke back
adrenal ine
Cinder ella
? ".
M ah
R ag
S cor
c s
e mo
n ude
r ats
s ir
s ane
s lice
u ate
u ated
w ider
y aw
th read
in finity
re vers
en force
il ia
me lan
ck er
po lic
no ble
pt on
over long
fa int
ass es
There fore
sur g
sur passed
.... .....
ob serv
tri but
add itional
place ment
Le ave
Le igh
30 s
Har relson
straight forward
Pa thetic
rend ition
atta ch
comb ines
max im
Out standing
fu el
Ba con
Miss ion
fantast ically
B lo
F ed
F inding
P arent
W rong
c ater
d v
d in
j ungle
o ch
s ma
s witched
z ene
an tha
to mat
ra ces
cl one
interest s
gi ble
co on
world wide
ran king
We ak
sm ug
19 3
19 60
log ist
inter nal
realistic ally
dist ant
Ho locaust
concl ude
concer ning
acc used
unfold ing
fix ed
deb ate
enthusi asm
forgiven ess
Wed ding
tact ics
phr ase
Py thon
engl ish
auth ors
= "/
A lit
B rend
C lose
F irth
R udd
U M
V on
e ous
f actors
m ult
s lea
s laughter
v ag
po etry
ther land
te e
ph ant
red undant
cl unky
exc ell
ama ze
col m
pop ping
mid night
week ly
bi ography
pick y
bur y
fell as
Gr ade
Bro sn
photo graph
Bob by
insane ly
accident ally
Ken ned
guarant eed
Sus an
birth day
empower ment
involve ment
baff led
Luck ily
discus sing
plat form
Alf red
intric ate
elabor ate
Ci vil
gad gets
accomp anied
Norwe gian
WAST E
/" >
5 0s
B ess
C ate
D IS
H and
H al
M ight
O thers
P P
U R
W y
W ant
b ast
i ety
k n
w y
in corpor
en chant
and ers
ar med
mo s
mo de
ch i
Th us
out right
not able
ge ms
ri er
de af
ra vel
we e
qu arter
du b
gr ay
ang els
script ion
mot ions
Al addin
De cent
De velop
Mo ss
cut ter
IM HO
soci ally
dep ends
Act ress
af ford
liter ature
AR T
impro bable
Sam antha
Wal ker
Dan ish
shock ingly
fill s
Bet ween
da zz
pun ish
believ ability
Shi a
Au di
Vo y
reward ed
destro ys
Hot el
forgi vable
B ates
B lock
B anks
C y
D read
F if
H H
P ers
P assion
R ef
S ense
p ause
s lot
un ravel
su me
po s
pre ced
ci ally
dis ney
br own
script ing
Jo y
ris ing
both ers
ner ves
men acing
ump y
Go T
dist ort
leg ends
Har old
pri vile
dest ined
enn es
gri pped
OR Y
accept ing
Vi kings
Ber ry
VIE W
insul ted
Mal colm
preach ing
patri otic
MI B
Myster y
revolution ary
select ed
Isra el
Word s
dum best
NC IS
Ev ans
Mic key
tomat o
privile ge
C ON
D irty
K er
M ik
N avy
R ing
e quality
f ri
g all
h ats
o il
r ot
t ens
w ink
st able
al y
se mble
ith ik
ri al
de ta
ro bbed
ill ing
am ond
who lly
we akest
dis connected
ph on
back wards
comple ted
co pe
He at
Be ck
ner ds
mon y
pri vileg
explo it
OU R
Ad ult
bel le
gain ed
rup ted
fool s
push es
brut ally
emp ire
fab ric
cate gor
chop s
athe ist
AW ES
gal axy
blat antly
Bang lad
sque e
enthr alling
recei ving
pregn ant
repul sive
Apocal ypse
Independ ence
Alit a
Brosn an
) !
= =
P ain
R ush
S ol
T L
Z oo
h al
l ab
p ins
w agon
ch at
ch es
se gments
be ars
sh ank
ab oo
ma th
ge ared
no pe
ast ed
nd rome
we ir
we ather
off ense
tra its
sub sequ
ip id
excellent ly
rele asing
With in
posit ions
Su therland
Me g
Super bad
sign s
Ge or
cringe y
concer n
Scott ish
loy d
anal ysis
cha otic
Cent ral
Disappoint ed
Anim ation
weal th
Dy lan
FUN NY
finan cial
Blan ch
aggress ive
claustrop hobic
Curt is
wholes ome
preposter ous
AWES OME
5 00
K end
L ie
P ine
Z ERO
g us
g lit
r r
r ural
the ories
re telling
or row
st ating
se ld
se lection
Th row
li ps
sh el
sh red
un ner
un satisfying
out dated
ers poon
com posed
ill ed
end ured
he licop
con vi
ist ent
pro ving
pr int
fin ed
mat urity
work er
ward robe
Re view
stop ping
ney ed
form ing
Sh ark
Tom orrow
Gu ardians
Ad mit
sym pathize
perspect ives
judge ment
chick s
pract ice
dig nity
rad ical
vulgar ity
Gri ff
enthr alled
Atl antis
IGH T
optim istic
HOR RIBLE
Kling ons
reci pe
A ud
B ran
C ame
D utch
H om
L ack
O t
P ad
T iger
Z ach
b io
d reck
p ound
u ity
y ers
or n
un even
ab usive
ma st
ne ur
per ception
over blown
part ly
read ers
gr ind
season ed
bl ink
Be e
Mar ch
deli cious
ank a
scar iest
Bo ston
execut ive
Super girl
Ha ven
learn s
Direct ing
sens it
Ali cia
Sm all
fla g
cir cle
hom es
cow boy
colour s
auto matically
Fred die
communic ation
Master piece
assist ant
econ om
zene gger
A me
C her
D af
G a
G ru
H D
H ur
H alle
N i
S ide
T roy
c el
m ig
m ush
p is
w ich
in stru
re boots
it o
ar n
vi an
sh irt
pe e
jo ined
over look
bec ca
ac id
ac claimed
ru thless
tra p
beg ging
sent ences
awful ly
rest ra
mar ry
side kick
conf use
With erspoon
Ex orcist
ca using
trans formers
mil k
fra mes
teach ing
mir acle
Mur der
conve yed
argu ments
toler able
hun ter
SU CK
attr action
Cent ury
engross ed
cliff hanger
Dialo gues
betray al
Mul an
cohes ive
Clar ke
Spen cer
Develop ment
C ou
F air
J aa
c ards
i ge
t ends
ed ition
be hold
sh elf
lo pe
we ed
ep ing
ig ner
irst y
ors es
In to
em ic
war rior
For rest
sho ots
scar ier
Sp y
Mc Kin
Co le
Ed iting
Tur ner
King dom
Was n
Sch war
flash y
test ament
thank ful
Af ghan
path os
venge ance
sw ing
Cam era
dete ct
Old boy
evol ved
Sy Fy
manipul ation
organ ization
cris p
Pla ce
choo sing
Shel don
Hr ithik
simult aneously
seld om
! ,
B il
B ody
C our
C ross
H ep
P ur
P ink
S A
d il
h unting
k ni
w re
é e
in explic
al ley
mo an
ct ic
be e
Th er
ver ine
for bid
el iness
sc am
ap ers
Wh edon
off s
into ler
under ground
illi ons
bu cket
ris ks
cli p
att itudes
fl ood
cap acity
inter tw
land er
ali zing
Sc ore
Ab by
Me et
Thr iller
Sar a
umbl es
Fox x
Writ er
Vin cent
hack neyed
veter ans
ideo logy
mock ery
Sat an
difficul ties
divor ce
dro ve
Jaw s
Chop ra
Kenned y
" -
) )
4 8
A wards
D ID
E g
L ine
M ot
S OME
b ite
j un
n is
s ends
y m
is ta
re tired
or a
st ark
it z
mo thers
se ct
so red
de fe
ne ut
watch ers
no ises
ild a
co at
vis ions
Re illy
Re becca
gue z
Mar shall
eng ers
Li ving
Man n
build ings
Con juring
inst inct
Po st
Bl unt
Christ ina
bar rel
order ed
Mad ison
liber als
travel ing
nu ances
wall s
Pol ish
distr action
sta kes
Hell boy
OO OO
IF F
TER RIBLE
EVERY THING
FO X
Wi fe
IO US
supre me
substant ial
Dread ful
4 7
B us
G ro
L en
L em
P rison
R el
a unt
in ja
re tain
en sure
or ian
al bum
un inspiring
ab used
ra ises
can on
ook ie
dis crimin
under developed
orig ins
og rap
mer maid
recommend ing
ip es
mon key
inter act
ret t
school s
Go ssip
bi blical
franch ises
trans fer
whe el
sla very
odd ly
vot ers
gang sters
relev ance
intellect ually
Thor oughly
Pac ific
compe te
lon eliness
loo p
ura i
Greg or
scratch ing
believer s
Retur n
acknow ledge
Goo gle
plod ding
demonstr ates
viscer al
privileg ed
McKin non
ograp her
2 7
2 D
> >
B uck
G ay
K il
L ater
L ake
L ara
j ol
l ins
o logical
p unk
s of
t iring
u ge
it ter
mo ld
for ty
me ga
im ately
ti p
con science
ap ply
pr ic
mis fortune
du bbing
new er
St ark
right eous
co z
ins ipid
let te
ner ve
portray als
Pe ck
ped est
Dis gust
past e
RE VIEW
Sh aron
dist ress
Me gan
200 3
13 th
concer ns
Mi che
ski pping
nut shell
Bor at
dissa pointed
tro pe
apolo gi
eleg ant
Squ ad
rer uns
Rodri guez
A ri
F R
I VE
L ol
M end
b ones
n ick
re cru
ve ll
id a
ne phe
di min
char ged
ble ed
own ed
cent ers
ob st
produ ces
sol ution
cont ender
Jo ss
found ed
sm iles
mor ally
sch lock
ST ORY
Ste el
inst al
team s
treat s
convincing ly
ib ilities
Aust en
paint ed
offic ially
dress ing
198 4
hh hh
argu ably
vast ly
opt ions
Enter prise
demand ing
Pir ates
stim ul
SPO IL
Susp ense
melan cho
B un
E wan
H ust
H app
T odd
m ons
o ir
p ant
w ire
in formed
is try
re quest
se vent
Th umbs
me as
sh aring
el der
ha w
ma cho
con sum
up side
jo hn
bo ards
plot ting
ass y
ho key
tim ed
laugh ably
ash es
come back
hel pless
gl ance
contin ually
comment ing
inst ances
LO W
LO TR
trans late
avoid ing
Qu aid
Pro s
El ba
Fin cher
Fe el
Fe els
IC E
Ob ama
threat ening
wis dom
enthusi astic
bull shit
promot ed
Jac ob
Bey on
Camp bell
Mitch ell
Aqu aman
misogy n
cous in
Pil ot
Ultim ately
Oly m
pover ty
excell ence
. (
A y
A gent
B ab
C ub
D oo
I ll
O L
S of
T ax
W right
Y u
d well
m ute
t u
w tf
in fl
re el
re verse
ar ian
vi bes
me al
un o
ra ising
int imate
tr ation
pre v
new com
St ick
Ch ron
disappoint s
em ed
vis iting
dict ator
Be en
col on
master fully
IN T
posit ives
Can not
Sc ooby
spect rum
pil ots
exist ential
cru cial
bot tle
Im possible
agend as
liber ties
BS G
Tim es
professional s
delight ed
199 5
Brazil ian
fif ty
psych iat
transl ated
vague ly
hatt an
gif ted
Parent s
) ?
4 9
B ri
D est
I rel
K ick
K ING
M iles
R ene
T ele
U g
Y out
c ens
k itchen
m ers
in ity
to days
ar i
il arly
ent ered
sh ap
ul ly
ne tic
di ve
pre sum
long ing
bl ends
co de
sub par
bas ket
We ird
19 90
19 50
19 80s
clo ck
hand ling
sch ed
neg lect
dist ingu
prom in
depth s
inst it
descri bing
Em peror
sla ve
murder er
Gre ta
subst it
Fin n
Last ly
ush ka
base ball
spin ning
Angel o
Cra w
ston ed
fif th
Rog ers
address ed
pred ator
Spe aking
alco holic
Rep ub
Entertain ment
Need less
cand id
Surpr isingly
neighb ors
enforce ment
Daf oe
Hep burn
A na
D J
E va
K iller
b t
b our
b ins
b ots
c ure
h ung
j ar
m art
s ending
u to
in ability
at ics
The ory
po ke
any time
int on
tr oops
ol ate
character istics
hum ili
screen writers
ran ked
war rant
cond itions
Mar ia
lic ense
reg ularly
gar ner
except ions
cop ies
consider ation
Man hattan
Sp ir
Char lot
IT S
Ger wig
Wal ken
AS H
manner isms
prison ers
Dam n
object s
Jud ge
drun ken
contem pl
Gra vity
rout e
compan ion
poo p
applaud ed
Haw ke
XX XX
195 0s
seam lessly
gro an
zzzzzzzz zzzzzzzz
firm ly
excruciating ly
Mean while
reli able
Pak istan
parano ia
Chur ch
vibr ant
Schwar zenegger
- )
B ull
E asy
F le
F ish
G raph
H i
L oc
N ation
P ick
S mo
T E
W ANT
l is
m ouse
n ations
p om
in con
er ror
st or
st itch
wor ship
man ager
dis appear
should ers
mis understood
br al
tra ff
bl unt
vis ited
tri o
light en
sex ism
rid dled
run ner
dep ending
sk it
ident ical
Ter ror
fo x
cat ast
discover ing
199 4
def ense
Mag ic
RI P
Part y
pray ing
Ital y
Val ley
kidnap ped
journal ist
conven ient
Incredi bly
Irel and
C ran
C oppo
C RA
F li
F ass
F ringe
G G
L loyd
M ill
S leep
S FX
T ara
c age
h ance
m uddled
s id
s lack
u gen
en ig
to on
ow s
li an
ad en
so lo
de voted
ro of
ex hilar
ex otic
show er
end lessly
int ers
con du
qu i
ser vices
ans ki
gr in
tra uma
bor ders
che ating
ang led
fli es
vo ir
Se en
An ti
inter val
gar ian
umb ai
Br ide
Con f
langu ages
cla pped
Most ly
impro ves
Mel an
recor ding
Cra zy
hide ous
feed back
Cr ash
metaph ors
Fan ning
Id ris
weakness es
suspic ious
precise ly
devast ating
fantas ies
Viol ence
Bess on
Blanch ett
C ro
D all
H urt
K ash
L ith
L ily
L iz
M illion
R R
S pect
T em
b ent
d irt
p our
s na
in habit
an cing
at omy
ch ing
ad or
end game
ep it
ful filled
ple x
dis miss
fa thers
ide st
ho locaust
ru kh
In st
St orm
em pathize
ob li
sub scri
ons on
sty lized
Un cle
Un believable
Pe ace
soci op
ER E
par ing
Ro gue
mas cul
remember ing
pat ron
cring ed
Juli anne
Gi ving
kno cked
signific ance
Bel la
profound ly
sle pt
mob ile
Ca ine
Swed en
frequ ent
arri ved
Easter n
Fut ure
dome stic
Berg man
Support ing
tat too
bene ath
Repub lican
, '
A pr
C A
C os
H ans
K aren
M olly
g ul
p tive
er ies
re sur
en na
en hance
ar rive
ch ris
om ing
ow ed
li fied
un it
de feat
sc oring
po ison
tr on
au x
ful fill
pr on
ide als
mis guided
che es
entertain s
sub tly
sm ith
bre athing
stuff ed
dri ft
Sh rek
Ex press
mix es
bur ned
Cl ay
bes ide
trust ed
studi ed
glo omy
Mid night
organ ized
pati ents
Inter net
Scre am
Fall en
Cli ch
admir able
analy ze
decl ine
celebrit ies
difficul ty
Ton i
Barbar a
maxim um
Admit tedly
pric eless
Coppo la
Dall as
A mir
E van
F lo
P age
R h
S ue
U k
n om
s niper
u gg
on na
st atic
ar is
ch amp
le en
Th under
ver age
sh an
un related
con struction
ven ue
qu ant
direct s
expect s
Ch lo
20 s
light ly
mon u
Ne mo
dri bble
ord ers
mit ive
Or der
drop s
sens ation
host s
atta cking
refresh ingly
introdu ces
Sm art
Mon day
indi an
grab bed
Dani els
research ed
Gar cia
Mir ren
manipul ated
Roman ian
List en
pred ic
conscious ness
Cas ino
discus sed
inser t
kis sing
rapid ly
confir med
Case y
Kend rick
Apr il
8 5
C oo
F A
H IGH
J P
M ia
N ed
R at
Z ack
b read
c us
e ct
f ence
k ung
me andering
sh ing
ab str
ci ously
dis order
ish es
St al
ste er
hy p
Ar rested
hilar ity
weak er
Mc Gregor
pri ze
War ner
rend ered
By r
concl usions
explos ive
Han gover
Sy l
squ ad
Kar l
dama ged
communic ate
concent rate
civili zation
Hul u
monot one
predecess ors
Pop pins
transport ed
ambig uous
TW D
Armen ian
Rag nar
C RE
D D
D rive
G ang
H im
N A
P RE
T ook
W A
W att
c itizen
f ru
h orses
re making
to xic
as hi
oo o
ir ts
de licate
la be
per man
can ned
au er
pro motion
real ization
pp ers
ac col
back ed
cl in
ach ron
cre am
cou ch
Re vol
found ation
Se a
cli ck
bre ed
bud dies
pu b
ST OP
dr um
Sp idey
respect s
Con an
trans formed
step ped
ib bean
sen su
ONE Y
commit ment
fairy tale
fle et
blo ated
particip ate
sor row
arri ves
Shaw shank
height s
Kings ley
Polit ical
contradi ct
patriot ism
Shan non
Charlot te
B G
B ow
C ars
F al
K ra
L ame
M ONEY
P D
U s
d ross
e valu
j ac
k night
l ur
p umped
u ber
y ard
re create
mo cking
il a
il le
Th urs
un aware
un intentionally
ri ors
ra iny
la v
am id
con dem
ap ple
ite ct
character isation
cast le
ens ed
cent s
So on
ins om
sub scription
pi er
sho cks
land ed
ele ction
air ing
Da isy
pri mitive
subject ive
post ers
bur g
country side
wr ought
sens ible
Col umb
pet ty
bul lying
Rom ance
Life time
Rock well
Jon ah
Sy d
Alex and
speech es
marke ted
author ity
Sur vi
maintain ing
Hop ing
buff s
Inter stellar
absor bing
rep lic
Gener al
LI KE
ambi ance
narciss istic
cere bral
Prof ess
Voy ager
tomato es
5 5
E U
G lover
M ummy
P han
P ush
U r
W inter
a ves
c en
f fe
an na
as i
ad minis
com ings
ast ound
con desc
up t
over acted
ho ot
ama zes
sol ving
He ad
He ck
bu bble
Mo cking
cr ook
open er
00 7
Car ibbean
dist aste
pur poses
bi ans
liter ary
und erest
ref uge
ail ed
sn ap
grand mother
complain ed
Ye ars
fla ir
app alled
unexpected ly
199 8
product s
atro city
197 0s
demon st
cow ard
Pal ma
Rog an
gig gle
Deep ika
isol ation
phr ases
advertise ment
therap y
Remind s
Isa ac
Bol l
disast rous
Than os
sher iff
Timo thy
magaz ine
? '
D ull
H ack
I di
M ack
M ix
M umbai
O range
S pain
b ending
h art
l en
o la
p us
s anity
t ent
w idow
th reads
as ite
sh od
sh ift
un happy
ab undance
su es
de structive
do d
au ra
over whelmed
dis ci
dis service
lie st
cl oud
gi ar
pret ends
em peror
fan atic
sub urban
por ter
val ent
sound tracks
An ushka
run g
Ro bo
wit ted
Br ando
twist ing
Brit s
prom pt
post ing
agon y
satis factory
Bl ind
War rior
roy al
appro ved
teach ers
pan ned
TO S
Bur n
fu ri
explos ion
safe ly
atro cities
197 7
NE W
Care y
sketch es
choo ses
Fa ith
butch ered
stup idest
dilem ma
Gad ot
obsc ure
Constant ine
infant ile
slea zy
Eg yp
Yout ube
Phan tom
C ats
D al
K i
K atherine
M M
P and
S en
U ma
c art
d ic
m um
p light
w ers
w ore
x ta
z ard
z ie
er r
at tribut
or ite
and ed
be ware
li ghter
ad opted
ent ers
ay a
ab ound
ra ved
am ed
art istry
own s
ort ions
should er
after ward
pla giar
bl ended
dec ency
dec iding
gl aring
Some body
Mar ie
col n
sat ur
gra vity
God s
Sc and
Car toon
prof ile
Com p
sum med
Po pe
intense ly
Mon ster
Wood s
match es
struct ured
assu red
hom eless
Ac cording
Sun shine
Gar bage
Ham mer
hearted ly
hur ry
Ru by
West world
virt ue
brief ly
HA HA
Writ ers
gal ore
Res er
sett led
aston ished
holi days
promot es
Ve gas
pir ate
andal orian
Patt inson
Hum or
yell ow
Know ing
enhan ced
Scot land
robber y
Cub a
6 th
A ron
B urt
C rap
D aw
E is
F Y
F ine
G illiam
N ine
d ates
g ence
p hase
x x
le ans
vi cious
wh ites
ke eper
fil mo
ra ped
ne ider
com bo
ill on
do om
ink s
over board
bo lic
sp ring
du des
ame t
under tones
od der
kind ness
cont rolled
ign oring
mon tage
fight ers
reg urg
uni versity
live ly
Br onson
spir its
remind ing
Bro ther
imp lic
contain ing
str angers
Show time
sal t
relat ives
Episo des
conve ys
install ments
glo be
196 0s
resul ting
hyster ically
stereoty ped
Home coming
Jen kins
Dol l
Lin coln
Wel come
nay sayers
register ed
doct ors
anx iety
mou thed
fundam ental
Cry stal
WR ONG
subsequ ent
sociop ath
resur rect
" ),
0 1
B and
B ander
C ron
C omb
K al
L isa
M anson
O s
O VER
S ny
b aked
b umbling
n ell
u ries
to ber
ch oc
li ar
ic iently
out fits
de v
de fi
com end
di vid
he k
he ars
were wolf
pr ince
ac ies
ens on
pla cing
right ly
pa uses
cra cks
top ia
We aver
ath a
Se qu
talent less
Su ff
US E
respect ful
Christi e
LO ST
suff ice
Gu iller
box ing
Cl ass
redeem able
connect s
connect ing
Fi ennes
distur b
Sch neider
flow ing
flow ed
sen ior
Bet ty
Gar field
reflect ed
Que st
safe ty
Chan ning
Ir ons
anu ary
investig ate
boo bs
jer ker
Kill ing
resembl ing
maid s
Produ cers
omed ay
bless ed
alleg ory
hesit ant
Reven ge
newsp aper
Afghan istan
pom p
Byr ne
Guiller mo
A way
B le
C ube
E ugen
F em
N AS
P L
P or
Z oe
b ir
g inal
i uses
j unior
an achron
on going
en counters
Th ur
ad ored
ent ering
pe st
ma p
not ably
ex hibit
sc attered
he at
tr ow
pro ven
ac claim
che ered
need less
So cial
fli ms
bas ics
We ek
De ce
ris es
mean ings
hero ism
gg y
Do om
land o
Ar nie
sk ull
THE Y
advent urous
Bat woman
critic ized
relig ions
survi ving
mass ively
aby rin
unk irk
Che ap
Sa oir
trad itions
app lied
sw allow
exper ts
IC K
ju xta
ki en
evol ves
Boy le
Cha stain
Van essa
address es
bill ed
Add ition
celebr ate
arrow ing
determin ation
Wed nes
Ze al
alleg ed
Ven om
Lat in
eli min
Point less
Goth am
monolo gues
sprink led
astronaut s
reluct ant
dv d
Ot to
Cour t
abstr act
hyp not
3 3
C D
F AR
U we
Z ac
g el
g ories
j aded
s killed
v ital
th ie
re lying
en ch
ou ge
it i
se as
ma sters
ge ar
ir rational
la z
art work
um ing
fin es
co ast
iz za
Al as
girl friends
De v
class ified
ath on
crit ically
19 th
She t
IN E
short s
open ly
conf irm
AN K
den omin
Ke y
Com ic
arch itect
IT Y
weird ness
........ ..
Super natural
Rob inson
Gr ound
Sim pson
consist ency
achie ves
sn appy
awkward ness
bomb ed
exper tly
mouth s
tre es
ID S
chick en
dad dy
glor ified
Wa iting
Int el
ende av
vac uous
Sound track
replace ment
Jen ny
Light s
Met al
iped ia
Dab Dab
manu fact
styl istic
Banglad esh
squee ze
neur otic
instal ment
shod dy
Bander as
Dece mber
abyrin th
1 20
B A
B ach
D unkirk
H il
J anuary
K K
K az
M ass
N atur
P I
R est
S ty
Y E
b tw
b log
e er
j est
l end
m umbling
s log
t roll
al ert
be having
ve t
ic y
fil thy
not or
de tr
po sure
he im
could nt
hi a
mer cy
perfor mer
down side
ree k
sub marine
De mo
je wel
tem po
tem per
bud gets
sy ndrome
par o
black s
00 00
Good fellas
mas ala
pay check
incl usion
bi ke
gre edy
equ ip
gay s
fra ud
str ay
Pat ric
affect ion
mach ines
sess ion
rob otic
Mag n
exagger ation
Chuck y
Mer lin
Sil ent
feed ing
eight ies
contribut ed
dramat ically
pup pets
domin ated
Sto ck
recei ves
vig il
goo gle
cust om
Francis co
nur se
woe ful
easter n
rambl ing
discer n
Blo om
convi ction
Tax i
Saoir se
denomin ator
2 9
C live
C ount
E ye
E yes
H ong
I c
K ris
K ept
M andalorian
P fe
S ig
S niper
i ors
m ort
x y
in ction
re porter
al ed
ch ie
movie goers
The at
ra pt
di zzy
im ple
do pe
int end
con vict
ag ues
sa il
sp ont
10 1
tw elve
St arts
something s
dra in
may hem
ning s
pa this
bl um
stu dies
pare n
IN D
cy nic
Br andon
ling er
mid st
plan es
mark ed
ni che
Da ily
glad ly
bur den
trans itions
gy pt
Co de
period s
throw back
sla ves
flu id
flash es
Night mare
Wil lem
AC E
ðŸ Œ
cate gories
Den ch
commun ist
Lau ren
quiet ly
occur s
sentiment ality
discuss ions
incre ase
Sil ence
Rod den
benef its
veh icles
Fred dy
contribut ion
incident s
possess ed
concent ration
lean ing
proced ural
uniform ly
Mont ana
caut ion
Bog art
wrest ling
Tol kien
jeal ous
mast urb
Cran ston
Watt s
Sny der
A mit
D R
D ur
D omin
E ight
H ands
J une
L ang
M AR
O pen
O dys
b c
c ough
d ash
e v
k u
of sky
ch apt
le te
ver ts
you n
sh es
un biased
di amond
im person
po em
show cases
per t
per il
great s
et ti
bo di
character izations
ob scene
fi an
ner dy
cinemat ographer
follow ers
When ever
land ish
pu ke
cop ying
sk its
Sh ot
dam ned
Mc G
Trek k
shame less
explo ited
psy ched
stunning ly
catch es
Wal t
cul min
water ed
trou bles
Night s
mm mm
remark ably
sli de
sembl ance
Rus so
Cha p
oper ation
peace ful
roller coaster
Res ident
hun ger
San jay
awa iting
smooth ly
emplo yed
expand ed
Wi ig
exhaust ed
distribut ion
spaces hip
Oc tober
Liber al
Hawai i
sensit ivity
pedest rian
Chron icles
Tele vision
exhilar ating
chapt ers
B ing
C atch
G ave
I P
M ort
P TS
R ex
S pl
T aking
b ru
h arrowing
i en
s ity
s omeday
at i
es is
ch ord
se ctions
be ard
be wilder
sh iny
The ater
un a
un familiar
un conventional
de e
ra z
ro e
ro se
sc andal
pl anted
over bearing
gr umpy
fi er
super powers
Jo kes
mon keys
mor bid
Pe arl
eng er
Le vy
power ed
win ners
build up
15 0
swe at
cheap ly
terri fied
Or lando
execut ives
sick ness
appro x
regard ed
Col or
El ton
vir gin
aim ing
Way ans
affect ing
199 9
eth ical
six ties
influ ences
repetit ion
coher ence
root ed
Pol anski
pati ently
Du ke
Spe ed
awa ited
iron ically
Sn atch
princi pal
Brook lyn
stro ke
Der n
fro zen
Shah rukh
pand emic
pump ing
employe es
desp ise
photograph ed
enchant ing
detect ives
labe led
Thurs day
Addition ally
Wednes day
equip ment
Patric ia
Ic eland
C hase
D oc
E ss
E bert
E scape
F ound
G aga
M andy
R arely
T ina
Y ep
b atch
c ue
c ott
g um
s ly
v ation
w izard
in furi
st ages
es cal
ve lope
ut t
sh ant
un clear
out landish
su ed
ex change
do c
rom com
art ers
ine e
rit ual
sp ine
dis p
dis appeared
too th
fan boys
comp on
hu h
sing ers
cor d
tem ber
Le one
ton ed
effort lessly
flaw lessly
ky o
none x
dest ination
gri pe
refer ring
Qu iet
Bro s
var ied
sell s
spectac ularly
grand father
Mus ical
quir k
Mor ty
appropri ately
minor ities
delight fully
phenomen on
share s
shadow s
resol ve
Gra ham
switch ing
cook ing
Roman ia
Ky lo
Bu y
affair s
Lind say
Ren o
thet ics
Glad iator
method s
AG AIN
summar ize
mani fest
etern al
sche me
Performan ces
deta ched
Kil mer
nephe w
Craw ford
Chlo e
flims y
PTS D
A ld
E gypt
F RE
G ump
H ale
N ame
O cean
P aren
R ab
R ac
W o
Y ash
c uss
d war
g id
l as
m use
s ins
u ation
u gu
er ation
is er
re cover
al es
ch al
el son
out er
ge ist
ri pping
di me
im perfect
po ser
ti ally
ti ble
per ing
ta int
view point
his hek
its ch
own ers
stand alone
cl es
under water
exc els
cent uries
Ch al
od a
vers at
Al ba
press ing
predict ed
sho ve
bra very
forward ing
ane ous
Any body
psy che
liter al
repe ats
treat ing
har dest
Direct ors
survi vor
Pr ab
bul ly
Rom a
Cha in
Jud ging
Bor n
ambit ion
Ash ton
collect ive
mic ro
deliber ate
immig ration
Fore st
trade mark
oblig atory
mani ac
Anton io
massa cre
Vik ander
kni fe
promin ent
Clich é
distaste ful
filmo graphy
Pfe iffer
Rodden berry
8 th
9 3
9 11
A voy
H ank
J ai
J ungle
J uno
K irst
L or
M S
M illa
Q U
S ic
T omb
a fore
d ot
f us
f ting
m n
n iss
p ion
r he
s lo
s its
t aboo
v fx
˜ ‚
in suffer
re semble
ou f
ch rist
le on
id al
are st
he ter
tr ump
art icle
ll ing
king dom
mis placed
gi o
sur passes
perfor ms
bl u
ins ki
vo cal
Re ason
stupid ly
cli matic
clo set
Pe te
?? ???
Le ad
cr atic
ridiculous ness
event ful
ST ER
bi ograph
New man
Bo ss
Super hero
Rob bins
VE N
ener getic
Par anormal
femin ine
tun ing
trick ed
evol ving
GE T
streng ths
gle e
ANY THING
pray er
stretch es
ado x
Pow ers
indic ation
resist ance
bird s
elev ated
exhaust ing
itar ian
ingen ious
amuse ment
Sof ia
pomp ous
* .
C andy
F I
F ate
O ct
O dd
T ale
V io
W anted
Y awn
e uro
g ow
h ing
k ne
l ou
n ado
y i
in ations
in stein
in visible
re sent
wh ack
ion age
un finished
but ter
de on
de mean
us age
pl ug
um in
ite ms
new ly
cre te
pa ired
pa thetically
produ ctive
cra ving
As ians
ia h
mon stro
Un ion
non stop
Lo han
nor th
Li u
Li ked
short comings
decent ly
ret ched
dr ab
Mc Dow
pur suit
pur chased
arch ety
Ho st
Christ ine
200 2
lad en
roy d
Mon sters
AS S
Would n
courage ous
IC T
avi er
,, ,,
Dam me
threat ened
cris y
maintain ed
escap es
Leon ard
fle w
Sound s
Brid es
dar kest
fee ble
immers ive
seam less
pir ates
limit ations
Bi blical
Fav orite
occup ied
Vill ain
Visual s
Cre ep
Performan ce
homopho bic
clim actic
Sou thern
Sep tember
Aud rey
accol ades
condesc ending
Reser voir
Aron ofsky
youn gest
! ".
( ?)
) </
6 5
9 8
C ris
H ence
L as
O m
R our
T RE
T IFF
a int
g li
h iring
r ance
in capable
er ase
or phan
mo ms
ad ise
ic ap
el a
fil es
ne o
ter ing
com position
ro cked
la ced
ap preh
man ic
fun eral
sp on
seem ing
happ ier
start ers
sim ilarly
down fall
dial ect
sm iled
develop ments
rest ri
Mar lon
dark ly
reg ion
arr ay
mas quer
Ho li
brain washed
gre es
post s
Tr ilogy
Fran ces
Tur ks
Fo ot
thin ly
grab bing
numb ingly
wide ly
hip ster
surround ings
kins on
edi ct
witness ing
signific antly
NE ED
Gree ce
Au gust
link ed
spre ading
SU PER
celebr ated
paralle ls
Dian a
mountain s
access ible
Gil more
Cri me
Bey once
Isra eli
Utter ly
Tow er
overshadow ed
undeni able
Disgust ing
elder ly
Ug ly
enig matic
insom nia
Daw son
Rour ke
< <
A z
A verage
C ow
C ass
D as
E s
G oose
K ung
N N
R ic
d umped
f odder
i ate
s cept
re write
re lied
and ered
as co
un seen
un ks
ra ine
ex pose
am or
just ification
he a
et al
ru g
ru bs
mat rix
hi le
St unning
cl usion
ens en
iz on
aut istic
ins ens
war riors
fl are
hand les
par tially
sch mal
ST D
AN G
Sh ir
AT ED
fic ially
band wagon
const it
trans form
ref used
AR K
Nor way
str anded
shock er
travel s
notice able
Sun ny
unfold ed
sli p
pun s
Cle ver
fright ened
depart ure
Ba hubali
flo ating
escap ed
tremend ously
puzz led
conserv atives
lu x
rehash ed
Fol lowing
baff ling
dedic ation
Comm un
Sop hia
TA IN
dump ster
Victor ia
Patt on
FE CT
Rol and
inher ent
transp arent
glamor ous
inj ury
surg ery
neut ral
cens or
presum ably
adminis tration
Scand ina
Cron enberg
NAS A
" ;
B aker
C reek
D ue
H ered
J ared
K ut
K line
L IT
O PLE
S later
V O
Z Z
c oo
h ater
l ined
n m
p ad
p als
s way
s ung
w andering
in complete
in flict
in secure
an ge
at least
mo dest
le x
ver bal
su cking
ne west
ter min
im moral
do ck
good s
art icul
con ce
who dun
ig ning
qu arters
bo ggling
tw in
In it
br is
need ing
before hand
tri angle
fli p
vo iced
sing s
ste el
cli ffe
vol umes
oc y
uni forms
mas ks
Com ics
Har a
Who le
Sha pe
house hold
dest iny
narr atives
cal cul
IE S
horri fied
emp loy
Wil de
Bet te
Hard ly
punch line
reck on
comput ers
pen is
highlight ed
Cru z
Steven s
lust re
Hill s
tack les
toler ance
syn c
PE OPLE
EVERY ONE
experiment al
Gener ation
Anim al
Myster io
hesit ate
esp ionage
cram med
whim s
Tam il
Stra ight
Tech nically
musc le
publ ished
degrad ing
Studi os
pod cast
swim ming
Hom eland
CRA P
Fass bender
Push ing
Zeal and
fier ce
nonex istent
Paren thood
monstro sity
B ong
B aa
D one
E lect
H og
H indu
L ONG
M un
P itch
P urge
R ider
R iley
S ER
T un
U GH
W ik
b ump
l lo
s is
s ie
s words
t ant
y l
th ir
in form
is ies
re vision
st ones
ar rival
ch and
ow e
un educated
de mise
im per
con tempt
go als
over t
des igner
joy ful
ces e
under dog
gi me
wast es
ak i
pa ths
screen ed
wa ves
tell er
De c
Mar tian
lic al
To kyo
IN K
name ly
support ers
Car l
Car rell
!!!! !!!
stra ined
utter ed
Mc Avoy
Di aries
express ive
har at
Gr ay
Fran ken
Bro dy
Pr op
represent ing
step ping
omen ess
Dark ness
El f
El le
rew ind
awkward ly
ham my
Bar on
Park s
Fe ig
vict ory
Sar andon
tun es
suspect s
gross ly
drink s
Gold blum
exagger ating
Rus sel
198 2
Kat ie
Jud d
Ty coon
desire s
agre es
Hugh es
mesmer ized
PER FECT
Sn ipes
empower ing
Barry more
Kind a
Ag atha
Beat les
Wol verine
polic y
attach ment
punish ment
Miche al
Melan ie
epit ome
satur ated
Thur man
Odys sey
A bo
A pat
D ER
D iffer
E mo
G ore
G row
J as
L L
M ask
O p
O per
P as
T M
V era
W ing
b ay
m r
m and
p izza
v ary
z an
th ugs
in ep
re au
on ies
as ser
mo a
ver ge
ent ed
un intelligent
id o
ex it
im ated
we ep
we ary
up beat
ag no
bad dies
their s
ac company
character istic
tw ins
ass ed
disappoint ments
commend able
friend ships
Se at
rid ic
Le go
spe cul
pu er
cy ber
supp ly
mid way
Mc Adams
explo ding
loud ly
cla pping
idi ocy
novel ty
Ben edict
imm ortal
Sa int
relie ved
Fl or
Anna belle
lon gest
Ken neth
relax ing
Sw inton
hunt ers
Roy al
court room
Mil a
Gl enn
encounter ed
prejud ices
cab in
Whit aker
fist ed
transc end
coinc idence
incar nation
Elli ot
Block buster
SPOIL ER
sevent ies
catast rop
Egyp tian
B elle
D ha
F ab
H AS
K un
K ang
R ated
S elf
T ark
T ree
T ried
W B
g ren
g lam
l at
to pped
ed s
ar rested
for giving
no isy
con tract
ta me
te aring
sa vi
dis s
pr ude
cl arity
che ster
fore most
co lo
iz a
sub text
Al one
med y
Don o
Be th
land ing
short ly
Ne g
neg atives
annoying ly
Ex tra
respect able
utter ing
similar ity
Ab hishek
jud ges
fo ster
nie ce
sign ature
Sam urai
spot light
Mon roe
Mad sen
element ary
junk ie
PO INT
pal pable
Kat niss
Nol te
hall uc
Cla ude
gig g
celebr ation
dramat ized
Plan ned
accomplish ment
FO RE
evo ke
shit ty
Six th
Nar cos
util ized
abrupt ly
Hawk ins
obst acles
puer ile
" (
4 2
4 3
C ard
C ob
C arly
D om
E ll
H ilton
K r
L one
N apo
O H
P rest
S ac
S ach
T u
V ice
W ard
l aser
s nail
w its
in famous
an thology
re gime
st ance
to e
un wanted
ab h
ab du
ir rever
ne ath
ro pe
po cket
ti ger
per verse
But ter
gr ating
est e
ual ity
He ard
Al bert
We ap
cr at
ted ium
que ens
Ne igh
Ar gent
wi pe
Su icide
AT ION
Ex pan
critic izing
sl ang
Direct ed
stereotyp ing
tern al
regret ted
nel ly
fire s
Red empt
quir ks
leng ths
aim s
immedi ate
recor ds
sour ces
clean ing
Ham ill
198 9
interpret ed
Pal trow
compet ence
Uni vers
Writ ten
crash es
poo h
adm ired
Bird s
Ash ley
porno graphy
Fav reau
encoura ging
Kath y
DS 9
annoy ance
myst ical
rab bit
helicop ter
Spir it
disci pl
Chain saw
Kut cher
Abo ve
Expan se
' )
( !)
. ).
7 th
? ,
? ...
C ul
F AN
K el
L S
P A
P ack
P ull
S ud
S pot
T all
T ouch
T ilda
W u
W ins
b ol
b inding
g ically
h ers
i i
l ists
p m
p ard
p ounding
r anted
t any
w ander
in human
or chest
it el
to ken
il ess
ow ski
ad vis
ir responsible
ust y
ul es
com a
am ish
do s
wor ries
he els
char med
per verted
ta ker
man aging
jo ins
ag as
ass ess
under cover
gi le
pers ed
ins ign
Re ed
vent ures
sm ash
car bon
humor less
att ending
predict ably
soci etal
par adox
impress ions
pass engers
suc c
pay ed
Con clusion
success or
ref uses
Love ly
Ed ge
sl ash
Ra az
fron ts
luck ily
pul p
pul se
Tra cy
crow ded
qual ify
Ray mond
rad i
insight s
hon our
chur ning
Ru bbish
circ us
Joe y
deter ior
tack le
196 9
ram pant
bank rupt
link s
Zomb ies
Brid ge
Made a
ov sky
gimmick s
hypo crisy
immig rants
GH T
Rad cliffe
craw l
dup ed
Face book
Var un
Rap ace
craz iness
Brend an
intertw ined
basket ball
amid st
choc olate
divid ed
Hil ary
Theat re
psyched elic
afore mentioned
rhe tor
Shir ley
Redempt ion
4 4
? .
C ir
C ary
D uck
E fron
G ig
K uro
L abyrinth
P ep
R im
T own
T ud
W inst
b h
b ers
d ent
d ling
d angers
l ining
p ans
r uss
t te
t weak
t ub
u h
st ig
st ran
st airs
mo do
le f
il ation
om it
li gible
ad el
un can
un sympathetic
pe tit
su pr
ri ct
de grees
see ks
end uring
int age
con sequence
qu asi
man ji
ful filling
sp ice
ore an
ac us
ph ia
day time
bor g
cent re
bl ings
bl ond
tri gger
rel ating
bu sh
ath ers
Be ach
mar athon
fre aks
mor ph
To gether
Le v
men ace
cer taint
Ke ith
spect or
swe pt
deal er
smart ly
War ren
Fi eld
Che esy
Par asite
ba it
approach ed
TO O
met iculous
wind ed
Get ting
eth ics
Angel a
planet s
hur ting
Hel lo
tend ency
organ ic
eat en
skin ny
DE AD
elect ron
Cong rats
possess ion
Dad dy
Low e
oppress ion
enlight en
Ton ight
Ven ice
Cre ed
Goth ic
shif ts
Studi o
salv age
Tat um
stan bul
pol ite
Scor cese
Bran agh
substit ute
Ragnar ok
Intel lig
vigil ante
cynic ism
fian cé
Hered itary
Apat ow
Seat tle
3 7
C ook
C had
C lan
D AY
F ind
G all
H ATE
J ill
J ump
L ate
M au
P T
T ues
V ers
V ader
Y i
c off
d oo
d ul
d ess
t es
re ts
re served
re sume
to dd
es omeness
om g
wh ine
un appealing
un acceptable
pe p
so ver
ma jest
ge eks
de mented
ul ated
im bec
ti ans
us ional
con sult
per sever
over wrought
ple thor
ye a
No omi
tri als
tri gg
let on
les bians
Re views
war fare
bu g
cor pse
Be gins
mar io
mar vell
To by
fail ures
ear nest
cred ited
moder ately
respect ively
air plane
Mc Queen
Da isies
agon izing
Bo ot
Ger alt
stud ded
mes h
Tur n
sla pped
subtle ties
Bra in
appro val
fra gile
Far lane
Ry der
AD E
pan ther
proper ty
fasc ist
Mad s
cross ing
favourit es
premi ered
behavi ors
BE T
def ending
defin ing
spl atter
ston er
glor ify
asp iring
Ru th
argu ing
oper as
trend y
Hop per
Gen ius
sque amish
relent lessly
elo qu
Dy nam
legit imate
harm less
vulner ability
fantast ical
mish mash
activ ities
Spart acus
incorpor ated
Mik kel
stimul ating
Beyon cé
Rene e
Robo cop
Kirst en
Univers al
plethor a
, ...
B RA
C L
C um
C happ
D il
D ane
D rey
D arth
D illon
E arl
F illed
H ed
M ale
M ANY
N ye
N elson
U sing
V ic
W it
W asted
b ally
b rush
c utes
d ang
g art
h ul
l ure
l unch
p c
v intage
w oo
z man
re v
re serv
re ception
at able
st ack
st ically
st rung
mo di
ch ef
ve er
li ver
ke lo
ere k
id ential
so ber
ra g
ex posure
la ge
im py
po ckets
end or
up setting
ag ency
over hyped
over tones
sp i
ac ade
ru bber
mat in
under neath
pla gu
sur pass
sur geon
exc re
Ch and
fore shadow
est ate
cra zed
mag ically
cont roll
cond ensed
reason ing
Be ar
rid es
cam ps
cinemat ographic
miss ions
support s
tail s
Ke ira
zz ie
Com ed
cost uming
dead pan
IT E
pack s
host age
murder ers
fra med
bel t
test ed
cross es
oooo o
Bla h
conve ying
depi ctions
ja zz
indul gence
jer king
stretch ing
hab its
!!!!!!!! !!!!!!!!
emphas ize
soooo o
hopeless ly
Arab ic
acknow led
River dale
retire ment
Shad es
Virgin ia
yaw ning
dub ious
shap ed
Rh ys
regurg it
pathis e
McDow ell
Flor ida
Kuro sa
A BS
B art
C ards
C yr
D Y
G over
H id
H AR
I stanbul
M am
N ING
P es
P rom
R ip
T ran
T ucker
V ideo
V ito
W ong
Y or
d it
f ade
s ale
u mentary
y le
th irsty
or g
wh ist
ic ons
sh ore
oo h
un ion
id an
de vot
de ception
la ce
am ped
po ll
con juring
per secut
per plex
ig gs
te leg
dis playing
!! )
10 s
ass ign
ass igned
play ful
cl er
gen iuses
What s
As ia
war ranted
slow s
na zi
cli mb
stu b
19 40
prop ortion
pict ured
gra m
incl usive
Sh allow
DVD s
bar bar
War ning
redeem ed
embarrass ingly
Col lins
Ju ly
note worthy
apo logy
del ve
approach ing
Euro vision
fla v
ES S
Off ic
Pri y
Fer r
cow boys
athe ists
Hill ary
resul ted
maintain s
associ ate
MA KE
Cr oft
arrog ance
sink ing
si blings
Sum mary
rebel lion
Med io
Apo llo
emer ge
LGBT Q
encoura ged
idel ines
sacrific es
toss ed
monolo gue
prostit ute
electric ity
OL UT
traff ic
paro dies
Magn ificent
Brides maids
Franken stein
Dono van
adel phia
devot ion
teleg raph
; -)
C umber
D erek
F ist
F itz
G ent
P ride
P RO
S illy
T essa
W an
W ise
f izz
n aught
o ster
s assy
th umb
in finitely
an chor
ed a
ch ip
om ani
for gets
un talented
un developed
un satisfied
ce ans
out look
de ft
op us
di gging
int im
ther es
jo king
jo ining
der anged
fun ds
over weight
bo gus
sp ies
ick y
hi jack
Ch ief
wa kes
fi asco
fli r
Re lig
add itions
mess ing
ext end
hel m
An no
prop he
hy brid
Ne ill
gra vit
Ke itel
leg ally
concept ions
Com fort
air port
stra w
Har ri
cla p
avoid s
Season s
bed room
jump y
impro ving
rend er
grand parents
indust rial
fear less
bul lied
del usional
absurd ly
offer ings
punch ing
199 3
conflict ed
grad er
PO S
,, ,
Mag u
thes is
Gi ant
None theless
asp ir
manipul ate
incre asing
switch es
sophistic ation
Kar ate
gig antic
enthusi ast
indic ate
SG 1
SG U
Dun st
Rep ort
revel ations
mel t
Moon light
Air plane
Luck y
aff ir
sav age
Ta kes
inser ted
idel ity
retro spect
Start ing
AB OUT
motor cycle
Glo be
bigot ry
Dist rict
collabor ation
ordin arily
dazz ling
econom ic
melancho ly
ugg ish
defi antly
Suff ice
biograph ical
Holi day
whims ical
Baa hubali
catastrop he
colo red
Kurosa wa
" "
+ .
C and
C ab
D et
D uch
D ude
F ANT
G le
G ere
H oney
I l
J et
J aden
K ir
M ile
M assa
M ENT
N ative
Y o
a e
b is
b ac
c ot
d ata
i pp
k an
r anged
s lim
u u
v all
en ity
ou rage
it age
un easy
un eventful
id ences
pe tr
ge ant
ra ils
op pon
fe ared
di vine
lo athe
ti ly
can non
ment or
ment ions
pro to
sa c
gu ards
bo b
off set
aw akens
cast er
under whelmed
where ver
ire s
wa king
let ters
bre asts
fre aky
prop ortions
nor ing
par ade
par tial
RE D
ling ering
typ ing
den ying
spoil s
av atar
Sh ell
count ed
Con nelly
cry stal
gri ps
intelligent ly
critic isms
express ing
LE SS
dream ing
omin ous
imp lies
represent ative
colle agues
compare s
femin ists
Dra g
Am ong
Juli et
Juli ette
achieve ments
dress es
Gold ie
obsess ive
glor ifying
198 7
Ru pert
interpret ations
IF E
HA PP
compreh ension
demand ed
Phil adelphia
ura ma
contribut es
crack er
Pict ures
snow fla
ACT ION
borrow s
civili ans
civili zed
Dick ens
betray ed
Tre vor
engine ering
Spo iler
enlight ening
parano id
etern ity
Remind ed
transc ends
____ ____
infect ed
Mem ento
Griff ith
SUCK S
Graph ics
demonst rated
Dal ton
Eis enberg
Sig ourney
quirk iness
insuffer able
Wik ipedia
Differ ent
insign ific
certaint y
Medio cre
omani ac
' ?
B one
G ross
L IE
O TT
S igh
V lad
c cer
g reg
l ays
l ush
n ab
p iss
t issues
w retched
in sur
in different
in doct
an thr
re think
be ef
ve ster
ve iled
li ble
ver sa
ad ers
ad ject
wh it
act ively
The o
pe ek
su ing
com poser
ro ar
ro bb
int r
us ively
my ths
per ceived
per petr
qu eness
pro spect
were wolves
gu itar
dis a
thr ust
pr anks
off beat
tw ent
part ners
In fer
In sid
In spector
gr as
under world
down loaded
iz er
cra cked
happen ings
sm alle
ath y
run ners
Mar g
anim ators
inter play
anno ys
Ar abs
consider able
pop ped
vision ary
av age
Sp ade
Con tr
Con tin
swe e
thor ough
fit ted
shi eld
Tr ash
AR Y
sens ibilities
cei vable
rich ly
flash ing
town s
Che vy
grand e
Red box
pan ning
approach es
lay ing
def ies
DO ES
rive ted
Pre mi
hh h
Pal mer
Back ground
Wall ace
Ap es
sle eper
quot ing
shark s
SH OULD
Gener ally
mut ant
Gl ass
inevit ably
Sho ot
Retur ns
wilder ness
undeni ably
reun ion
Ther es
FR OM
Syd ney
Chap ter
Init ially
Wins let
uncan ny
ABS OLUT
intim id
Magu ire
Insid ious
smalle st
% .
B run
C era
H on
H ir
I ve
K ab
L ore
L ena
N an
P IE
S M
V I
j ah
k umar
k itsch
l ash
p ap
s ang
u shi
z any
th ou
in finite
or deal
it ious
ar ad
il ers
sh r
sh or
un attractive
ab er
ab led
ab lan
ha cking
de vol
ul ation
ro gue
am at
pre y
go sh
ven ant
man ship
own ing
br ide
hi pp
tra ce
dra stically
nt on
line up
gen et
che wing
Ch ick
whole heartedly
Re ality
rel ates
All ison
hero in
cri es
heart less
An ime
Pe ar
Le ia
gg les
Lo ck
bra vo
ane y
Ar k
track ing
RE AD
den ial
Su shant
IS S
trash ing
Bad ly
break down
break fast
har mony
VE L
lin er
appro ve
Sch wart
Des per
Dark o
BO Y
fasc ination
HO T
award ed
field s
techno logical
Mi y
system s
van ity
ID E
defin it
revol ting
drag ons
Part icul
rema inder
demon strate
compe ting
festival s
AW AY
indul ge
Krist in
Mind y
Leg ends
Greg ory
mans ion
pup pet
politic ian
elo pe
oid s
princi ples
kidnap ping
Cat woman
clow ns
simp lified
gard en
Spr ing
unner ving
restra ined
infl ated
psychiat rist
sched ule
Shet ty
insens itive
coo lest
Weap on
coff in
kelo deon
excre ment
Pes ci
oster one
Harri et
ablan ca
3 8
3 000
4 0s
A ven
C ause
D res
D anger
E E
G and
G ina
H at
H our
K au
M ang
M acy
P ast
R ace
S em
W N
b ick
j umbled
m uck
r oughly
an gu
re en
or ical
st ake
ct er
un forgivable
ab by
ce mi
fil ter
ma m
ome ver
ti ghter
go sla
up tight
bad die
over coming
min ister
episo dic
ie m
cl ar
under min
mer chand
few er
ree ks
co sm
Al right
cont rolling
ative ly
music ian
ath let
att or
rid icul
mar ginal
hand y
Le thal
forward ed
par ag
intel ligible
camera work
gra in
cer ity
Act ivity
Now adays
Sha wn
deal ers
exe cs
und ers
cru ise
Em mer
Ra ider
invest ing
flu ous
Nor man
Ben jam
fra ming
Far rel
rap per
sn ack
cul es
doll s
Sa ints
Mad onna
Mor ris
Mat ter
Frank ie
pen gu
blind ly
Pol and
Fer rel
Pi per
Brilliant ly
mill en
colour ful
excess ively
Kar an
Vo ice
puzz les
ov ation
sec ular
Andrew s
evo kes
oppress ive
COM M
Gil bert
wound ed
dun no
cand le
Wes ley
congrat ulations
comprom ising
merc iless
medic ine
Brave heart
sma ck
tens ions
inexplic ably
instinct s
apologi ze
prev ail
Scandina vian
ridic ule
irrever ent
Mikkel sen
Cumber batch
! '
1 40
2 10
C BC
E VEN
H ated
H AD
I de
K ent
M as
M ut
N aked
P ap
P ity
Q uality
S asha
S aga
S hip
S oul
W ake
j et
l ull
r ookie
t ta
u um
y an
th oles
in ating
re con
re cur
en velope
or ity
or tive
st umble
as sembl
ar rest
le ge
un bear
ri ps
ra h
ro cket
sp el
thr yn
low ered
ort ed
fin ance
aw esomeness
mis lead
che w
sol utions
tri m
super star
kind er
mot ional
press ion
Re cent
Jo on
Jo vo
bu gs
pi vot
An atomy
To bey
favor able
par king
sch iz
At tack
Ne o
mas och
pri v
Of ten
bur ner
fig uring
sou p
suggest ing
Ma fia
dream ed
impro v
Ed gar
sens ibility
Bro lin
Ali as
purpose ly
breath less
Col lette
El isa
AS AP
Fe y
gang s
paint ings
Rom antic
ters weet
Ph one
avi a
dan cers
six th
def y
reflect ing
PO W
ee ee
OF F
Sk ars
glor ifies
La zy
heal ing
Pal est
establish ment
Bel ushi
ann ounce
leader ship
handed ly
Jeff rey
separ ated
Produ cer
disgrace ful
ACT ING
Fol lows
Grand pa
assass ination
2000 s
sno b
Bi el
disgu ise
Ind y
Cri minal
elev ator
consu mer
Ass ass
anx iously
misogy ny
Incredi bles
sacrific ed
integr ated
dilem mas
cancercancer cancercancer
JO Y
traum atic
haw k
condu ct
champ ion
monu mental
HIGH LY
Revol ution
Otto man
thie ves
masquer ading
Tues day
marvell ous
BET TER
insignific ant
Benjam in
unbear ably
3 6
B omb
D umbo
E motional
F act
G us
G ate
H old
H enson
J ourney
K ell
L IFE
P M
P s
P ose
S is
S ly
b ars
c ad
e ment
h ay
m ant
m ars
m ich
n inja
v u
v ist
w ary
x en
th i
th under
er ves
re invent
it an
al tered
to sh
ch in
le ctions
vi gor
ay ing
un le
un relent
out comes
so re
ra ging
ne ys
di a
im prison
lo bby
ta p
ist ani
ag al
... ).
et ings
after math
back ing
St ories
gen to
che cks
em bell
comp ul
dec ad
son ic
An gry
cam arad
Mar x
inter min
ele vate
gest ures
consider ably
supp ortive
pop s
ear ns
mas ked
spect ator
bal d
ony m
Gr ind
impro vised
Too le
extra ordinarily
Sim ilar
Mon ica
fron tal
Her cules
pra ises
test osterone
sleep y
tar n
tar gets
bul lies
acc ust
exper iments
counter parts
tho do
197 3
Thor nton
commun ities
Lau rence
chuck led
demon ic
virt ual
flop s
sin cerity
Ka thryn
bag s
bond ing
psych ic
Inter view
fle x
Jer sey
Lou ise
Sw ank
outrage ously
Fre sh
Dun can
gentle man
lyn n
Cas ablanca
pitch ed
blur ry
Power ful
Spo ck
enlight ened
divor ced
contest ants
Surpr ised
Nik ita
reson ate
adul ter
Philli p
Fell ini
Audi ence
bleed ing
Lith gow
sensu al
Mocking jay
Ground hog
dee pest
infuri ating
Clan cy
matin ée
Priy anka
Pear ce
camarad erie
B harat
C how
D ink
D um
F L
F ron
G R
G am
G rit
H omer
I van
P it
T ucci
b li
d ots
f iring
g age
n un
p inch
r oph
z oo
th ief
in corporate
re pair
ow es
ut en
ut ton
ic idal
sh atter
sh irts
ha ired
pe ter
out done
out weigh
not ions
ra il
ul ously
ter geist
di vide
di abo
la ught
im ply
pl ing
go l
more d
... ?
sa ck
sa cred
ble m
ci ble
her itage
bo gged
sp aw
ff s
them atic
tur tles
script writer
screen ings
ins pect
war ped
bu b
slow est
ext ensive
sent iments
young sters
mar gin
reg rets
gar age
cr op
exp ans
cu it
prof ane
Ex act
Com paring
Mc Don
bother ing
fo il
gri ma
question ed
cru d
lim p
stud ying
complex ities
eye brow
spot ting
Nor m
Ali a
fr at
Ju manji
gain s
gain ing
bla ming
empt iness
Tra vel
Tra vis
suspect ed
Que ens
pun ct
Part s
preach er
ben ch
Uni versity
Sher iff
MA STER
Fr aser
hall mark
spoof s
Under world
rival s
Dar ren
immers ion
shop ping
particip ants
Die go
intro spect
sno bs
myth ical
Dem i
revi val
sha kes
coinc idences
aret te
Sel ma
millennial s
sab ot
traum at
Arm strong
Adri an
Sold ier
cig arette
fuel ed
phon ed
TL J
forbid den
candid ate
heim er
Rab bit
Chal amet
foreshadow ing
naught y
Marg aret
Jovo vich
" :
, (
1 h
2 hrs
3 1
8 8
A H
A unt
C EL
D ate
F lynn
G B
G on
G illi
H ours
K NOW
L ad
L ies
M up
M iley
R uff
S r
S weet
U RE
Y oda
Z ell
c key
h inted
i ated
m all
s ion
t iness
u x
w ides
is ha
re pr
re fined
st aging
to wer
ve mber
li ous
ut s
el it
un professional
un stable
id ge
so cks
ne arest
di ver
ex iting
ex posing
int act
con crete
ta ut
pre mis
ur u
we ave
jo int
um mer
pt rap
kes h
In die
mat ured
gr ant
dra ft
ber ty
exc uses
ak ening
fan boy
No vember
co ated
hard ships
fi ct
super fluous
Mo ve
Mo moa
An chor
Ne arly
fair ness
May a
spir al
ident ified
zz ard
Ex p
respect ing
weird ly
bal let
bur ger
Or leans
smart est
han na
cla ptrap
mi ri
arant ine
LE D
Cl one
Tur ns
ene y
round s
fra gment
CH E
photo s
grand ma
grand son
board ing
bomb ing
Pat ty
Pat riot
amateur s
fu zzy
educ ate
199 2
defin es
rad ar
commit tee
197 8
197 9
object ively
tor ment
investig ating
TR UE
fet ish
manage ment
Gra m
Knight ley
incre ased
Vin ci
deb acle
Wall ander
squ are
batt ling
oph ren
protect ing
Sing er
pred omin
Bird man
hunt ed
nause a
Cost umes
awa it
Pen elope
sor ta
antagon ists
Lan caster
univers ally
Id entity
cheek y
fluff y
Ind ones
Wel sh
Say ing
Vill age
strate gy
Kath leen
therap ist
immer se
jan go
Stri kes
Bus cemi
Yu gosla
distingu ish
jac ket
lav ish
Anno ying
robb ers
grande ur
PIE CE
parag raph
Emmer ich
recur ring
accust omed
, .
1 80
7 6
B ie
B ron
B ACK
D w
G lor
H os
M ou
M etc
N umber
O C
R aw
R ah
S cr
S wan
S PE
T 1
T each
V ent
c id
c ident
f ers
f arts
f ishing
g utter
g asp
g enders
m ong
m ortal
o ven
s not
u i
v agan
w l
in ctive
er ia
an ch
re ign
re visit
st ing
vi on
ver dict
ad vised
el lo
ab road
ha cks
ma c
ex poses
tr ough
der ick
et to
sp arse
gr ades
ang ing
sit ter
comp ass
co ca
sub titled
cont ents
Re agan
reme mbers
car n
ris ky
pi ria
beg un
awful ness
gl ue
19 30
gener ates
fre netic
Mar ine
uni queness
cr ashing
ele phant
law yers
Ar cher
Ar gento
00 s
incl ined
negative ly
Ple as
lea ther
loc als
ni um
pur port
net te
explo de
Tr oopers
refer red
taste fully
concl uded
murder ing
Dead wood
consist ing
sn ip
tort uring
Tra iler
World s
paint s
match ing
aa a
ape st
qual ified
ghost busters
counter part
road s
evid ently
desc end
minis eries
require ment
Pi ke
Hu mans
environ mental
**** *
unknown s
Full er
ANY ONE
Du vall
Sus piria
skill fully
igno res
report ed
Wat ers
Fall on
capital ism
Fol low
confron ted
ardi an
Stu art
Fro st
inspire s
Fore ver
Cu ban
sand wich
advertise ments
shoe hor
Spart ans
Lam bs
Event ually
Shark nado
newcom er
quant ity
Survi vor
Eugen e
Amit abh
Oct avia
Emo ji
Napo leon
Cyr us
Particul arly
Aven ger
Dink lage
. !
4 00
9 7
B ones
C ringe
D ARK
G AR
H IL
L il
M EN
R anger
T AL
V II
Z immer
b ree
c ery
f id
f og
f aux
i ved
o ke
p ony
s ized
y up
in put
vi ll
se m
li ken
sh ack
el li
un intentional
id ol
ge e
ra ged
op hile
com mission
lo v
my stic
con co
con stra
man ners
pro long
pt uous
ite m
bo asts
ru b
du h
cl ash
ber lake
nothing ness
ark s
start ling
ak is
Ch in
ob tain
bit tersweet
bl ade
down er
vo cate
Al t
Al ready
Re ady
fl inch
crit i
TH ANK
tit ill
cr us
cr ats
Great est
pu berty
Chris to
dep ri
pass ive
cer ti
ground s
pain s
home work
appreci ating
AT ING
US SR
suff iciently
En nis
Em ilia
express es
near by
imp ul
Hor se
Hor ri
sym path
achie ving
Ri hanna
fla m
dan cer
Enjoy able
Sal em
suspect ing
anticip ate
hes itation
independ ence
cher ry
ima cy
hon ored
Abra ham
investig ator
corpor ations
rig id
goof s
Pret entious
Ka jol
skept ic
Dou g
Pow ell
bow l
Dial og
Leg ion
glim pses
cis ion
Gun s
rebel s
lifel ong
hypo critical
burst s
nar rating
Hob bs
Islam ic
Ran bir
billion aire
................................ ................................
cous ins
Chur chill
andro id
employe e
innuendo s
confront ation
Terri fic
Fif th
categor ized
defe ated
stitch es
inters persed
Stal in
Syl vester
cen sored
Fem ale
Prab has
schiz ophren
Zell we
3 2
B Y
B ak
C able
D umber
D jango
E ar
E ra
E ne
F ly
G illian
K or
K ie
K ru
M J
S ING
T an
T enn
V ul
V ac
W end
d ain
f ried
g ir
h oney
m ire
y arn
in fil
on i
at ri
en vision
st agger
mo il
ay ed
el ow
un apolo
un recognizable
out set
ra j
ro it
sc ow
po kes
con form
pre valent
au cas
there of
fun ctions
over use
ure au
sp ades
10 th
In v
cl ing
ach ing
ach es
gi bber
fore see
bl ending
bl iss
bl asp
So ci
co in
co ke
aut ism
He avy
light ed
We bb
ian a
vil lian
Some where
oc cult
cons iders
cur tain
tit ans
Le to
Well es
Ro shan
power house
Ar rival
ger ton
dr one
home town
Sc ene
av ant
Sh ut
IS H
wise ly
lear nt
explo its
clever ness
Ter rence
Po sit
ze al
90 210
har ass
LE NT
Ed it
Qu ick
sl uggish
extra vag
creep iness
EN JOY
Wal tz
Aw k
copy cat
sn uff
corn ers
concer t
Men ace
Rom ero
dread fully
da ft
199 1
prison er
secret ly
RI GHT
Sy fy
magn ific
Fl at
enter prise
outs ider
relax ed
Val ent
ifi able
bill s
Vo ight
trave lling
Clo thes
Pla in
evo cative
rebel lious
screw ball
porno graphic
Rome o
Teen age
immig rant
iter ation
attend ance
Kling on
eff icient
Marc us
tool s
Tar zan
inj ured
salv ation
mim ic
++++ ++++
sadd ened
distort ed
misogyn istic
qui ps
Flo rence
perman ent
Profess or
notor ious
compon ents
Tark ovsky
Sach a
rhetor ic
Tran sp
stub born
Gent le
Duch ov
Exact ly
vagan za
. ),
6 6
B ir
C ore
D ri
D uff
E h
F IR
G wy
K it
L upt
M all
P he
R Y
S om
S ick
V IL
W ag
W ELL
Z ucker
d ense
f fa
f ury
j ab
k nit
m cu
p ies
r arity
t ion
in ous
the e
st oo
to l
le thal
wh irl
movie goer
ha pless
out line
de er
ust er
sc rap
lo ath
ast ly
good bye
art icles
time lines
qu in
ag gra
ard ashi
ful lest
sp ared
sp elling
dis may
ph oles
St ation
ud der
ens ions
ber gh
che at
che aper
tur moil
script writers
interesting ly
hu g
ran ch
super l
top ical
ren ched
star ving
Se y
pi x
heart break
cap abilities
plain ly
Pe e
Le vi
Li v
chan el
sat anic
Ar mag
gra pher
cas ing
Ser gio
bi ker
swe eping
Me yers
han gover
Cl ouse
sl ant
taste ful
rich es
Nor thern
Wal k
craft s
psycho logically
consist ed
sym bolic
AS ON
grand pa
mir ac
DC EU
Ye sterday
Af fair
app lies
prefer ably
Hol low
impact ful
intellectual s
pal atable
environ ments
Hel ena
prote ction
oper ate
Pho to
loo pholes
buff oon
Sus pect
cook ed
Dou ble
DE FIN
gig gling
compan ions
RO CK
Tal es
convent ion
Down ton
ACT U
adap ting
Usu al
compassion ate
aes thetics
split ting
Pak istani
cro s
Fut urama
lap top
ambig uity
Sid ney
woe fully
fundam ent
Gard en
pound s
discrimin ation
cus sing
clin ic
BG M
astound ed
implic ations
ench anted
Trekk ie
versat ile
spon sored
Kun is
glam our
este em
Dynam ite
gart en
endor se
plagu ed
Brun o
Dres den
pivot al
onym ous
fict itious
Alt man
0 3
3 4
8 7
B ever
B tw
C level
E nt
G la
K ry
M D
M ST
M ental
P ed
R oc
S l
S ON
T ate
T our
T ak
T ired
V ig
Y en
b out
d or
n n
n ast
o xy
s au
s unk
s nore
t el
w ry
er d
re hears
st amp
ed don
ot ch
gh etto
sh aw
ay e
un remarkable
un controll
un intelligible
pe cu
not icing
de pl
like wise
end ables
pre conceived
we aves
ig an
qu ette
ind a
every time
gu idelines
sp elled
dis appears
hor ny
tra gically
old est
cre en
lack lustre
ama zon
bl an
od ge
cra ve
sub du
Al modo
Re c
star gate
Ne al
ali ans
Sp arrow
appreci ates
pleas ures
prof its
Mc Bride
bi kin
trash ed
New ton
narr ated
pack aged
Lu ther
lar gest
cru shed
Co venant
AR IOUS
bar gain
dream y
Gr own
hook s
document ed
Bro ken
SE D
comb ining
imp lied
Wal es
Col on
Gre etings
comfort ably
Bar dem
AD D
Fe et
Out er
Tim berlake
Cine matic
Europe ans
sal ute
hang s
respons es
secret ary
Den mark
commun ism
tight ly
pair ing
author ities
Bul garian
popul ated
lift s
Ca an
stress ful
window s
Lan tern
compli ments
Sin bad
Sho cking
Boo th
blur red
Victor ian
conven iently
-------- --------
extre mes
colla pse
Win ona
Vie wers
Adri en
Gard ner
Kno cked
Pers ian
Adult s
== ==
Ame lie
Gru dge
moan ing
Tem ple
Coo gan
fru it
refuge es
dod gy
juxta position
custom ers
Ess entially
Vio la
Host el
appreh ensive
scept ical
Hid den
gravit as
cosm ic
coca ine
FIR ST
Gwy neth
Clouse au
Almodo var
' ...
: ).
C apt
C rew
D ance
G A
G ellar
G lee
K la
K ier
R U
R andom
S pecially
S mur
T BS
T rip
T iff
U se
W ra
W illy
W izard
Y up
a ways
b il
c ased
d ances
h ans
j im
l ene
m ount
p loy
u an
y ap
⭐ ⭐
in ception
is se
re acting
re creation
or gas
ot ta
for k
sh ire
but tons
so bbing
ul f
op position
atch ed
ex ited
po le
con qu
ta cked
qu id
qu int
qu ake
over seas
bo to
sp am
sp agh
pr ank
pr ices
des k
joy s
ac ular
less ness
mis fits
du ck
gr unt
back ward
under tone
sur fing
og ies
ily n
Ch eney
em ulate
comple ment
far ther
fli pping
vo ye
light weight
music ians
star ter
cor rupted
Be ware
sho ving
res is
cap sul
Mar a
inter rog
inter rupted
Lo ki
master y
ST AY
ST UP
ger man
supp orter
close ups
Br ick
dr ool
Any how
exam ination
shame lessly
arch ing
Po eh
........ ...
free ly
ball oon
bar rage
War craft
speak er
extra vaganza
Sim mons
survi ves
Nor a
Mon k
Des ign
MO ST
mir rors
bla med
scream ed
Step han
oooo oooo
sw ap
loss al
cir cles
wind s
199 7
Dra ke
target ing
hang ers
tun nel
influ ential
chop ped
plaus ibility
compla ins
Sk in
traged ies
harsh ly
198 5
Ru kh
kno cks
TR U
deter mine
flop ped
196 8
loo sing
Clint on
Au to
ls 0
plo tholes
Baby lon
incident al
Half way
nause ous
blo ke
AST IC
concent rated
assa ge
Shakespeare an
capital ize
engage ment
Atl antic
Hay ek
Psy ch
hypo crit
oppress ed
COM PLE
Main ly
Nar nia
iter ate
stir ring
profession ally
disast ers
gloss y
lun atic
Hust on
instit ution
mascul ine
Ur ban
crook ed
attribut es
raz or
Jas mine
gigg les
Recent ly
unrelent ing
premis es
DEFIN IT
Clevel and
spagh etti
Poeh ler
" ....
B less
C head
C ler
C lock
C alling
D ix
D ONE
E M
E sc
E arly
G ue
H us
H ind
H AL
I ST
J C
K ILL
N D
N un
O T
P LOT
P ablo
S la
S ant
S ah
T v
T ap
T race
V enge
W oo
W olves
i ence
j apan
j edi
l ump
m ies
o vic
p g
p rit
r ote
s noring
t we
t bh
u a
v re
x ual
in ian
in os
re wards
st ard
st umbles
to w
li o
for ting
sh ined
sh attered
ay er
un certain
un impressed
ab hor
ha vent
are th
so da
all ot
ne got
ne mes
com forting
ro de
ill umin
ess ay
char ts
more s
te ers
te ase
over played
bo ats
sp ray
dis missed
ars on
min ions
In cl
stand point
back lash
under used
comm ander
che ers
ark y
need lessly
bl ender
wa x
creat ions
press ive
wait ress
istic ally
Be hind
Be ouf
unt ouch
rest ore
19 30s
appe t
mon str
hand icap
Mar co
inter ior
Well s
Ro hit
finish es
Ar jun
Watch men
Go es
Br ut
dr ones
Sc rubs
exam ined
dumb ing
unique ly
bur nt
convin ces
AR S
social ist
third s
High lander
ban ality
EN TER
Dan vers
mir acles
provo ke
draw back
dish es
professional ism
captiv ate
crow ds
punch lines
199 0s
Han na
train wreck
inv ite
Juli an
dig it
Up date
Nic kelodeon
commit ting
fat al
preach ed
cock tail
Dep arted
Keep ing
store s
achel or
deb ating
escap ing
circumst ance
Cla us
boss es
exceed s
celebr ating
consc iously
absor b
report s
Original s
vom iting
spell binding
Dream works
emer gency
expand ing
vig nett
Nar uto
Mitch um
proceed s
stab bing
econ omy
THER E
shif ting
Pay ne
Za char
Rebel s
boun cing
Sold iers
emo ji
DIS AP
Ref re
shel ter
inexplic able
obli vious
gul lible
hypnot ic
muse um
lou der
Pull man
Chand ler
Massa cre
sac char
amat ti
attor ney
COMM END
Dw ight
HIL ARIOUS
gibber ish
Venge ance
vignett es
) ..
1 hr
8 3
9 th
A ster
B udd
G I
G wen
H em
H utch
H ELL
K iss
N inja
O ri
P rey
R itter
S 1
S AW
b illions
e got
f ically
g ies
g als
g ently
j ig
p ink
t am
t ical
t ween
u ve
y ada
z am
re ply
re mor
en vy
en sues
ou li
st ag
ar ming
ve get
gh astly
el ding
.. !
un suspecting
ne x
fe ver
atch er
sc athing
im ma
do ses
ell ation
char ity
tr idge
art ful
per ceive
go ssip
ep id
ag ram
... !
gu id
her al
sp idey
dis par
dis comfort
dis abled
plot ted
hi ps
work place
tra ins
ens es
bor ough
ster ile
ang elo
down ward
far c
fan atics
cra f
mus ch
ult ure
vo cab
20 49
rel la
sm ashed
hero s
rid ge
stead ily
An ura
Mar ilyn
inter n
sy fy
hy ping
Li ves
proble matic
fresh ness
RE COMMEND
Sp ader
concept ion
pur sue
aster ds
explo iting
Ab bey
brain er
exe cute
Po e
Bo on
mi me
bust ing
Je w
Qu ant
Ge e
Nor ris
Pro blem
Des chanel
Che w
fr antic
BO DY
flow er
Fe min
apo logies
fill ers
smo kes
dimens ions
mach ina
Had er
PO V
Gold berg
Pol tergeist
Bas ic
197 1
Gi amatti
Sk ull
cock y
Hu go
threat s
Ba j
broad er
Sky fall
demo cracy
aston ish
exceed ingly
gam er
Ak ira
Ros ie
report ing
Mil lie
Mis sing
Ver dict
redu ce
cheer ful
Fol ks
Pla za
admir ation
mock umentary
gimmick y
Tre asure
dissa point
occup ation
distribut ed
launch ed
eleg ance
revi ve
Row an
Elli ott
Fed eration
fabric ated
Small ville
swing ing
intoler able
Mend es
newcom ers
colon ial
inhabit ants
Republican s
Uk rain
plagiar ism
Sequ el
Court ney
Ell is
assess ment
majest ic
Gover n
FANT ASTIC
uten ant
diabo lical
Zellwe ger
Soci ety
Duchov ny
Armag eddon
pecu liar
Chead le
ENTER TAIN
DISAP POINT
! ",
9 6
B U
B ac
B ye
B aut
D ale
D inosa
E no
F ra
F ail
H mmm
H aters
J i
K ras
L im
M and
N ash
O LD
P ugh
P unch
S too
S ult
T WO
U h
W ach
b ashed
c ran
e cut
e ats
f ir
h ust
h ides
j ur
l ends
m our
o scars
t epid
u ri
is ations
re per
re covered
en capsul
ar ingly
ch inese
li x
un interested
un deserved
ab omin
but cher
out ed
out ta
ma z
ge ons
de ci
de test
ne cks
di et
ro s
po sal
show down
show casing
pl ants
ur ica
ous ing
over due
sp ouse
dis likes
dis pleasure
aw akening
cast e
br ats
cl un
em bar
em bodies
So der
No stal
vers ary
ys on
making s
Se agal
cli ents
stop pable
lig an
cur sed
inter viewed
wit less
school ers
RE CT
Man uel
den ou
spoil t
moder ate
AL I
exam ine
decided ly
admit ted
Gr inch
creep s
Ad ventures
SE L
rec comend
police man
Pl ummer
Col omb
Col lege
Tru man
test im
Ju di
deed s
million aire
ba be
bomb arded
sal man
inv ading
ax e
grad uate
Ram i
Sy m
chur ned
kno cking
occur ring
dare s
crash ed
DON T
gam ing
convent ions
tick s
Dor is
Fre edom
Gl en
Gl ory
symbol s
Wick er
capital ist
promot ional
Gri mm
Jac qu
jam ouli
Comm ander
Hay den
Sho ck
Ind ust
Bon nie
oms day
Expect ed
som ber
Sit ting
musc les
adul thood
pattern s
reject ed
rang ing
nihil ation
amaze ment
Pain ful
Zoo ey
supreme ly
Cro at
mascul inity
Alexand ra
MAR VEL
censor ship
thir teen
Neigh b
Sud den
telegraph ed
intimid ating
mich ael
Ruff alo
Ene my
Tenn ant
Transp orter
DEFINIT ELY
nemes is
monstr ous
farc ical
Anura g
! ...
! ?!
1 10
2 h
9 2
? ",
A ren
A chill
A BLE
C M
C ute
C uck
D aughter
E qu
E instein
F la
H awn
I RE
K ust
K ur
K ardashi
M ills
N y
S ack
T el
T He
T wit
U ps
W idow
c ob
d itch
d ung
f lame
i ation
j it
j umbo
p to
p inn
r ally
t ention
u blic
w right
th ic
th ouse
re placing
on ge
ed its
mo le
be half
be live
om ic
li ck
ad am
ent icing
sh rink
ke mon
are s
so lit
not ing
ul ary
com s
com ically
di version
di vision
di agno
ro cking
am ing
end ur
ast ing
int u
rom ances
he ed
pl in
tr action
pre mature
pre sume
pre cision
up lifted
qu ire
man ure
ag le
pro se
pro claimed
pro jection
sa int
der ived
pt ions
ci le
dis dain
dis posal
des ir
ish op
through ly
ose xual
gi ants
exc elled
ster oids
right fully
ob scen
ob serve
bl ab
comp ound
tri be
tri ple
tri ppy
fi le
kid dies
xt on
sequ ential
class ify
Mo ving
inter fer
prop o
que er
Li otta
Over rated
dep raved
sk ate
AN CE
simple st
av a
Ex ecut
lect ure
Ser ious
Ser bia
asy lum
Sha zam
Ho le
break through
Po kemon
bal ances
bal ancing
doubt ful
Or phan
stun k
iv a
LE S
equ als
stre ak
Ben ny
Mon keys
adv ances
Dan cing
Where as
cul prit
progress ively
cat ers
Ye a
Par tridge
Out side
Mart y
loss es
qual ifies
van ia
sto ic
MOVIE S
ka poor
trick y
Mag num
Mac Farlane
corpor ation
jer ks
jer ky
Run ning
Mer chant
hyster ia
rat io
TF A
protect ed
rush ing
Te a
skill ful
rival ry
ambit ions
spark s
puzz ling
Tal king
arti ficially
mut ants
Ver ho
Rep ublic
Irish man
lu ke
adequ ately
princi ple
clum s
Kin near
folk lore
Bry ce
geek y
neat ly
$$ $
incess ant
optim ism
craw ling
enhan ces
extre m
percent age
Bud get
Shar ma
leap s
observ ation
Geor gia
FY I
endeav or
Om g
stran gest
Intellig ent
Chapp ie
hul k
ABSOLUT ELY
bick ering
merchand ise
assembl ed
MASTER PIECE
Anchor man
Metc alf
carn age
extravag ant
Bever ly
subdu ed
STUP ID
appet ite
imma cul
Baut ista
Sult an
Achill es
" ..
? !!
A IDS
B j
B right
B LO
D re
D NA
D utt
L ex
L und
M C
M ick
M ilo
N ature
N igh
O G
O la
P H
P am
R angers
S na
S ign
T 3
W his
Y ell
b ies
c Ã
c ooper
d awn
g is
j ury
k it
n ag
o is
w at
in vo
in competence
re acted
re pub
or che
as ap
ar mor
ch u
ch ic
Th ail
ad ic
ad versity
ent ran
me me
me anders
sh ills
un ci
un fairly
un stoppable
ha v
ha pha
pe er
pe an
so ccer
de emed
de lete
ra ves
lo cks
show cased
end aya
rom an
us k
con cise
can nibal
ap le
will ingly
pro b
um n
every ones
ity a
bec a
gu ise
bo g
bo ding
dis honest
real ness
ho v
ho bia
part ying
St uff
tra ps
ob jection
co lossal
Not ice
light ning
sm ashing
De e
hel lo
fre aked
cut eness
!!! )
reg ress
ped oph
Do yle
At kinson
fer i
cu es
Ar kin
fine ly
ST ILL
Br and
Can cel
Sp onge
IS E
Mich el
Wor k
stra in
Ser ling
Ser enity
Da vies
Har bor
blood ed
brain wash
ric ane
bur gh
Bo om
Ger ald
stere o
His panic
sign al
jump scares
speak ers
ene uve
host ile
Ra zzie
Des erves
Big elow
recogn ise
witch er
Red may
Sa id
depend ent
aim less
wel comed
grad ed
revol ve
bri m
govern ments
proud ly
Chan ge
Jess ie
cher ish
loo ses
Bes ide
escap ist
bond s
benef ited
bab ble
rout ines
mob ster
innov ation
indic ated
Mind s
incident ally
border ing
gentle men
empower ed
zo om
adolescent s
illust rates
Dem and
encoura ges
psychopath ic
proced ures
proceed ings
imit ate
WAR S
vivid ly
detract s
squir m
jeal ousy
acqu ired
Tw ist
revers ed
slaughter ed
Fif ty
Ni els
Jaa ved
Jaa feri
garner ed
Comp any
Bach chan
spont aneous
Sic ario
bris k
kinder garten
intermin able
thodo x
constra ints
Kie fer
Vac ation
aggra v
MST 3
Kla us
resis tible
Clock work
Zachar y
guid ance
denou ement
Jacqu eline
desir able
Verho even
repub lican
Thail and
hapha zard
# #
5 7
6 4
A mber
B unch
C OME
C NN
E ternal
F ing
F og
F light
F ake
G ain
H end
H iro
J avier
M ast
M AT
P BS
R ita
S crew
T B
T ick
a cious
c ation
c unning
f man
i eland
k at
k orean
l ation
m ical
n at
o j
o ct
p ander
s ought
t asks
u ates
w id
w ings
w anders
th ug
is and
on ing
or ange
it ized
ar in
se ed
li ons
un reasonable
ab undant
ha ms
out fit
ri ages
ra vity
di gress
ro aring
ill o
la h
la und
im patient
lo gue
con structive
con ceivable
go at
ist ical
ment ia
bo died
sp ons
lit ter
lit tered
day light
fore boding
fan base
last ly
sing ular
rel s
care less
slow ed
add le
cor respond
cess ion
Se emed
unt ed
heart strings
mar ital
Un necessary
tit ular
IN S
pu ff
dep ravity
sk ating
pot ent
pot ty
dou che
scar ce
dist inctive
effort less
agree ing
dumb founded
Con ne
Sha ft
band s
cru c
appeal ed
rend ering
whe els
rich ness
Ge off
creative ly
claim er
odd ball
stal ker
sn iff
IL D
sw ift
business man
Bre ath
BE LIE
199 6
ju ice
inv aded
inv aders
defin itive
Tor ch
Eli jah
197 5
197 6
Hu h
Iron ically
vit z
Ka if
bang ing
worry ing
associ ation
vari ations
Res pect
Rick man
vac uum
patri arch
patri archy
gas ping
dama ging
contrast s
Brid get
Sw iss
Nat asha
resc ued
tick ed
nit ure
pup py
domin ant
haha ha
Jar musch
promo s
Atl anta
EX CEL
Fight ing
chain saw
Put ting
legit imately
orc ism
Fore ign
engine er
consu me
consu med
suspic ion
Ran veer
Ele ment
drown ed
gather ing
prostit utes
congrat ulate
dece ptive
clim bing
kn uck
pis sed
zzzzzzzzzzzzzzzz zzzzzzzzzzzzzzzz
subscri be
architect ure
paren ting
approx imately
heter osexual
revision ist
imper ial
Butter fly
Winst on
Lev itt
Wit ness
assign ment
Det roit
anthr op
Hos kins
Kru ger
infil tr
Gue st
stard om
sacchar ine
Twit ter
pinn acle
Ola f
0 8
3 9
B D
B it
C red
C ord
C OULD
C aucas
D orm
F ur
F ig
F illion
H oo
J ong
M ist
M ol
M ans
M ob
M ulti
N u
N ord
P ra
R andy
S 2
S ort
S tern
S layer
T in
T ill
T reat
U FO
V id
W ak
Y a
a ided
b ourne
c il
f able
f aded
g au
j es
o ons
p assage
r ut
t ang
t anks
t ug
th ri
in ers
in come
re cap
on so
en zie
ou b
st ature
st ride
st umbling
ed ges
ar ab
ar ise
ch ise
ow ing
ad vocate
sh ook
ha il
pe ers
but ts
ce p
de cre
ra ms
ul ed
ne uro
atch et
di zz
just ifies
pl un
con fined
per version
up to
ine ffect
qu arantine
would nt
pro secut
gu shing
sp outing
dis interested
dis satisfied
dis illusion
love able
tw are
ho ckey
mis understand
In no
stand outs
gr is
St ere
red neck
Ch ance
may or
bit es
far mer
pers ist
recommend ations
He ctor
We aving
found ing
vol un
crit eria
rest ored
gl iness
TH INK
cap tive
tem porary
inter racial
tit ude
spe wing
Lo cker
sy rup
ele ven
power fully
ret ard
sk im
uck y
dri fting
Car roll
necess ity
Com mon
air craft
Con nie
success ion
psy chos
prom is
lock down
brain washing
THE N
Bo ard
gri e
Bl ues
bar rier
har ry
box er
Gr ab
EN CE
murder ous
Her z
CH AR
photo grapher
hen ch
attract s
grad ers
Am ateur
Gar rett
sli pped
Ham let
pun ished
Stre isand
shad y
Mal ick
pal m
tor mented
hon orable
198 1
addict s
La Beouf
Cha plin
Pac ing
steal er
oper ations
oper ator
organ izations
196 7
incre ases
deb t
indu ced
Gen uine
Orig in
fle e
sle w
scr ut
Got ta
Cli ff
gap ing
civili an
Dol lar
sink s
Lan ge
Lan gu
analy zing
assass ins
spiritual ity
camer aman
journal ists
Mean ing
excl uding
excl usively
Squ are
neighb our
spaces hips
ponder ous
contradi ctions
Shad ow
confir ms
Hate ful
persu aded
squir ming
Rand all
Philli ps
discer ning
Bern ard
rang es
inject ed
echo es
assum es
Lem mon
neglect ed
Fli x
Hack man
BA GE
Natur al
Domin ic
Creep y
vary ing
Kang ana
Gle eson
twent ies
Hon or
angu ish
adulter ated
eyebrow s
GAR BAGE
flam boy
Tiff any
vocab ulary
Kust urica
Redmay ne
MST3 K
A j
B ren
B irth
B auer
B asterds
C illian
D ATE
G U
G as
H ou
H ag
J unior
L U
L ance
M ISS
S K
S ti
S ie
S add
S CI
T Y
T arr
a ute
b op
b ounce
d ut
d renched
h l
m ul
m umble
m umbo
p ics
r ons
s ap
at tain
st ations
al ia
ar o
le mon
ve ts
Th in
ver ing
ent rance
un focused
ha irsty
out break
so li
ma ze
ri ad
de lic
di vis
di gs
ex hi
ex ting
sc um
im bo
am ple
po ker
int imacy
tr oopers
can o
go s
ep ide
up roar
ine es
ink er
over kill
ple y
pr inted
mis led
In glorious
du g
dra medy
ance st
gen ie
sur realism
ak h
Ch else
No ir
co ordin
sol ut
vis its
mus lims
Al pha
Re pe
rel ish
icul tural
De fin
De Vito
sequ ently
For ced
Mo ses
Be ow
Be gin
An and
An up
19 20s
sad dest
Le cter
deli ciously
Lo la
Lo ving
men to
Ro oney
NO NE
Dis aster
pu bes
vin cible
type cast
ino che
Sp end
Di ablo
Con ner
Sha hid
trans forms
ref rain
Ha i
Ha ha
Pa xton
propag and
Fran chise
impro vis
eye balls
shoot ings
SE AL
stri pped
contri v
nature d
pan el
del usion
Rom ans
beha ves
app lic
sw amp
Get s
tre as
Sal ma
grad ing
revol ving
research ing
serv ant
dad s
Den is
Richar ds
Canad ians
LA ST
WH ERE
Rose mary
Cle ese
boo ze
fright en
establish ing
depart ments
Hun garian
WATCH ING
99 99
bang s
Mer maid
deb au
vari ation
Res ist
Dou bt
NE TF
ato on
address ing
edit ors
brit ish
plo ds
resident s
gam bling
Got ti
Fall s
Ul tron
Cli max
Ren ner
finger nails
confron ting
Bring ing
EX ACT
burst ing
Vampire s
Sup posed
Lat if
tax i
cust oms
Pet ers
Rad io
pig s
stare s
homosexual s
whis pering
Beat ty
Won ka
Break fast
Glo bes
exploit ative
helicop ters
Bri en
pour ing
sna ke
manufact ured
Mass ive
Natur ally
masturb ation
dwar fs
chal k
Goose bumps
orchest rated
electron ic
cutes y
acade mic
flav our
Contr ary
Schwart z
Kau fman
Elisa beth
shatter ing
fragment ed
Wend y
Cler ks
remor se
Quant um
Kras inski
Soder bergh
Nigh y
Chelse a
0 2
8 4
B ark
B inoche
C ag
C arr
C ody
D ag
E ri
F right
F oc
F lying
G ul
H est
H mm
H auer
I li
J ab
K ai
M ing
N ut
O ceans
P in
P au
P oc
R T
S ul
S ter
T ons
V irt
b end
b ureau
d ab
g t
g room
h ound
i Phone
j ing
m ation
n ip
p has
p aw
p ond
p ills
r ations
u ating
w imp
in still
re ar
re watching
at ra
en o
es c
es quire
as in
as set
as ia
ar bit
ly de
ch am
Th irty
wh omever
ic orn
me mo
sh ill
un just
un cover
un needed
un compromising
ma cy
ir re
ir ot
di ving
di arr
di ctions
di aries
la mb
po sh
no lia
pl s
story teller
con j
ind y
ind is
ag i
ag encies
te ary
over tly
bo ggles
sp or
dis count
know ingly
min u
them at
And ers
back bone
cl ones
ach er
ry an
dra ined
ster dam
high s
Ch en
mer ged
ob served
tur gid
bl under
sol ves
world ly
ial s
iful ly
Re call
audi ble
We b
sm army
sm irk
car pet
For m
ext ension
beg g
log ists
Mar i
Mar ian
lic a
inter personal
Un realistic
head lines
reg ain
gg in
gg ie
sat ell
tempt ation
Is la
uck ed
Go li
parent al
Sh r
twist y
Per kins
Ex plo
Com put
ni val
Mc Dorm
pur ge
Con tain
solid ly
evil s
bur ne
bur ns
apt ly
Fil med
Let ter
OR IG
pointless ly
mur ky
design ers
Ed wards
equ i
search ed
Ra jamouli
husband s
purpose fully
Gre ase
fr act
Big gest
Ang er
Dan es
Show ing
grand daughter
witch craft
Ri pley
Fe licity
bul k
Pat el
beha ved
aa ay
artistic ally
Cra ppy
highlight ing
hill s
spl ash
18 th
Fer n
Kate e
hon ors
Keep s
compet ently
bound s
Kill ers
tt es
toler ant
demo graphics
quot able
Western s
WOR TH
Er in
WAY S
mile stone
ego s
orient ation
domin ate
nine ty
distri ct
univers es
baff les
triumph s
embra ces
AA AA
Arab ia
Apple gate
reli ance
AF TER
inher ently
cohes ion
DI RECT
sham ing
tender ness
Job s
fur niture
mechan ical
merc en
dece it
boun ty
assum ption
mig a
Cou ple
SOME THING
sof tware
Olym pus
incon gru
pier cer
discern ible
demean or
ICT ION
lux ury
articul ate
Gig li
dent ist
omit ted
trigg ered
BRA VO
perplex ed
Ide a
spaw ned
wides creen
oxy gen
Hest on
' -
' ).
A x
A st
A ut
A ra
A TH
A bb
B in
B ER
B rent
C ad
C ell
C ele
C aught
C ena
E cho
F ug
G ill
G orgeous
G areth
H ER
I sh
I TV
K else
L ively
M P
M SG
N ix
O S
P ace
S ke
S hop
S AT
T ub
V S
V III
W ON
Z hang
Z endaya
d utch
g az
h off
h unk
i che
l il
n ics
p apers
s wed
t its
t ables
u gliness
v ard
w ol
w aters
y lum
th re
re written
re live
at own
to ast
es ot
mo cks
ch io
vi er
ut most
ic ion
sh tick
un impressive
un deserving
ha k
ri ers
ir resistible
de ceived
de generate
ra v
ra ping
di le
ex emp
im posed
ant on
no vice
any how
us al
my riad
art fully
ur gency
can s
qu a
ag s
bo res
dis co
scen ic
pp ort
ish ly
ty ing
ru gged
In tense
gr oo
cl an
wast er
ak shi
est ranged
scre wing
pret ense
comple ting
screen plays
hard ened
wa ving
kid die
sub li
He ig
As k
As ylum
top us
De bra
Se ym
beg s
port ions
rest less
An cient
An akin
cam cor
cinemat ically
Mar ion
Mar ried
sty led
inter woven
Un funny
col lar
arr anged
IN AL
ah ler
gest ure
beginning s
pot ter
God ard
Sc ots
situ ational
lid ing
pur ists
hol land
break able
ca per
Or son
En tire
trans gender
gy m
critic ise
Ha unting
rac ists
VE S
Bro derick
SE ASON
?! "
Ben nett
foot ing
canc ellation
Pro of
Des picable
familiar ity
stri ves
Look ed
Far miga
sweet ness
pan to
fasc ism
pretentious ness
Tra ining
Par adise
Wood en
suit ably
SO A
BE FORE
sal ty
reflect ive
witness es
198 3
manipul ating
meta physical
Bel gi
bab es
Gree ks
sle eve
Bu zz
descript ions
emphas ized
bitter ness
particip ated
bold ly
overwhelming ly
LI X
Med ia
wound s
Cu aron
dystop ia
Hum our
excl usive
smell s
Polit ics
sham bles
reson ates
Ko so
sustain ed
gather ed
integr al
Zo ey
brat ty
bigot ed
adjust ed
newsp apers
Ol sen
sedu ctive
wy ck
fri vol
recru ited
Bun dy
contempl ating
Fish burne
Kash miri
Spect re
obli vion
Columb us
Burn ham
Sty le
detr actors
inflict ed
whodun it
TM NT
agas car
petit ion
affir ming
Premi ere
Mang a
Gilli gan
Exp endables
Wag ner
Photo graphy
cros sover
deci pher
clun ker
endur ance
EXCEL LENT
Stere ot
epide mic
pubes cent
NETF LIX
McDorm and
Kelse y
Seym our
5 6
7 7
A tom
A jay
B au
B land
B AT
B arely
C ed
D P
D yn
F asc
G em
G ear
G IVE
I p
L ink
L az
M AY
M ortal
M ADE
P are
P ry
P res
R ha
R ud
R ub
R ouge
S ons
S pare
S isters
T ome
X ena
b red
b ail
d ir
e vac
g mental
i ose
k ash
m un
m ashed
p its
s igning
w age
th irst
in fest
in adequate
an atomy
re created
re venue
at tribute
st en
al mighty
to vers
ar ation
be friends
ion ic
sh ade
sh apes
un certainty
un adulterated
ab using
pe aked
so hn
fe m
la in
ti k
con quer
pre paring
pre conceptions
can al
can vas
go b
go v
rit u
sp iders
dis sect
real y
pr one
tw itter
fin anced
In visible
St iles
hor n
hor izon
under wear
exc el
em pathise
tur ally
tri ps
tri via
let t
kind ly
sub way
sub title
Al ison
Al ask
mag netic
Re qu
Re make
Re iner
bas ing
ince st
De bor
na z
child like
fl oo
vol ent
Star z
wrong ly
appe ase
ones elf
mar ines
cons en
Un forgiven
wal d
nor ms
master ed
Do ing
land mark
teen th
cu be
boy cott
RE C
den ied
Su de
AL WAYS
Wor ks
ni k
house wife
room mate
Po irot
later al
const ip
Me ta
........ ....
meet ings
refer enced
superhero s
shed s
Ad itya
project ed
Sand ers
stri ve
faith fully
Paul son
Bar bie
Red grave
pan or
Sa x
phys ic
del ves
Ber nie
oooo oo
Bur r
reboot ed
soap s
Sal t
defin ately
pract ices
bri ghter
rock y
suck ered
tho logical
Rid dick
197 4
stink ing
pal ette
belong ing
cow s
text ure
serial s
skin ned
sight s
Perfect ion
Bel gian
youth ful
Battle field
rant ing
PG 13
Gen esis
Think ing
Tri beca
Fu zz
auto matic
spark ling
Lou ie
elect ed
Ros am
Fre ud
particip ating
bum med
Dol ph
ideo logical
nine ties
Water world
Set ting
Air bender
decl ared
arri ving
Carol ine
resour ce
sav vy
Whit taker
recycl ing
insist ed
chron ological
HOR R
Mont g
ponder ing
san ct
drown ing
BR ILL
Bos ch
Andre a
publ ish
andro ids
caut ious
Rich ie
reject s
reluct antly
Reven ant
Row ling
Bern thal
Mach ine
phon ing
Beck ins
Lie v
Griff in
jar gon
groan ing
sna kes
patron izing
Mack enzie
prompt ed
disturb ingly
bewilder ed
ugu ese
TRE K
Tun es
Neg ative
Kr ish
russ ian
reserv ations
Offic er
priv acy
prolong ed
Chin atown
Ent ourage
depl orable
bikin i
Stephan ie
Govern ment
Eno la
testim ony
oct ane
Nord ic
gris ly
arbit r
Heig l
( '
4 1
6 8
8 00
A the
B F
B ore
B ana
B umble
B hai
B ishop
C ash
C AR
C lyde
D B
D ru
D war
D AM
D ES
E ur
F ICTION
G L
G ael
I dol
J em
K H
K le
K IDS
L ab
N ur
N arr
O men
P ig
P ART
S tru
S AD
U D
Z ahler
b am
e ties
g low
h mm
l ings
m one
m ings
m uted
m umbled
m ummy
n ies
s ic
t issue
w iped
Ž ðŸ
in comparable
in vincible
the ft
re moving
re prise
st oop
es ar
as a
mo th
ch au
ch unks
le ase
be asts
om ery
ve ill
li fic
ic ent
ent ries
sh one
oo zes
un willing
un fathom
pe arl
ce iling
ma cab
all uring
ne on
ex ual
sc an
la ine
im patiently
am er
po king
ant id
no ses
us able
pl om
con sent
con ned
con verted
per me
ur er
ep ics
up dating
te aser
... ,
there by
ss ss
her d
bo iled
dis coura
des ens
plot line
ff er
ort ing
part is
ans as
br ash
hi er
hi res
St ellar
ting ly
che mical
ob i
bl in
comp ilation
co smo
ool ander
car rier
De pressing
mess es
na vy
pi pe
true ly
hel la
hel met
fav ors
ile e
mar ish
fre akin
night marish
tem plate
Pe aky
eas iest
Le an
soci eties
nor thern
par ap
master class
list ing
Ar chie
Ar quette
fresh man
Good ing
Go onies
Car los
Sh ank
Su pre
myster iously
Now here
bing ing
swe ep
aren ce
jud gmental
clear er
THE M
OR T
wo ken
ring ing
bar red
Tur ned
crew s
Ra id
mil king
ik o
depress ive
working s
aby ss
magic ian
ub by
Far is
program mes
cul turally
Im pressive
rup ting
battle field
Fe bru
Mad agascar
ED Y
prefer ence
Sal vation
Am sterdam
PO T
ga ze
complic ations
iff y
Ram is
magn itude
Pre vious
Richard son
anal ogy
glo om
zon a
TR ASH
web sites
Ron ald
false ly
Mid way
contem plate
trend s
wis er
freedom s
feed s
Stan wyck
celebr ates
pred ators
contribut ing
elect ri
rain bow
Scar face
paralle led
Ros ario
Jen na
dd dd
bum mer
Ul tra
htt ps
princi pals
Comm unity
fart ing
Whit ney
Ten et
expert ise
elev ates
Rol l
consu ming
AF I
EP IC
enorm ously
whis per
devast ated
stup end
prostit ution
snooze fest
194 0s
ske wed
slam ming
homopho bia
Mach ina
assum ptions
observ ations
gall ery
Ari zona
humili ation
tattoo s
chees iness
WA IT
laz iness
ritual s
calcul ated
Op ening
Dha ka
savi or
Extra ordinary
Argent ina
Cab in
proto col
HAPP EN
imprison ed
stagger ing
Colon el
Refre shing
Cuck oo
clums ily
Yell ow
laund ry
Herz og
Langu age
Hou ston
divis ive
Beow ulf
Resist ance
EXACT LY
Goli ath
esot eric
Dyn asty
Montg omery
BRILL I
veill ance
macab re
Febru ary
- .
4 6
5 4
9 4
B M
B arr
C C
C ze
C LE
D ome
F let
G ust
G inger
I v
I LY
J OK
K re
L ions
M ak
N aw
O A
P reach
R ut
S lo
T NT
T yson
Y A
Y ING
Z oolander
a ved
b ere
c ath
e co
f artsy
i q
n ian
n uns
o y
p act
p id
r ination
ó n
on screen
en an
or gy
or thodox
st all
st aple
as so
ar ine
se edy
be ers
li ans
ad i
ic i
ic io
me ld
sh al
sh aken
The m
.. !!
un ab
un true
un common
un memorable
un limited
un fulfilled
un paralleled
ma ud
all ingly
su icidal
ri gged
ri fle
de struct
op a
com pr
di atri
im possibly
am s
po dge
wor m
ur ges
who re
we aving
over load
sp ans
first ly
off ends
In tri
ph il
ph omaniac
red d
red necks
bor ne
sur d
sur ing
ak u
Ch all
fore ns
ang g
od ys
cept ions
sub ur
Re acher
lead en
year ning
sm ut
ian ist
For te
Be a
rest ing
TH R
bre y
Mar isa
inter l
ject s
head line
eng ages
viol ated
ted dy
par adise
Ro le
contin ent
contin ual
ts un
past iche
cy borg
Ar te
ret ch
Watch able
ouch ing
gra ced
fut ile
ling ers
cool er
af icion
Ke e
Sh in
dam sel
sum ptuous
Mc Donald
agree ment
quick er
jud ice
LO OK
LO TS
shi vers
Lu is
Tr ou
Co ens
sick ly
Ma j
Gr ou
hook er
ene tr
Ad ding
cei ving
Ra ven
Ra iders
El m
Dan a
Far ah
grand iose
BO OK
Mor se
disc arded
fla mes
hair cut
Ale j
cir ca
Bur gers
hom icide
IC AL
Amazing ly
House wives
pen ned
Cra ven
gross ing
gross ed
invent ion
Rid ge
Gal if
asp ire
chuck ling
Cle an
rul ing
dare devil
aven ger
196 2
196 4
bag gage
camp us
Blood y
Au brey
bow ski
Zomb ieland
wra ps
Dar cy
contribut ions
Sw im
dar ling
steam y
haunting ly
collect ing
collect ed
tour ist
backdrop s
simpl er
Port uguese
ENT IRE
Sto pped
ideal istic
COM EDY
omor ph
Shel ley
Spo ilers
fond ly
Kings man
Lat ino
Cur rent
illust rate
hem ian
fac ility
rein force
Alf onso
Tow ards
rer un
heap s
WAR NING
aud acity
degrad ation
ethnic ity
submit ted
JO B
elic it
persu ade
alter ing
Dist ur
kar ate
Terri bly
Hawai ian
unravel s
weir dest
restra int
SA VE
dimin ish
meas ured
Spect acular
aris to
CRE DI
Bow ie
coward ly
hing ed
schmal t
Fab ulous
Prest on
discipl ine
Pep per
meticulous ly
cler k
aspir ations
Desper ate
Farrel ly
gol f
bench mark
Gon z
predomin antly
fundament ally
blan ket
immacul ate
orche stra
knuck le
Wak anda
Tome i
Debor ah
Rosam und
antid ote
maud lin
( (
C ain
D A
D ory
D ame
D ob
D olly
F aw
F eld
G F
G M
I X
L ud
M add
M ouse
M ON
N am
O mar
O pra
P ok
P ooh
R ice
S Y
S ap
S ize
S ork
S LOW
T es
T ort
T est
T EN
U day
Y il
Y uck
Z or
a j
b illy
b rie
c um
e ma
f ringe
g ated
g ates
h mmm
i ri
l ent
l iness
o gi
r ust
s wash
t outed
is able
re writing
re hab
re comend
on wards
ch ery
ct ory
se al
il k
Th ief
ow l
ut ing
ad opt
ad verts
me ter
.. "
un relatable
ha cked
but ler
so aked
de tri
ro d
ro bbing
thing ton
im il
im ps
end a
wor dy
ti go
char ms
per ip
ta ped
ta inted
man ly
don ate
bo il
sp ired
dis heart
dis credit
dis patch
pect ed
ac cord
ho dge
St unt
going s
ary an
comm ands
dra stic
appoint ed
disappoint ingly
bit ten
big ots
commend ed
vers ive
must ache
war med
writing s
ian i
na vig
Se bast
Mo di
val ley
dec ap
Star ship
An to
An archy
human kind
bre ast
Mar tha
sad ism
inter acting
inter stellar
To sh
ped ophile
form ul
Le aving
Le arn
cr own
wal let
ted iously
spe w
forward s
susp ended
face ted
exp ands
ear ning
AN S
Man oj
Sh ore
Com es
Jack ass
Mc Kell
bi ases
Di ver
Di et
Ab surd
suff oc
total itarian
trans forming
OR S
ref lex
pat rol
novel ist
hot ter
ail able
Sam berg
hear tily
mil it
imp ending
az aki
Pr ot
Pr ote
jour neys
Mon go
Wal ked
psycho logist
Fin ney
tort urous
fool ing
oppo sing
names e
Bet tany
aim lessly
loving ly
Ph ys
arc ade
Wonder land
Sal v
junk ies
surround s
Den iro
Fer gus
Pre judice
hur ried
198 8
**** ****
TR A
oper ating
Sher idan
Gra ve
lon er
Du kes
lif es
Gen re
ko v
horrend ously
Apart ment
enthusi asts
indic ates
indic ator
trop ol
gam ut
Ros well
report ers
Mil itary
HOW EVER
Dor mer
particip ation
Ever ett
Av ailable
soooo oo
Viet namese
ideo logies
domin ating
admir ably
hopeless ness
prejud iced
Myster ies
ingredi ent
conspir acies
aes thetically
ware house
chain ed
Ze me
dissa pointing
crush ing
dup lic
revi ved
sacrific ing
degrad ed
comprom ised
wrest ler
bun ny
Vie w
sab er
WHO LE
Stri ke
Mess age
Mah esh
Brend a
kn ack
dil uted
recru it
Suspense ful
dictator ship
Tara ji
CA USE
chris tian
Kra mer
anachron isms
imple mented
bodi ly
Bing e
chord s
Color ado
Hale y
dwar f
Cass idy
amor al
Commun ist
Oper a
LS D
supr ised
insur ance
indoct rination
intr usive
Infer no
clar ify
recon c
announce ment
inspect or
elit ist
snip pets
shoehor ned
Christo ph
Inv asion
magnific ently
Core y
superl ative
Affair s
Suspect s
ACTU ALLY
egot istical
Indust ry
luke warm
Lund gren
dizz ying
promis cu
Ster ling
Nix on
camcor der
panto mime
Belgi um
Koso vo
Requ iem
floo red
consen sus
BRILLI ANT
Opra h
Sork in
# $
1 30
A by
B iz
B ank
C art
C em
C rich
D ances
E du
E motions
F K
G ol
G ale
H IM
J K
J in
K on
K amal
L oud
M ull
T wel
T ELY
U nex
b achelor
b imbo
c inep
d les
e motive
f red
f led
h olly
i ac
i ber
k as
l man
p adding
s ider
s wo
t rench
w d
w ale
th au
re play
re cycle
re imagining
st if
al ty
to ff
of rio
ly rical
se iz
be lit
be mus
ic ial
for um
me te
me ll
ion e
sh abby
un told
un noticed
un imaginable
un warranted
ab uses
so viet
ge ars
de us
de pt
de put
de ja
de mentia
ne pot
ter minal
di ac
di plom
ex em
sc or
la ment
la uded
im me
am ic
wor shi
he ctic
ti ps
pre serve
ven om
ist ine
jo ck
ink y
bo ils
sp ins
fa ve
thr one
low n
ho log
mis fire
gr ats
cl ad
tra it
ach i
gi ans
she e
ster ed
fore front
scre ech
pa h
em bodied
ang ered
mind blowing
tur kish
co dile
sol ar
ins id
ins ists
must er
sub s
He ather
person nel
war time
between ers
De liver
Just ified
stupid er
je ctions
human e
mar riages
log ged
cut out
follow er
cur ses
reg ional
Le bowski
susp ence
conf uses
teen y
past or
dri vers
Good bye
fut ility
Go sh
dr ill
af fil
matter ed
Sh utter
hit ch
Per lman
Ex peri
antic lim
spect ators
Wor thington
Mc Cl
pur ity
pur chasing
Con ners
Eng ine
comment ators
brain dead
abo ard
trans mit
Bl om
Bl onde
avoid able
pat rick
pat rons
Super bly
Ma her
gun fights
Je ez
shoot er
sl ut
SE N
SE EN
villain ous
imp lore
flu ent
Nor se
Ben o
foot steps
imm ort
impressive ly
canc elling
Sad ness
earth quake
Fe eling
ded u
Fo ley
smo ked
Rom ul
fla ming
techno logies
Brad y
premi um
TO P
grace ful
fu zz
spin off
inv iting
local es
blind ed
imagin ations
hip sters
Pri est
Den nings
Mal ef
desc ended
ski ps
Pre sent
glor ification
tor ch
tor rent
gut ted
Pal m
Cor n
Cor rect
tend encies
Gra il
toler ated
Min nie
sun ny
Hist orical
Ros anne
rep ent
rep licate
Dor a
WOR K
SH E
SH AME
accomplish es
sketch y
cheer leader
rum ors
mel ting
Ve ter
Port land
Jac ques
spell bound
portra its
Book s
rhy me
UP DATE
journal ism
Bon ham
resort ing
Scen ery
Cur ry
FE EL
Mu kesh
STAR S
Snow piercer
Holly weird
nan ny
stab bed
pregn ancy
dust y
Oc cas
ingen uity
Shad ows
Andre as
aud ition
Penny wise
Oly phant
colla ps
Za hn
distinct ly
perpet ual
dece ased
Train spotting
BL ACK
mult icultural
Sol aris
Zoo topia
grind house
REVIEW S
Hust le
Beyon cÃ
Ay ush
stitch ed
perman ently
lur king
cloud s
cart el
Doll house
imple ment
convict ed
ðŸŒ Ÿ
schmal tz
succ umb
tweak s
Male k
Drag ons
disa pointed
genet ic
Miy azaki
pengu ins
margin ally
punct uated
sabot age
Lad ies
depri ved
harass ment
Valent ine
Ped ro
Vig go
Smur fs
Incl uding
untouch ed
Brut al
Boon dock
Nostal gia
Sudden ly
Niels en
flamboy ant
satell ite
Comput er
ORIG INAL
Beckins ale
Arte mis
Alej andro
schmalt zy
swash buck
Sebast ian
Anto ine
) "
, )
0 5
A ce
A big
A va
B hatt
D UM
E ly
E go
E VIL
F law
G ob
G io
H umph
I max
L t
M ine
M use
N Z
N ym
R ound
S way
T D
T ries
T inker
U m
V A
W er
a erial
b aw
c it
c law
c atholic
g ist
l ured
m c
p el
p ud
r angers
s fx
t m
z ap
© ,
👏 👏
in ated
in dict
in experienced
er man
re places
re pressed
re covering
on ed
or ia
st aking
it able
it ated
al pha
to wel
es cri
as well
ch ess
le th
se wer
be a
il ogies
Th atcher
el ves
un worthy
un engaging
un successful
un predictability
pe as
but th
out put
su ave
ra ck
ra pport
ul u
com r
im es
some ones
do ch
ell er
ess im
rom a
pl um
tr as
ta h
ta way
pre par
we eping
more over
ig ans
te ared
pt s
how ling
over arching
ll ll
off ending
br ad
gr id
tra m
gen ous
sur realistic
cou ver
bl ues
pers istent
od us
effect ed
hard y
tri bul
super market
mot el
sub versive
Al ly
Not ting
Re ich
believe able
poor er
ren ces
add a
De al
Mo z
cli cks
cli cked
val i
att ent
je e
An nihilation
oth y
19 17
IM BD
Le ar
hop ping
soci o
cho ck
master mind
IN CREDI
short ened
past ed
cy l
cu b
ret read
sk ies
gra iny
mit ig
Sc ifi
ident ities
ON CE
Car a
pleas er
loc ated
cover age
pur suing
success es
blood shed
Brit tany
ani ans
Ho spital
gre et
pil es
tele port
ca fe
free zing
god dess
Cl arence
intrigu es
wr ink
sla pping
Ra e
rich er
Mon a
Wal mart
fron tier
Gre er
El la
El vis
sn arky
recogn isable
cat tle
provo ked
Sa fe
alien ated
brother hood
captiv ates
Bur nett
van ni
mach er
inv ites
impression able
Dam ien
wart s
Afric ans
Mag nolia
chuck y
198 6
Mexic ans
Hel p
Van couver
nation ally
Cor por
Ba iley
OO L
Perfect ly
expression less
gru dge
Min utes
Phil ipp
hack er
function ing
bill ing
sle e
auto biographical
quot ed
Reg ina
club s
frustrating ly
court esy
Dor ff
Dor othy
Cli che
chair s
Play ing
secur ities
evo ked
wig s
compli mented
Comm and
harm ful
Ta j
occup y
distribut ors
imo v
mist ress
narciss ism
nur ses
inf omer
inf idelity
Tech no
spit ting
Za far
mim ics
Armen ians
sam urai
massa ge
Pu blic
Kno ck
Lie utenant
bio logical
anka j
Ga vin
SUCK ED
flood ed
>> >>
melancho lic
consum ption
Dest ination
incon sequential
Lith uan
pron ounced
nom inee
predic able
FA IL
Fal con
evalu ate
condem ned
replic a
Profess ional
underest imate
attribut ed
anachron istic
exhibit ed
fines se
Mort ensen
yi eld
sie ge
eloqu ent
Drey fus
acknowled ged
HAR D
Ferr ari
Relig ion
decad ent
Grit ty
schizophren ic
Roc ket
Wra th
quint essential
handicap ped
astonish ingly
Stoo ges
SEL F
Caucas ian
debau chery
diarr hea
Ish tar
subli minal
Bumble bee
tsun ami
Size more
Yil maz
Zeme ck
Crich ton
exem pl
anticlim actic
, ..
B v
B ose
C ot
D uty
E ST
F RI
J A
J up
J unk
K her
K ara
L is
M ow
M US
N ia
N ina
O B
P ars
R io
S hu
T ough
U G
U U
a ay
a pl
b ass
h alloween
h alt
k nights
m unks
p oured
r ice
r ider
s r
s ire
t ut
t rolling
u rian
w ic
👍 👍
the art
is ys
re now
at ron
it ative
to pless
es a
ed g
ar ious
ar range
il legally
ad ine
you re
el ma
un important
un usually
ha ul
with standing
are ttes
so y
ri um
ri ots
de le
de em
ul ent
sc ant
ant ino
do zed
end ment
ti le
per f
per v
ta pes
ep i
up bringing
qu o
rit e
view points
over power
sp ur
dis eas
dis liking
pp ings
ide ep
tw itch
into xic
ho b
fin a
mis m
du al
br ink
St aling
sur render
tal ky
exc usable
mer ge
pret ensions
em pathetic
em bed
ob ar
No ble
No vel
co al
vis m
hard ship
super human
super stars
fli ps
tell ers
mag num
cle ans
ian akis
star wars
mean while
na val
Se al
hero ines
rest rial
clo th
clo ying
deser ted
TH O
bre w
Mar io
os yn
Un believably
gar a
gar de
gar ish
umb ers
cr oft
cho ir
bra v
She er
sat an
budget ed
tempt ing
wit t
law n
dep ended
ret ards
vin o
sk ins
sk irts
wi elding
ST AND
school er
." )
scar red
Man chester
Car men
dist inction
30 mins
Ex per
tech nic
doub ting
villa gers
Ser geant
Char l
dull ness
ific ations
lame st
Har per
Di amond
Con cept
glad iator
Ho mo
break out
histor ian
trans fixed
ref ers
idi osyn
Em b
god damn
LE T
shoot outs
Sam ar
creep ed
emb ark
meant ime
ik is
Hor izon
regret ting
test s
test ing
El ite
unrealistic ally
rap es
Fo y
apo re
del ayed
irrit ates
Par amount
Exc ited
acc us
sw agger
Bur ns
hom ages
reck less
Frank lin
eth oven
scient ifically
control s
sto ked
inv ade
Gar land
Thanks giving
Tit an
wing ers
require ments
uit ous
WH EN
threat en
text book
vit o
Bay max
Uni que
gal actic
Und oub
OD E
Bul gar
Gen ocide
fed eral
Cr own
stat ue
Sing apore
applaud ing
Mind less
emphas izes
gam ers
dramat ization
Ver gara
Dol by
domin ates
rehash ing
:- (
Gri pping
si bling
illness es
spell s
heaven s
lord s
selfish ness
Kin nam
emer ging
myth os
Coun ty
command ing
nod ding
tro dden
chron ic
Cur b
Jan et
dup licate
Cho ice
Cho col
Nik i
Nik ola
Tow ers
eff iciently
Clark son
yy y
bitch y
Bos worth
Liber als
distract s
eg reg
craz ier
slam med
Arm ie
cater ing
193 9
weir do
instru ments
Ay k
Graph ic
Inst agram
Clay ne
Uk raine
contradict ory
underest imated
alleged ly
KK K
Reason s
archety pes
Grow ing
Prest ige
pard on
Tud ors
persever ed
gram mar
deft ly
Nan j
hipp ie
undermin ed
athlet ic
Bie ber
Rah man
criti ques
gir ly
blasp he
loath some
interrog ation
Esc obar
Wach owski
abomin able
jes us
disillusion ed
ancest ors
Begin ning
asin ine
wol verine
infest ed
Sude ikis
arbitr ary
amer ica
Rut ger
odys sey
Galif ianakis
Twel ve
nepot ism
Blom k
Abig ail
Gio vanni
butth urt
Zemeck is
Bv S
Staling rad
- ,
1 60
5 8
A ges
A UT
B inks
D redd
E t
E die
G ur
G av
H OUR
K ES
K aling
M R
M ood
M ath
M uni
M edi
N ep
N em
N ah
N IGHT
P el
R ish
R iggs
S ne
T ension
V ive
V icky
W OO
X avier
b ind
b ile
b loss
c ured
c ashing
d ron
e u
e ly
e up
e man
f ren
f lock
f andom
i Tunes
j ames
l eness
n atives
o logist
t read
t asty
t elly
t weet
t angled
w impy
í a
th ia
in securities
er ased
is ure
re watched
re pu
re consider
en velop
al oud
al lies
to ll
as ian
mo cked
vi kings
be es
be ans
om on
ver b
ad ook
act ers
ion ally
sh ah
sh uff
sh udder
.. )
un ashamed
un flinch
un hinged
ab solut
are na
ge y
ri ff
ir ky
de arly
de fic
de meaning
de vote
ra ma
ra cially
com ers
ex orcism
sc ru
tr ot
tr ilogies
per ors
ta ps
pre face
ap a
ind escri
jo you
te er
... (
fun ky
gu ardians
bo iler
dis courage
dis closure
ade ga
real ist
pr ow
mis information
In vest
br anch
back stories
St at
comm only
tim id
gi er
she et
che eks
wast age
cent red
cou p
od or
illi er
wa aaay
mus lim
tri pping
put rid
top ian
cle avage
bas es
Jo har
ren amed
We ather
ons laught
mess aging
na vi
ext inction
Se ek
Mo scow
val an
val ued
beg ged
Be ethoven
fl our
fl ooding
hist ories
Star fleet
An nette
gener ating
mon o
cap it
anim es
sty ling
cur y
inter pre
inter vent
inter active
Un known
form id
bud ding
prop el
cr otch
tic king
cho ked
Over ly
RE N
pain staking
dr ums
simple ton
coun sel
Car bon
Sh at
Sh ann
viewer ship
detail ing
break er
Po stal
truth fully
Bo at
key board
ref lections
free ze
Co y
Co sta
Em erson
lim b
bar ren
bar riers
accept s
suggest ions
lad der
Ma thew
sl um
Sam ara
iss ance
Ge ographic
Pr ice
flu shed
represent ations
Pl atoon
profess ors
Sch u
Sch itt
Che mistry
indi a
stri ppers
fr action
fr ater
CH ILD
grand children
flow ers
Red dy
pan ache
bla zing
grit tier
Mur doch
del uded
tough est
spirit ually
Exc iting
fla unting
answ ering
ilo qu
crimin ally
AC TER
fashion able
Dani elle
Fun eral
multiple x
ju icy
Sun il
clean er
clean ed
PO C
Ob ject
UN DER
WW I
exagger ate
pal es
belong ed
bore fest
frame work
green lit
La ine
investig ations
devil s
insulting ly
virt ues
gratuit ously
rul ed
foreign ers
Str angelo
196 6
record ings
fif ties
Arth urian
Should n
Kar tik
sle ek
poo rest
spark le
indic ative
bitter ly
collect ively
WOR LD
gn ant
possess es
mut il
Wait iti
Anim ated
elo ves
IR L
minimal ist
Jac ket
EX TRE
embra cing
adoles cence
Log gia
cali bre
sav ages
Const ance
insist ence
americ ans
illust rated
Vill eneuve
Laugh ed
Expect ations
fac eless
Ag ents
proceed ed
shout ed
Bos nian
Ja ideep
Ban shee
comprom ise
Wind ow
vas ive
Ol ga
elve t
polic ies
mult itude
Cy ber
Geor gian
IOUS LY
dimin ished
meas ures
misogyn ist
Mill en
Kash yap
Cos by
predic ament
fleet ing
condem n
Mack ie
Blind ers
resurrect ed
Comb ine
elimin ated
paren thood
caution ary
imperson ation
Spl it
Rac ism
christ mas
kne es
Ric ci
Card inal
todd ler
Prom ise
whist le
oppon ent
oppon ents
adject ives
Kab ir
Ship ka
trim med
introspect ive
Gla u
COMPLE TELY
Ukrain ian
BLO OD
entran ced
Fing ers
Torch wood
Cord en
grie ving
CHAR ACTER
Aj ith
soli di
Anup am
Latif ah
electri fying
Naw az
formul as
Diver gent
Fergus on
Unex pected
Sway ze
tribul ations
FRI END
apl omb
Ayk royd
EXTRE ME
' !
) -
) ....
+ ,
- >
. :
0 7
6 7
A vi
C yn
C enter
C oul
D ali
D inner
D ante
E ck
E mer
E gg
F ood
F ever
G ran
H es
H IS
J ules
J FK
K ansas
L overs
L una
M L
M ater
N I
N AT
O x
O ui
P up
P ankaj
R ig
R ho
R amp
R ises
R UN
R DJ
S no
S ween
S avage
T ro
T ag
T rolls
V elvet
W ide
W ave
W anda
W reck
W OULD
b au
b anks
c ating
d c
d ared
d ork
e mail
f ry
f ades
g led
k lis
l g
m int
m uff
n ad
p imp
p essim
s sa
s well
s wer
s ledge
s illier
t ended
w ob
the ad
re do
re iber
or bit
st ared
ch unk
le isure
vi ral
vi ctor
se greg
be le
Th ai
li ced
ad option
el sohn
un cut
un connected
un balanced
un resolved
ha voc
ge ez
ome z
de fect
ul ty
ill ard
ex changes
ex udes
am ps
lo at
lo athing
lo boto
any on
int ru
he ated
he inous
con ced
con fines
pre nt
ous ed
ine t
qu its
man ia
sa kes
sa ints
over night
Wh oo
ac o
own ess
tw ood
mis understanding
In spired
ick s
br ook
gr un
St ud
red box
under current
ens ibly
ber gs
high brow
fore warned
pret ension
em body
em bodi
tur ro
tur tle
bl oo
bl anks
comple tion
far lane
co zy
co arse
sub standard
sub mission
Al z
Re id
ste ep
My self
car thy
For ces
na vel
Mo s
cli pse
heart beat
cam ping
TH AN
mar ch
tem pered
Mar ines
IM P
body guard
Le vel
wal i
list ers
ature s
face ts
awesome ly
cop ing
sk irt
ST R
dri pping
Good ness
af loat
Car ry
Su c
zz led
bb ies
cas ino
ni versary
Mc Kay
shame fully
Di ary
Ste in
Ter ence
Ter esa
explain able
fig ur
smart s
Me at
Me yer
........ .....
Black list
god father
Gu arant
material s
sign aling
Gr at
capt ion
Tur turro
Qu irky
Cap ote
Pr ops
Ben icio
police men
public ly
Wal ters
Sci ento
bel la
rap ist
cul tiv
ham med
AD HD
Sa if
liber ty
alien ating
dread ed
Wil lie
Pat rol
sil ences
ED IT
hair s
cir cuit
van illa
conflict ing
Sun set
improve ments
cancel ing
grad uated
ww ww
sli ps
respons ibilities
ga ard
WW E
197 2
Dep uty
chur n
Max im
Iron man
**** .
LA UGH
threat ens
superior ity
Hel sing
cow or
prote ctive
Trans lation
accident al
tack led
tack ling
196 3
Miss iss
Lyn n
Sil icon
Nichol s
lif ies
udd in
squ andered
wra pping
Dar io
contrast ing
Reg ards
Josh ua
seven th
stress ed
mesmer ising
brow sing
mu gging
Dor nan
PER I
Son ny
mod ic
Gun n
Gos nell
aff irm
method ical
metaphor ical
resort s
conven ience
chron icles
cust omer
pressure s
psychopath s
Chi klis
fac ade
proced ure
Ele mentary
oblig ed
strip per
Pier re
shif ted
Anton ion
Legend ary
194 1
Bud dy
activ ists
priest s
Zo diac
gloss ed
Silver man
FIN ALLY
sales man
pros per
incar nations
Si enna
nihil istic
din os
categor ize
Body guard
wre cking
intoler ance
Rel ax
aunt s
retain s
Peck in
psychiat ric
Dest roy
Smo king
Fli ck
Stal ker
Cars on
Columb ia
dope y
Trekk ies
gid dy
las ers
kne e
ASS IC
restri cted
Foot age
tant rum
Carly le
discipl ined
Tall adega
Vers ion
Yi kes
todd lers
pep pered
Cum ming
Cum mings
persecut ed
Fitz patrick
snowfla ke
snowfla kes
adject ive
shor tage
millen nium
Pose y
vist as
xen op
Grind house
Yugosla via
Glor ia
mystic ism
Kry pton
hypocrit es
twe ens
abhor rent
ALI EN
Sack hoff
unci ation
pedoph ilia
Hag gis
Sadd les
exhi bits
coordin ated
BAT MAN
HORR OR
Trou ble
Tes la
Gob lin
exempl ary
Jup iter
Pars ons
Undoub tedly
Muni ch
formid able
Schu macher
Strangelo ve
embodi ment
- "
0 4
A ly
B ase
B jor
B ored
C hip
D U
D if
D ig
D ush
E den
E qual
E laine
F lan
F alling
G ris
G omor
G omez
H P
H ane
L up
M um
M IN
M IND
N iven
O THER
S B
S gt
T roma
W OM
W tf
W ERE
X mas
Z ane
a mo
d ummy
e be
e ep
k ook
l ty
l uc
m ite
m umbles
o de
p as
r ically
s ory
s izz
u ing
in advert
in fat
re part
re creating
re plete
on er
en comp
ou x
ou ille
it ate
to s
to mb
ar ians
ch y
ch atter
be ards
il ib
om iss
li cking
sh rie
un justified
un orthodox
ha us
ce ases
out did
out door
ri pe
de human
de ceiving
ra uc
fe ist
sc a
sc and
sc aring
im ho
ant ically
no isse
end ar
ther lands
he he
ti est
pl u
pl ugs
con sp
con vert
con noisse
nd ic
ta k
ta ges
pre diction
ap athy
ag anda
sa ge
ci o
gu ing
sp liced
dis cre
ade y
!! .
plot less
ac counting
character ized
lot tery
mat er
after life
under age
ens la
ach ed
ach ingly
ugh an
thought less
che e
high way
est ro
Al tered
As per
different iate
Re creation
irl ing
war rants
bu ys
led ger
class room
ext inct
dec ay
vol cano
ms on
cri p
heart y
shot gun
hand ing
cut outs
cap su
Mar vin
cur ve
side kicks
Lo is
NO N
NO R
At mosp
Ne ar
gra ces
die u
Sp it
cult ured
!!!! !!!!!
Com pton
hind sight
fic ult
exam ining
Ser vice
Ser bs
Har mon
Har bour
liter ate
hol m
histor ians
graph ically
god awful
critic ising
Gu ide
Tur tles
throw away
pho bia
OU ND
invest ors
mil itar
force fully
colle ague
Sch reiber
omen al
subst anti
fire works
sn atch
tort ures
requ iring
recogn ised
ham mad
Bar ney
11 th
Sa vi
trust ing
Aust rian
concer ting
irrit ate
Pat ient
End less
Bur ke
hom eland
grat ification
individu ally
wel coming
sess ions
pen chant
baby sitter
manner ed
serv ants
sli me
sli pping
Ham m
chop ra
distr actions
Sy ndrome
Gi u
willing ness
Pre pare
addict ing
streng then
Again st
occur rences
NY PD
ration ality
flo at
pictures que
broad way
App alling
bon kers
tear jerker
ram page
lights aber
Real istic
Leon i
spre e
Te ars
Ca esar
Jer i
Reg ular
bull s
attr actions
Disappoint ment
gor illa
glim mer
encourage ment
blo cks
Er aser
CE O
mut ual
concent rates
awa its
tour ists
Pen gu
195 9
orient al
haha haha
mel ted
prevent s
prevent ed
gro cery
embra ced
bless ing
emer ged
Der mot
aff li
Kurt zman
Boo gie
plat forms
Ta ika
Gab ri
suspic ions
finan cially
Ele ven
Cho i
oblig ated
Pass engers
sche mes
sha ved
CAN NOT
ingen uous
scra per
Bud apest
adul tery
Pegg y
infect ious
Spr ings
Spr inger
pill ow
sam ple
voc als
Sor bo
Kay e
magaz ines
revers al
Pers ians
fri ggin
Banglad es
Tomorrow land
wre cked
SPOIL ERS
Happ ening
Bab adook
tattoo ed
fulfill ment
chees iest
fundamental ist
Week end
DabDab DabDab
Kaz akh
Demo crat
sail or
culmin ation
Oper ation
Pas cal
FORE VER
Sac ra
Cul kin
succ inct
dul lest
ipp i
Assass in
traumat ized
CHE CK
Gram mar
Indones ia
Mou lin
commission ed
Horri bly
envision ed
unapolo getic
Posit ive
Awk ward
Gentle men
crafts manship
uncontroll ably
Tel ugu
objection able
BELIE VE
patriarch al
Genuine ly
Tarr antino
Supposed ly
Cag ney
frivol ous
Ced ric
discoura ged
enan igans
bemus ed
insid ious
Experi ence
Occas ionally
Moz art
INCREDI BLE
Lithuan ia
Charl ton
Kinnam an
Nanj iani
prow ess
EXTREME LY
Oui ja
Sween ey
modic um
Antonion i
ilib rium
' ;
/ /
0 9
5 2
8 9
A lot
A men
A cross
A aryan
B ag
B io
B ane
C ape
C rank
D ah
D IE
D ub
D iggs
F rit
F ried
F ailed
G ables
G onna
H unting
K ap
L ob
L aden
L INE
M GM
N est
N uff
O ak
O ogi
P ath
P umb
P hen
P ena
T LE
T ai
U sed
V R
V s
V ende
W is
W itty
Y von
a is
a hawk
b ak
b umped
c ogn
e van
g uru
j us
j umble
l al
l of
l und
m ph
m unch
p so
s ard
s ions
s ank
s ling
t id
u bi
v amp
w es
th ump
an archy
is i
re sounding
at omic
or ial
al arming
as is
as ers
ar ia
vi king
se aled
be z
Th elma
li ars
li van
ent ice
me ager
ke teers
The me
un ve
un popular
un motivated
un preced
out takes
out law
ma o
all usions
ri fe
ir s
de port
ra ppers
ra iser
fe ud
ter a
com pose
di an
ex ped
ex orcist
ex uber
la g
po ly
lo go
any a
do gan
int ends
my thological
con ver
con ni
we aved
qu ar
ag u
... '
whi p
whi z
ser bian
over do
over acts
his tr
think er
think able
bo or
dis on
dis ability
dis appearance
dis claimer
dis concerting
pr at
pr iced
des olate
ac ed
min ing
min ent
ie u
ye ga
tw addle
ho k
fin i
mis representation
In cident
gr an
thought fully
sur f
sur veillance
che mist
.... "
Ch ildish
ten th
ang sty
ob ese
tur bul
bl ush
comple ments
cra pp
sub conscious
He adey
He ughan
As imov
Re minis
ip ing
pie ced
Don nell
year n
star ved
Se cre
fl ab
special s
heart broken
human ly
clo ses
mor ale
inter rupt
inter iors
American ized
ped antic
After wards
?? !!
prop og
prop os
Lo ves
cho ke
Li br
On ofrio
sch ol
face t
face book
fer o
event ual
Go spel
Br at
bro s
pain ter
den ess
av an
Sh ue
igh ter
Char ming
bi kes
Tom ahawk
dead pool
post uring
thor ne
Bo yega
ref using
Lu thor
Gu ardian
LE G
Ha ilee
Pa per
Ed gerton
hot tie
docu ments
shoot out
Qu int
equ ation
redeem s
Bro ck
Cap ra
sell er
wan nab
concl udes
Pr ada
Des cent
fra il
Che f
str ays
More tz
Mor i
alien ate
Men cia
BE AUT
wall op
soap y
Dra matic
mach in
arth ouse
blind ness
dig n
atic an
Jon as
Pri ze
stink ers
Shame less
hur ricane
Person al
glo bally
prote ctor
indul ging
Hun nam
Kill ed
IF UL
Nick y
Trans former
Trans yl
17 th
Oli vier
Pho ebe
Val er
Blood shot
ION S
bab bling
hack ers
bell s
shall owness
sun shine
protect s
???? ??
Bu ild
blast ing
Tal ented
Spe ech
gam ble
Ak royd
Ku mail
nit pick
oe u
Gy ver
Er nest
sor ority
Light en
cliff hangers
Dow d
si um
decl are
Atl as
mash up
tact ic
tact ical
Ze ta
hub by
sensational ism
Arab ian
cro codile
whis pered
butch ering
imit ating
Oz ark
sprink le
cere mony
Ultim ate
download ing
torn ado
activ ist
decor ation
gif ts
rab id
Event s
Secret ary
Kno x
sadd ens
cig arettes
vag ina
chi ps
pos able
preced ing
chat ting
Ame lia
Cole man
transfer red
Miche le
hhhh hhhh
Bun ny
shap ing
distingu ished
XXXX XXXX
slack er
Conf using
demonst rating
constit utes
whodun nit
Prop aganda
abdu ction
Pack ed
Cir cle
persecut ion
barbar ic
bac ca
Lore n
hipp ies
snack s
compul sive
Mup pet
snot ty
skeptic ism
Era gon
SING LE
foresee able
digit ally
DISAPPOINT ED
Execut ive
Sponge bob
wid th
aute ur
dut ies
contriv ances
Link later
Shank ar
stupend ous
diatri be
Humph rey
Nym phomaniac
Techno logy
embed ded
Medi um
Cyn thia
lg bt
Mississ ippi
inadvert ently
repart ee
Oogi eloves
unpreced ented
wannab es
. -
5 1
7 1
= )
A live
A HS
B ed
B order
C e
C has
C ale
C ull
C ARE
D ud
D irk
F ool
F AM
G N
G h
G AME
H ide
H ang
I RA
J L
K ni
L ines
M B
M illions
O hi
P ere
P ame
P ines
R ide
R iz
R ash
S ith
S AME
T ris
T ON
T elling
U mb
V a
V ene
a ul
b art
b hai
c ac
c ably
c rank
d g
d at
d op
d ings
d unk
f ies
f ie
f usion
g love
h ic
i el
i ries
i ju
i vism
j in
j olly
j ones
k tra
m ia
o z
o om
r s
r us
r ine
r usty
s ans
s ali
s nails
t reach
t ablo
t exting
u ously
w ool
x it
å rd
th ier
in cred
in hab
in hibit
the or
re ne
re tri
re eling
re jection
st ad
st ry
al ds
le z
be ck
be friend
ve ers
Th ir
vie ts
li qu
ver bally
ad op
ad voc
ic ket
me xic
sh enanigans
un ending
un wit
un wind
un employed
un comfortably
out raged
so b
so il
so ck
all s
ra pping
fe ces
com er
di ary
sc opic
la ud
im ens
am en
am mun
no sed
int ensive
ess ion
good y
tr ud
per mission
ta pping
pre st
who s
up ped
qu ed
te asing
will ed
pro verb
sa ur
don key
bad ge
ci e
gu iza
acting s
sp here
dis posable
pr u
!! "
joy less
ff y
ty ran
ort s
ho ax
ho bby
aw ed
self less
stand up
br ass
cl utch
tim er
che ats
og ni
Ch anging
fore head
est ring
est imated
hu a
hum ility
screen writing
ins in
perfect ed
sub urb
Al tern
Don na
De er
cor rid
cor pses
class ed
Se uss
att ers
att les
ign i
An ge
sho le
mar red
mar ries
lic ence
Un breakable
form al
Le ah
sy non
She pard
pass ions
cop ious
dri p
posit ivity
pot ato
touch y
home coming
af fe
Sc andal
pac if
Su its
Sp all
AT S
leg ion
modern ized
fic ation
fic ate
Har vard
Con rad
bur ton
stick y
Bl art
Black s
mother hood
LE AST
gust o
lad s
sign alling
social ism
Ad mir
Ad kins
High way
ban ana
disgust ingly
az ar
Ben igni
imm une
project ing
Sci ent
pres idential
Big foot
:) )
pet ul
horri fically
Vi king
BO OM
draw ings
grit tiness
apo log
Ber nal
Wil kinson
sil liest
app allingly
acc el
acc use
sw ings
punch ed
fault less
Ac cept
BE CAUSE
Dra gged
Fun niest
six teen
bri g
repetit ious
sli my
WW 1
Bla zing
Rid ing
dynam ite
Pi ven
Hen ri
Dep ar
Cru dup
bizarre ly
investig ative
Van illa
Wa ited
shar ply
nic er
compreh ensive
rous ing
Mer ry
MA J
Min nes
inte grate
Cla u
Under ground
prior ities
rush es
arti facts
XX X
Mis er
Fre aks
Lind sey
redu cing
Light ning
emplo ying
lyn ch
Sn oo
confron ts
Need s
Art ist
seam s
Sto ker
Dy ke
triumph ant
Lin ney
Dream s
Sex y
ader unner
stro kes
sno bby
exter min
Belie vable
agh an
Raj put
tax es
Strong ly
Jan ney
Def i
util ize
profit able
Polit ically
Ele ktra
grip es
lens es
mist reat
SC RE
repul sed
adrenal in
extre mist
Glo bal
weapon ry
colla ge
polar izing
Non sense
perpet uate
styl ised
Sep aration
Scor pion
HH HH
Passion flix
preced ed
Pain fully
Came lot
instru ment
marry ing
kni ves
Lol ita
Mend elsohn
obst acle
consum ers
Olym pic
prev ails
Loc ke
catast roph
Inst inct
Gang s
evalu ation
Alexand re
refuge e
err atic
sail ors
masturb ating
escal ating
compon ent
FRE E
versat ility
butter fly
<< <<
mand atory
accompany ing
specul ation
abdu cted
enlighten ment
consult ant
persever ance
reserv ation
regurgit ated
Relig ious
prophe t
bis exual
swee theart
Hir sch
shr ill
definit ively
ridicul ed
lull s
Fact ory
Sis sy
expans ive
Sr k
Scr oo
Teach er
Ear p
Sey fried
pix ar
mirac ulous
dor ky
nast iness
orgas m
japan ese
Neighb ors
nag ging
aggrav ating
Gain s
Geoff rey
ineffect ive
Board walk
Sul livan
equi pped
SAT C
fem me
naz is
Dwar f
Nur se
unfathom able
partis an
parap hr
Preach er
SY FY
McKell en
Beno ist
Malef icent
swashbuck ling
Bose man
Mow gli
Bulgar ia
Blomk amp
Shat ner
Ox ford
Peckin pah
Dif ficult
feist y
Sacra mento
Vende tta
Yvon ne
oeu vre
Ohi o
guiza mo
" '
" --
' '.
. ?
1 13
1 45
5 3
9 1
? ..
A stra
A venue
A idan
B is
B ard
B old
B AM
B RO
C ult
C ENT
C ec
E vid
F 1
G ut
G hi
G ren
G EN
H ip
H air
H ung
H ATED
I A
K is
K leen
M atch
M ama
M ister
M amet
P unk
R D
R ory
R ath
R ising
R AM
R udo
R ATING
S L
S audi
S care
S ister
S ik
S WAT
S SR
S lap
T ab
T ight
T aboo
V atican
W anna
Y ay
d ough
d rek
d ashed
f ad
f ang
g f
g ens
i as
i ating
i ota
k il
k not
k ling
l ite
l ingly
m ie
p added
r int
s often
s late
t wee
u ary
y elled
y ork
in cent
in struct
in sect
in burgh
is ers
re cl
re covery
re visiting
at ly
en act
en able
or al
it tle
to ire
as shole
ch ubby
vi en
be little
om ni
ot y
li fy
ent ities
you t
sh un
un its
un anim
un exciting
un conscious
ab ont
ha iled
ma w
su prise
de fying
ul ity
ul ars
ro gate
ex ternal
am bul
am nes
po ems
do zing
int ending
pl ash
con sul
con sequently
con grats
per vasive
pre co
ur n
ur able
up grade
ine quality
sa vor
did actic
our ce
ser mon
ser geant
gu ardian
her es
dis connect
dis member
ty ped
ac ro
age ing
character isations
ho e
aw d
In c
ph ants
ick en
read ily
after thought
hor des
che wed
og a
cre scen
diff ers
ob serving
comple tes
down town
fan c
comp act
hu ri
od ka
hum ming
illi es
cra fting
tri bes
super power
20 min
He in
Al mighty
Al cott
Re aper
Re jects
bas eless
Jo h
Jo di
We instein
bu ckets
De k
vil lians
Se gal
heart ache
sho vel
sho estring
cap s
anim ate
fail ings
viol ently
ER T
rele gated
Do e
sat iri
ane c
sch tick
Ar ts
stuff ing
wi erd
simple tons
den ig
Sp arks
30 min
Ex tras
Com par
Wor thy
ni b
exam ines
villa ges
Ser ial
Ser ena
Mc Ken
pur se
15 th
Con serv
Ab bas
ric a
Ter min
exe c
New t
fo e
Fil ming
han ks
Em ile
nam ent
Gu in
har mon
Rob ots
Pa quin
gun fire
sl ated
creep ier
Ad apt
host ed
imp acted
Nor mal
Sch w
Gre ene
stri fe
El se
marvel s
GO ING
Vi enna
sleep s
sym pathise
Far had
Im ti
Never land
teach ings
mood s
AM ER
Mor ning
del usions
absur dist
ba hubali
Out lander
Out sider
travel ed
Mat thau
Thr illing
venge ful
ourit e
sw allowed
phenomen a
Dr op
dan ish
notice ably
wel fare
tre pid
mach inations
sto y
pract icing
DO WN
ww 2
rob in
sli des
arent ino
stink y
desc ends
Mac farlane
ja an
nation ality
breathtaking ly
establish es
Ba bel
nic ation
Ken ny
lam poon
Mer cury
Top her
Min us
Min ions
Min ister
Min ority
hall way
vac ant
Del hi
Gen isys
Has an
warning s
spre ads
separ ates
brand ed
Bor is
Cr us
quot ient
partner ship
attr acting
bic y
dys function
island s
rep ellent
Ted ious
borrow ing
Cli ck
Slow ly
sor did
inch es
pup pe
Son akshi
Play ed
analy st
analy tical
aid s
sme ar
Sin ha
Sin ister
uk one
diction ary
Mul holland
Hay es
UP N
amal gam
Tre jo
zo oming
exter ior
Mom ents
blur ay
Cri mson
Lef tovers
insist ing
EP IS
Cop per
mistaken ly
Regard ing
Third ly
stir red
Were wolf
alcohol ism
Stra hov
Vol tron
vap or
Bos nia
Pir an
ske leton
obsc urity
mechan ic
Ly on
Viol ent
farm ers
bun ker
dol ph
define tly
acqu aint
Si ber
WR IT
tan gible
sedu ced
Fed eral
Wy oming
Audi ences
Beck y
shel ves
Fair ly
Bil lie
Lem on
sof a
instit utions
Loc ation
grin ning
chris tians
Idi ots
royal ty
HAHA HAHA
Kaz an
detr acted
culmin ating
doc ud
cuss ions
QU EL
Villain s
ZZ ZZ
fiancé e
imbec ile
modi fied
Mam ma
piss es
indoct rin
POW ER
Hold en
embell ish
tarn ished
expans ion
Mup pets
Pleas antly
Chew bacca
Multi ple
Form ula
Fug itive
groo ve
Cze ch
bere ft
unab ashed
Feld man
disheart ening
seiz ure
deput y
SEN SE
Muse um
indict ment
prepar ation
mitig ated
repu gnant
joyou s
navi gate
frater nity
Guarant eed
Grat uitous
Dush ku
Hane ke
rauc ous
pso dy
ubi quit
BEAUT IFUL
Pame la
Umb rella
ammun ition
ogni zing
Depar dieu
Ghi bli
Kleen ex
preco cious
) '
- '
6 2
7 2
7 en
A ck
B ast
B rett
C lear
C loud
C DC
C OP
C lown
D RA
D ata
D icap
E F
E motion
F low
F lock
F requ
G an
G if
G ins
H I
H ig
J E
J ury
K as
L ately
L ousy
M it
M ith
M ild
M ali
M AD
M orton
O CD
P K
P olly
P anda
P AY
P PO
R V
R as
R atched
S X
S war
S HO
S AY
T roll
T yp
T IT
T ED
T IC
T ELL
V D
W im
W ives
W inters
Y un
a amir
b ats
b inder
d roll
d orm
e cle
g orge
g ård
h bo
j ord
k ies
k ara
m k
m p
m add
n if
s f
t ically
w ince
z or
© .
in accuracy
in security
in correctly
in sufficient
re living
re visited
re iterate
on ica
st air
al th
ar ma
vi jay
ct s
om ber
li b
li ven
li ance
ver onica
ic ious
el ed
un es
un dead
un creative
id ency
ab normal
pe w
pe ar
out cast
out let
so ppy
fil ed
ma ma
ma iled
su red
de pre
de grade
ra ining
com fy
di ves
ill as
ood oo
ood les
ex tract
It alians
sc rolling
la gs
la pse
la bell
im er
im on
po li
lo oming
ti ves
per vert
ta w
ta gged
pre fers
we pt
ep ile
get ically
te ased
pro logue
um per
ser ver
over doing
over whel
ure ka
bet ting
sp un
sp ill
sp iced
sp awn
sp rings
sp unky
dis put
dis satisfaction
dis ingenuous
Wh ites
scen ography
real ms
pr ick
pr isons
age ment
aw ry
play boy
mis casting
In g
In touch
In grid
br un
comm its
happ end
where in
ber th
che apest
long time
fore igner
est im
ang es
mind lessly
super st
ced es
He witt
TV D
Al together
cont am
Re boot
Re union
cle ared
We bber
We eds
bu gged
car p
De Palma
Se cur
Be cket
cinemat ograph
gener ational
mon tages
cap ability
inter mission
inter nationally
Un chained
After noon
Le guizamo
gg le
NO PE
ane ity
At ten
At tention
Ne therlands
Over acting
Ar ch
stuff y
wi k
ST E
posit es
boy friends
omb at
RE NT
Go of
Br ought
cool ness
cred ential
dist ortion
pleas es
zz ies
cas ually
loc ale
Ser kis
Di wali
explo des
Brit ton
hell boy
lock er
Po lo
team ing
ca ves
post modern
Bo hemian
En counters
Ger ry
famil ial
Bl um
Lu met
space craft
Christ ensen
nie ces
Co ast
AR D
bar f
bar n
critic ised
Ma ine
Ma ze
relig iously
Pa ula
vest ed
Ed inburgh
Tur k
ail or
sl ender
sl ayer
oun cing
creep ing
Sim ba
Sim ilarly
introdu ctions
12 th
Pr act
rec ognizing
bot ched
indi ans
indi genous
stri ving
El lie
asc ore
Dan za
Fin ch
requ is
provo kes
Mad huri
Mor ric
irrit ation
trou bling
thin ner
ba iting
Mart yrs
HO USE
bomb ard
Hard core
hair y
Bre athe
deserved ly
ju ries
six ty
ax ed
passion ately
pen alty
channel ing
PO OR
Tor v
ga zing
Kore ans
fat ig
Gi ants
18 00
relie ve
knowledge able
Mac Laine
Mac Gyver
LA PD
text s
virt uous
TR Y
Pal in
AW N
organ isation
IF C
Str angers
Bel ow
cris es
altern atives
ann ual
Sta cy
pray ers
Mer cedes
forth coming
demo lish
Rod dy
Orig ins
sun set
sun glasses
sett les
auto psy
Cr ouching
Bu gs
transl ates
poign ancy
naive ty
Street s
Cong ress
Er dogan
fish y
cycl es
ASE D
Ve ere
monot ony
LI ST
LI VE
Play er
ec static
Low er
select ing
FUL L
moti f
compens ated
Hart nett
height ened
inser ting
Scen ario
assist ance
Fav ourite
Pet erson
Hud gens
Def enders
Conn ell
impec cably
Nik ki
aggress ion
Goo de
merc ifully
polar ized
waist ed
Silver stone
weigh ed
Philli pe
AK A
Rain n
Sor vino
sma cked
Hand maid
bast ards
incorpor ates
rot ting
subsequ ently
Pine apple
glit ter
Pad ukone
Pur suit
Happ ened
dwell ing
sched uled
bour g
traff icking
drift ed
Fal k
Syd ow
underest im
prompt ly
laz ily
eer ily
mort ality
Snatch ers
romcom s
slo b
Odd ly
conce it
Dha wan
deterior ated
Chad wick
Dil wale
Drey fuss
hijack ed
definit ly
Danger ous
pengu in
Skars gard
McDon alds
bree ze
Vul can
ffa ut
sau ce
tel eno
rehears ed
conqu ered
Dinosa urs
Shock ingly
cob bled
premature ly
obscen ities
Mol ina
Origin ally
Repe at
Nut cracker
Letter man
Cad dy
Rud y
Alask a
constip ated
DAM N
aku za
forens ic
interl udes
Maj ors
Distur bing
Ely sium
Lis beth
renow ned
Emb arrass
loboto my
Sciento logy
Eraser head
Phen omenal
conni ving
flab berg
propog anda
fero cious
Transyl vania
FAM ILY
prest ige
pru dish
accel er
Minnes ota
incent ive
acro bat
Guin ness
Imti az
SX SW
Secur ity
0 6
: "
A J
A then
A ston
A gree
A twood
B AR
C ops
D ary
D add
E c
E k
E sp
E NO
F T
F ix
F NL
F ighter
G ould
G ong
G ond
G ives
H EL
H OME
I ñ
K em
L ago
M ck
M ig
M ache
N ate
N ud
O sa
O US
P iers
P orter
R ever
R ana
S ens
S word
S ource
T il
T went
W inner
W ALL
a venge
a valan
b f
c run
c rock
d aw
d iner
g it
g ur
h ou
h ousing
i ya
j ug
k k
k irk
l arson
m ens
o vich
o cracy
p enetr
t ide
u z
v acc
w yn
y k
y u
y adda
👍 🏻
😍 😍
in difference
in vari
er as
an niversary
the l
the ology
re capture
re pression
on set
st amped
it on
it als
al og
as ive
of course
mo l
ch it
le wd
il ha
ad vers
ent ourage
me ters
sh ri
sh ak
sh ave
ke e
el ites
oo ke
oo zing
un called
un scripted
un successfully
un timely
ab it
ab ol
ab ble
ab ack
ab ras
ha j
ha zy
ce tera
out shines
ge ois
su ite
su bor
ra mble
ul ating
op pose
fe ats
ro bust
ill usions
ex ple
sc umb
sc roll
sc ato
im ir
po pe
do dge
he ark
char d
char t
pl z
con tag
con secut
per mit
ta pped
pre stig
au da
ol fini
over powered
sp raw
dis abilities
fa w
real ising
real ises
10 x
ac er
them atics
ho spit
mis represented
mis chie
In spir
In sane
In betweeners
mat ary
mat inee
back yard
St rain
St anton
tra ppings
dra wer
exc er
wast eland
high school
ten nis
ps ies
em path
bl oopers
So lace
No el
No va
set ups
wood y
screen er
cra ze
wa aay
wa fina
ran gi
mus ics
He ist
He aton
Al vin
mag net
med itation
ste ve
ste ak
war p
We ir
My les
car nation
De ck
De vito
Se ann
Mo ana
pi a
cli ent
Be au
hero ics
Star Wars
wrong s
19 15
inter mit
Un fortunate
Un planned
tit anic
!!! "
!!! .
col ony
col oured
pow der
spe ws
sy ndic
bra w
men u
She a
ele ctions
ah h
conf er
law at
law suit
Ar c
ret reat
stuff s
AN E
RE E
Br ings
dou bled
af for
weak ly
ident ifying
pac es
Per cy
white wash
loc ate
pur ple
Da e
Ste infeld
pri zes
arch ae
Brit ney
Ter ra
tele vised
team ed
LO US
Like wise
fo ist
band width
narr ate
narr ates
Fil ip
trans former
........ ......
Bl aderunner
Tr ade
pat ently
Co stume
nam ing
novel la
Gu ard
Super star
har th
har med
Ma il
dream like
Gr illo
Qu in
correct ed
rend ers
wr ists
sens ed
lik ability
shed ding
host ing
cute st
Nor bit
Bra ff
Mon te
Mon aghan
Des ert
bel s
str ut
El ena
Far ris
Robert son
cat alo
cat aly
fear ful
Fe lix
Mus k
sen ile
bomb astic
path i
struct ures
Thr ill
fla gs
SO OO
motiv ate
grat itude
grat ifying
Hol tz
inv itation
charm less
suck ers
Mag ne
Alex is
bright ly
commun ists
Pre mise
cell phone
cock ney
glor iously
service able
Ru fus
Mir a
investig ators
16 th
process es
TR UST
argu ed
occur rence
oper ates
melo dy
hide ously
Knight s
heavi er
fictional ized
Ree ve
Under stand
link ing
popul ate
visit ors
*** .
Ca it
Produ ced
Dog ma
Tal ent
resc ues
SG A
hunt s
competit ive
Mis sed
Mis ery
nit picking
Er nie
bum ble
Dun e
concent rating
mic row
Les bian
Entertain er
advance ment
exas per
Set s
minimal istic
Id k
Dream Works
Rem ark
Log ic
TA KE
Iraq i
sensational ist
engine ered
ambi ence
incess antly
tro l
Hunt ers
snoo zer
Def oe
Laugh able
valid ity
official s
rein forces
splend or
whis key
Pie ce
inf used
Ann iston
Sub tle
reson ated
Clar a
Tar get
supre mac
drown s
Vol ume
exquisite ly
integr ation
voy age
Strange ly
myst ique
Stand ing
Tat i
desp ised
medic ation
kar ma
inject ing
Fell ow
slea ze
enchant ment
Ref n
unravel ing
Rush more
convi ctions
mig raine
mush y
Prison er
righteous ness
humili ated
Loc ations
Fass binder
Anti christ
interval s
Conf used
Conf idential
Crash ers
Kash mir
Clay ton
nom inees
astound ingly
xx x
resurrect ion
Quest ions
exhibit ion
stylistic ally
YE ARS
blog spot
stray ed
spont aneity
DR AMA
Wo ke
imperfect ions
Vio let
Foot ball
SUPER B
LIT TLE
Elect ro
tant alizing
Elf man
transcend ent
Neg atives
Kel lie
Winst one
Mau de
spi ke
Comed ies
________ ________
Infer nal
Gand olfini
merciless ly
unle ashed
embell ished
decad ence
Vent ura
mong ering
purport s
fid get
................................................................ ................................................................
whirl wind
mirac ulously
drool ing
TRU LY
RECOMMEND ED
Mand arin
reper toire
Colomb ian
extrem ists
kit ten
spons or
Cred it
hench men
Ili ad
esc ort
Tub man
Rha psody
Meta critic
Krish na
chau vin
woken ess
compr ised
perip heral
hodge podge
Biz arre
DUM B
comr ades
diseas es
Nem esis
Alz heimer
Lup ita
capsu le
Savi or
Giu lio
Pengu in
Frit z
Valer ian
Knox ville
Cale b
Kni ves
maw kish
crescen do
docud rama
ubiquit ous
Dicap rio
ecle ctic
nif ty
Intouch ables
ENO UGH
Mache te
prestig ious
! </
6 9
8 6
B uster
C er
C anyon
D it
D ang
D ino
E z
E st
E gerton
E agle
E ureka
F actor
F alco
G MO
H uff
I ris
J ung
K S
K ombat
L ula
L AND
M OR
N iger
O WN
R ATED
R usty
R ules
S li
S oo
S ri
S port
S lim
S ier
S kins
T ex
T ali
T angled
V as
V ish
Y ah
Y uk
a inted
a thes
b n
c ula
d rank
f ists
f als
f isher
h s
h man
h over
i u
j is
j abs
j ana
n ug
p ab
p ak
t um
t idy
v ale
y en
y ep
z ar
z zing
ã o
🔥 🔥
in th
in ate
an arch
the sp
re mo
re jo
re birth
or ic
st ache
to bac
as sh
as semble
ch ina
ch anted
le one
le berry
vi car
il der
il ian
il ene
ve la
ow sk
ow sky
ad der
ad os
ic an
for ums
.. ?
un lucky
un suitable
un reliable
un icorn
id on
ab and
ha st
pe aks
ce ptive
so ak
so pho
fil ters
ma k
ma ge
not withstanding
su med
de x
de fault
de generated
ra ined
ra gs
op ard
ne c
fe aring
fe ather
ill es
ill iterate
sc ent
lo ot
no x
show ings
do omsday
he ir
ti fied
char ges
con gress
per ky
per ceptions
pre ad
pre occupied
go spel
ap ples
what not
by l
te ly
pro lific
over loaded
even ings
gu ides
gu ffa
bo iling
dis k
dis agreed
dis appearing
fa ked
pr ere
pr istine
pp a
rect ion
ff ic
ore s
ie th
ort ment
ye ster
ass ortment
fin er
But cher
lie u
mis fit
br an
br ute
St amp
St urges
red iculous
hor ia
dra ining
she ar
gen ital
sur fer
og atory
cent res
Ch ill
need y
pret ended
sim psons
bl er
sit ies
comp at
vers ed
recommend able
super ficially
fli c
vo ila
med dling
ste en
cond itional
car riage
De vine
sequ it
For ward
Se arch
Se 7en
Se matary
Be ars
vol ution
rest s
An ub
human itarian
predict ing
gl um
gl ances
young ster
19 20
mon t
run k
place ments
begin ing
col l
To sca
reg ions
ped o
?? )
Le a
sup press
wal kers
side ways
Lo y
Lo ach
par aly
Do omsday
direction less
IN TER
list ens
pu ri
", "
miss able
miss iles
May or
boy ish
boy cot
supp lies
fast est
Br ooke
pay back
Disney land
tail ored
Car go
bb s
sum mon
AL S
Mc Gu
pur ist
pur sued
Di ct
ket t
Eng aging
comment aries
jud gments
cry ptic
tele phone
LO WE
actual ity
flat tering
pack aging
god ly
refer encing
carto ony
Ha zzard
Ha unted
dru gged
order ing
Pa ige
Gr ad
Cl ash
Ed ition
hot test
Tur ning
sl ums
rend ing
eld a
sla ps
SE QUEL
host ages
spot ted
Ge ez
az i
az ine
Pr in
flu ke
Ben ing
Hor rend
anti que
Pl ane
13 5
Her man
Col umbo
Tru ffaut
soul ful
Ang ie
Mel bourne
Vi vien
sym pto
Far scape
program med
BO TH
inc ere
ham pered
Bar n
Bar ber
bla mes
random ness
sen ator
trad ing
commer cially
alien ation
Step h
sil ently
prefer ences
van ished
succeed ing
Wonder fully
Wonder falls
chick ens
fab ulously
grad ual
init i
pun ks
rad ically
Fam ous
Space k
Space balls
independ ently
pal ace
Dep art
Cru de
gut sy
Ru ined
**** **
Steven son
Witch es
Bay watch
fix ing
fix es
resol ves
rul er
Nice ly
accident s
fare well
flo ats
Vin od
Du pl
Right s
???? ????
shut ting
PE CI
Dar abont
pit falls
Crow d
North west
favour able
Dun away
Interest ingly
195 6
sque aky
knock off
lu ent
exer c
AV Y
haunt s
analy se
Crit ic
Put in
sno bbish
Pop corn
campaign s
dump ing
ett es
hyper active
trade marks
hesit ated
Cur se
Mu hammad
meat y
Dem ons
util izing
summar ise
rein carnation
satisf ies
Kath arine
whim sy
oblig ation
Cal ista
neighb ours
som mar
devast ation
HE ART
eff ing
SC ARY
Isa belle
elabor ated
musc ular
aud itor
Creat or
kiss es
Lam bert
Tol stoy
acqu ire
acqu ainted
devi ate
Tw ice
cig ar
glit z
Pad ilha
Fair y
apologi zed
nephe ws
schlock y
Olym pics
Finn ish
mart in
contempl ative
Melan cho
quant um
Mix ed
Comp elling
Pope ye
Eugen io
Por ky
Kris toff
sweat y
Jai me
taboo s
heter o
Cow boys
flare s
LIT ER
sway ed
Hog an
Sac red
inhuman e
slash ers
stig ma
Mau reen
stack ed
Yor ker
fizz led
HAPP Y
Vlad imir
perpetr ated
Theres a
reen act
athlet es
unders core
Mut ant
mant le
Indones ian
SPE CT
Follow ed
unapolo getically
Awk wafina
++++++++ ++++++++
Kier nan
bil ge
TRU TH
Budd hist
Hutch erson
craf tian
Croat ian
Kardashi ans
diagno sed
intu ition
republican s
scrut iny
delic ately
treas ures
cham ber
conj ure
spor adic
begg ars
fract ured
incongru ous
MP AA
hier archy
Supre me
Intri guing
Current ly
detri ment
accord ingly
Prote ctor
promiscu ous
Antoine tte
Philipp ines
perf om
Chocol ate
blasphe my
Vive k
unflinch ing
intervent ion
conced e
haus en
Jeri cho
sard onic
boor ish
turbul ent
proverb ial
Admir al
catastroph ic
Scroo ge
Rudo l
Dek ker
Schw immer
Piran ha
Morric one
Gond ry
invari ably
mischie vous
Tali ban
tobac co
( &
* ,
4 D
6 00
7 4
A ang
A bu
A VE
A ja
B P
B apt
B ub
B LA
B LOW
C OR
C AP
C indy
D ress
E volution
F ion
F ired
F ully
F aye
G aim
G imme
G IRL
H K
H N
H UN
I o
K am
K hal
L ans
L est
L izard
N ED
N erd
O nt
O live
P oo
P aw
P ony
P refer
P LA
P iano
R ach
S 3
S ma
S uck
S AL
S yn
S AG
T G
T aron
T arentino
U topia
V M
W ade
W rest
X men
Y an
a o
d ow
d int
d ard
d ice
d reading
d anced
f ere
f fet
g loves
g aga
h edon
n atch
n ig
p out
r ere
s ni
s lander
t ugs
u so
u rious
v ant
v odka
w andered
z ip
¤ £
é mon
th wart
in qu
in offensive
in mates
in excusable
an onymous
the ological
re told
re acts
on ward
at us
at ouille
st ics
it man
and ra
as sets
ed ged
ch are
ch imp
ot ics
wh ale
you ths
me mes
me ander
sh outs
oo ster
un sc
un ited
un pretentious
un satisfactory
un mitigated
id k
ab ase
ab ama
ha g
with stand
all er
ri arch
de vious
ne e
fe as
di p
ro aming
sc off
la pses
im paired
am mo
lo an
end ors
he ath
char ach
tr ooper
con ic
con version
per tain
per tin
who a
go thic
ven eer
ep ilo
ap pa
up front
up dates
by gone
qu aint
jo s
... ),
der ogatory
ink ing
every man
over stated
ci er
think ers
ound rels
bo le
dis course
dis orders
fa iries
Wh i
ll ed
low brow
ac ly
off ence
character ize
ass orted
ru d
should nt
mis haps
mis tery
mis conceptions
du per
tle y
ph arma
red one
hor mon
cl ay
cl uded
cl ashes
cl uttered
life like
life styles
won dr
gen e
gen itals
che z
che ery
est imate
pa used
ob t
bl ud
fan fare
co d
co ats
hard working
aut s
wa fer
tri bal
super girl
fli pp
fli pped
mot to
He che
person as
dial ouge
Al abama
cont end
cont acts
Re le
Re yn
sing h
ste w
war ms
bu zzing
All an
slow ness
For ster
mess iah
class mates
pi geon
vol unt
Star ring
je w
An sel
Some what
TH REE
mon ies
inter viewing
Un watchable
Le ban
prop elled
cr umbling
sy ste
par asite
master work
Do or
ele phants
impress es
At kins
miss ive
cu ff
Ar go
Net Flix
visual ization
Is le
ton y
ear liest
AN NO
AN GE
vide og
Man ny
ON D
Car re
Su cks
dam s
igh th
Per ros
prof iles
comic book
concept ual
Marvel s
AL E
AL ERT
bi kers
explo ded
pick up
Ab dul
Sha ilene
pure st
ca kes
En chanted
Me chan
mi ke
shi ver
wo es
cru deness
edge hog
iv ities
English man
lim bs
suggest ive
Gu g
Ha il
sick ened
Ma is
sign als
natural istic
sl ating
throw backs
sens ical
Ra ising
ury len
ug liest
Was p
rec iting
Hor rid
canc els
odd ities
Che ster
Che ech
Sand y
stri ps
fr own
str icken
:) ))
El sa
El ise
marvel ously
stal king
Show girls
sym phony
Fin land
recogn izes
progress ing
Bar bra
cat alog
Sa ved
Sa usage
liber ation
dish on
del inqu
Rom ano
Tim on
moral istic
Exc use
70 24
phenomen ally
ES PECI
motiv ating
grace fully
tran qu
punch y
Ac cess
BE EN
reboot ing
offensive ly
eth os
Girl friend
Had dish
def en
stunt man
pun isher
biz a
Pri or
atro ciously
bright est
object ivity
Lau rel
sky walker
hon oring
Mac L
Abra hams
Mir acle
Hel ms
Pix els
intention ed
Cor bet
Cor leone
oper ative
24 95
resol utions
park s
tt 0
controvers ies
resembl ed
syn th
buff oons
indu ce
speed ing
squ arely
fed eration
!!!!!!!! !!
separ ately
auto biography
Rating s
Sing ing
Sing le
transl ating
blast ed
adm its
Haw ks
competit or
Clo ser
tick le
Dor ian
Whe els
recall s
communic ating
Ver tigo
tour s
accomplish ments
scratch ed
Anim als
admir er
admir ing
Son am
AV P
Port ug
thet ical
decl ining
Heath ers
pir ated
Med ic
Comm ando
Mul ligan
Island s
END ING
emer ges
Lar ge
Cu th
engine ers
ambi ent
resort ed
Devil s
cram ming
Wolf gang
ligh thouse
pand ers
dum mies
AB Y
narciss ist
supre macy
scra ping
sprink ling
chor us
Dab angg
mud dy
mud dle
myst ifying
mechan ics
mechan ism
assault ed
infect ion
decor ated
Independ ent
Sel ena
boost ed
dick s
Less er
holic s
CO ST
Rand eep
Tell er
Philip pe
Cut ting
nihil ism
surg ical
Wy att
dazz le
shred s
pis sing
Cou rage
Cross ing
intoler ant
Mot or
Mot ion
Mot el
Bus iness
distress ing
Happ iness
bour geois
Pick ler
pron ounce
FA KE
Rat atouille
Syl vain
sensu ality
crook s
Idi ocracy
Pand ora
regurg itation
sociopath ic
dev out
Quest ion
Shet land
Iceland ic
glee fully
euro pean
,,,, ,,,,
scept ic
Elect ric
inep titude
asser t
halluc inations
Spot light
radi ation
Tud yk
morph ed
CL ASSIC
Chick en
masoch ist
Skars gård
flex ible
Fron t
repr ising
crus ade
zeal ous
Gentle man
Eh ren
stoo ges
Mental ist
==== ====
ls0 7024
Femin ist
reper cussions
Kardashi an
solit ude
TB BT
thri ves
syrup y
Bren nan
chalk board
phas es
Contain s
Atom ic
Gem ma
panor amic
BF G
Dru gs
Faw lty
tropol is
McCl ane
vali ant
Exper iment
Gav ras
Weather ly
CHILD REN
Millen nium
FRIEND S
Sno ke
prent ice
Aly ssa
encomp asses
crip pled
Banglades hi
Lob ster
evan ge
thump ing
Secre ts
Mori arty
machin ery
Vene z
inhab ited
MAJ OR
Hung ary
ambul ance
fanc iful
nib als
EPIS ODE
Strahov ski
Hig gins
Typ ically
Atten borough
wik ipedia
credential s
requis ite
LIST EN
flabberg asted
Dary l
Nud ity
avalan che
abras ive
scato logical
Magne to
microw ave
Sier ra
pab lum
Dict ator
Dupl ass
ESPECI ALLY
ls07024 2495
5 9
7 3
? !!!
A e
A be
A yn
A dol
A mores
B ene
B az
B oman
B AF
B hans
C ave
C OU
D M
E at
E ating
F ri
F ry
F arrow
G Y
G uru
H R
H ak
H utton
I biza
[...]
