{"version":"1.0","truncation":null,"padding":null,"added_tokens":[{"id":0,"special":true,"content":"[UNK]","single_word":false,"lstrip":false,"rstrip":false,"normalized":false},{"id":1,"special":true,"content":"[SEP]","single_word":false,"lstrip":false,"rstrip":false,"normalized":false},{"id":2,"special":true,"content":"[PAD]","single_word":false,"lstrip":false,"rstrip":false,"normalized":false}],"normalizer":null,"pre_tokenizer":{"type":"Whitespace"},"post_processor":null,"decoder":null,"model":{"dropout":null,"unk_token":"[UNK]","continuing_subword_prefix":null,"end_of_word_suffix":null,"fuse_unk":false,"vocab":{"[UNK]":0,"[SEP]":1,"[PAD]":2,"\u0003":3,"\u001b":4,"!":5,"\"":6,"#":7,"$":8,"%":9,"&":10,"'":11,"(":12,")":13,"*":14,"+":15,",":16,"-":17,".":18,"/":19,"0":20,"1":21,"2":22,"3":23,"4":24,"5":25,"6":26,"7":27,"8":28,"9":29,":":30,";":31,"<":32,"=":33,">":34,"?":35,"@":36,"A":37,"B":38,"C":39,"D":40,"E":41,"F":42,"G":43,"H":44,"I":45,"J":46,"K":47,"L":48,"M":49,"N":50,"O":51,"P":52,"Q":53,"R":54,"S":55,"T":56,"U":57,"V":58,"W":59,"X":60,"Y":61,"Z":62,"[":63,"\\":64,"]":65,"^":66,"_":67,"`":68,"a":69,"b":70,"c":71,"d":72,"e":73,"f":74,"g":75,"h":76,"i":77,"j":78,"k":79,"l":80,"m":81,"n":82,"o":83,"p":84,"q":85,"r":86,"s":87,"t":88,"u":89,"v":90,"w":91,"x":92,"y":93,"z":94,"{":95,"|":96,"}":97,"~":98,"":99,"":100,"":101,"":102,"":103,"":104,"":105,"":106,"":107,"":108,"":109,"":110,"¡":111,"¢":112,"£":113,"¤":114,"¥":115,"¦":116,"§":117,"¨":118,"©":119,"ª":120,"«":121,"¬":122,"­":123,"®":124,"¯":125,"°":126,"±":127,"²":128,"³":129,"´":130,"µ":131,"¶":132,"·":133,"¸":134,"¹":135,"º":136,"»":137,"¼":138,"½":139,"¾":140,"¿":141,"À":142,"Á":143,"Â":144,"Ã":145,"Ä":146,"Å":147,"Ç":148,"È":149,"É":150,"Ê":151,"Ë":152,"Í":153,"Î":154,"Ï":155,"Ñ":156,"Ò":157,"Ó":158,"Õ":159,"Ö":160,"×":161,"Ø":162,"Ú":163,"Û":164,"Ü":165,"ß":166,"à":167,"á":168,"â":169,"ã":170,"ä":171,"å":172,"æ":173,"ç":174,"è":175,"é":176,"ê":177,"ë":178,"ì":179,"í":180,"î":181,"ï":182,"ð":183,"ñ":184,"ò":185,"ó":186,"ô":187,"õ":188,"ö":189,"ø":190,"ú":191,"û":192,"ü":193,"ý":194,"ā":195,"č":196,"ē":197,"ğ":198,"ī":199,"İ":200,"ı":201,"Ł":202,"ł":203,"ń":204,"ō":205,"Œ":206,"œ":207,"Ş":208,"ş":209,"Š":210,"š":211,"Ţ":212,"ű":213,"Ÿ":214,"ź":215,"Ż":216,"ż":217,"Ž":218,"ž":219,"ƒ":220,"ʖ":221,"ˆ":222,"˙":223,"˜":224,"͜":225,"͡":226,"Ι":227,"Б":228,"а":229,"в":230,"е":231,"к":232,"л":233,"о":234,"п":235,"р":236,"с":237,"т":238,"ь":239,"ю":240,"я":241,"ј":242,"ا":243,"ب":244,"د":245,"س":246,"غ":247,"ق":248,"ก":249,"ง":250,"ย":251,"ร":252,"ა":253,"ბ":254,"ი":255,"ლ":256,"ო":257,"რ":258,"ღ":259,"ჯ":260,"ậ":261,"ố":262,"​":263,"‍":264,"‎":265,"–":266,"—":267,"―":268,"‘":269,"’":270,"‚":271,"“":272,"”":273,"„":274,"†":275,"‡":276,"•":277,"…":278,"‪":279,"‬":280,"‰":281,"′":282,"‹":283,"›":284,"※":285,"€":286,"№":287,"™":288,"−":289,"⎯":290,"★":291,"☆":292,"☝":293,"☠":294,"☹":295,"☺":296,"♀":297,"♂":298,"♠":299,"♡":300,"♥":301,"⚫":302,"⛈":303,"✅":304,"✊":305,"✌":306,"✔":307,"✨":308,"❌":309,"❓":310,"❕":311,"❣":312,"❤":313,"⭐":314,"ツ":315,"単":316,"채":317,"":318,"️":319,"﻿":320,"（":321,"）":322,"，":323,"：":324,"🅱":325,"🇦":326,"🇮":327,"🇯":328,"🇱":329,"🇳":330,"🇵":331,"🇷":332,"🇸":333,"🇺":334,"🌚":335,"🌞":336,"🌟":337,"🌴":338,"🍀":339,"🍅":340,"🍯":341,"🍻":342,"🍿":343,"🎈":344,"🎤":345,"🎥":346,"🎬":347,"🎭":348,"🎯":349,"🎸":350,"🏅":351,"🏆":352,"🏡":353,"🏻":354,"🏼":355,"🏽":356,"🏾":357,"🏿":358,"🐂":359,"🐈":360,"🐊":361,"🐕":362,"🐵":363,"🐻":364,"👀":365,"👁":366,"👈":367,"👊":368,"👌":369,"👍":370,"👎":371,"👏":372,"👐":373,"👑":374,"👗":375,"👙":376,"👠":377,"👥":378,"👨":379,"👩":380,"👼":381,"👽":382,"💀":383,"💁":384,"💃":385,"💅":386,"💋":387,"💐":388,"💓":389,"💔":390,"💕":391,"💖":392,"💗":393,"💘":394,"💙":395,"💛":396,"💜":397,"💞":398,"💟":399,"💣":400,"💥":401,"💩":402,"💪":403,"💯":404,"💰":405,"💸":406,"💺":407,"📍":408,"🔟":409,"🔥":410,"🔪":411,"🔫":412,"🕷":413,"🕸":414,"🖤":415,"🗝":416,"😀":417,"😁":418,"😂":419,"😃":420,"😄":421,"😅":422,"😆":423,"😇":424,"😉":425,"😊":426,"😋":427,"😌":428,"😍":429,"😎":430,"😏":431,"😐":432,"😑":433,"😒":434,"😔":435,"😕":436,"😖":437,"😗":438,"😘":439,"😚":440,"😛":441,"😜":442,"😝":443,"😠":444,"😡":445,"😢":446,"😣":447,"😤":448,"😥":449,"😬":450,"😭":451,"😮":452,"😰":453,"😱":454,"😲":455,"😳":456,"😴":457,"😶":458,"😸":459,"😿":460,"🙁":461,"🙂":462,"🙄":463,"🙈":464,"🙊":465,"🙌":466,"🙏":467,"🚀":468,"🚫":469,"🤐":470,"🤓":471,"🤔":472,"🤘":473,"🤙":474,"🤞":475,"🤠":476,"🤢":477,"🤣":478,"🤦":479,"🤷":480,"🦄":481,"th":482,"in":483,"er":484,"an":485,"the":486,"is":487,"re":488,"on":489,"at":490,"en":491,"ing":492,"ou":493,"or":494,"st":495,"it":496,"and":497,"al":498,"to":499,"es":500,"as":501,"ed":502,"ar":503,"of":504,"mo":505,"ly":506,"ch":507,"le":508,"vi":509,"ct":510,"se":511,"be":512,"il":513,"om":514,"ve":515,"Th":516,"vie":517,"this":518,"ow":519,"ot":520,"li":521,"ut":522,"ver":523,"ad":524,"wh":525,"movie":526,"ic":527,"that":528,"was":529,"act":530,"for":531,"ent":532,"you":533,"me":534,"ion":535,"gh":536,"sh":537,"ay":538,"ke":539,"el":540,"oo":541,"ere":542,"The":543,"ith":544,"..":545,"un":546,"one":547,"id":548,"ld":549,"ab":550,"ha":551,"with":552,"are":553,"pe":554,"but":555,"ce":556,"out":557,"so":558,"fil":559,"ma":560,"not":561,"film":562,"ge":563,"all":564,"su":565,"ri":566,"ally":567,"ome":568,"ir":569,"de":570,"ust":571,"ers":572,"ra":573,"ul":574,"op":575,"ould":576,"ne":577,"fe":578,"ter":579,"atch":580,"have":581,"com":582,"di":583,"very":584,"ro":585,"ill":586,"ood":587,"ex":588,"watch":589,"It":590,"sc":591,"la":592,"thing":593,"im":594,"ck":595,"am":596,"like":597,"po":598,"lo":599,"some":600,"ant":601,"no":602,"ght":603,"any":604,"show":605,"see":606,"do":607,"end":608,"ory":609,"just":610,"ast":611,"ell":612,"wor":613,"int":614,"ther":615,"ess":616,"reat":617,"rom":618,"This":619,"he":620,"ti":621,"good":622,"us":623,"my":624,"char":625,"pl":626,"story":627,"tr":628,"art":629,"con":630,"they":631,"if":632,"per":633,"nd":634,"ta":635,"ur":636,"pre":637,"can":638,"charact":639,"who":640,"we":641,"go":642,"from":643,"ven":644,"about":645,"ist":646,"ep":647,"ap":648,"up":649,"ous":650,"au":651,"get":652,"what":653,"more":654,"way":655,"has":656,"ive":657,"ment":658,"ol":659,"ough":660,"ation":661,"ig":662,"ine":663,"by":664,"time":665,"ind":666,"qu":667,"really":668,"man":669,"jo":670,"ook":671,"great":672,"ag":673,"ate":674,"te":675,"will":676,"...":677,"ies":678,"rit":679,"would":680,"able":681,"pro":682,"now":683,"sa":684,"ard":685,"did":686,"view":687,"ople":688,"ful":689,"ong":690,"there":691,"der":692,"other":693,"ink":694,"don":695,"people":696,"our":697,"were":698,"pt":699,"um":700,"et":701,"whi":702,"how":703,"fun":704,"ser":705,"every":706,"ity":707,"bad":708,"ite":709,"ble":710,"uch":711,"over":712,"your":713,"than":714,"his":715,"had":716,"bec":717,"even":718,"ure":719,"bet":720,"vies":721,"ci":722,"ever":723,"gu":724,"ss":725,"her":726,"ple":727,"think":728,"irst":729,"movies":730,"acting":731,"much":732,"characters":733,"well":734,"bo":735,"most":736,"ound":737,"ause":738,"sp":739,"dis":740,"could":741,"fa":742,"Wh":743,"its":744,"ade":745,"scen":746,"pect":747,"only":748,"make":749,"too":750,"first":751,"ence":752,"ight":753,"ll":754,"thr":755,"real":756,"because":757,"ny":758,"pr":759,"kes":760,"king":761,"point":762,"ars":763,"does":764,"know":765,"low":766,"look":767,"!!":768,"writ":769,"des":770,"been":771,"say":772,"joy":773,"pp":774,"rect":775,"sel":776,"plot":777,"ors":778,"ish":779,"ack":780,"ff":781,"ore":782,"want":783,"their":784,"ty":785,"which":786,"10":787,"If":788,"watching":789,"review":790,"made":791,"iso":792,"ac":793,"ain":794,"when":795,"enjoy":796,"age":797,"better":798,"ide":799,"lit":800,"own":801,"ved":802,"min":803,"fter":804,"episo":805,"ves":806,"ason":807,"love":808,"action":809,"tain":810,"fect":811,"off":812,"seen":813,"feel":814,"ie":815,"them":816,"character":817,"ort":818,"tw":819,"ye":820,"direct":821,"series":822,"into":823,"many":824,"ving":825,"best":826,"ass":827,"fin":828,"ho":829,"aw":830,"self":831,"ated":832,"ical":833,"ru":834,"part":835,"vel":836,"But":837,"lie":838,"less":839,"play":840,"then":841,"should":842,"And":843,"mis":844,"du":845,"funny":846,"ious":847,"In":848,"expect":849,"tle":850,"ph":851,"ces":852,"ice":853,"cast":854,"new":855,"ought":856,"ertain":857,"There":858,"ans":859,"ating":860,"try":861,"lot":862,"ick":863,"read":864,"stand":865,"mat":866,"ame":867,"br":868,"gr":869,"after":870,"hi":871,"never":872,"back":873,"St":874,"red":875,"actors":876,"hor":877,"work":878,"something":879,"ense":880,"tra":881,"under":882,"ting":883,"through":884,"cl":885,"orig":886,"life":887,"origin":888,"ud":889,"seem":890,"also":891,"old":892,"ens":893,"day":894,"ach":895,"erest":896,"going":897,"scenes":898,"ary":899,"ugh":900,"won":901,"pla":902,"belie":903,"ef":904,"interest":905,"here":906,"ry":907,"being":908,"comm":909,"original":910,"didn":911,"tim":912,"laugh":913,"happ":914,"where":915,"again":916,"dra":917,"ance":918,"nt":919,"ually":920,"ction":921,"ose":922,"comed":923,"gi":924,"bor":925,"ue":926,"she":927,"line":928,"gen":929,"thought":930,"ber":931,"sur":932,"tal":933,"peci":934,"nothing":935,"che":936,"....":937,"exc":938,"og":939,"long":940,"ise":941,"got":942,"ark":943,"ster":944,"start":945,"films":946,"wast":947,"ase":948,"give":949,"little":950,"cent":951,"ily":952,"high":953,"ak":954,"ten":955,"mer":956,"Ch":957,"ire":958,"episode":959,"ute":960,"perfor":961,"fore":962,"cre":963,"need":964,"reviews":965,"why":966,"rible":967,"though":968,"times":969,"two":970,"such":971,"est":972,"worth":973,"watched":974,"may":975,"zing":976,"appoint":977,"right":978,"entertain":979,"still":980,"ning":981,"these":982,"diff":983,"scre":984,"boring":985,"You":986,"makes":987,"pa":988,"performan":989,"ript":990,"disappoint":991,"those":992,"ild":993,"ps":994,"lack":995,"sim":996,"em":997,"done":998,"pret":999,").":1000,"ang":1001,"ama":1002,"same":1003,"him":1004,"ob":1005,"cou":1006,"comedy":1007,"tur":1008,"ments":1009,"bl":1010,"mind":1011,"doesn":1012,"bit":1013,"find":1014,"season":1015,"comple":1016,"ror":1017,"script":1018,"cine":1019,"ave":1020,"down":1021,"big":1022,"far":1023,"few":1024,"oney":1025,"sit":1026,"actually":1027,"interesting":1028,"fan":1029,"pers":1030,"So":1031,"ions":1032,"produ":1033,"book":1034,"ng":1035,"set":1036,"No":1037,"fam":1038,"shows":1039,"ations":1040,"comp":1041,"sure":1042,"rong":1043,"What":1044,"od":1045,"ree":1046,"whole":1047,"utes":1048,"co":1049,"commend":1050,"hu":1051,"ways":1052,"ward":1053,"hum":1054,"ked":1055,"money":1056,"iz":1057,"vers":1058,"sol":1059,"minutes":1060,"hard":1061,"before":1062,"world":1063,"wood":1064,"ual":1065,"ably":1066,"vis":1067,"take":1068,"effect":1069,"illi":1070,"screen":1071,"aut":1072,"ran":1073,"enough":1074,"cept":1075,"another":1076,"differ":1077,"wa":1078,"cra":1079,"mus":1080,"main":1081,"tri":1082,"hour":1083,"saw":1084,"let":1085,"recommend":1086,"understand":1087,"fi":1088,"ics":1089,"amazing":1090,"super":1091,"waste":1092,"ash":1093,"creat":1094,"gin":1095,"last":1096,"anything":1097,"perfect":1098,"ced":1099,"things":1100,"fli":1101,"tell":1102,"ft":1103,"ult":1104,"kind":1105,"les":1106,"rating":1107,"raph":1108,"must":1109,"without":1110,"kid":1111,"come":1112,"keep":1113,"mot":1114,"ool":1115,"vo":1116,"20":1117,"years":1118,"complete":1119,"ys":1120,"scene":1121,"person":1122,"sub":1123,"He":1124,"TV":1125,"Al":1126,"They":1127,"worst":1128,"As":1129,"finite":1130,"riend":1131,"dial":1132,"ater":1133,"while":1134,"ial":1135,"loved":1136,"How":1137,"put":1138,"wonder":1139,"pretty":1140,"fel":1141,"hope":1142,"Not":1143,"horror":1144,"sense":1145,"different":1146,"friend":1147,"turn":1148,"finitely":1149,"press":1150,"--":1151,"surpr":1152,"solute":1153,"wait":1154,"ending":1155,"cont":1156,"happen":1157,"ins":1158,"med":1159,"olly":1160,"iful":1161,"fact":1162,"Re":1163,"cle":1164,"top":1165,"beaut":1166,"director":1167,"ste":1168,"bas":1169,"sing":1170,"pie":1171,"poor":1172,"believe":1173,"audi":1174,"episodes":1175,"ip":1176,"light":1177,"Jo":1178,"irl":1179,"ince":1180,"felt":1181,"arly":1182,"wom":1183,"everything":1184,"Amer":1185,"fort":1186,"Americ":1187,"war":1188,"cond":1189,"vious":1190,"dy":1191,"ative":1192,"rel":1193,"ines":1194,"ollywood":1195,"Don":1196,"making":1197,"enjoyed":1198,"We":1199,"job":1200,"lead":1201,"ren":1202,"music":1203,"everyone":1204,"writing":1205,"vent":1206,"effects":1207,"bu":1208,"isn":1209,"year":1210,"reme":1211,"ween":1212,"quite":1213,"tru":1214,"istic":1215,"always":1216,"found":1217,"All":1218,"sm":1219,"ress":1220,"care":1221,"wasn":1222,"sed":1223,"family":1224,"My":1225,"ale":1226,"between":1227,"emot":1228,"add":1229,"beautiful":1230,"speci":1231,"absolute":1232,"slow":1233,"ian":1234,"por":1235,"ional":1236,"looking":1237,"car":1238,"used":1239,"ically":1240,"ness":1241,"least":1242,"ellent":1243,"icul":1244,"Just":1245,"xt":1246,"girl":1247,"reason":1248,"upid":1249,"seems":1250,"anyone":1251,"humor":1252,"De":1253,"ris":1254,"definitely":1255,"away":1256,"star":1257,"alf":1258,"sequ":1259,"cess":1260,"cor":1261,"vil":1262,"For":1263,"mean":1264,"led":1265,"kill":1266,"dict":1267,"mess":1268,"almost":1269,"ery":1270,"around":1271,"ons":1272,"terrible":1273,"piece":1274,"ath":1275,"class":1276,"audience":1277,"gue":1278,"bably":1279,"trying":1280,"stupid":1281,"ks":1282,"Se":1283,"left":1284,"ately":1285,"drama":1286,"went":1287,"ext":1288,"might":1289,"Mo":1290,"),":1291,"na":1292,"child":1293,"seeing":1294,"ying":1295,"cli":1296,"pi":1297,"second":1298,"val":1299,"peri":1300,"ings":1301,"Hollywood":1302,"performance":1303,"That":1304,"half":1305,"fant":1306,"since":1307,"sound":1308,"both":1309,"else":1310,"entertaining":1311,"next":1312,"use":1313,"surpris":1314,"raphy":1315,"fol":1316,"true":1317,"\".":1318,"comes":1319,"disappointed":1320,"excellent":1321,"Be":1322,"unt":1323,"ign":1324,"liked":1325,"role":1326,"sex":1327,"fl":1328,"ible":1329,"written":1330,"velop":1331,"stu":1332,"dec":1333,"sent":1334,"att":1335,"hel":1336,"vol":1337,"ilar":1338,"ider":1339,"dialo":1340,"hero":1341,"hist":1342,"awful":1343,"probably":1344,"ality":1345,"rid":1346,"special":1347,"son":1348,"crit":1349,"mag":1350,"call":1351,"ner":1352,"ms":1353,"entire":1354,"develop":1355,"kids":1356,"poss":1357,"each":1358,"sci":1359,"heart":1360,"pecially":1361,"onest":1362,"yet":1363,"fav":1364,"Star":1365,"stead":1366,"cri":1367,"especially":1368,"port":1369,"ia":1370,"rest":1371,"said":1372,"gets":1373,"ull":1374,"An":1375,"era":1376,"completely":1377,"je":1378,"wrong":1379,"serious":1380,"ile":1381,"thrill":1382,"human":1383,"absolutely":1384,"predict":1385,"idea":1386,"actor":1387,"ond":1388,"ither":1389,"Some":1390,"stop":1391,"gl":1392,"fully":1393,"cinemat":1394,"cam":1395,"nice":1396,"illiant":1397,"lines":1398,"ply":1399,"young":1400,"19":1401,"oth":1402,"gether":1403,"clo":1404,"deser":1405,"hours":1406,"shot":1407,"appe":1408,"res":1409,"begin":1410,"ney":1411,"sho":1412,"Every":1413,"together":1414,"oc":1415,"TH":1416,"gener":1417,"bre":1418,"couldn":1419,"ists":1420,"mar":1421,"someone":1422,"ism":1423,"mon":1424,"tray":1425,"bly":1426,"ences":1427,"fre":1428,"wanted":1429,"ones":1430,"word":1431,"run":1432,"log":1433,"full":1434,"ready":1435,"night":1436,"hand":1437,"cut":1438,"fight":1439,"ography":1440,"moments":1441,"credi":1442,"anim":1443,"polit":1444,"lic":1445,"Mar":1446,"os":1447,"tem":1448,"cap":1449,"sad":1450,"IM":1451,"cons":1452,"came":1453,"mor":1454,"follow":1455,"ited":1456,"sty":1457,"brilliant":1458,"usu":1459,"lig":1460,"yes":1461,"inter":1462,"jokes":1463,"cur":1464,"dialogue":1465,"!!!":1466,"performances":1467,"plain":1468,"place":1469,"Un":1470,"portray":1471,"tit":1472,"truly":1473,"predictable":1474,"ix":1475,"guy":1476,"head":1477,"uni":1478,"American":1479,"col":1480,"Pe":1481,"ject":1482,"experi":1483,"pow":1484,"reg":1485,"certain":1486,"maybe":1487,"non":1488,"rather":1489,"To":1490,"dark":1491,"body":1492,"cinema":1493,"??":1494,"ped":1495,"als":1496,"vable":1497,"honest":1498,"simply":1499,"gg":1500,"One":1501,"gave":1502,"eng":1503,"After":1504,"ird":1505,"fail":1506,"Le":1507,"form":1508,"deli":1509,"storyline":1510,"iting":1511,"gar":1512,"uring":1513,"viol":1514,"prop":1515,"bud":1516,"sup":1517,"eas":1518,"umb":1519,"side":1520,"arr":1521,"opin":1522,"cr":1523,"ted":1524,"wal":1525,"tic":1526,"hop":1527,"spe":1528,"hn":1529,"production":1530,"astic":1531,"cour":1532,"getting":1533,"Lo":1534,"having":1535,"suppo":1536,"coming":1537,"soci":1538,"looks":1539,"Well":1540,"cing":1541,"ron":1542,"once":1543,"based":1544,"cho":1545,"esome":1546,"Great":1547,"favor":1548,"ER":1549,"sy":1550,"guess":1551,"myself":1552,"rele":1553,"played":1554,"forward":1555,"When":1556,"instead":1557,"bra":1558,"theater":1559,"expected":1560,"ich":1561,"version":1562,"nor":1563,"takes":1564,"rated":1565,"ames":1566,"She":1567,"par":1568,"obvious":1569,"hate":1570,"que":1571,"mber":1572,"stars":1573,"already":1574,"present":1575,"fans":1576,"men":1577,"hy":1578,"Ro":1579,"master":1580,"tot":1581,"talent":1582,"wish":1583,"Li":1584,"yourself":1585,"Do":1586,"Dis":1587,"proble":1588,"totally":1589,"NO":1590,"strong":1591,"ele":1592,"pare":1593,"John":1594,"either":1595,"spo":1596,"goes":1597,"land":1598,"chan":1599,"On":1600,"horrible":1601,"cinematography":1602,"direction":1603,"itself":1604,"short":1605,"opinion":1606,"IN":1607,"However":1608,"sat":1609,"open":1610,"susp":1611,"list":1612,"trail":1613,"worse":1614,"believable":1615,"fall":1616,"power":1617,"women":1618,"ended":1619,"etc":1620,"incredi":1621,"course":1622,"except":1623,"ane":1624,"anno":1625,"realistic":1626,"given":1627,"io":1628,"tempt":1629,"doing":1630,"ned":1631,"budget":1632,"ah":1633,"others":1634,"sch":1635,"male":1636,"\",":1637,"history":1638,"Its":1639,"impress":1640,"pu":1641,"thinking":1642,"quality":1643,"ross":1644,"decent":1645,"conf":1646,"miss":1647,"crap":1648,"At":1649,"ken":1650,"ories":1651,"using":1652,"extreme":1653,"wit":1654,"allow":1655,"wonderful":1656,"contin":1657,"cks":1658,"Chris":1659,"Even":1660,"Why":1661,"teen":1662,"IMD":1663,"ts":1664,"ures":1665,"started":1666,"friends":1667,"Ne":1668,"iculous":1669,"gest":1670,"level":1671,"face":1672,"fantastic":1673,"parts":1674,"fortun":1675,"fer":1676,"cy":1677,"past":1678,"days":1679,"stru":1680,"exp":1681,"intel":1682,"writers":1683,"style":1684,"beginning":1685,"classic":1686,"awesome":1687,"With":1688,"Over":1689,"finish":1690,"actress":1691,"along":1692,"surprised":1693,"until":1694,"guys":1695,"throughout":1696,"expecting":1697,"dep":1698,"ming":1699,"Ar":1700,"ret":1701,"kept":1702,"pict":1703,"sul":1704,"experience":1705,"live":1706,"flix":1707,"cu":1708,"law":1709,"unch":1710,"possible":1711,"attempt":1712,"feeling":1713,"quest":1714,"ention":1715,"woman":1716,"pass":1717,"ek":1718,"score":1719,"camera":1720,"ship":1721,"neg":1722,"vin":1723,"children":1724,"ridiculous":1725,"supposed":1726,"cannot":1727,"ler":1728,"sk":1729,"Watch":1730,"couple":1731,"fresh":1732,"Net":1733,"cop":1734,"giving":1735,"rent":1736,"genre":1737,"ouch":1738,"event":1739,"ates":1740,"stuff":1741,"during":1742,"visual":1743,"CG":1744,"write":1745,"fair":1746,"chance":1747,"May":1748,"ased":1749,"fine":1750,"stories":1751,"ared":1752,"Is":1753,"three":1754,"sequel":1755,"huge":1756,"uck":1757,"help":1758,"consider":1759,"boy":1760,"Very":1761,"wi":1762,"acted":1763,"ities":1764,"ote":1765,"ouse":1766,"ton":1767,"black":1768,"suc":1769,"school":1770,"Yes":1771,"ST":1772,"hilar":1773,"gra":1774,"track":1775,"vid":1776,"omb":1777,"ump":1778,"stay":1779,"God":1780,"supp":1781,"plays":1782,"ingly":1783,"clich":1784,"dri":1785,"bage":1786,"ger":1787,"type":1788,"overall":1789,"pop":1790,"saying":1791,"Also":1792,"suspense":1793,"posit":1794,"expectations":1795,"seemed":1796,"annoying":1797,"enjoyable":1798,"close":1799,"lost":1800,"pot":1801,"Good":1802,"orry":1803,"invol":1804,"00":1805,"ear":1806,"nat":1807,"import":1808,"preci":1809,"AN":1810,"zy":1811,"aking":1812,"ord":1813,"ali":1814,"ace":1815,"lan":1816,"Netflix":1817,"fast":1818,"aring":1819,"**":1820,"garbage":1821,"fut":1822,"rek":1823,"RE":1824,"extremely":1825,"void":1826,"IMDb":1827,"touch":1828,"highly":1829,"ground":1830,"cer":1831,"pay":1832,"Br":1833,"mas":1834,"bro":1835,"ank":1836,"antly":1837,"however":1838,"ize":1839,"message":1840,"feels":1841,"Go":1842,".\"":1843,"took":1844,"remember":1845,"illy":1846,"dou":1847,"please":1848,"hilarious":1849,"pain":1850,"thriller":1851,"violence":1852,"name":1853,"CGI":1854,"trailer":1855,"fran":1856,"development":1857,"Act":1858,"happened":1859,"ese":1860,"home":1861,"ential":1862,"parent":1863,"incl":1864,"support":1865,"issu":1866,"ots":1867,"bring":1868,"telling":1869,"ream":1870,"cool":1871,"ling":1872,"negative":1873,"oud":1874,"typ":1875,"cked":1876,"First":1877,"bored":1878,"dr":1879,"today":1880,"OK":1881,"scar":1882,"leave":1883,"den":1884,"ages":1885,"vide":1886,"lish":1887,"mit":1888,"favorite":1889,"selves":1890,"Can":1891,"reality":1892,"fortunately":1893,"Disney":1894,"vision":1895,"Man":1896,"weak":1897,"Sc":1898,"simple":1899,"af":1900,"coun":1901,"ular":1902,"ake":1903,"win":1904,"become":1905,"spoil":1906,"political":1907,"tail":1908,"Ke":1909,"certainly":1910,"ident":1911,"cred":1912,"entertainment":1913,"song":1914,"Overall":1915,"flick":1916,"attention":1917,"save":1918,"spir":1919,"pac":1920,"single":1921,"mid":1922,"Maybe":1923,"seriously":1924,"ined":1925,"future":1926,"Car":1927,"wife":1928,"looked":1929,"gives":1930,"relation":1931,"die":1932,"DV":1933,"dist":1934,"scary":1935,"ends":1936,"aver":1937,"ino":1938,"playing":1939,"critics":1940,"Su":1941,"ility":1942,"mention":1943,"twist":1944,"deep":1945,"haps":1946,"plan":1947,"ON":1948,"av":1949,"haven":1950,"matter":1951,"Sh":1952,"adult":1953,"myster":1954,"sever":1955,"wouldn":1956,"theat":1957,"mark":1958,"appreci":1959,"roll":1960,"hit":1961,"igh":1962,"yond":1963,"dam":1964,"moder":1965,"exact":1966,"tried":1967,"Sp":1968,"pleas":1969,"situ":1970,"30":1971,"intellig":1972,"bb":1973,"Any":1974,"needs":1975,"heard":1976,"rate":1977,"cult":1978,"US":1979,"mal":1980,"Now":1981,"chang":1982,"case":1983,"Ple":1984,"leg":1985,"Ex":1986,"masterpiece":1987,"AT":1988,"IS":1989,"emotional":1990,"prof":1991,"happens":1992,"Wars":1993,"build":1994,"wise":1995,"ima":1996,"DVD":1997,"ok":1998,"ition":1999,"viewer":2000,"pace":2001,"comic":2002,"!!!!":2003,"Per":2004,"antic":2005,"zz":2006,"forget":2007,"lea":2008,"count":2009,"necess":2010,"concept":2011,"previous":2012,"imag":2013,"remind":2014,"change":2015,"ker":2016,"eyes":2017,"white":2018,"ered":2019,"Com":2020,"cas":2021,"moment":2022,"modern":2023,"taking":2024,"although":2025,"against":2026,"problem":2027,"called":2028,"Please":2029,"books":2030,"detail":2031,"lect":2032,"happy":2033,"usual":2034,"turned":2035,"respect":2036,"ided":2037,"told":2038,"rist":2039,"AL":2040,"sum":2041,"cover":2042,"small":2043,"loc":2044,"game":2045,"works":2046,"hind":2047,"While":2048,"wasted":2049,"week":2050,"Mich":2051,"beyond":2052,"average":2053,"cause":2054,"lid":2055,"doub":2056,"exam":2057,"ley":2058,"uss":2059,"spect":2060,"air":2061,"lear":2062,"leep":2063,"Wor":2064,"foc":2065,"fic":2066,"ized":2067,"particul":2068,"Marvel":2069,"tech":2070,"words":2071,"ier":2072,"stra":2073,"female":2074,"villa":2075,"Jack":2076,"Char":2077,"wn":2078,"Ser":2079,"waiting":2080,"often":2081,"ratings":2082,"Movie":2083,"iness":2084,"mix":2085,"dull":2086,"important":2087,"ards":2088,"utter":2089,"Mc":2090,"ired":2091,"move":2092,"laughing":2093,"deserves":2094,"pur":2095,"hold":2096,"Trek":2097,"mise":2098,"augh":2099,"effort":2100,"shame":2101,"lives":2102,"conne":2103,"Con":2104,"cost":2105,"Da":2106,"directing":2107,"viewers":2108,"ety":2109,"Di":2110,"lame":2111,"ific":2112,"several":2113,"deliver":2114,"sort":2115,"aster":2116,"roles":2117,"matic":2118,"15":2119,"success":2120,"dumb":2121,"agree":2122,"mistry":2123,"potential":2124,"writer":2125,"jor":2126,"bi":2127,"bing":2128,"Oscar":2129,"behind":2130,"similar":2131,"ator":2132,"aged":2133,"Ste":2134,"Har":2135,"reading":2136,"meaning":2137,"chemistry":2138,"franch":2139,"blood":2140,"Tom":2141,"emotion":2142,"twists":2143,"directed":2144,"feat":2145,"dialog":2146,"ING":2147,"lots":2148,"cliché":2149,"Will":2150,"ket":2151,"usually":2152,"Who":2153,"themselves":2154,"exactly":2155,"0s":2156,"pri":2157,"dead":2158,"net":2159,"ured":2160,"explo":2161,"thetic":2162,"verse":2163,"quick":2164,"ago":2165,"From":2166,"trash":2167,"superb":2168,"alone":2169,"taken":2170,"animation":2171,"casting":2172,"poorly":2173,"incredible":2174,"Eng":2175,"asy":2176,"gs":2177,"pick":2178,"knew":2179,"lock":2180,"premise":2181,"title":2182,"NOT":2183,"honestly":2184,"dle":2185,"arch":2186,"hell":2187,"soundtrack":2188,"clever":2189,"swe":2190,"ani":2191,"liter":2192,"forced":2193,"sometimes":2194,"Brit":2195,"solid":2196,"Bad":2197,"known":2198,"unique":2199,"prom":2200,"pite":2201,"ues":2202,"involved":2203,"remake":2204,"glad":2205,"Sha":2206,"comment":2207,"cking":2208,"ael":2209,"flaw":2210,"itch":2211,"psy":2212,"ky":2213,"talking":2214,"aren":2215,"father":2216,"franchise":2217,"wards":2218,"Ho":2219,"hol":2220,"depth":2221,"turns":2222,"humour":2223,"major":2224,"ric":2225,"recent":2226,"Ab":2227,"worthy":2228,"yp":2229,"soon":2230,"hoping":2231,"cheap":2232,"Ter":2233,"finally":2234,"Indi":2235,"fiction":2236,"Oh":2237,"positive":2238,"Mr":2239,"enn":2240,"Really":2241,"brain":2242,"aspect":2243,"sorry":2244,"exe":2245,"deal":2246,"ering":2247,"omin":2248,"standing":2249,"easy":2250,"sult":2251,"house":2252,"bat":2253,"jud":2254,"minute":2255,"gre":2256,"anda":2257,"grou":2258,"ension":2259,"range":2260,"Po":2261,"clear":2262,"decided":2263,"Christi":2264,"explain":2265,"none":2266,"weird":2267,"perfectly":2268,"late":2269,"cry":2270,"room":2271,"keeps":2272,"terri":2273,"silly":2274,"science":2275,"break":2276,"LO":2277,"Of":2278,"dest":2279,"Michael":2280,"Nothing":2281,"pure":2282,"inst":2283,"starts":2284,"laughs":2285,"laughed":2286,"People":2287,"ero":2288,"ib":2289,"himself":2290,"ca":2291,"necessary":2292,"team":2293,"blow":2294,"thor":2295,"easily":2296,"IT":2297,"ats":2298,"actual":2299,"post":2300,"Like":2301,"death":2302,"tele":2303,"loud":2304,"subject":2305,"THE":2306,"kers":2307,"truth":2308,"doubt":2309,"New":2310,"pil":2311,"ised":2312,"exist":2313,"obviously":2314,"bother":2315,"fo":2316,"ational":2317,"abo":2318,"typical":2319,"fig":2320,"sequences":2321,"events":2322,"ude":2323,"video":2324,".....":2325,"bur":2326,"imagin":2327,"example":2328,"evil":2329,"thy":2330,"issues":2331,"fell":2332,"excited":2333,"fit":2334,"ides":2335,"Or":2336,"wer":2337,"esy":2338,"smart":2339,"gon":2340,"arely":2341,"James":2342,"band":2343,"suff":2344,"narr":2345,"setting":2346,"later":2347,"ural":2348,"disappointing":2349,"clearly":2350,"girls":2351,"agon":2352,"apt":2353,"Although":2354,"En":2355,"langu":2356,"Bo":2357,"repe":2358,"aste":2359,"joke":2360,"enty":2361,"straight":2362,"ount":2363,"satis":2364,"intri":2365,"sou":2366,"disappointment":2367,"emotions":2368,"Me":2369,"country":2370,"total":2371,"const":2372,"Then":2373,"cla":2374,"flat":2375,"bunch":2376,"han":2377,"Fil":2378,"stick":2379,"surprise":2380,"voice":2381,"includ":2382,"mostly":2383,"trans":2384,"ina":2385,"histor":2386,"due":2387,"ding":2388,"needed":2389,"personal":2390,"convin":2391,"Ger":2392,"gan":2393,"pack":2394,"points":2395,"key":2396,"201":2397,"execut":2398,"early":2399,"pathetic":2400,"moving":2401,"exciting":2402,"stun":2403,"Lu":2404,"fantasy":2405,"gri":2406,"cial":2407,"created":2408,"treat":2409,"gy":2410,"lice":2411,"picture":2412,"num":2413,"OR":2414,"avoid":2415,"Let":2416,"mystery":2417,"wants":2418,"Tr":2419,"pped":2420,"Most":2421,"ising":2422,"rede":2423,"spent":2424,"middle":2425,"famil":2426,"lar":2427,"und":2428,"stere":2429,"row":2430,"Black":2431,"pat":2432,"cheesy":2433,"ze":2434,"admit":2435,"cring":2436,"els":2437,"anger":2438,"question":2439,"rodu":2440,"wo":2441,"appreciate":2442,"talk":2443,"listen":2444,"cru":2445,"idi":2446,"above":2447,"graph":2448,"interested":2449,"ref":2450,"arant":2451,"iv":2452,"edge":2453,"comments":2454,"group":2455,"free":2456,"literally":2457,"Bl":2458,"showing":2459,"pilot":2460,"shi":2461,"aughter":2462,"television":2463,"His":2464,"mosp":2465,"language":2466,"ony":2467,"........":2468,"bal":2469,"tries":2470,"space":2471,"stereot":2472,"background":2473,"amp":2474,"cers":2475,"ring":2476,"Co":2477,"uses":2478,"gone":2479,"90":2480,"Christ":2481,"ride":2482,"filled":2483,"aging":2484,"society":2485,"atmosp":2486,"amount":2487,"America":2488,"lim":2489,"tiv":2490,"meet":2491,"oose":2492,"final":2493,"seat":2494,"English":2495,"ison":2496,"Em":2497,"missed":2498,"50":2499,"daughter":2500,"intelligent":2501,"AR":2502,"nie":2503,"descri":2504,"critic":2505,"VER":2506,"bust":2507,"theme":2508,"200":2509,"orge":2510,"ideas":2511,"says":2512,"mother":2513,"elements":2514,"check":2515,"usion":2516,"brought":2517,"grow":2518,"py":2519,"Bat":2520,"sug":2521,"Love":2522,"ball":2523,"erial":2524,"god":2525,"perhaps":2526,"refer":2527,"nam":2528,"Everything":2529,"novel":2530,"editing":2531,"War":2532,"advent":2533,"gore":2534,"accept":2535,"suggest":2536,"Gu":2537,"bar":2538,"screenplay":2539,"makers":2540,"LE":2541,"100":2542,"bert":2543,"sexual":2544,"carto":2545,"incredibly":2546,"Season":2547,"express":2548,"Super":2549,"rac":2550,"sets":2551,"slight":2552,"near":2553,"logy":2554,"design":2555,"British":2556,"Rob":2557,"material":2558,"Story":2559,"har":2560,"seasons":2561,"appear":2562,"gust":2563,"Ma":2564,"superhero":2565,"sick":2566,"dramatic":2567,"Unfortunately":2568,"powerful":2569,"pointless":2570,"stud":2571,"vice":2572,"iously":2573,"appeal":2574,"Ha":2575,"box":2576,"create":2577,"social":2578,"mur":2579,"spend":2580,"pose":2581,"viewing":2582,"bed":2583,"becomes":2584,"actions":2585,"ents":2586,"musical":2587,"ibly":2588,"dru":2589,"order":2590,"shots":2591,"anymore":2592,"gun":2593,"sign":2594,"propag":2595,"ask":2596,"ched":2597,"Fran":2598,"lad":2599,"opening":2600,"paced":2601,"medio":2602,"hype":2603,"relig":2604,"mi":2605,"relationship":2606,"accent":2607,"value":2608,"current":2609,"natural":2610,"jump":2611,"supporting":2612,"dream":2613,"basically":2614,"ried":2615,"fake":2616,"ability":2617,"means":2618,"Gr":2619,"mes":2620,"songs":2621,"pping":2622,"Pa":2623,"ged":2624,"impro":2625,"Cl":2626,"vest":2627,"visuals":2628,"imagine":2629,"holes":2630,"elling":2631,"VE":2632,"otic":2633,"producers":2634,"logical":2635,"Je":2636,"adapt":2637,"uine":2638,"----":2639,"speak":2640,"paid":2641,"icult":2642,"within":2643,"mb":2644,"ares":2645,"learn":2646,"difficult":2647,"tale":2648,"Tur":2649,"romance":2650,"across":2651,"ail":2652,"reviewers":2653,"memor":2654,"content":2655,"shown":2656,"capt":2657,"pull":2658,"watchable":2659,"hook":2660,"general":2661,"pho":2662,"sl":2663,"released":2664,"complex":2665,"blic":2666,"propaganda":2667,"unity":2668,"portrayed":2669,"walked":2670,"culture":2671,"Qu":2672,"Christian":2673,"hot":2674,"Acting":2675,"Ed":2676,"stunning":2677,"zomb":2678,"romantic":2679,"docu":2680,"hear":2681,"King":2682,"Too":2683,"fying":2684,"ices":2685,"state":2686,"fest":2687,"genuine":2688,"eye":2689,"oun":2690,"failed":2691,"worked":2692,"crew":2693,"somewhat":2694,"bbish":2695,"intrigu":2696,"eld":2697,"badly":2698,"Direct":2699,"ni":2700,"site":2701,"atmosphere":2702,"throw":2703,"equ":2704,"tired":2705,"crazy":2706,"Sam":2707,"correct":2708,"period":2709,"deserve":2710,"nonsense":2711,"lin":2712,"shoot":2713,"extra":2714,"third":2715,"beautifully":2716,"drop":2717,"creep":2718,"whe":2719,"missing":2720,"redeem":2721,"wr":2722,"stre":2723,"emb":2724,"ene":2725,"Ad":2726,"unlike":2727,"knows":2728,"OU":2729,"outstanding":2730,"rage":2731,"80":2732,"Thank":2733,"mediocre":2734,"anks":2735,"rend":2736,"shed":2737,"sens":2738,"sla":2739,"By":2740,"tension":2741,"greatest":2742,"prot":2743,"oh":2744,"accur":2745,"crime":2746,"fighting":2747,"including":2748,"lik":2749,"gay":2750,"convincing":2751,"document":2752,"four":2753,"cei":2754,"problems":2755,"gonna":2756,"var":2757,"epic":2758,"host":2759,"rench":2760,"Sim":2761,"EN":2762,"happening":2763,"talented":2764,"credits":2765,"meant":2766,"brings":2767,"connect":2768,"David":2769,"az":2770,"atta":2771,"ently":2772,"views":2773,"villain":2774,"LY":2775,"Bro":2776,"High":2777,"milli":2778,"search":2779,"release":2780,"ister":2781,"living":2782,"'.":2783,"Best":2784,"sell":2785,"roy":2786,"rich":2787,"impressed":2788,"sold":2789,"despite":2790,"survi":2791,"continue":2792,"particularly":2793,"ceed":2794,"Cap":2795,"wan":2796,"iss":2797,"AS":2798,"round":2799,"Only":2800,"parents":2801,"entertained":2802,"continu":2803,"comb":2804,"Fi":2805,"refresh":2806,"cant":2807,"mil":2808,"outh":2809,"ining":2810,"directors":2811,"arrass":2812,"ping":2813,"filmed":2814,"Ra":2815,"ival":2816,"ug":2817,"likable":2818,"ury":2819,"disgust":2820,"introdu":2821,"rubbish":2822,"subtle":2823,"cute":2824,"invest":2825,"strange":2826,"Fin":2827,"Pr":2828,"ban":2829,"intense":2830,"Was":2831,"concl":2832,"?!":2833,"till":2834,"somehow":2835,"leads":2836,"thers":2837,"spot":2838,"unless":2839,"Ge":2840,"gress":2841,"taste":2842,"ral":2843,"creative":2844,"quickly":2845,"possibly":2846,"berg":2847,"stereotyp":2848,"Other":2849,"adults":2850,"plenty":2851,"ius":2852,"oring":2853,"Film":2854,"Nor":2855,"towards":2856,"choice":2857,"embarrass":2858,"ordin":2859,"imp":2860,"hus":2861,"Ali":2862,"buy":2863,"force":2864,"oughly":2865,"number":2866,"purpose":2867,"rec":2868,"whatever":2869,"breath":2870,"situations":2871,"flu":2872,"ships":2873,"ensive":2874,"Ben":2875,"Sure":2876,"gues":2877,"ik":2878,"husband":2879,"12":2880,"Did":2881,"scenery":2882,"depress":2883,"became":2884,"colle":2885,"anti":2886,"running":2887,"BC":2888,"foot":2889,"represent":2890,"Hor":2891,"longer":2892,"ica":2893,"urt":2894,"painful":2895,"okay":2896,"unbelievable":2897,"cringe":2898,"step":2899,"imm":2900,"leaves":2901,"Bra":2902,"appro":2903,"umes":2904,"police":2905,"distur":2906,"Sm":2907,"Sch":2908,"claim":2909,"progra":2910,"plots":2911,"strugg":2912,"catch":2913,"project":2914,"jour":2915,"apart":2916,"Pl":2917,"date":2918,"ied":2919,"These":2920,"insp":2921,"killed":2922,"Hope":2923,"Wal":2924,"contain":2925,"portrayal":2926,"adventure":2927,"added":2928,"mass":2929,"Definitely":2930,"focus":2931,"Her":2932,"public":2933,"hood":2934,"cal":2935,"impressive":2936,"Mon":2937,"finished":2938,"questions":2939,"justice":2940,"IE":2941,"iar":2942,"unk":2943,"working":2944,"ula":2945,"Russ":2946,"town":2947,"profess":2948,"nearly":2949,"adv":2950,"cartoon":2951,"craft":2952,"urther":2953,"II":2954,"stern":2955,"awk":2956,",\"":2957,"tv":2958,"regard":2959,"animated":2960,"fails":2961,"packed":2962,"regret":2963,"murder":2964,"Sci":2965,"ances":2966,"screening":2967,"developed":2968,"pra":2969,"tern":2970,"realize":2971,"contro":2972,"flash":2973,"situation":2974,"wrote":2975,"ries":2976,"dim":2977,"aby":2978,"soph":2979,"violent":2980,"13":2981,"historical":2982,"fron":2983,"canc":2984,"Col":2985,"tom":2986,"normal":2987,"</":2988,"omen":2989,"Peter":2990,"Indian":2991,"whether":2992,"unnecessary":2993,"engaging":2994,"Gre":2995,"Pro":2996,"remain":2997,"max":2998,"ctor":2999,"universe":3000,"fra":3001,"produced":3002,"odd":3003,"table":3004,"bel":3005,"protagon":3006,"dog":3007,"among":3008,"Des":3009,"OM":3010,"ians":3011,"accurate":3012,"stri":3013,"tract":3014,"compared":3015,"ants":3016,"refreshing":3017,"Aw":3018,"Spider":3019,"indi":3020,"familiar":3021,"pres":3022,"Che":3023,"psycho":3024,"wanting":3025,"gotten":3026,"leading":3027,"bot":3028,"nel":3029,"subst":3030,"apparent":3031,"changed":3032,"recommended":3033,"soul":3034,"photo":3035,":)":3036,"aught":3037,"bus":3038,"fr":3039,"ially":3040,"unrealistic":3041,"Sand":3042,"load":3043,"ogy":3044,"details":3045,"El":3046,"contri":3047,"spectac":3048,"ordinary":3049,"ulti":3050,"Big":3051,"Tru":3052,"magic":3053,"Everyone":3054,"Ama":3055,"Dead":3056,"Ju":3057,"sleep":3058,"ager":3059,"marvel":3060,".)":3061,"comfort":3062,"five":3063,"Look":3064,"str":3065,"belief":3066,"hopes":3067,"lies":3068,"older":3069,"genius":3070,"Ang":3071,"ub":3072,"zed":3073,"ender":3074,"ives":3075,"test":3076,"confusing":3077,"hat":3078,"hated":3079,"arantino":3080,"Dark":3081,"figure":3082,"rew":3083,"theatre":3084,"unfortunately":3085,"comedies":3086,"compare":3087,"Vi":3088,"zero":3089,"kick":3090,"ogn":3091,"inno":3092,"reve":3093,"pet":3094,"Dan":3095,"GO":3096,"horri":3097,"hooked":3098,"thank":3099,"decis":3100,"inspir":3101,"ott":3102,"Tarantino":3103,"gain":3104,"CH":3105,"Adam":3106,"Show":3107,"consist":3108,"resp":3109,"asc":3110,"ously":3111,"costumes":3112,"dont":3113,"common":3114,"wondering":3115,"delivers":3116,"walk":3117,"ctive":3118,"thoroughly":3119,"uc":3120,"stal":3121,"Mel":3122,"Seriously":3123,"gged":3124,"anyway":3125,"bes":3126,"race":3127,"gry":3128,"biggest":3129,"avy":3130,"ivity":3131,"sters":3132,"Where":3133,"copy":3134,"ener":3135,"ilogy":3136,"creepy":3137,"fire":3138,"faith":3139,"erson":3140,"uro":3141,"grand":3142,"career":3143,"andom":3144,"lying":3145,"otherwise":3146,"documentary":3147,"tort":3148,"Ano":3149,"asleep":3150,"IL":3151,"40":3152,"sn":3153,"multi":3154,"reach":3155,"Far":3156,"ses":3157,"cul":3158,"eron":3159,"recogn":3160,"Another":3161,"moved":3162,"utterly":3163,"Never":3164,"indust":3165,"Ry":3166,"ays":3167,"Instead":3168,"personally":3169,"eless":3170,"managed":3171,"requ":3172,"rap":3173,"program":3174,"Im":3175,"Wow":3176,"compelling":3177,"studi":3178,"awkward":3179,"nore":3180,"achie":3181,"sym":3182,"credit":3183,"tone":3184,"medi":3185,"ifer":3186,"Robert":3187,"vot":3188,"ruined":3189,"falls":3190,"inc":3191,"relate":3192,"politics":3193,"MO":3194,"ths":3195,"boys":3196,"See":3197,"ital":3198,"sweet":3199,"board":3200,"Sad":3201,"ham":3202,"rup":3203,"luck":3204,"BO":3205,"result":3206,"Paul":3207,"progress":3208,"lacks":3209,"weren":3210,"depict":3211,"showed":3212,"tells":3213,"redeeming":3214,"shock":3215,"entious":3216,"popular":3217,"mad":3218,"narrative":3219,"mir":3220,"beat":3221,"pacing":3222,"slightly":3223,"Mus":3224,"kills":3225,"battle":3226,"SE":3227,"cat":3228,"teach":3229,"deed":3230,"boot":3231,"office":3232,"ties":3233,"complain":3234,"sitting":3235,"nature":3236,"fool":3237,"note":3238,"mood":3239,"tears":3240,"reasons":3241,"pieces":3242,"fear":3243,"stream":3244,"Sorry":3245,"water":3246,"ution":3247,"fied":3248,"Christmas":3249,"DC":3250,"ades":3251,"Absolute":3252,"Bar":3253,"graphy":3254,"upon":3255,"comedic":3256,"ceived":3257,"likes":3258,"doll":3259,"disaster":3260,"earth":3261,"Honest":3262,"Park":3263,"kinda":3264,"proper":3265,"EVER":3266,"barely":3267,"opport":3268,"illiam":3269,"intriguing":3270,"trilogy":3271,"cinematic":3272,"flow":3273,"ening":3274,"inspired":3275,"trust":3276,"ient":3277,"Last":3278,"hen":3279,"Because":3280,"Red":3281,"touching":3282,"11":3283,"impossible":3284,"Jim":3285,"liber":3286,"Sa":3287,"further":3288,"desper":3289,"push":3290,"agend":3291,"theaters":3292,"Fe":3293,"chall":3294,"terror":3295,"large":3296,"mote":3297,"corn":3298,"random":3299,"specially":3300,"witch":3301,"Many":3302,"Ri":3303,"phys":3304,"perspect":3305,"Perhaps":3306,"provo":3307,"describe":3308,"neither":3309,"tar":3310,"dialogues":3311,"AD":3312,"Loved":3313,"Batman":3314,"Ok":3315,"oppo":3316,"AM":3317,"nomin":3318,"draw":3319,"places":3320,"executed":3321,"industry":3322,"fasc":3323,"ush":3324,"ination":3325,"bla":3326,"city":3327,"particular":3328,"Fo":3329,"ampire":3330,"Kevin":3331,"pan":3332,"brut":3333,"basic":3334,"shallow":3335,"sucks":3336,"following":3337,"leaving":3338,"rie":3339,"ively":3340,"THIS":3341,"ior":3342,"dem":3343,"Aust":3344,"More":3345,"journey":3346,"Honestly":3347,"fairly":3348,"ultim":3349,"quir":3350,"1st":3351,"ded":3352,"udo":3353,"dies":3354,"actresses":3355,"dish":3356,"younger":3357,"onder":3358,"vict":3359,"grit":3360,"notch":3361,"knowing":3362,"nail":3363,"pretentious":3364,"3D":3365,"fill":3366,"disturbing":3367,"elled":3368,"nowhere":3369,"Mur":3370,"Ryan":3371,"bland":3372,"witty":3373,"',":3374,"Save":3375,"?\"":3376,"Mad":3377,"apo":3378,"pul":3379,"Bond":3380,"shouldn":3381,"names":3382,"adaptation":3383,"Mor":3384,"gers":3385,"block":3386,"heroes":3387,"conclusion":3388,"bear":3389,"commer":3390,"relationships":3391,"twice":3392,"bul":3393,"sen":3394,"judge":3395,"Give":3396,"scares":3397,"likely":3398,"empt":3399,"generation":3400,"Here":3401,"scream":3402,"moves":3403,"wanna":3404,"zombie":3405,"gang":3406,"account":3407,"Smith":3408,"aspects":3409,"ech":3410,"trad":3411,"standard":3412,"emp":3413,"considering":3414,"mbers":3415,"memorable":3416,"???":3417,"ime":3418,"breaking":3419,"damn":3420,"flaws":3421,"front":3422,"gent":3423,"absur":3424,"Tra":3425,"killing":3426,"scenar":3427,"concer":3428,"smo":3429,"everybody":3430,"confused":3431,"World":3432,"ateur":3433,"Ye":3434,"thats":3435,"mental":3436,"compar":3437,"reminded":3438,"laughter":3439,"issue":3440,"Still":3441,"del":3442,"ify":3443,"rious":3444,"feelings":3445,"media":3446,"Lee":3447,"million":3448,"Bill":3449,"ging":3450,"plus":3451,"mentioned":3452,"imagination":3453,"itary":3454,"irrit":3455,"Men":3456,"lets":3457,"Mart":3458,"paint":3459,"inside":3460,"Americans":3461,"destroy":3462,"drawn":3463,"ather":3464,"rare":3465,"hardly":3466,"thin":3467,"color":3468,"intelligence":3469,"dimens":3470,"aa":3471,"heavy":3472,"relev":3473,"William":3474,"gory":3475,"mistake":3476,"sw":3477,"Wood":3478,"tough":3479,"themes":3480,"izing":3481,"formula":3482,"Ber":3483,"Mat":3484,"Night":3485,"femin":3486,"Bru":3487,"Jason":3488,"sequence":3489,"ED":3490,"ises":3491,"Par":3492,"gover":3493,"approach":3494,"Out":3495,"angry":3496,"delivered":3497,"BS":3498,"HO":3499,"depend":3500,"entirely":3501,"Scott":3502,"leng":3503,"trou":3504,"alien":3505,"exception":3506,"absurd":3507,"Tim":3508,"walking":3509,"dread":3510,"decide":3511,"terms":3512,"propri":3513,"core":3514,"sil":3515,"appears":3516,"hands":3517,"bomb":3518,"reminds":3519,"reveal":3520,"minor":3521,"agenda":3522,"Rom":3523,"higher":3524,"struct":3525,"connection":3526,"Having":3527,"Hard":3528,"lose":3529,"anced":3530,"spirit":3531,"Charact":3532,"Pat":3533,"travel":3534,"ds":3535,"smile":3536,"seless":3537,"Step":3538,"audiences":3539,"Exc":3540,"disc":3541,"vote":3542,"iment":3543,"field":3544,"raid":3545,"thrown":3546,"brother":3547,"German":3548,"Af":3549,"vert":3550,"terrific":3551,"amateur":3552,"Wil":3553,"mixed":3554,"Euro":3555,"fla":3556,"suit":3557,"killer":3558,"Two":3559,"western":3560,"app":3561,"thinks":3562,"ourit":3563,"assu":3564,"disgusting":3565,"nu":3566,"appropri":3567,"graphic":3568,"perspective":3569,"!\"":3570,"aim":3571,"cross":3572,"rip":3573,"award":3574,"substance":3575,"spectacular":3576,"ape":3577,"match":3578,"occas":3579,"references":3580,"moral":3581,"ba":3582,"dry":3583,"path":3584,"humanity":3585,"ung":3586,"End":3587,"stem":3588,"storytelling":3589,"considered":3590,"French":3591,"ashing":3592,"sounds":3593,"comfortable":3594,"70":3595,"Bet":3596,"Thr":3597,"mission":3598,"beha":3599,"iny":3600,"oooo":3601,"constantly":3602,"professional":3603,"dimensional":3604,"onic":3605,"loss":3606,"AND":3607,"building":3608,"yed":3609,"lacking":3610,"venge":3611,"bs":3612,"protagonist":3613,"stood":3614,"changes":3615,"discover":3616,"beauty":3617,"values":3618,"members":3619,"acc":3620,"Jones":3621,"Jenn":3622,"mally":3623,"mm":3624,"ters":3625,"surprisingly":3626,"favourit":3627,"vir":3628,"unexpected":3629,"whose":3630,"cious":3631,"offer":3632,"spoilers":3633,"gic":3634,"iced":3635,"delight":3636,"answ":3637,"grab":3638,"!)":3639,"techno":3640,"insult":3641,"recently":3642,"60":3643,"secre":3644,"overrated":3645,"feature":3646,"anime":3647,"Bruce":3648,"opportunity":3649,"wed":3650,"teenage":3651,"TO":3652,"crimin":3653,"VIE":3654,"numb":3655,"news":3656,"Absolutely":3657,"Law":3658,"aware":3659,"famous":3660,"formation":3661,"immedi":3662,"Brad":3663,"successful":3664,"flict":3665,"titles":3666,"trailers":3667,"remark":3668,"adds":3669,"suppose":3670,"constant":3671,"Ep":3672,"Would":3673,"captiv":3674,"grace":3675,"phen":3676,"Jennifer":3677,"games":3678,"ander":3679,"cir":3680,"Cam":3681,"surely":3682,"Sar":3683,"apan":3684,"ES":3685,"hair":3686,"ppy":3687,"laughable":3688,"wasting":3689,"crow":3690,"Highly":3691,"apparently":3692,"George":3693,"charming":3694,"folks":3695,"Director":3696,"een":3697,"loving":3698,"Spi":3699,"base":3700,"soever":3701,"loves":3702,"acts":3703,"stuck":3704,"indeed":3705,"ns":3706,"thus":3707,"insul":3708,"irty":3709,"lazy":3710,"SO":3711,"unfunny":3712,"Captain":3713,"Way":3714,"afraid":3715,"mbl":3716,"ilo":3717,"whatsoever":3718,"faces":3719,"Ale":3720,"Mi":3721,"ished":3722,"skip":3723,"phenomen":3724,"pleasantly":3725,"enjoying":3726,"sake":3727,"niest":3728,"intellect":3729,"ost":3730,"understanding":3731,"carry":3732,"Ph":3733,"za":3734,"system":3735,"Dr":3736,"ody":3737,"presented":3738,"street":3739,"fash":3740,"qual":3741,"Bre":3742,"motiv":3743,"affect":3744,"religious":3745,"prefer":3746,"slowly":3747,"lay":3748,"tran":3749,"putting":3750,"da":3751,"Anyway":3752,"photography":3753,"Such":3754,"ges":3755,"vidu":3756,"member":3757,"business":3758,"eper":3759,"Bur":3760,"lier":3761,"attempts":3762,"Cine":3763,"IC":3764,"Lit":3765,"wow":3766,"recor":3767,"Those":3768,"mature":3769,"punch":3770,"succeed":3771,"Get":3772,"caught":3773,"ilt":3774,"thanks":3775,"grat":3776,"visually":3777,"motion":3778,"fascin":3779,"relevant":3780,"awards":3781,"spec":3782,"victim":3783,"overly":3784,"iers":3785,"courage":3786,"Jackson":3787,"frust":3788,"dan":3789,"van":3790,"shocked":3791,"Jes":3792,"hom":3793,"forgettable":3794,"fold":3795,"exper":3796,"orgeous":3797,"avi":3798,"nud":3799,"manages":3800,"Frank":3801,"fu":3802,"notice":3803,"difference":3804,"Life":3805,"nical":3806,"reboot":3807,"offic":3808,"rupt":3809,"enced":3810,"Amazing":3811,"reck":3812,"outside":3813,"thrilling":3814,"Terrible":3815,"Russian":3816,"individu":3817,"Ac":3818,"bits":3819,"product":3820,"199":3821,"behavi":3822,"favourite":3823,"explan":3824,"excuse":3825,"Wonder":3826,"wind":3827,"arc":3828,"soap":3829,"comics":3830,"girlfriend":3831,"Beaut":3832,"sucked":3833,"creating":3834,"held":3835,"Enjoy":3836,"military":3837,"fault":3838,"generally":3839,"summer":3840,"fashion":3841,"funniest":3842,"deserved":3843,"Steve":3844,"blown":3845,"Europe":3846,"educ":3847,"wooden":3848,"grew":3849,"meets":3850,"empty":3851,"AC":3852,"Day":3853,"comput":3854,"surprising":3855,"Action":3856,"BE":3857,"Japan":3858,"pse":3859,"Rock":3860,"Avoid":3861,"explos":3862,"drug":3863,"acy":3864,"Once":3865,"Boring":3866,"agger":3867,"wars":3868,"LOVE":3869,"multiple":3870,"met":3871,"lessly":3872,"Martin":3873,"vampire":3874,"asha":3875,"offensive":3876,"stereotypes":3877,"blockbust":3878,"Fun":3879,"ork":3880,"spin":3881,"mins":3882,"turning":3883,"Dra":3884,"ube":3885,"scient":3886,"control":3887,"yn":3888,"personality":3889,"Dani":3890,"below":3891,"gem":3892,"minator":3893,"stopped":3894,"popcorn":3895,"kish":3896,"wel":3897,"remote":3898,"filming":3899,"wall":3900,"wash":3901,"ju":3902,"aside":3903,"scared":3904,"vul":3905,"somewhere":3906,"satisfying":3907,"?)":3908,"sour":3909,"train":3910,"Kid":3911,"rey":3912,"sadly":3913,"Anyone":3914,"Han":3915,"genuinely":3916,"appropriate":3917,"Ghost":3918,"eth":3919,"improve":3920,"Excellent":3921,"stage":3922,"follows":3923,"attract":3924,"target":3925,"Could":3926,"ites":3927,"grade":3928,"depressing":3929,"gorgeous":3930,"sal":3931,"century":3932,"dden":3933,"intended":3934,"artistic":3935,"ademy":3936,"ledge":3937,"shocking":3938,"mouth":3939,"tre":3940,"conflict":3941,"ified":3942,"Angel":3943,"nudity":3944,"2nd":3945,"advert":3946,"mach":3947,"facts":3948,"ID":3949,"sess":3950,"anted":3951,"pleasant":3952,"promising":3953,"immediately":3954,"jum":3955,"atter":3956,"agers":3957,"assic":3958,"company":3959,"climax":3960,"nostal":3961,"ague":3962,"vengers":3963,"Sal":3964,"bum":3965,"dance":3966,"ðŸ":3967,"asked":3968,"hid":3969,"praise":3970,"provoking":3971,"YOU":3972,"clichés":3973,"wide":3974,"torture":3975,"Hol":3976,"ghost":3977,"logic":3978,"cancel":3979,"Girl":3980,"DO":3981,"ax":3982,"lived":3983,"Am":3984,"Tot":3985,"dete":3986,"Despite":3987,"Sun":3988,"aga":3989,"six":3990,"arth":3991,"charm":3992,"excite":3993,"pen":3994,"Though":3995,"psychological":3996,"lover":3997,"ellar":3998,"AY":3999,"fab":4000,"singing":4001,"def":4002,"allowed":4003,"bringing":4004,"local":4005,"hang":4006,"convers":4007,"addition":4008,"House":4009,"yeah":4010,"defin":4011,"aked":4012,"monster":4013,"placed":4014,"forever":4015,"authen":4016,"balance":4017,"drugs":4018,"various":4019,"baby":4020,"sister":4021,"chill":4022,"hasn":4023,"element":4024,"pleasure":4025,"ands":4026,"Thanks":4027,"miser":4028,"impact":4029,"><":4030,"sto":4031,"Time":4032,"inv":4033,"pract":4034,"highlight":4035,"clean":4036,"Saw":4037,"serv":4038,"grad":4039,"......":4040,"surprises":4041,"passion":4042,"Juli":4043,"East":4044,"Watching":4045,"MOVIE":4046,"ka":4047,"grown":4048,"childhood":4049,"gripping":4050,"danger":4051,"gross":4052,"manner":4053,"cate":4054,"tun":4055,"choices":4056,"Sandler":4057,"Gar":4058,"govern":4059,"bri":4060,"cold":4061,"sudden":4062,"Cra":4063,"revol":4064,"promise":4065,"Poor":4066,"CU":4067,"inner":4068,"chick":4069,"stands":4070,"backs":4071,"earlier":4072,"received":4073,"Had":4074,"rence":4075,"ALL":4076,"Off":4077,"research":4078,"abs":4079,"channel":4080,"--------":4081,"uff":4082,"suspect":4083,"ups":4084,"wont":4085,"blind":4086,"authentic":4087,"stret":4088,"realism":4089,"starting":4090,"pathy":4091,"deeply":4092,"Ray":4093,"rarely":4094,"icking":4095,"unfold":4096,"nicely":4097,"ald":4098,"ization":4099,"itt":4100,"suck":4101,"iller":4102,"rushed":4103,"locations":4104,"Old":4105,"whel":4106,"illa":4107,"lovely":4108,"sitcom":4109,"Turkish":4110,"Finally":4111,"PO":4112,"onto":4113,"ases":4114,",,":4115,"80s":4116,"Are":4117,"ee":4118,"becoming":4119,"brilliantly":4120,"achieve":4121,"computer":4122,"excitement":4123,"rob":4124,"road":4125,"rock":4126,"trick":4127,"position":4128,"atic":4129,"Does":4130,"ga":4131,"ana":4132,"teenagers":4133,"Both":4134,"junk":4135,"sli":4136,"andy":4137,"ww":4138,"45":4139,"revenge":4140,"related":4141,"pile":4142,"crying":4143,"humans":4144,"reflect":4145,"loose":4146,"itive":4147,"uninteresting":4148,"impression":4149,"ugly":4150,"Tit":4151,"va":4152,"dragged":4153,"finding":4154,"cares":4155,"continues":4156,"levels":4157,"soldiers":4158,"influ":4159,"dig":4160,"chase":4161,"ildish":4162,"maker":4163,"nobody":4164,"Tor":4165,"herself":4166,"mary":4167,"Being":4168,"fights":4169,"drink":4170,"Each":4171,"init":4172,"coher":4173,"phenomenal":4174,"suspenseful":4175,"respons":4176,"Ob":4177,"hill":4178,"pun":4179,"rd":4180,"arent":4181,"planet":4182,"explained":4183,"repetit":4184,"fly":4185,"inspiring":4186,"technology":4187,"Up":4188,"realized":4189,"ruin":4190,"majority":4191,"Stephen":4192,"counter":4193,"slap":4194,"wart":4195,"Dam":4196,"prison":4197,"Have":4198,"Jon":4199,"tho":4200,"ilities":4201,"ulous":4202,"amusing":4203,"tedious":4204,"scenario":4205,"irritating":4206,"eks":4207,"philo":4208,"Without":4209,"Fest":4210,"chore":4211,"cele":4212,"mine":4213,"rad":4214,"inted":4215,"hip":4216,"trip":4217,"gging":4218,"sequels":4219,"frank":4220,"inese":4221,"Fant":4222,"ahead":4223,"nold":4224,"Cast":4225,"UT":4226,"gold":4227,"teens":4228,"insight":4229,"stunt":4230,"share":4231,"root":4232,"finds":4233,"advice":4234,"born":4235,"picked":4236,"wil":4237,"length":4238,"Gold":4239,"originality":4240,"features":4241,"network":4242,"cape":4243,"biz":4244,"dreadful":4245,"Fam":4246,"gling":4247,"ultimately":4248,"Afric":4249,"aliens":4250,"studio":4251,"brutal":4252,"Spiel":4253,"anticip":4254,"struggle":4255,"liberal":4256,"RI":4257,"Sat":4258,"information":4259,"return":4260,"puts":4261,"dress":4262,"skills":4263,"minim":4264,"aky":4265,"Bas":4266,"dad":4267,"fits":4268,"wild":4269,"ignore":4270,"ONE":4271,"HBO":4272,"Mag":4273,"Pol":4274,"warming":4275,"childish":4276,"ints":4277,"distr":4278,"proud":4279,"hyped":4280,"iet":4281,"thes":4282,"entially":4283,"anywhere":4284,"surround":4285,"villains":4286,"graphics":4287,"ki":4288,"atro":4289,"Stre":4290,"bigger":4291,"philosoph":4292,"rick":4293,"hadn":4294,"Kore":4295,"sexy":4296,"wing":4297,"whom":4298,"complic":4299,"legend":4300,"fascinating":4301,"arily":4302,"iro":4303,"quirky":4304,"Que":4305,"vor":4306,"proves":4307,"relat":4308,"followed":4309,"Bla":4310,"Ham":4311,"York":4312,"normally":4313,"WW":4314,"powers":4315,"alive":4316,"iff":4317,"safe":4318,"months":4319,"stayed":4320,"chop":4321,"India":4322,"secret":4323,"Eli":4324,"Plot":4325,"escape":4326,"cliche":4327,"drivel":4328,"Pri":4329,"udes":4330,"produce":4331,"Harry":4332,"religion":4333,"Bob":4334,"edy":4335,"challeng":4336,"Lon":4337,"vs":4338,"Ram":4339,"invent":4340,"sport":4341,"awn":4342,"cried":4343,"Especially":4344,"evol":4345,"prepare":4346,"hearted":4347,"avail":4348,"Take":4349,"choose":4350,"elle":4351,"ctions":4352,"government":4353,"spl":4354,"scars":4355,"amazed":4356,"keeping":4357,"Mal":4358,"ticket":4359,"Richar":4360,"explanation":4361,"Cage":4362,"hey":4363,"shooting":4364,"presence":4365,"ston":4366,"humorous":4367,"FX":4368,"Gi":4369,"Nic":4370,"college":4371,"kets":4372,"ples":4373,"197":4374,"Spielberg":4375,"Den":4376,"shad":4377,"Which":4378,"ems":4379,"000":4380,"Mark":4381,"loy":4382,"party":4383,"speaking":4384,"racist":4385,"crowd":4386,"warm":4387,"opposite":4388,"Sy":4389,"hurt":4390,"bled":4391,"speech":4392,"Worst":4393,"Jur":4394,"itude":4395,"unting":4396,"willing":4397,"desc":4398,"crappy":4399,"magn":4400,"THING":4401,"MCU":4402,"Yet":4403,"hh":4404,"hits":4405,"arre":4406,"Thor":4407,"guessing":4408,"Yeah":4409,"UN":4410,"sembl":4411,"oft":4412,"obsess":4413,"Episo":4414,"uncomfortable":4415,"Canad":4416,"haters":4417,"Beautiful":4418,"stink":4419,"mom":4420,"plaus":4421,"drag":4422,"producer":4423,"Boy":4424,"Game":4425,"alle":4426,"aries":4427,"minis":4428,"fat":4429,"hes":4430,"orm":4431,"Alex":4432,"Rid":4433,"charis":4434,"premi":4435,"mainly":4436,"dynam":4437,"animals":4438,"brothers":4439,"Jesus":4440,"bought":4441,"exagger":4442,"commit":4443,"contains":4444,"evid":4445,"ened":4446,"stellar":4447,"REAL":4448,"ashamed":4449,"lower":4450,"Chinese":4451,"creators":4452,"Lost":4453,"gritty":4454,"adays":4455,"noticed":4456,"ficial":4457,"Shame":4458,"contrived":4459,"thous":4460,"hopefully":4461,"insane":4462,"passed":4463,"Fox":4464,"compla":4465,"arts":4466,"commun":4467,"****":4468,"connected":4469,"Sadly":4470,"erely":4471,"deeper":4472,"preview":4473,"preach":4474,"mindless":4475,"Austral":4476,"theless":4477,"ski":4478,"pulled":4479,"Bollywood":4480,"Sk":4481,"ilst":4482,"rive":4483,"OF":4484,"died":4485,"standards":4486,"corny":4487,"USA":4488,"Fer":4489,"filmmakers":4490,"blah":4491,"Characters":4492,"versity":4493,"parody":4494,"driven":4495,"bright":4496,"food":4497,"answer":4498,"critical":4499,"monsters":4500,"3rd":4501,"Kate":4502,"Chan":4503,"types":4504,"emotionally":4505,"satisfied":4506,"commercial":4507,"18":4508,"Lots":4509,"cars":4510,"gia":4511,"witness":4512,"Japanese":4513,"cher":4514,"tight":4515,"drive":4516,"images":4517,"equally":4518,"London":4519,"None":4520,"Rus":4521,"Space":4522,"intent":4523,"IMDB":4524,"cup":4525,"ray":4526,"rors":4527,"edi":4528,"Thom":4529,"require":4530,"Cru":4531,"fal":4532,"object":4533,"Robin":4534,"energy":4535,"UK":4536,"anu":4537,"effective":4538,"seconds":4539,"Festival":4540,"cash":4541,"ibility":4542,"former":4543,"focused":4544,"comparison":4545,"Daniel":4546,"Fl":4547,"Jess":4548,"Khan":4549,"relie":4550,"udos":4551,"blockbuster":4552,"Pre":4553,"Ru":4554,"gag":4555,"phone":4556,"eventually":4557,"heads":4558,"Family":4559,"uit":4560,"funn":4561,"location":4562,"liners":4563,"available":4564,"Lau":4565,"tor":4566,"25":4567,"execution":4568,"Hu":4569,"envi":4570,"satire":4571,"painfully":4572,"ai":4573,"pal":4574,"independ":4575,"belong":4576,"Max":4577,"Richard":4578,"ya":4579,"Dep":4580,"opera":4581,"porn":4582,"install":4583,"Alien":4584,"decision":4585,"paying":4586,"Gal":4587,"hur":4588,"kins":4589,"preh":4590,"appy":4591,"reviewer":4592,"accom":4593,"bloody":4594,"student":4595,"Abra":4596,"ford":4597,"alling":4598,"traged":4599,"footage":4600,"crafted":4601,"detective":4602,"forgotten":4603,"proved":4604,"wonderfully":4605,"Terminator":4606,"harsh":4607,"remotely":4608,"flicks":4609,"marke":4610,"format":4611,"cock":4612,"Sometimes":4613,"Pi":4614,"Their":4615,"lovers":4616,"terribly":4617,"bizarre":4618,"Ir":4619,"LA":4620,"scripts":4621,"glor":4622,"Mir":4623,"blame":4624,"chuck":4625,"conve":4626,"Green":4627,"dated":4628,"understood":4629,"falling":4630,"desperate":4631,"intellectual":4632,"Avengers":4633,"GE":4634,"Mary":4635,"Rose":4636,"cell":4637,"gut":4638,"anity":4639,"White":4640,"Amy":4641,"Since":4642,"South":4643,"knowledge":4644,"lacked":4645,"limited":4646,"Person":4647,"mem":4648,"foreign":4649,"Keep":4650,"Plus":4651,"bottom":4652,"tense":4653,"itional":4654,"bore":4655,"adding":4656,"politically":4657,"Guy":4658,"Okay":4659,"frankly":4660,"14":4661,"Hen":4662,"service":4663,"growing":4664,"asp":4665,"idiots":4666,"Pan":4667,"anybody":4668,"heal":4669,"mysterious":4670,"frame":4671,"Little":4672,"Iron":4673,"threat":4674,"pair":4675,"198":4676,"trouble":4677,"memory":4678,"bian":4679,"enter":4680,"weekend":4681,"massive":4682,"cable":4683,"Probably":4684,"dancing":4685,"source":4686,"Jurassic":4687,"environ":4688,"friendship":4689,"named":4690,"coherent":4691,"La":4692,"zen":4693,"Earth":4694,"captivating":4695,"IG":4696,"gate":4697,"hon":4698,"exic":4699,"minded":4700,"green":4701,"Hopefully":4702,"Cameron":4703,"weight":4704,"sky":4705,"Van":4706,"tire":4707,"portraying":4708,"Mexic":4709,"chur":4710,"built":4711,"winning":4712,"families":4713,"racism":4714,"extraordinary":4715,"zil":4716,"store":4717,"interpret":4718,"text":4719,"oul":4720,"Movies":4721,"capable":4722,"accompl":4723,"Mac":4724,"author":4725,"zzzz":4726,"lady":4727,"explosions":4728,"rolling":4729,"biased":4730,"binge":4731,"streng":4732,"Williams":4733,"Cle":4734,"mble":4735,"saved":4736,"minds":4737,"subtitles":4738,"Watched":4739,"ificent":4740,"ena":4741,"addict":4742,"prequ":4743,"Steven":4744,"appealing":4745,"complicated":4746,"Hel":4747,"vate":4748,"corpor":4749,"Trump":4750,"Oscars":4751,"embarrassing":4752,"Cha":4753,"Pac":4754,"boo":4755,"national":4756,"demon":4757,"lol":4758,"covery":4759,"festival":4760,"decisions":4761,"provid":4762,"undred":4763,"busters":4764,"funnier":4765,"OO":4766,"WH":4767,"hr":4768,"xious":4769,"lighting":4770,"generic":4771,"remarkable":4772,"Kat":4773,"Naz":4774,"fing":4775,"appla":4776,"nowadays":4777,"Second":4778,"Johnson":4779,"homo":4780,"helps":4781,"exceptional":4782,"Vis":4783,"trek":4784,"steal":4785,"shadow":4786,"Again":4787,"Lord":4788,"West":4789,"ders":4790,"anal":4791,"devil":4792,"scare":4793,"guns":4794,"Otherwise":4795,"community":4796,"appearance":4797,"collection":4798,"16":4799,"City":4800,"cow":4801,"dramas":4802,"accents":4803,"investig":4804,"ency":4805,"superior":4806,"helped":4807,"breathtaking":4808,"sta":4809,"door":4810,"goof":4811,"prote":4812,"Johnny":4813,"Jane":4814,"Witch":4815,"kno":4816,"chos":4817,"unwatchable":4818,"raw":4819,"umbs":4820,"circ":4821,"fabulous":4822,"BBC":4823,"athe":4824,"itation":4825,"argu":4826,"thoughts":4827,"topic":4828,"messages":4829,"suffer":4830,"Pix":4831,"ben":4832,"nation":4833,"sterday":4834,"stupidity":4835,"idiotic":4836,"Hell":4837,"rell":4838,"ature":4839,"asking":4840,"web":4841,"ograph":4842,"ipul":4843,"fairy":4844,"bute":4845,"timing":4846,"alloween":4847,"combination":4848,"virt":4849,"useless":4850,"portrays":4851,"Actually":4852,"technical":4853,"statement":4854,"plausible":4855,"glo":4856,"ablish":4857,"process":4858,"Come":4859,"hundred":4860,"depi":4861,"intention":4862,"evening":4863,"burn":4864,"lucky":4865,"Sarah":4866,"Hun":4867,"irth":4868,"bling":4869,"commentary":4870,"Part":4871,"compe":4872,"qualities":4873,"urs":4874,"strongly":4875,"innocent":4876,"finale":4877,"holds":4878,"gratuit":4879,"relatable":4880,"Must":4881,"TR":4882,"asing":4883,"Joe":4884,"tragedy":4885,"Pal":4886,"Ron":4887,"posed":4888,"manipul":4889,"meaningful":4890,"insulting":4891,"WAT":4892,"saving":4893,"supernatural":4894,"twisted":4895,"Lars":4896,"fright":4897,"nal":4898,"Seth":4899,"decade":4900,"behavior":4901,"Jessica":4902,"stated":4903,"serial":4904,"establish":4905,"ignor":4906,"remains":4907,"Episode":4908,"tend":4909,"zon":4910,"quiet":4911,"spy":4912,"survive":4913,"Brazil":4914,"repetitive":4915,"Cor":4916,"Jud":4917,"UST":4918,"Wa":4919,"ara":4920,"via":4921,"meta":4922,"oper":4923,"price":4924,"regular":4925,"learned":4926,"AW":4927,"saga":4928,"creativity":4929,"boredom":4930,"nominated":4931,"indul":4932,"fix":4933,"capture":4934,"false":4935,"Pret":4936,"Your":4937,"weeks":4938,"dislike":4939,"experienced":4940,"Bay":4941,"believ":4942,"latest":4943,"attack":4944,"attractive":4945,"endless":4946,"failure":4947,"brief":4948,"bound":4949,"warned":4950,"Allen":4951,"occur":4952,"Uni":4953,"appreciated":4954,"besides":4955,"Academy":4956,"drun":4957,"ooper":4958,"compet":4959,"zombies":4960,"bearable":4961,"IF":4962,"Nice":4963,"vast":4964,"stic":4965,"ggling":4966,"deter":4967,"signific":4968,"NY":4969,"ja":4970,"melo":4971,"sentiment":4972,"blowing":4973,"crude":4974,"Pitt":4975,"gal":4976,"jer":4977,"park":4978,"sides":4979,"iest":4980,"physical":4981,"discuss":4982,"PC":4983,"rul":4984,"vit":4985,"ading":4986,"depart":4987,"achel":4988,"appeared":4989,"Sher":4990,"tt":4991,"offers":4992,"flop":4993,"Kill":4994,"manage":4995,"Stewart":4996,"cruel":4997,"Krist":4998,"cise":4999,"ration":5000,"organ":5001,"edom":5002,"iles":5003,"halfway":5004,"Halloween":5005,"Nol":5006,"aven":5007,"opt":5008,"somebody":5009,"disagree":5010,"Charlie":5011,"introduced":5012,"edited":5013,"Anna":5014,"Better":5015,"Ba":5016,"Mid":5017,"Str":5018,"mistakes":5019,"changing":5020,"24":5021,"Much":5022,"cgi":5023,"mild":5024,"Nick":5025,"resol":5026,"shine":5027,"context":5028,"broken":5029,"Harris":5030,"................":5031,"Run":5032,"provide":5033,"Ty":5034,"neigh":5035,"contem":5036,"offended":5037,"premiere":5038,"sin":5039,"perfection":5040,"nic":5041,"unknown":5042,"involving":5043,"suffering":5044,"Trans":5045,"destroyed":5046,"numbers":5047,"Henry":5048,"Pixar":5049,"eat":5050,"magical":5051,"shar":5052,"winner":5053,"Horrible":5054,"suddenly":5055,"Personally":5056,"Hill":5057,"beth":5058,"peace":5059,"tive":5060,"clue":5061,"bles":5062,"skin":5063,"(\"":5064,"Matt":5065,"gle":5066,"anne":5067,"flo":5068,"tragic":5069,"mainstream":5070,"corrupt":5071,"Awful":5072,"accident":5073,"gratuitous":5074,"begins":5075,"Brilliant":5076,"necessarily":5077,"idiot":5078,"horribly":5079,"Frid":5080,"Writ":5081,"ishing":5082,"\")":5083,"gender":5084,"sight":5085,"vibe":5086,"lesson":5087,"hidden":5088,"lust":5089,"mill":5090,"rix":5091,"tural":5092,"waited":5093,"hoped":5094,"whelming":5095,"fet":5096,"captured":5097,"Music":5098,"independent":5099,"ache":5100,"ANY":5101,"stereotypical":5102,"oman":5103,"delivery":5104,"repeated":5105,"cris":5106,"ann":5107,"rela":5108,"itions":5109,"Int":5110,"formers":5111,"combined":5112,"dollars":5113,"Woody":5114,"dum":5115,"ady":5116,"ville":5117,"magnificent":5118,"Abrams":5119,"AP":5120,"fortunate":5121,"vulgar":5122,"Und":5123,"chose":5124,"yesterday":5125,"seemingly":5126,"Perfect":5127,"dealing":5128,"controvers":5129,"Fantastic":5130,"Bel":5131,"Full":5132,"fy":5133,"rina":5134,"cha":5135,"hearing":5136,"assume":5137,"chosen":5138,"irk":5139,"angle":5140,"ception":5141,"2019":5142,"starring":5143,"curious":5144,"Enter":5145,"ram":5146,"everywhere":5147,"sheer":5148,"factor":5149,"Worth":5150,"Miss":5151,"stom":5152,"compreh":5153,"asty":5154,"agent":5155,"scripted":5156,"runs":5157,"pictures":5158,"consistent":5159,".,":5160,"Chuck":5161,"Christop":5162,"broad":5163,"pati":5164,"EL":5165,"Pot":5166,"nut":5167,"plane":5168,"plete":5169,"Office":5170,"bag":5171,"fare":5172,"expectation":5173,"relief":5174,"indie":5175,"teenager":5176,"profound":5177,"marketing":5178,"TER":5179,"dirty":5180,"credible":5181,"memories":5182,"Lawrence":5183,"Du":5184,"Sta":5185,"wreck":5186,"ators":5187,"olf":5188,"calling":5189,"tedly":5190,"hic":5191,"yr":5192,"rian":5193,"underrated":5194,"196":5195,"Sky":5196,"lam":5197,"Lucas":5198,"screaming":5199,"record":5200,"WATCH":5201,"Friday":5202,"17":5203,"dom":5204,"nes":5205,"issa":5206,"complaining":5207,"Ken":5208,"incre":5209,"heck":5210,"guarant":5211,"answers":5212,"Eastwood":5213,"pity":5214,"began":5215,"lied":5216,"Ital":5217,"upset":5218,"prin":5219,"comparing":5220,"Luke":5221,"BUT":5222,"Niro":5223,"lon":5224,"tons":5225,"inosa":5226,"Mars":5227,"vides":5228,"prove":5229,"Superman":5230,"Horror":5231,"machine":5232,"depiction":5233,"card":5234,"iling":5235,"voices":5236,"Joker":5237,"repeat":5238,"Obvious":5239,"Christopher":5240,"App":5241,"gru":5242,"hide":5243,"meaningless":5244,"relax":5245,"bond":5246,"forgot":5247,"doctor":5248,"blue":5249,"syn":5250,"About":5251,"Truly":5252,"concerned":5253,"Ig":5254,"Ka":5255,"Long":5256,"Pho":5257,"lor":5258,"reaction":5259,"costs":5260,"resul":5261,"ortion":5262,"Comedy":5263,"cases":5264,"Knight":5265,"Oli":5266,"Vin":5267,"wis":5268,"ende":5269,"army":5270,"ued":5271,"paper":5272,"Almost":5273,"Ford":5274,"camp":5275,"annoyed":5276,"jay":5277,"ners":5278,"uel":5279,"resembl":5280,"image":5281,"millions":5282,"nostalgia":5283,"user":5284,"served":5285,"!!!!!":5286,"thrillers":5287,"True":5288,"dare":5289,"freedom":5290,"colour":5291,"include":5292,"dreams":5293,"Back":5294,"bon":5295,"nap":5296,"tear":5297,"everyday":5298,"feminist":5299,"environment":5300,"Hop":5301,"shaky":5302,"abor":5303,"treated":5304,"criticism":5305,"prepared":5306,"circum":5307,"Mer":5308,"Nat":5309,"trend":5310,"deb":5311,"worry":5312,"pleased":5313,"pray":5314,"rous":5315,"oop":5316,"tack":5317,"serve":5318,"illion":5319,"opinions":5320,"vari":5321,"Lyn":5322,"SR":5323,"associ":5324,"youth":5325,"outs":5326,"ift":5327,"izes":5328,"bothered":5329,"expression":5330,"students":5331,"ountain":5332,"apocal":5333,"Ori":5334,"jointed":5335,"orable":5336,"toler":5337,"maint":5338,"hating":5339,"thro":5340,"enge":5341,"Someone":5342,"tonight":5343,"altern":5344,"stunts":5345,"Min":5346,"vy":5347,"leader":5348,"buff":5349,"figured":5350,"flashbacks":5351,"Basically":5352,"andon":5353,"demo":5354,"accu":5355,"clothes":5356,"handed":5357,"finest":5358,"Keanu":5359,"Rachel":5360,"Sur":5361,"reed":5362,"uted":5363,"previews":5364,"indu":5365,"hole":5366,"embarrassed":5367,"Spiderman":5368,"bang":5369,"hyster":5370,"included":5371,"cook":5372,"sole":5373,"provides":5374,"Rey":5375,"Battle":5376,"strength":5377,"BT":5378,"Wall":5379,"forth":5380,"tripe":5381,"spoiler":5382,"expressions":5383,"struggles":5384,"stretch":5385,"99":5386,"Free":5387,"MA":5388,"Shi":5389,"hall":5390,"remakes":5391,"expl":5392,"desire":5393,"central":5394,"classics":5395,"handle":5396,"internet":5397,"Unlike":5398,"ichol":5399,"stomach":5400,"whilst":5401,"individual":5402,"liking":5403,"disbelief":5404,"roller":5405,"Bes":5406,"Brie":5407,"Res":5408,"uous":5409,"rely":5410,"therefore":5411,"phy":5412,"attitude":5413,"sensitive":5414,"Breaking":5415,"African":5416,"Twil":5417,"ji":5418,"switch":5419,"poster":5420,"noon":5421,"weap":5422,"llen":5423,"angles":5424,"maintain":5425,"Sil":5426,"Top":5427,"asure":5428,"unusual":5429,"Asian":5430,"Ree":5431,"Queen":5432,"circumst":5433,"escap":5434,"Stone":5435,"landsc":5436,"flawless":5437,"welcome":5438,"Bul":5439,"Dou":5440,"Moo":5441,"Nichol":5442,"OD":5443,"squ":5444,"Obviously":5445,"Twilight":5446,"engaged":5447,"Complete":5448,"currently":5449,"Ghostbusters":5450,"Rog":5451,"Sus":5452,"debut":5453,"rog":5454,"nightm":5455,"Willis":5456,"fictional":5457,"2018":5458,"installment":5459,"Fire":5460,"San":5461,"Val":5462,"Woman":5463,"asher":5464,"spending":5465,"scale":5466,"heavi":5467,"Stan":5468,"relative":5469,"speed":5470,"Pretty":5471,"Billy":5472,"Fr":5473,"ey":5474,"online":5475,"lif":5476,"udd":5477,"market":5478,"captures":5479,"Melissa":5480,"Phil":5481,"Moore":5482,"PLE":5483,"oles":5484,"sacri":5485,"THAT":5486,"hun":5487,"zilla":5488,"function":5489,"darker":5490,"cops":5491,"depicted":5492,"occasion":5493,"atrocious":5494,"icide":5495,"excess":5496,"blat":5497,"countries":5498,"Emma":5499,"Looking":5500,"Gen":5501,"bab":5502,"fif":5503,"ano":5504,"otten":5505,"shines":5506,"inte":5507,"artist":5508,"touches":5509,"Rod":5510,"giant":5511,"category":5512,"Bef":5513,"VERY":5514,"Bor":5515,"pool":5516,"skept":5517,"ifi":5518,"disjointed":5519,"onsens":5520,"brave":5521,"slapstick":5522,"Before":5523,"''":5524,"batt":5525,"rop":5526,"losing":5527,"pecial":5528,"colors":5529,"Patrick":5530,"Jam":5531,"mend":5532,"soft":5533,"vac":5534,"performed":5535,"creatures":5536,"warning":5537,"experiences":5538,"gags":5539,"BLE":5540,"Gib":5541,"rant":5542,"guest":5543,"rights":5544,"Sean":5545,"spoof":5546,"bbed":5547,"prior":5548,"properly":5549,"demand":5550,"Has":5551,"UL":5552,"bell":5553,"decades":5554,"acceptable":5555,"study":5556,"Jeff":5557,"Ap":5558,"Rick":5559,"ousy":5560,"creates":5561,"efforts":5562,"Mike":5563,"Gra":5564,"ION":5565,"tast":5566,"racial":5567,"intrigue":5568,"Blood":5569,"benef":5570,"Pic":5571,"Think":5572,"amazingly":5573,"cliches":5574,"Christians":5575,"Right":5576,"page":5577,"itiz":5578,"viewed":5579,"ption":5580,"coaster":5581,"Something":5582,"techni":5583,"invested":5584,"Check":5585,"Wilson":5586,"aimed":5587,"Korean":5588,"Kristen":5589,"PG":5590,"hab":5591,"hack":5592,"Cons":5593,"gment":5594,"send":5595,"inct":5596,"lection":5597,"iring":5598,"lights":5599,"flawed":5600,"patri":5601,"described":5602,"Totally":5603,"dangerous":5604,"Under":5605,"HA":5606,"fed":5607,"mum":5608,"iled":5609,"struggling":5610,"slasher":5611,"sophistic":5612,"cultural":5613,"Paris":5614,"feed":5615,"noxious":5616,"tial":5617,"perform":5618,"Death":5619,"allows":5620,"Russell":5621,"Things":5622,"tickets":5623,"Simply":5624,"SEE":5625,"Murphy":5626,"Eliza":5627,"address":5628,"Danny":5629,"Nolan":5630,"Hugh":5631,"Kudos":5632,"candy":5633,"dinosa":5634,"warn":5635,"Anne":5636,"stays":5637,"importantly":5638,"onsensical":5639,"Del":5640,"Tri":5641,"Try":5642,"ko":5643,"link":5644,"rout":5645,"urge":5646,"twenty":5647,"Funny":5648,"heavily":5649,"Evil":5650,"Jedi":5651,"Pow":5652,"stone":5653,"ado":5654,"hash":5655,"Actors":5656,"ILL":5657,"Sop":5658,"Waste":5659,"separ":5660,"spider":5661,"Arth":5662,"Godzilla":5663,"Satur":5664,"sharp":5665,"Cla":5666,"NE":5667,"WO":5668,"thumbs":5669,"edit":5670,"Kar":5671,"Special":5672,"mob":5673,"downhill":5674,"double":5675,"Clint":5676,"miserably":5677,"Fred":5678,"gas":5679,"ato":5680,"maid":5681,"cameo":5682,"sey":5683,"vehic":5684,"forces":5685,"tie":5686,"horrend":5687,"creation":5688,"cameos":5689,"***":5690,"Gibson":5691,"ura":5692,"erous":5693,"unoriginal":5694,"arted":5695,"Real":5696,"protect":5697,"Hero":5698,"bank":5699,"thew":5700,"shall":5701,"sett":5702,"Leon":5703,"DE":5704,"Scre":5705,"UP":5706,"rat":5707,"contra":5708,"Force":5709,"Add":5710,"criminal":5711,"Hitch":5712,"edgy":5713,"rio":5714,"boss":5715,"generous":5716,"spoiled":5717,"canceled":5718,"Gree":5719,"bow":5720,"sun":5721,"disgrace":5722,"pretend":5723,"existence":5724,"amateurish":5725,"Origin":5726,"Fu":5727,"TF":5728,"nia":5729,"rival":5730,"assion":5731,"popul":5732,"responsible":5733,"Jer":5734,"gig":5735,"nasty":5736,"aron":5737,"ops":5738,"intens":5739,"auto":5740,"talks":5741,"????":5742,"boyfriend":5743,"stereoty":5744,"Reeves":5745,"Au":5746,"merely":5747,"afternoon":5748,"obnoxious":5749,"talents":5750,"personalities":5751,"intrigued":5752,"cancelled":5753,"arently":5754,"Ignore":5755,"Saturday":5756,"Ca":5757,"essence":5758,"brand":5759,"touched":5760,"Should":5761,"challenge":5762,"rules":5763,"Produ":5764,"wra":5765,"irm":5766,"quit":5767,"married":5768,"supposedly":5769,"existent":5770,"sexuality":5771,"innov":5772,"worried":5773,"wearing":5774,"blew":5775,"summary":5776,"victims":5777,"Larson":5778,"sar":5779,"spre":5780,"yer":5781,"shut":5782,"river":5783,"scores":5784,"dialogs":5785,"bill":5786,"nonsensical":5787,"didnt":5788,"worthwhile":5789,"caric":5790,"resident":5791,"driving":5792,"Series":5793,"terrifying":5794,"Te":5795,"visit":5796,"precious":5797,"Perry":5798,"Australian":5799,"drunk":5800,"Lynch":5801,"Rating":5802,"lately":5803,"noir":5804,"drags":5805,"rolled":5806,"regarding":5807,"traditional":5808,"Na":5809,"flying":5810,"exceed":5811,"finity":5812,"Inter":5813,"cording":5814,"stume":5815,"rolls":5816,"convinced":5817,"believably":5818,"Potter":5819,"bic":5820,"scr":5821,"competent":5822,"Cr":5823,"Ky":5824,"enix":5825,"unbearable":5826,"outing":5827,"robot":5828,"aston":5829,"overdone":5830,"crash":5831,"!!!!!!!!":5832,"representation":5833,"church":5834,"></":5835,"Dar":5836,"GRE":5837,"reminis":5838,"stat":5839,"andering":5840,"formed":5841,"ghter":5842,"deals":5843,"proof":5844,"versions":5845,"covered":5846,"movement":5847,"clichéd":5848,"reference":5849,"regardless":5850,"Besides":5851,"90s":5852,"Cooper":5853,"Make":5854,"Sing":5855,"ls":5856,"mate":5857,"naked":5858,"reward":5859,"Arnold":5860,"required":5861,"thusi":5862,"blast":5863,"makeup":5864,"earned":5865,"psych":5866,"breaks":5867,"Roman":5868,"Next":5869,"dama":5870,"spark":5871,"gotta":5872,"aks":5873,"Depp":5874,"Dog":5875,"sinc":5876,"pred":5877,"goers":5878,"basis":5879,"struction":5880,"Awesome":5881,"homage":5882,"European":5883,"JJ":5884,"TS":5885,"bull":5886,"sle":5887,"applaud":5888,"BI":5889,"Zomb":5890,"fle":5891,"lift":5892,"quot":5893,"ensemble":5894,"productions":5895,"Carthy":5896,"transl":5897,"EVERY":5898,"Home":5899,"List":5900,"eight":5901,"skill":5902,"dying":5903,"fellow":5904,"Cruise":5905,"circumstances":5906,"contrast":5907,"fles":5908,"zel":5909,"diversity":5910,"conserv":5911,"rush":5912,"explic":5913,"identity":5914,"designed":5915,"Jake":5916,"eager":5917,"gard":5918,"Howard":5919,"Josh":5920,"favorites":5921,"speaks":5922,"Sunday":5923,"CI":5924,"CK":5925,"Tal":5926,"essentially":5927,"jumping":5928,"voted":5929,"revealed":5930,"tremend":5931,"Canadian":5932,"Apparently":5933,"Vo":5934,"steals":5935,"caring":5936,"McCarthy":5937,"BAD":5938,"CW":5939,"Lou":5940,"imo":5941,"kin":5942,"compan":5943,"woke":5944,"answered":5945,"celebr":5946,"Bu":5947,"PS":5948,"Sound":5949,"gree":5950,"beloved":5951,"pointed":5952,"enjoyment":5953,"compelled":5954,"naive":5955,"builds":5956,"contribut":5957,"Amazon":5958,"fooled":5959,"Morgan":5960,"descript":5961,"Elizabeth":5962,"toi":5963,"originals":5964,"topics":5965,"carried":5966,"survival":5967,"Cinemat":5968,"PE":5969,"plo":5970,"unpredictable":5971,"partner":5972,"elect":5973,"horrific":5974,"commerci":5975,"conversation":5976,"Picard":5977,"ease":5978,"pic":5979,"poign":5980,"cancer":5981,"kinds":5982,"cuts":5983,"puzz":5984,"Jean":5985,"Jamie":5986,"Ant":5987,"isher":5988,".......":5989,"dropped":5990,"Thrones":5991,"Pict":5992,"Sw":5993,"dar":5994,"area":5995,"indic":5996,"producing":5997,"swearing":5998,"pushing":5999,"dynamic":6000,"Ash":6001,"Imag":6002,"RO":6003,"tly":6004,"mini":6005,"lessons":6006,"Stay":6007,"ridiculously":6008,"Apart":6009,"esque":6010,"olds":6011,"superficial":6012,"thrills":6013,"males":6014,"England":6015,"listening":6016,"continued":6017,"Fiction":6018,"provided":6019,"Mind":6020,"brit":6021,"atives":6022,"lem":6023,"fee":6024,"usive":6025,"trop":6026,"Julia":6027,"island":6028,"alright":6029,"rain":6030,"consc":6031,"west":6032,"greatly":6033,"risk":6034,"Didn":6035,"Phoenix":6036,"Arthur":6037,"Brid":6038,"eer":6039,"pin":6040,"pit":6041,"filmmaker":6042,"convent":6043,"whats":6044,"downright":6045,"imagery":6046,"Matrix":6047,"exaggerated":6048,"goofy":6049,"Spe":6050,"Stop":6051,"ancy":6052,"sees":6053,"ptic":6054,"ogical":6055,"crack":6056,"porary":6057,"closer":6058,"destro":6059,"ladies":6060,"sympathy":6061,"emphas":6062,"juven":6063,"horrendous":6064,"Lady":6065,"Ros":6066,"birth":6067,"ws":6068,"attr":6069,"checking":6070,"carries":6071,"Street":6072,"NBC":6073,"Scar":6074,"gam":6075,"enthusi":6076,"vili":6077,"veter":6078,"adm":6079,"matters":6080,"costume":6081,"friendly":6082,"ANT":6083,"SG":6084,"anish":6085,"igno":6086,"ored":6087,"holding":6088,"protagonists":6089,"REALLY":6090,"Made":6091,"steam":6092,"buying":6093,"Discovery":6094,"numerous":6095,"introduction":6096,"intensity":6097,"Bird":6098,"Ku":6099,"LD":6100,"resc":6101,"replace":6102,"Three":6103,"cutting":6104,"structure":6105,"robots":6106,"dys":6107,"raised":6108,"facial":6109,"2017":6110,"Quite":6111,"skeptical":6112,"abuse":6113,"brick":6114,"trave":6115,"tribute":6116,"creature":6117,"glued":6118,"handled":6119,"historically":6120,"cartoons":6121,"equal":6122,"formulaic":6123,"pseudo":6124,"loyal":6125,"metaph":6126,"Iran":6127,"toward":6128,"elly":6129,"club":6130,"prime":6131,"sympathetic":6132,"incident":6133,"Matthew":6134,"initial":6135,"Thomas":6136,"toilet":6137,"Baby":6138,"Cent":6139,"Half":6140,"Same":6141,"awe":6142,"cies":6143,"feet":6144,"Hey":6145,"seven":6146,"dramat":6147,"legal":6148,"Shakes":6149,"DON":6150,"Hist":6151,"Hanks":6152,"abilities":6153,"riage":6154,"dude":6155,"daily":6156,"frustrating":6157,"charisma":6158,"GREAT":6159,"Tay":6160,"Tony":6161,"display":6162,"partic":6163,"campy":6164,"Leg":6165,"court":6166,"ketch":6167,"teacher":6168,"flesh":6169,"Dial":6170,"Fall":6171,"rise":6172,"thony":6173,"orter":6174,"ambit":6175,"lovable":6176,"faced":6177,"Noah":6178,"conversations":6179,"complaint":6180,"Pacino":6181,"KE":6182,"agreed":6183,"purely":6184,"mesmer":6185,"Italian":6186,"Ms":6187,"arti":6188,"irt":6189,"border":6190,"paralle":6191,"Michelle":6192,"Bravo":6193,"Burton":6194,"Cinematography":6195,":/":6196,"Crow":6197,"WOR":6198,"bility":6199,"eating":6200,"snow":6201,"ilty":6202,"illogical":6203,"bodies":6204,"horse":6205,"Western":6206,"remembered":6207,"settings":6208,"Salman":6209,"mildly":6210,"OME":6211,"SRK":6212,"Got":6213,"Hall":6214,"Mis":6215,"Ted":6216,"__":6217,"haunting":6218,"outrage":6219,"blend":6220,"Anthony":6221,"rented":6222,"continuity":6223,"North":6224,"Blair":6225,"Transformers":6226,"Ak":6227,"Mil":6228,"NG":6229,"omed":6230,"wear":6231,"holi":6232,"month":6233,"animal":6234,"includes":6235,"narration":6236,"Clo":6237,"Plan":6238,"glim":6239,"mut":6240,"encourage":6241,"arter":6242,"marks":6243,"Luc":6244,"nailed":6245,"communic":6246,"competit":6247,"Shakespe":6248,"Jord":6249,"Swed":6250,"gn":6251,"hunt":6252,"Unless":6253,"Ridley":6254,"battles":6255,"nause":6256,"trite":6257,"reasonable":6258,"Cost":6259,"Parker":6260,"fetched":6261,"lifting":6262,"AV":6263,"mu":6264,"forms":6265,"construct":6266,"goal":6267,"arded":6268,"ief":6269,"sadness":6270,"spoken":6271,"HOW":6272,"drinking":6273,"gor":6274,"tour":6275,"aded":6276,"pson":6277,"bitter":6278,"Forget":6279,"influence":6280,"minimum":6281,"distracting":6282,"interpretation":6283,"commercials":6284,"70s":6285,"Ul":6286,"meh":6287,"Anderson":6288,"Recommend":6289,"heartwarming":6290,"favour":6291,"arrow":6292,"alike":6293,"pulls":6294,"FOR":6295,"rough":6296,"comical":6297,"awa":6298,"highest":6299,"valu":6300,"glass":6301,"frequ":6302,"collect":6303,"netflix":6304,"experiment":6305,"Greg":6306,"Kim":6307,"loo":6308,"lousy":6309,"stain":6310,"stress":6311,"concent":6312,"thoughtful":6313,"Alan":6314,"sophisticated":6315,"Av":6316,"Down":6317,"abortion":6318,"Roy":6319,"clichÃ":6320,"Carrey":6321,"Brothers":6322,"window":6323,"Freeman":6324,"Gy":6325,"IR":6326,"tick":6327,"wick":6328,"recall":6329,"shark":6330,"ceive":6331,"umph":6332,"lesbian":6333,"ACT":6334,"absor":6335,"Hitchcock":6336,"Imagine":6337,"Bang":6338,"Hot":6339,"bath":6340,"ole":6341,"plic":6342,"Seems":6343,"Eddie":6344,"ultimate":6345,"specific":6346,"ignorant":6347,"tham":6348,"filler":6349,"acle":6350,"morning":6351,"reminiscent":6352,"Fast":6353,"Jen":6354,"Ren":6355,"Whe":6356,"WAY":6357,"cket":6358,"nit":6359,"vince":6360,"vague":6361,"eson":6362,"apes":6363,"ques":6364,"realise":6365,"immers":6366,"nails":6367,"jumps":6368,"Holmes":6369,"Care":6370,"Cong":6371,"Dor":6372,"Er":6373,"Gener":6374,"nically":6375,"vity":6376,"omy":6377,"shop":6378,"cia":6379,"brow":6380,"interaction":6381,"Spanish":6382,"----------------":6383,"department":6384,"SH":6385,"oe":6386,"alco":6387,"unlikable":6388,"ifically":6389,"genres":6390,"captain":6391,"desperately":6392,"juvenile":6393,"Haw":6394,"Light":6395,"Wat":6396,"bie":6397,"Disappoint":6398,"scientific":6399,"Craig":6400,"poignant":6401,"particip":6402,"\"?":6403,"\"...":6404,"report":6405,"ader":6406,"combat":6407,"thern":6408,"ourne":6409,"fallen":6410,"affair":6411,"football":6412,"dollar":6413,"silent":6414,"WOW":6415,"revel":6416,"assa":6417,"term":6418,"talked":6419,"bucks":6420,"concepts":6421,"Irish":6422,"significant":6423,"Sherlock":6424,"dogs":6425,"enemy":6426,"Endgame":6427,"Gl":6428,"Lind":6429,"unable":6430,"degree":6431,"intro":6432,"balanced":6433,"advise":6434,"senseless":6435,"thology":6436,"Interest":6437,"Ever":6438,"Fre":6439,"Hit":6440,"MI":6441,"Slow":6442,"soo":6443,"outcome":6444,"watches":6445,"urally":6446,"udic":6447,"195":6448,"expensive":6449,"bbing":6450,"Wayne":6451,"option":6452,"Based":6453,"Call":6454,"ios":6455,"atar":6456,"tea":6457,"possess":6458,"obsessed":6459,"Flash":6460,"CE":6461,"Our":6462,"Ver":6463,"Washing":6464,"bashing":6465,"eland":6466,"unfortunate":6467,"angers":6468,"engross":6469,"Total":6470,"relatively":6471,"Shakespeare":6472,"Bot":6473,"Cli":6474,"Die":6475,"dd":6476,"sque":6477,"ilton":6478,"lifetime":6479,"extent":6480,"pushed":6481,"novels":6482,"recognize":6483,"Damon":6484,"accomplish":6485,"Miller":6486,"Pen":6487,"redu":6488,"arrog":6489,"adap":6490,"amir":6491,"oll":6492,"Remember":6493,"picks":6494,"advanced":6495,"AST":6496,"Les":6497,"aired":6498,"domin":6499,"gap":6500,"mic":6501,"sor":6502,"chap":6503,"magin":6504,"borrow":6505,"martial":6506,"focuses":6507,"delightful":6508,"Wait":6509,"guarantee":6510,"Washington":6511,"stum":6512,"chair":6513,"treatment":6514,"redem":6515,"Jordan":6516,"):":6517,".'":6518,"Dun":6519,"Rep":6520,"ego":6521,"anic":6522,"model":6523,"surreal":6524,"empathy":6525,"cliff":6526,"Anim":6527,"NOTHING":6528,"thousands":6529,"250":6530,"CBS":6531,"pup":6532,"sne":6533,"ables":6534,"isters":6535,"stylish":6536,"depicts":6537,"gangster":6538,"miserable":6539,"Nazi":6540,"Universe":6541,"++":6542,"Bell":6543,"ov":6544,"rical":6545,"sea":6546,"filmmaking":6547,"artsy":6548,"simpl":6549,"condition":6550,"credibility":6551,"Except":6552,"Direction":6553,"soldier":6554,"blo":6555,"mile":6556,"racy":6557,"lore":6558,"goodness":6559,"ept":6560,"civili":6561,"guilty":6562,"---":6563,"cared":6564,"darkness":6565,"2016":6566,"mbol":6567,"Character":6568,"tune":6569,"indulgent":6570,"Taylor":6571,"IQ":6572,"cence":6573,"sink":6574,"exas":6575,"loses":6576,"tied":6577,"whoever":6578,"ourselves":6579,"orsese":6580,"Doctor":6581,"Cinema":6582,"prequel":6583,"contemporary":6584,"vehicle":6585,"ABC":6586,"XX":6587,"rehash":6588,"adorable":6589,"sounded":6590,"throwing":6591,"individuals":6592,"sketch":6593,"isms":6594,"quin":6595,"mans":6596,"serves":6597,"reviewed":6598,"enjoys":6599,"originally":6600,"akens":6601,"ashed":6602,"rental":6603,"grave":6604,"balls":6605,"OMG":6606,"smooth":6607,"officer":6608,"scratch":6609,"soooo":6610,"unbelievably":6611,"abomin":6612,"haha":6613,"greater":6614,"spital":6615,"ideo":6616,"brilli":6617,"Whoever":6618,"Viet":6619,"choreography":6620,"frightening":6621,"conscious":6622,"FBI":6623,"hint":6624,"shell":6625,"rave":6626,"overwhelming":6627,"surface":6628,"kidding":6629,"delivering":6630,"immense":6631,"Usu":6632,"jack":6633,"rape":6634,"mentally":6635,"beings":6636,"letting":6637,"Dont":6638,"philosophical":6639,"sentimental":6640,"Master":6641,"fish":6642,"latter":6643,"weal":6644,"rule":6645,"backdrop":6646,"politic":6647,"Samuel":6648,"Through":6649,"innovative":6650,"udicrous":6651,"Fan":6652,"ium":6653,"inder":6654,"bold":6655,"players":6656,"cheer":6657,"Child":6658,"symbol":6659,"passes":6660,"Scorsese":6661,"advance":6662,"improvement":6663,"knock":6664,"description":6665,"://":6666,";)":6667,"MUST":6668,"Water":6669,"cient":6670,"ffle":6671,"afterwards":6672,"fitting":6673,"motivation":6674,"practically":6675,":-":6676,"dut":6677,"sme":6678,"admir":6679,"uninspired":6680,"directly":6681,"capital":6682,"hopeless":6683,"requires":6684,"determin":6685,"Wick":6686,"db":6687,"rum":6688,"threw":6689,"inappropriate":6690,"replaced":6691,"alot":6692,"shaking":6693,"antagon":6694,"prise":6695,"offered":6696,"marriage":6697,"ibilities":6698,"recognition":6699,"occasional":6700,"evidence":6701,"thousand":6702,"Went":6703,"foul":6704,"orient":6705,"ita":6706,"exer":6707,"convince":6708,"learning":6709,"finger":6710,"brilliance":6711,"Dick":6712,"Hul":6713,"htt":6714,"lu":6715,"yptic":6716,"ads":6717,"awake":6718,"wished":6719,"Godfather":6720,"slightest":6721,"surrounding":6722,"virtually":6723,"Certain":6724,"FO":6725,"SS":6726,"Sab":6727,"Tube":6728,"cis":6729,"tiny":6730,"station":6731,"disrespect":6732,"lowing":6733,"reviewing":6734,"Moon":6735,"Liam":6736,"ENT":6737,"vampires":6738,"Tyler":6739,"France":6740,"Cas":6741,"Son":6742,"unconvincing":6743,"diverse":6744,"thru":6745,"medical":6746,"Donald":6747,"importance":6748,"swear":6749,"ypse":6750,"claimed":6751,"stole":6752,"sports":6753,"floor":6754,"Entertain":6755,"Dow":6756,"Pla":6757,"nine":6758,"atory":6759,"elf":6760,"center":6761,"Young":6762,"rank":6763,"voluted":6764,"undance":6765,"educated":6766,"philosophy":6767,"Rambo":6768,"isa":6769,"ala":6770,"vices":6771,"uplifting":6772,"misleading":6773,"tracks":6774,"comedian":6775,"jobs":6776,"Emily":6777,"Hardy":6778,"Harrison":6779,"AX":6780,"wen":6781,"noise":6782,"ruins":6783,"relent":6784,"carefully":6785,"distri":6786,"minimal":6787,"Statham":6788,"Air":6789,"Ira":6790,"Jar":6791,"Veron":6792,"ught":6793,"Whate":6794,"cycl":6795,"videos":6796,"bias":6797,"atherine":6798,"convey":6799,"redemption":6800,"AZ":6801,"Dy":6802,"Pul":6803,"asks":6804,"beit":6805,"likeable":6806,"prejud":6807,"checked":6808,"improved":6809,"LOVED":6810,"intentionally":6811,"results":6812,"LI":6813,"Port":6814,"incoherent":6815,"reput":6816,"mock":6817,"haunt":6818,"harder":6819,"developing":6820,"Brown":6821,"broke":6822,"progresses":6823,"stereotype":6824,"Whatever":6825,"Either":6826,"Fol":6827,"Games":6828,"ique":6829,"thet":6830,"vile":6831,"suicide":6832,"exists":6833,"messed":6834,"unimagin":6835,"slop":6836,"attached":6837,"hatred":6838,"emplo":6839,"gentle":6840,"nostalgic":6841,"established":6842,"neighbor":6843,"Ext":6844,"Gun":6845,"Id":6846,"President":6847,"cake":6848,"lone":6849,"semi":6850,"betray":6851,"lize":6852,"shit":6853,"Andrew":6854,"resist":6855,"Grand":6856,"endearing":6857,"nightmare":6858,"Gri":6859,"entin":6860,"anta":6861,"fund":6862,"spite":6863,"2020":6864,"elsewhere":6865,"previously":6866,"Germany":6867,"Murray":6868,"bumps":6869,"controversial":6870,"aust":6871,"renew":6872,"elo":6873,"brid":6874,"creator":6875,"2015":6876,"Lewis":6877,"profanity":6878,"smoking":6879,"riveting":6880,"apocalyptic":6881,"Reynold":6882,"occasionally":6883,"ears":6884,"evo":6885,"lyn":6886,"meth":6887,"lowest":6888,"assass":6889,"monot":6890,"honesty":6891,"curi":6892,"Davis":6893,"2001":6894,"discovered":6895,"Wonderful":6896,"blatant":6897,"tremendous":6898,"Bottom":6899,"eric":6900,"illness":6901,"convoluted":6902,"Myster":6903,"univers":6904,"Boys":6905,"inspiration":6906,"appalling":6907,"guts":6908,"Picture":6909,"ARE":6910,"Med":6911,"NL":6912,"Set":6913,"ludicrous":6914,"vom":6915,"eness":6916,"ounding":6917,"Blue":6918,"wannabe":6919,"luster":6920,"associated":6921,"Bale":6922,"ME":6923,"Pred":6924,"redi":6925,"mod":6926,"alled":6927,"iron":6928,"immature":6929,"osity":6930,"beliefs":6931,"corporate":6932,"hundreds":6933,"Dad":6934,"bid":6935,"asion":6936,"lifel":6937,"suits":6938,"volta":6939,"interactions":6940,"Atl":6941,"private":6942,"explore":6943,"president":6944,"axy":6945,"Skip":6946,"patience":6947,"HU":6948,"TNG":6949,"tones":6950,"chases":6951,"sec":6952,"irrelevant":6953,"endure":6954,"1000":6955,"inson":6956,"United":6957,"confron":6958,"accuracy":6959,"Lin":6960,"lord":6961,"stale":6962,"idence":6963,"justify":6964,"prede":6965,"believed":6966,"empower":6967,"heartfelt":6968,"international":6969,"presents":6970,"identify":6971,"instantly":6972,"Franco":6973,"Play":6974,"Mexican":6975,"analy":6976,"Veronica":6977,"Friend":6978,"Lan":6979,"Sum":6980,"oid":6981,"forgiven":6982,"ulations":6983,"laid":6984,"dozen":6985,"storylines":6986,"urban":6987,"Stall":6988,"stein":6989,"Deep":6990,"props":6991,"Trust":6992,"Blade":6993,"hanging":6994,"onse":6995,"unfair":6996,"unforgettable":6997,"devoid":6998,"consequences":6999,"ours":7000,"adequ":7001,"cheese":7002,"wondered":7003,"Need":7004,"imagined":7005,"advant":7006,"faithful":7007,"Jimmy":7008,"suitable":7009,"Reynolds":7010,"!).":7011,"Happy":7012,"Jr":7013,"Texas":7014,"Wish":7015,"Zero":7016,"encounter":7017,"ingredi":7018,"albeit":7019,"conspir":7020,"promot":7021,"sentence":7022,"Art":7023,"Brook":7024,"suffers":7025,"unlikeable":7026,"depressed":7027,"dedic":7028,"washed":7029,"Kids":7030,"belongs":7031,"wrapped":7032,"Dialo":7033,"Gary":7034,"dinner":7035,"wig":7036,"encies":7037,"lean":7038,"seam":7039,"oples":7040,"asts":7041,"prevent":7042,"Andy":7043,"tales":7044,"YouTube":7045,"IMAX":7046,"opened":7047,"correctness":7048,"unlikely":7049,"immick":7050,"ignored":7051,"predecess":7052,"Sex":7053,"Sony":7054,"WAS":7055,"bless":7056,"jam":7057,"tube":7058,"tian":7059,"promo":7060,"spell":7061,"according":7062,"screw":7063,"instance":7064,"Simon":7065,"masses":7066,"revolution":7067,"charismatic":7068,"Sn":7069,"aid":7070,"secur":7071,"imate":7072,"ifying":7073,"boat":7074,"merit":7075,"Aside":7076,"buddy":7077,"passing":7078,"posted":7079,"Russia":7080,"succeeds":7081,"preachy":7082,"variety":7083,"21st":7084,"Buff":7085,"gimmick":7086,"rates":7087,"inn":7088,"seats":7089,"abys":7090,"teeth":7091,"Stupid":7092,"compassion":7093,"xture":7094,"presentation":7095,"planned":7096,"severe":7097,"princi":7098,"Dian":7099,"poo":7100,"reactions":7101,"arri":7102,"suited":7103,"Heath":7104,"patient":7105,"ASE":7106,"GOOD":7107,"stretched":7108,"Title":7109,"Oliver":7110,"Eric":7111,"ini":7112,"removed":7113,"enthr":7114,"ardi":7115,"chant":7116,"ripped":7117,"decl":7118,"hospital":7119,"miscast":7120,"compli":7121,"triumph":7122,"involve":7123,"Emp":7124,"Edward":7125,"loaded":7126,"baff":7127,"streets":7128,"Drama":7129,"Ferrell":7130,"jaw":7131,"Nobody":7132,"develops":7133,"engage":7134,"detailed":7135,"suffered":7136,"Colin":7137,"Greek":7138,"conservative":7139,"300":7140,"Cat":7141,"EX":7142,"Jac":7143,"Sin":7144,"hollywood":7145,"rebel":7146,"ota":7147,"hire":7148,"folk":7149,"disgusted":7150,"Iraq":7151,"4th":7152,"Aamir":7153,"bone":7154,"clow":7155,"ec":7156,"stiff":7157,"mel":7158,"scifi":7159,"wake":7160,"kidnap":7161,"freaking":7162,"misses":7163,"Neeson":7164,"imaginative":7165,"mixture":7166,"loads":7167,"Seeing":7168,"scenarios":7169,"hrs":7170,"explor":7171,"Consider":7172,"chapter":7173,"Gor":7174,"Ve":7175,"butt":7176,"join":7177,"decides":7178,"Grant":7179,"votes":7180,"Travolta":7181,"www":7182,"initially":7183,"Denzel":7184,"weapons":7185,"itizen":7186,"Award":7187,"Bourne":7188,"Fight":7189,"french":7190,"inaccurate":7191,"ils":7192,"adoles":7193,"heaven":7194,"inding":7195,"gger":7196,"ification":7197,"spiritual":7198,"celebrit":7199,"throat":7200,"History":7201,"Interesting":7202,"22":7203,"Book":7204,"Dream":7205,"FUL":7206,"bird":7207,"uk":7208,"forgive":7209,"raunch":7210,"ultra":7211,"quote":7212,"yourselves":7213,"phr":7214,"Rober":7215,"struck":7216,"ounce":7217,"terrorist":7218,"largely":7219,"fashioned":7220,"legendary":7221,"WWII":7222,"Crit":7223,"Led":7224,"awhile":7225,"ella":7226,"diction":7227,"trapped":7228,"China":7229,"brains":7230,"hypo":7231,"Quentin":7232,"specifically":7233,"anticipation":7234,"tropes":7235,"Bible":7236,"Brian":7237,"Driver":7238,"Glad":7239,"Kind":7240,"Land":7241,"TIM":7242,"pir":7243,"artists":7244,"ruining":7245,"Stu":7246,"heroine":7247,"ronic":7248,"Script":7249,"Caprio":7250,"Barry":7251,"colorful":7252,"achievement":7253,"Empire":7254,"Kin":7255,"Luck":7256,"Sto":7257,"tact":7258,"peoples":7259,"sus":7260,"polish":7261,"ette":7262,"lasted":7263,"portra":7264,"deserving":7265,"successfully":7266,"Walking":7267,"criminals":7268,"RIBLE":7269,"Channel":7270,"Panther":7271,"staff":7272,"hysterical":7273,"dinosaurs":7274,"Zombie":7275,"Stallone":7276,"Kong":7277,"Low":7278,"ffect":7279,"gro":7280,"isol":7281,"iconic":7282,"dear":7283,"backstory":7284,"clum":7285,"plains":7286,"masterful":7287,"countless":7288,"Charlize":7289,"explored":7290,"Jewish":7291,"selling":7292,"Sandra":7293,"Toro":7294,"?).":7295,"SI":7296,"mountain":7297,"rhy":7298,"imdb":7299,"istan":7300,"fired":7301,"Stargate":7302,"generations":7303,"Bring":7304,"2014":7305,"superheroes":7306,"response":7307,"jumped":7308,"Girls":7309,"IGH":7310,"Kubrick":7311,"Pulp":7312,"Log":7313,"SU":7314,"Women":7315,"labor":7316,"moon":7317,"selfish":7318,"confusion":7319,"Jackie":7320,"achieved":7321,"unfolds":7322,"simplistic":7323,"rink":7324,"errors":7325,"theory":7326,"select":7327,"guard":7328,"rude":7329,"States":7330,"believing":7331,"crimes":7332,"camer":7333,"naturally":7334,"judging":7335,"Muslim":7336,"affected":7337,"dressed":7338,"health":7339,"landscape":7340,"Original":7341,"population":7342,"exercise":7343,"NEVER":7344,"Penn":7345,"Rings":7346,"cab":7347,"fate":7348,"picking":7349,"sno":7350,"zes":7351,"isation":7352,"omer":7353,"extended":7354,"expand":7355,"mysteries":7356,"streaming":7357,"functional":7358,"Scarlet":7359,"Hay":7360,"Mul":7361,"Rem":7362,"TA":7363,"shape":7364,"implausible":7365,"poses":7366,"kings":7367,"whenever":7368,"Carol":7369,"explaining":7370,"dropping":7371,"aughters":7372,"Adams":7373,"studios":7374,"Clearly":7375,"PLEASE":7376,"Dare":7377,"Ret":7378,"mund":7379,"users":7380,"ifies":7381,"access":7382,"horrors":7383,"coura":7384,"blur":7385,"instant":7386,"caused":7387,"stunned":7388,"adventures":7389,"feminism":7390,"admire":7391,"travesty":7392,"http":7393,"Pure":7394,"SNL":7395,"aes":7396,"mash":7397,"destruction":7398,"plat":7399,"worthless":7400,"campa":7401,"attempting":7402,"similarities":7403,"batman":7404,"accepted":7405,"status":7406,"abysmal":7407,"Tre":7408,"lly":7409,"ware":7410,"relies":7411,"aser":7412,"section":7413,"mented":7414,"quis":7415,"underlying":7416,"2000":7417,"feld":7418,"closed":7419,"staying":7420,"Const":7421,"groups":7422,"LOT":7423,"atmospher":7424,"searching":7425,"choreograph":7426,"committed":7427,"inducing":7428,"abomination":7429,"Apo":7430,"daughters":7431,"limit":7432,"ada":7433,"embra":7434,"turkey":7435,"Island":7436,"planning":7437,"hitting":7438,"Comm":7439,"fourth":7440,"represented":7441,"draws":7442,"Kidman":7443,"ffleck":7444,"Hood":7445,"Jere":7446,"mier":7447,"wolf":7448,"liever":7449,"abandon":7450,"raise":7451,"ami":7452,"dose":7453,"training":7454,"cheek":7455,"fancy":7456,"solve":7457,"woods":7458,"superbly":7459,"porno":7460,"messy":7461,"morons":7462,"scientist":7463,"Boo":7464,"Bry":7465,"CR":7466,"Sho":7467,"zo":7468,"aton":7469,"stro":7470,"choo":7471,"chain":7472,"vig":7473,"utch":7474,"pets":7475,"inevit":7476,"ciating":7477,"Whit":7478,"hardcore":7479,"Joa":7480,"END":7481,"marvelous":7482,"reached":7483,"minority":7484,"discus":7485,"challenging":7486,"Mexico":7487,"excessive":7488,"competition":7489,"AA":7490,"Hems":7491,"Ze":7492,"emer":7493,"si":7494,"tin":7495,"arm":7496,"sav":7497,"Infinity":7498,"cinemas":7499,"nah":7500,"glory":7501,"resour":7502,"headed":7503,"ennis":7504,"musicals":7505,"amongst":7506,"slick":7507,"CIA":7508,"curiosity":7509,"Hemsworth":7510,"Put":7511,"aff":7512,"goose":7513,"rational":7514,"recei":7515,"icing":7516,"neat":7517,"amal":7518,"myth":7519,"disgu":7520,"offering":7521,"staring":7522,"deliber":7523,"helping":7524,"burst":7525,"Holland":7526,"prequels":7527,"campaign":7528,"Der":7529,"penter":7530,"alleg":7531,"esh":7532,"shake":7533,"los":7534,"...\"":7535,"academy":7536,"hired":7537,"differences":7538,"venture":7539,"legacy":7540,"Shaw":7541,"gruesome":7542,"Usually":7543,"advantage":7544,"Psy":7545,"Six":7546,"bare":7547,"fart":7548,"nib":7549,"orc":7550,"poet":7551,"embarrassment":7552,"Science":7553,"Grey":7554,"advertising":7555,"Golden":7556,"tiresome":7557,"Kyle":7558,":(":7559,"Fore":7560,"thick":7561,"ancient":7562,"exter":7563,"nose":7564,"greatness":7565,"umber":7566,"flight":7567,"morality":7568,"walker":7569,"theatrical":7570,"zzzzzzzz":7571,"Visually":7572,"Screen":7573,"rescue":7574,"Roberts":7575,"BR":7576,"CT":7577,"Grace":7578,"cali":7579,"nar":7580,"vich":7581,"areas":7582,"explains":7583,"goer":7584,"Jolie":7585,"Belie":7586,"subjects":7587,"claims":7588,"mirror":7589,"silence":7590,"conventional":7591,"Affleck":7592,"Kelly":7593,"fice":7594,"pitch":7595,"inch":7596,"viet":7597,"ills":7598,"reads":7599,"farce":7600,"visible":7601,"differently":7602,"possibility":7603,"thrilled":7604,"Arab":7605,"locaust":7606,"GOT":7607,"AMAZ":7608,"babies":7609,"reputation":7610,"method":7611,"Fro":7612,"Mother":7613,"Wed":7614,"avid":7615,"lest":7616,"vic":7617,"beating":7618,"beats":7619,"lia":7620,"overcome":7621,"harm":7622,"fluff":7623,"YOUR":7624,"ghosts":7625,"constructed":7626,"Vietnam":7627,"Predator":7628,"Dennis":7629,"Vampire":7630,"Wi":7631,"bble":7632,"tong":7633,"anor":7634,"alter":7635,"opens":7636,"centric":7637,"angst":7638,"Justin":7639,"heroic":7640,"desert":7641,"headache":7642,"immig":7643,"consistently":7644,"challenges":7645,"honor":7646,"Power":7647,"Crowe":7648,"holiday":7649,"Sabrina":7650,"unimaginative":7651,"Buffy":7652,"andal":7653,"height":7654,"spots":7655,"player":7656,"ERS":7657,"suspend":7658,"typically":7659,"ONG":7660,"represents":7661,"Awakens":7662,"vulner":7663,"benefit":7664,"eerie":7665,"Kurt":7666,"VFX":7667,"omor":7668,"ira":7669,"opic":7670,"happiness":7671,"audio":7672,"buck":7673,"legit":7674,"village":7675,"subtlety":7676,"ILM":7677,"Couldn":7678,"tricks":7679,"Gyllen":7680,"Ledger":7681,"!?":7682,"$$":7683,"Ind":7684,"Pop":7685,"Ten":7686,"aper":7687,"rotten":7688,"wins":7689,"onde":7690,"entry":7691,"essential":7692,"charge":7693,"pless":7694,"bleak":7695,"believes":7696,"hearts":7697,"attempted":7698,"III":7699,"frustrated":7700,"accomplished":7701,"corruption":7702,"cardboard":7703,"explicit":7704,"adapted":7705,"Coun":7706,"COM":7707,"Four":7708,"Further":7709,"Hoff":7710,"Rome":7711,"olo":7712,"tz":7713,"chasing":7714,"unpleasant":7715,"ante":7716,"promote":7717,"spare":7718,"ideal":7719,"Intern":7720,"nights":7721,"interviews":7722,"failing":7723,"sorts":7724,"Bradley":7725,"chilling":7726,"Bullock":7727,"metaphor":7728,"Gos":7729,"Main":7730,"sisters":7731,"believer":7732,"omi":7733,"oms":7734,"Theron":7735,"filling":7736,"compens":7737,"Road":7738,"projects":7739,"kicks":7740,"terrorists":7741,"rooting":7742,"Nicole":7743,"Runner":7744,"Costner":7745,"BOR":7746,"Kirk":7747,"league":7748,"haal":7749,"rior":7750,"conceived":7751,"excru":7752,"cos":7753,"smiling":7754,"calls":7755,"wishing":7756,"stronger":7757,"Neil":7758,"cynical":7759,"weakness":7760,"Victor":7761,"reveals":7762,"motivations":7763,"Certainly":7764,"Extreme":7765,"Hoffman":7766,"Sir":7767,"WTF":7768,"bollywood":7769,"cities":7770,"gift":7771,"wrench":7772,"cean":7773,"upcoming":7774,"minus":7775,"uded":7776,"Chic":7777,"difficul":7778,"iley":7779,"Everybody":7780,"figures":7781,"inspire":7782,"chuckle":7783,"Avatar":7784,"excruciating":7785,"35":7786,"AG":7787,"Lar":7788,"Los":7789,"Song":7790,"dump":7791,"firm":7792,"gla":7793,"hence":7794,"receive":7795,"recycl":7796,"alie":7797,"moti":7798,"vey":7799,"icient":7800,"irony":7801,"nod":7802,"overacting":7803,"grate":7804,"horrid":7805,"hub":7806,"effectively":7807,"LOL":7808,"reflection":7809,"OUT":7810,"spread":7811,"arrogant":7812,"AMAZING":7813,"Gil":7814,"Hart":7815,"Sup":7816,"sons":7817,"ularly":7818,"hase":7819,"acity":7820,"plague":7821,"dragging":7822,"gian":7823,"Scen":7824,"Turkey":7825,"contained":7826,"physically":7827,"Given":7828,"stinker":7829,"Roseanne":7830,"melodrama":7831,"habit":7832,"Whether":7833,"ingredients":7834,"Joaquin":7835,"anormal":7836,"21":7837,"Cri":7838,"Lef":7839,"Spo":7840,"Shel":7841,"gie":7842,"hates":7843,"tro":7844,"wound":7845,"inser":7846,"incess":7847,"keys":7848,"une":7849,"geek":7850,"aman":7851,"loser":7852,"fame":7853,"chest":7854,"aka":7855,"akin":7856,"pulling":7857,"complexity":7858,"sensational":7859,"Broad":7860,"Final":7861,"nominations":7862,"education":7863,"golden":7864,"Australia":7865,"TIME":7866,".</":7867,"Teen":7868,"ueless":7869,"joker":7870,"copied":7871,"Carpenter":7872,"Looks":7873,"tradition":7874,"Streep":7875,"evident":7876,"Jeremy":7877,"FILM":7878,"Nar":7879,"bia":7880,"tha":7881,"adore":7882,"ental":7883,"badass":7884,"fia":7885,"Going":7886,"Charles":7887,"steps":7888,"innocence":7889,"nomination":7890,"digital":7891,"Recommended":7892,"security":7893,"Dem":7894,"Ta":7895,"spook":7896,"ensible":7897,"closing":7898,"Leo":7899,"arring":7900,"Carter":7901,"featuring":7902,"cleverly":7903,"avoided":7904,"calm":7905,"sleeping":7906,"global":7907,"choreographed":7908,"Hob":7909,"Kings":7910,"hil":7911,"arl":7912,"behave":7913,"ilted":7914,"measure":7915,"recommendation":7916,"walks":7917,"Aliens":7918,"madness":7919,"Hamilton":7920,"solely":7921,"destroying":7922,"outrageous":7923,"Gene":7924,"dge":7925,"goo":7926,"mere":7927,"task":7928,"ona":7929,"ont":7930,"enlight":7931,"worn":7932,"pled":7933,"premier":7934,"dissa":7935,"casts":7936,"plastic":7937,"command":7938,"Bey":7939,"Rogen":7940,"casual":7941,"Granted":7942,"Completely":7943,"Clooney":7944,"distribut":7945,"FUN":7946,"Lion":7947,"NT":7948,"iven":7949,"trolls":7950,"iter":7951,"aces":7952,"aken":7953,"persons":7954,"endings":7955,"ahl":7956,"spoiling":7957,"Lets":7958,"Liter":7959,"stock":7960,"exploration":7961,"75":7962,"During":7963,"fond":7964,"stol":7965,"dire":7966,"extr":7967,"ambi":7968,"trade":7969,"humble":7970,"ranks":7971,"pressed":7972,"resort":7973,"generated":7974,"engine":7975,"hyper":7976,"fortune":7977,"mask":7978,"appreciation":7979,"Point":7980,"south":7981,"ounced":7982,"journal":7983,"hesit":7984,"hurts":7985,"Hunger":7986,"Jerry":7987,"glimpse":7988,"tongue":7989,"Cali":7990,"fx":7991,"haust":7992,"antics":7993,"seeking":7994,"iger":7995,"orton":7996,"centered":7997,"setup":7998,"clips":7999,"examples":8000,"opposed":8001,"ungle":8002,"layers":8003,"Apple":8004,"artificial":8005,"Dia":8006,"eli":8007,"definite":8008,"rocks":8009,"agan":8010,"ett":8011,"writes":8012,"aker":8013,"worlds":8014,"Note":8015,"Read":8016,"Firstly":8017,"focusing":8018,"greed":8019,"Mean":8020,"pathize":8021,"revolves":8022,"Thompson":8023,"exceeded":8024,"lonely":8025,"adolescent":8026,"atmospheric":8027,"Bal":8028,"Bush":8029,"Easter":8030,"JW":8031,"Kane":8032,"MAN":8033,"Ton":8034,"cand":8035,"exhaust":8036,"seek":8037,"tax":8038,"olves":8039,"doesnt":8040,"Devil":8041,"elev":8042,"Isra":8043,"Tommy":8044,"satisfy":8045,"ika":8046,"Strong":8047,"raunchy":8048,"stolen":8049,"Cu":8050,"Cur":8051,"pants":8052,"serving":8053,"happily":8054,"allowing":8055,"banter":8056,"Doesn":8057,"caricat":8058,"Chicago":8059,"Camp":8060,"Patt":8061,"dun":8062,"fist":8063,"sand":8064,"actic":8065,"forcing":8066,"americ":8067,"saves":8068,"insist":8069,"renting":8070,"fantast":8071,"handsome":8072,"morals":8073,"2012":8074,"miles":8075,"School":8076,"succeeded":8077,"discussion":8078,"veteran":8079,"mundane":8080,"Alice":8081,"GH":8082,"Hunt":8083,"Ven":8084,"dre":8085,"kh":8086,"lims":8087,"pec":8088,"Annie":8089,"Compare":8090,"doubts":8091,"DiCaprio":8092,"ypical":8093,"strict":8094,"crossed":8095,"conspiracy":8096,"AF":8097,"Fort":8098,"LG":8099,"aur":8100,"esp":8101,"contr":8102,"lackluster":8103,"intentional":8104,"separate":8105,"Bon":8106,"Fav":8107,"Hum":8108,"Ian":8109,"lum":8110,"returns":8111,"stit":8112,"heist":8113,"characterization":8114,"anged":8115,"valid":8116,"murders":8117,"Deadpool":8118,"expert":8119,"highlights":8120,"adequate":8121,"Pet":8122,"Wel":8123,"pig":8124,"react":8125,"beer":8126,"button":8127,"illust":8128,"conven":8129,"umar":8130,"cram":8131,"heartbreaking":8132,"explores":8133,"introduce":8134,"demons":8135,"dynamics":8136,"Shield":8137,"Gyllenhaal":8138,"cust":8139,"infeld":8140,"meat":8141,"uns":8142,"ironic":8143,"females":8144,"ament":8145,"mythology":8146,"olas":8147,"disliked":8148,"Toy":8149,"legs":8150,"technically":8151,"larger":8152,"Superb":8153,"adaptations":8154,"equival":8155,"tortured":8156,"Rocky":8157,"split":8158,"sacrifice":8159,"Hitler":8160,"HS":8161,"Ja":8162,"Jose":8163,"Mom":8164,"agh":8165,"xic":8166,"divor":8167,"contest":8168,"timeless":8169,"forest":8170,"nerd":8171,"glas":8172,"Cohen":8173,"Raj":8174,"Rather":8175,"Schind":8176,"chaos":8177,"BORING":8178,"EP":8179,"Owen":8180,"erotic":8181,"ardo":8182,"arian":8183,"argue":8184,"ario":8185,"usions":8186,"misery":8187,"grasp":8188,"pretending":8189,"Beyond":8190,"sexist":8191,"masterpieces":8192,"nett":8193,"Mrs":8194,"questionable":8195,"criticize":8196,"SciFi":8197,"brutality":8198,"BEST":8199,"chopath":8200,"alternative":8201,"techniques":8202,"lifeless":8203,"FE":8204,"Ut":8205,"yell":8206,"optim":8207,"excl":8208,"peror":8209,"factory":8210,"onda":8211,"stops":8212,"hollow":8213,"snoo":8214,"Katrina":8215,"Nazis":8216,"routine":8217,"smell":8218,"nibal":8219,"wrenching":8220,"Diaz":8221,"egg":8222,"vous":8223,"thal":8224,"reli":8225,"Thought":8226,"letter":8227,"shoes":8228,"listed":8229,"lawyer":8230,"theatres":8231,"historic":8232,"grim":8233,"meeting":8234,"murdered":8235,"Indiana":8236,"glorious":8237,"Visual":8238,"Douglas":8239,"Furious":8240,"astonishing":8241,"International":8242,"Califor":8243,"Fans":8244,"Say":8245,"inconsistent":8246,"enem":8247,"altogether":8248,"arms":8249,"active":8250,"mail":8251,"poon":8252,"realised":8253,"occup":8254,"easier":8255,"confident":8256,"retarded":8257,"Islam":8258,"supported":8259,"accurately":8260,"advertise":8261,"reflects":8262,"Canada":8263,"settling":8264,"portrait":8265,"Extremely":8266,"enemies":8267,"Along":8268,"Jan":8269,"Vince":8270,"rings":8271,"infer":8272,"assist":8273,"buzz":8274,"eleg":8275,"physics":8276,"apolo":8277,"official":8278,"Casting":8279,"inventive":8280,"Hopkins":8281,"sarcast":8282,"sloppy":8283,"quisite":8284,"LGBT":8285,"Hud":8286,"Pier":8287,"dro":8288,"alt":8289,"aling":8290,"iders":8291,"dubbed":8292,"clueless":8293,"retro":8294,"profit":8295,"existed":8296,"Enough":8297,"ringe":8298,"niper":8299,"chills":8300,"addicted":8301,"Natalie":8302,"Considering":8303,"clumsy":8304,"Literally":8305,"Blan":8306,"Cus":8307,"Eas":8308,"Jay":8309,"Lat":8310,"Rad":8311,"Unt":8312,"Zone":8313,"athing":8314,"encoura":8315,"storm":8316,"neck":8317,"consu":8318,"queen":8319,"NOW":8320,"laws":8321,"ennial":8322,"sticks":8323,"Coen":8324,"Makes":8325,"hotel":8326,"banal":8327,"remaining":8328,"Helen":8329,"companies":8330,"Believe":8331,"Bald":8332,"MY":8333,"Ritch":8334,"Wes":8335,"Wolf":8336,"bber":8337,"tad":8338,"encing":8339,"exposition":8340,"sco":8341,"phones":8342,"hopeful":8343,"dystop":8344,"atho":8345,"attend":8346,"Conn":8347,"blows":8348,"continuation":8349,"sitcoms":8350,"witnessed":8351,"technique":8352,"equivalent":8353,"juring":8354,"yelling":8355,"isons":8356,"iler":8357,"admission":8358,"forman":8359,"uristic":8360,"mankind":8361,"agents":8362,"suspic":8363,"STAR":8364,"Anyways":8365,"2008":8366,"objective":8367,"WHY":8368,"investigation":8369,"Roger":8370,"Friends":8371,"resources":8372,"Effect":8373,"Live":8374,"Met":8375,"native":8376,"ata":8377,"shy":8378,"idel":8379,"hem":8380,"pregn":8381,"facing":8382,"lifestyle":8383,"Army":8384,"cliched":8385,"featured":8386,"signed":8387,"depression":8388,"Mont":8389,"medium":8390,"Titanic":8391,"Korea":8392,"damage":8393,"Watson":8394,"!.":8395,")...":8396,"60s":8397,"Drew":8398,"Mu":8399,"Nancy":8400,"narc":8401,"tag":8402,"fac":8403,"cret":8404,"Solo":8405,"vised":8406,"chances":8407,"psychopath":8408,"pressure":8409,"voting":8410,"grity":8411,"Polit":8412,"website":8413,"neighb":8414,"integrity":8415,"picable":8416,"parallel":8417,"HUGE":8418,"Gordon":8419,"sarcastic":8420,"AB":8421,"Gab":8422,"Santa":8423,"Vill":8424,"bin":8425,"khan":8426,"sappy":8427,"uct":8428,"refund":8429,"ando":8430,"lime":8431,"util":8432,"span":8433,"directorial":8434,"lands":8435,"satisf":8436,"transp":8437,"invasion":8438,"Hunter":8439,"antagonist":8440,"Retur":8441,"!),":8442,"Def":8443,"Know":8444,"Word":8445,"cative":8446,"dup":8447,"fro":8448,"zer":8449,"theus":8450,"rein":8451,"deriv":8452,"moronic":8453,"regards":8454,"negat":8455,"faster":8456,"ATE":8457,"Shah":8458,"brainless":8459,"Russians":8460,"busy":8461,"Nicolas":8462,"complaints":8463,"Surpr":8464,"Nicholas":8465,"tastes":8466,"reduced":8467,"Daredevil":8468,"Schindler":8469,"Utter":8470,"Easily":8471,"Ritchie":8472,"Dol":8473,"Dawn":8474,"PR":8475,"Pun":8476,"fought":8477,"yo":8478,"lee":8479,"actica":8480,"youtube":8481,"sums":8482,"tier":8483,"wet":8484,"Stars":8485,"psons":8486,"Regard":8487,"potentially":8488,"deaths":8489,"GOD":8490,"transport":8491,"Swedish":8492,"Kling":8493,"Ral":8494,"WE":8495,"pages":8496,"sive":8497,"sided":8498,"enorm":8499,"stilted":8500,"undoub":8501,"exposed":8502,"launch":8503,"...)":8504,"finan":8505,"linear":8506,"cheated":8507,"craw":8508,"cracking":8509,"Club":8510,"Normally":8511,"spectacle":8512,"tradi":8513,"responsibility":8514,"homosexual":8515,"dysfunctional":8516,"immensely":8517,"Aaron":8518,"Ele":8519,"Pil":8520,"Pak":8521,"Ran":8522,"SC":8523,"alo":8524,"ometheus":8525,"impec":8526,"uration":8527,"upper":8528,"displayed":8529,"screens":8530,"Nope":8531,"subplots":8532,"Johan":8533,"truck":8534,"Justice":8535,"killers":8536,"Beat":8537,"Expect":8538,"summar":8539,"Robbie":8540,"opsis":8541,"ambitious":8542,"mesmerizing":8543,"atholic":8544,"Nik":8545,"TT":8546,"billion":8547,"nity":8548,"ponder":8549,"isy":8550,"ili":8551,"timeline":8552,"sson":8553,"duo":8554,"mates":8555,"Francis":8556,"Surely":8557,"River":8558,"accounts":8559,"stinks":8560,"melodramatic":8561,"crisis":8562,"tasteless":8563,"valuable":8564,"vomit":8565,"95":8566,"Oz":8567,"states":8568,"Third":8569,"unreal":8570,"ulate":8571,"ouses":8572,"screenwriter":8573,"Always":8574,"handful":8575,"IMO":8576,"driver":8577,"closely":8578,"involves":8579,"ONLY":8580,"struggled":8581,"bombs":8582,"advertised":8583,"defined":8584,"definition":8585,"practical":8586,"Private":8587,"repeatedly":8588,"28":8589,"AI":8590,"Ass":8591,"Cop":8592,"Chi":8593,"Dave":8594,"Mitch":8595,"OP":8596,"nels":8597,"rer":8598,"eral":8599,"metal":8600,"unky":8601,"unnecessarily":8602,"doct":8603,"essa":8604,"proced":8605,"isogy":8606,"trained":8607,"Heart":8608,"Keaton":8609,"promised":8610,"grip":8611,"attacks":8612,"Nevertheless":8613,"Angelina":8614,"attered":8615,"radio":8616,"anticipated":8617,"obsession":8618,"resolution":8619,"haunted":8620,"dreary":8621,"Ralph":8622,"Fa":8623,"Snow":8624,"Sever":8625,"Vaugh":8626,"territ":8627,"imit":8628,"justified":8629,"contradi":8630,"acknow":8631,"berry":8632,"angel":8633,"izable":8634,"Arrow":8635,"cultures":8636,"networks":8637,"Films":8638,"Prometheus":8639,"?!?!":8640,"praised":8641,"strip":8642,"depicting":8643,"sincerely":8644,"Congrat":8645,"Goth":8646,"Laugh":8647,"Pie":8648,"cro":8649,"glowing":8650,"nan":8651,"som":8652,"thood":8653,"iston":8654,"mani":8655,"proceed":8656,"ortal":8657,"oblig":8658,"register":8659,"Austin":8660,"virus":8661,"Africa":8662,"Middle":8663,"Nicholson":8664,"duty":8665,"Left":8666,"undoubtedly":8667,"Holly":8668,"T2":8669,"din":8670,"kis":8671,"wrap":8672,"thirty":8673,"anx":8674,"strate":8675,"toys":8676,"ligh":8677,"Start":8678,"1980":8679,"titled":8680,"disturbed":8681,"Walter":8682,"popularity":8683,"troubled":8684,"authenticity":8685,"clown":8686,"5th":8687,"Ag":8688,"Aqu":8689,"Vir":8690,"zone":8691,"thm":8692,"thed":8693,"rewatch":8694,"arse":8695,"cted":8696,"boots":8697,"turd":8698,"turing":8699,"riding":8700,"restaur":8701,"covers":8702,"undant":8703,"loosely":8704,"Prime":8705,"WHAT":8706,"Stanley":8707,"cameras":8708,"caliber":8709,"Baldwin":8710,"negativity":8711,"Mery":8712,"National":8713,"dust":8714,"emo":8715,"inher":8716,"inane":8717,"string":8718,"posing":8719,"astron":8720,"wayne":8721,"spaces":8722,"rested":8723,"uniform":8724,"crush":8725,"thankfully":8726,"Saving":8727,"Frankly":8728,"argument":8729,"comprehensible":8730,"demographic":8731,"bathroom":8732,"sneak":8733,"Catherine":8734,"WI":8735,"etern":8736,"jail":8737,"mist":8738,"nay":8739,"sche":8740,"reson":8741,"ingen":8742,"heap":8743,"iffer":8744,"precise":8745,"mentality":8746,"trivi":8747,"Alf":8748,"slower":8749,"corner":8750,"ocide":8751,"marily":8752,"interview":8753,"Sub":8754,"hammer":8755,"Berlin":8756,"Germans":8757,"motivated":8758,"speechless":8759,"Skywalker":8760,"synopsis":8761,"AVO":8762,"Throughout":8763,"iveness":8764,"Meryl":8765,"Gone":8766,"HOR":8767,"Sundance":8768,"pand":8769,"rics":8770,"yawn":8771,"revi":8772,"stab":8773,"whim":8774,"butch":8775,"hobic":8776,"Butler":8777,"sites":8778,"Soviet":8779,"Margot":8780,"spoke":8781,"exceptionally":8782,"evolution":8783,"splend":8784,"providing":8785,"alternate":8786,"eagerly":8787,"engrossing":8788,"renewed":8789,"\").":8790,"Cal":8791,"HE":8792,"Hath":8793,"Ice":8794,"SW":8795,"Were":8796,"kudos":8797,"misogy":8798,"patch":8799,"wack":8800,"ert":8801,"bey":8802,"whis":8803,"sham":8804,"unanswered":8805,"supre":8806,"racing":8807,"terminator":8808,"comedians":8809,"lasts":8810,"smarter":8811,"reasonably":8812,"confess":8813,"cringy":8814,"Guess":8815,"correctly":8816,"senses":8817,"inspirational":8818,"Angeles":8819,"Toronto":8820,"intentions":8821,"hubali":8822,"derivative":8823,"NC":8824,"Oc":8825,"Squ":8826,"SHOW":8827,"incompetent":8828,"stup":8829,"asingly":8830,"devast":8831,"understated":8832,"sheep":8833,"cohes":8834,"satir":8835,"Scary":8836,"refuse":8837,"2005":8838,"horrifying":8839,"whelmed":8840,"sincere":8841,"fleshed":8842,"frequently":8843,"Cool":8844,"DI":8845,"Sit":8846,"hanger":8847,"rever":8848,"ria":8849,"riel":8850,"renal":8851,"parano":8852,"Poss":8853,"package":8854,"Clark":8855,"strike":8856,"respond":8857,"revealing":8858,"Upon":8859,"formative":8860,"sinister":8861,"Age":8862,"Kath":8863,"Py":8864,"Tow":8865,"Ugh":8866,"gments":8867,"zzy":8868,"sue":8869,"immer":8870,"romp":8871,"serie":8872,"Incredi":8873,"grass":8874,"blank":8875,"Performan":8876,"repeating":8877,"defend":8878,"sacrific":8879,"Critics":8880,"Logan":8881,"Scarlett":8882,"scope":8883,"Ci":8884,"Cho":8885,"Rotten":8886,"WAR":8887,"gather":8888,"desired":8889,"mistaken":8890,"understandable":8891,"persona":8892,"Joan":8893,"appearing":8894,"Peele":8895,"Today":8896,"Carrie":8897,"Guys":8898,"rapid":8899,"comparable":8900,"Dragon":8901,"conflicts":8902,"penny":8903,"Mirror":8904,"american":8905,"Ko":8906,"Money":8907,"Year":8908,"econ":8909,"lers":8910,"rep":8911,"enberg":8912,"tool":8913,"lion":8914,"shay":8915,"plate":8916,"tape":8917,"taught":8918,"owner":8919,"phony":8920,"pays":8921,"pleasing":8922,"News":8923,"Simple":8924,"catching":8925,"dimension":8926,"painting":8927,"princess":8928,"Remind":8929,"SF":8930,"hints":8931,"lens":8932,"san":8933,"sill":8934,"size":8935,"vap":8936,"nods":8937,"artic":8938,"dragon":8939,"entertainer":8940,"blonde":8941,"izations":8942,"Seinfeld":8943,"useful":8944,"possibilities":8945,"futuristic":8946,"counting":8947,"Short":8948,"grief":8949,"Emmy":8950,"claiming":8951,"flashback":8952,"strings":8953,"secrets":8954,"Predict":8955,"jerk":8956,"Singh":8957,"Carell":8958,"Leslie":8959,"Until":8960,"BB":8961,"Dwayne":8962,"Typical":8963,"cous":8964,"ez":8965,"eed":8966,"kicking":8967,"vine":8968,"alas":8969,"whining":8970,"elabor":8971,"oops":8972,"iding":8973,"tery":8974,"lap":8975,"umer":8976,"pride":8977,"casted":8978,"Chur":8979,"Solid":8980,"Actor":8981,"!!!!!!":8982,"ALLY":8983,"primarily":8984,"promises":8985,"amounts":8986,"suggested":8987,"apartment":8988,"Vijay":8989,"Shows":8990,"nuanced":8991,"faults":8992,"California":8993,"CAN":8994,"Face":8995,"Isa":8996,"Pay":8997,"mou":8998,"retire":8999,"stir":9000,"sustain":9001,"ooding":9002,"showcase":9003,"Stra":9004,"merits":9005,"Ann":9006,"transition":9007,"recognizable":9008,"opportun":9009,"occasions":9010,"captivated":9011,"transc":9012,"behaviour":9013,"blockbusters":9014,"ignorance":9015,"Firefly":9016,"atoes":9017,"Leonardo":9018,"poetic":9019,"Fut":9020,"Goo":9021,"MU":9022,"Sid":9023,"cats":9024,"ule":9025,"ume":9026,"vain":9027,"yy":9028,"verted":9029,"sha":9030,"shorter":9031,"intric":9032,"therap":9033,"bye":9034,"ets":9035,"civil":9036,"acing":9037,"bitch":9038,"lasting":9039,"passable":9040,"archy":9041,"westerns":9042,"Castle":9043,"cruelty":9044,"increasingly":9045,"bonus":9046,"symbolism":9047,"Constant":9048,"motives":9049,"grateful":9050,"caricatures":9051,"Bos":9052,"Father":9053,"Wild":9054,"nur":9055,"rin":9056,"offee":9057,"shout":9058,"riot":9059,"device":9060,"Incredible":9061,"screwed":9062,"Marc":9063,"styles":9064,"suspension":9065,"drown":9066,"suggests":9067,"adaption":9068,"throws":9069,"continuing":9070,"programme":9071,"matched":9072,"furious":9073,"wilder":9074,"fingers":9075,"Battlestar":9076,"landscapes":9077,"Louis":9078,"alcohol":9079,"recycled":9080,"Several":9081,"territory":9082,"silliness":9083,"CSI":9084,"Pass":9085,"Tam":9086,"Won":9087,"cé":9088,"eff":9089,"repul":9090,"stron":9091,"toss":9092,"lican":9093,"shouting":9094,"exquisite":9095,"manga":9096,"spends":9097,"Joel":9098,"iano":9099,"monolo":9100,"Liber":9101,"cycle":9102,"woven":9103,"Jews":9104,"wedding":9105,"layered":9106,"insightful":9107,"Laurie":9108,"editor":9109,"Ultim":9110,"goosebumps":9111,"Dies":9112,"Seven":9113,"Wahl":9114,"avengers":9115,"bby":9116,"cere":9117,"gad":9118,"jan":9119,"inf":9120,"endo":9121,"vivid":9122,"libr":9123,"abrupt":9124,"notes":9125,"astounding":9126,"congrat":9127,"overlooked":9128,"sprink":9129,"pointing":9130,"voy":9131,"194":9132,"dumbed":9133,"nonetheless":9134,"grows":9135,"Broke":9136,"recognized":9137,"programming":9138,"witches":9139,"influenced":9140,"Laura":9141,"Galactica":9142,"cells":9143,"stealing":9144,"musc":9145,"determined":9146,"Creat":9147,"DS":9148,"IO":9149,"Pir":9150,"Shad":9151,"SJW":9152,"Tech":9153,"rants":9154,"sword":9155,"inconsist":9156,"enhan":9157,"asm":9158,"chor":9159,"entit":9160,"rambl":9161,"ambig":9162,"timely":9163,"aggress":9164,"ummy":9165,"disease":9166,"Andre":9167,"submit":9168,"nervous":9169,"sadistic":9170,"distance":9171,"Harley":9172,"commented":9173,"banned":9174,"programs":9175,"Break":9176,"absence":9177,"weapon":9178,"integr":9179,"revelation":9180,"narciss":9181,"Congratulations":9182,"\"!":9183,"Drac":9184,"Fel":9185,"Jude":9186,"athan":9187,"bender":9188,"lane":9189,"tender":9190,"nest":9191,"doors":9192,"Whilst":9193,"minal":9194,"izard":9195,"relations":9196,"THER":9197,"channels":9198,"annoy":9199,"mentioning":9200,"buster":9201,"cringeworthy":9202,"Moreover":9203,"silver":9204,"frustration":9205,"passionate":9206,"applause":9207,"steaming":9208,"politicians":9209,"Vaughn":9210,"Fury":9211,"Mason":9212,"bable":9213,"bible":9214,"wave":9215,"reci":9216,"icon":9217,"scri":9218,"aud":9219,"offend":9220,"nevertheless":9221,"downs":9222,"motor":9223,"2010":9224,"Dean":9225,"confidence":9226,"scored":9227,"Charmed":9228,"Holy":9229,"2006":9230,"Simpsons":9231,"progression":9232,"Spike":9233,"hiding":9234,"vais":9235,"healthy":9236,"exploring":9237,"HAVE":9238,"Anton":9239,"promoting":9240,"satisfaction":9241,"impeccable":9242,"Bog":9243,"Hilar":9244,"Lam":9245,"Shy":9246,"fuss":9247,"oon":9248,"zens":9249,"edon":9250,"beast":9251,"activ":9252,"shif":9253,"geon":9254,"tage":9255,"wears":9256,"prostit":9257,"holy":9258,"Started":9259,"Somehow":9260,"Serbian":9261,"nuclear":9262,"Jesse":9263,"Garner":9264,"torn":9265,"Writing":9266,"darn":9267,"universal":9268,"models":9269,"Psycho":9270,"trivial":9271,"Ban":9272,"BIG":9273,"Clar":9274,"Ev":9275,"Sell":9276,"duration":9277,"adrenal":9278,"unsettling":9279,"oppress":9280,"roots":9281,"updated":9282,"ieval":9283,"izz":9284,"fighter":9285,"Myers":9286,"secondary":9287,"capturing":9288,"crass":9289,"finishing":9290,"spirited":9291,"shameful":9292,"dealt":9293,"racies":9294,"professor":9295,"striking":9296,"Feel":9297,"randomly":9298,"Foster":9299,"numbing":9300,"Beautifully":9301,"skipped":9302,"nuts":9303,"WORST":9304,"spooky":9305,"Compared":9306,"Cusack":9307,"Job":9308,"Mic":9309,"Norton":9310,"Vol":9311,"drew":9312,"ske":9313,"staged":9314,"Than":9315,"adul":9316,"detract":9317,"dilem":9318,"myst":9319,"ssip":9320,"discovery":9321,"grot":9322,"granted":9323,"download":9324,"contact":9325,"lical":9326,"heading":9327,"guessed":9328,"Julie":9329,"beaten":9330,"Stiller":9331,"demonstr":9332,"Witcher":9333,"controversy":9334,"ELL":9335,"accuracies":9336,"Ricky":9337,"caricature":9338,"translation":9339,"inevitable":9340,"snooze":9341,"fur":9342,"mud":9343,"wine":9344,"beach":9345,"ustrop":9346,"tered":9347,"watcher":9348,"overused":9349,"acles":9350,"phan":9351,"underwhelming":9352,"biting":9353,"illian":9354,"critique":9355,"hugely":9356,"Thankfully":9357,"Prince":9358,"arcs":9359,"Beauty":9360,"Hannah":9361,"Jonathan":9362,"Stranger":9363,":-)":9364,"glamor":9365,"Broadway":9366,"Wahlberg":9367,"23":9368,"FF":9369,"Gad":9370,"Hook":9371,"bash":9372,"east":9373,"iel":9374,"inger":9375,"imi":9376,"pses":9377,"coinc":9378,"letdown":9379,"iped":9380,"logically":9381,"morrow":9382,"Room":9383,"Network":9384,"wives":9385,"drives":9386,"Connor":9387,"Britain":9388,"questioning":9389,"Christianity":9390,"Cheers":9391,"Muslims":9392,"lengthy":9393,"officers":9394,"Poorly":9395,"Oldman":9396,"Human":9397,"comprehend":9398,"guests":9399,"predecessor":9400,"Larry":9401,"restaurant":9402,"Dracula":9403,"Rich":9404,"Stran":9405,"Tar":9406,"oscar":9407,"sticking":9408,"mechan":9409,"amused":9410,"plans":9411,"understatement":9412,"comprom":9413,"gins":9414,"Reese":9415,"rison":9416,"extre":9417,"attended":9418,"ridden":9419,"publ":9420,"reminder":9421,"Gervais":9422,"Blu":9423,"Storyline":9424,"appearances":9425,"Berg":9426,"................................":9427,"Gosling":9428,"Strange":9429,"Dexter":9430,"Lilly":9431,"PER":9432,"Zo":9433,"cave":9434,"coffee":9435,"phe":9436,"thless":9437,"idow":9438,"guilt":9439,"descent":9440,"workers":9441,"couples":9442,"Thats":9443,"shoe":9444,"freak":9445,"wishes":9446,"momentum":9447,"Orville":9448,"rounded":9449,"strangely":9450,"belly":9451,"progressed":9452,"foolish":9453,"dumber":9454,"resembles":9455,"Claire":9456,"wealthy":9457,"assassin":9458,"Diane":9459,"compliment":9460,"rhythm":9461,"Fortun":9462,"Hathaway":9463,"Fonda":9464,"Spart":9465,"mish":9466,"tree":9467,"ugs":9468,"ilight":9469,"fears":9470,"pod":9471,"dozens":9472,"spit":9473,"twilight":9474,"logies":9475,"consists":9476,"helpful":9477,"covering":9478,"Jackman":9479,"deadly":9480,"burning":9481,"catchy":9482,"strikes":9483,"Angels":9484,"assumed":9485,"educational":9486,"distracted":9487,"Studi":9488,"Regardless":9489,"Eve":9490,"Glo":9491,"Ly":9492,"Sel":9493,"Tol":9494,"Var":9495,"mond":9496,"pump":9497,"uma":9498,"thearted":9499,"aters":9500,"sorely":9501,"percent":9502,"quer":9503,"despair":9504,"lesser":9505,"obsc":9506,"singer":9507,"mighty":9508,"releases":9509,"deni":9510,"distinct":9511,"Shining":9512,"primary":9513,"claustrop":9514,"backgrounds":9515,"designs":9516,"praising":9517,"contribute":9518,"teaches":9519,"mmm":9520,"NYC":9521,"BTW":9522,"pitiful":9523,"Children":9524,"compensate":9525,"contrary":9526,"?),":9527,"Bate":9528,"Bud":9529,"Clover":9530,"Days":9531,"Fear":9532,"Sally":9533,"Wind":9534,"eg":9535,"rome":9536,"thom":9537,"remove":9538,"andro":9539,"tomorrow":9540,"addiction":9541,"arty":9542,"eps":9543,"disast":9544,"Independ":9545,"anson":9546,"Stand":9547,"merc":9548,"solved":9549,"factual":9550,"Reading":9551,"Dear":9552,"climate":9553,"generate":9554,"confir":9555,"witched":9556,"alongside":9557,"earn":9558,"payoff":9559,"Shar":9560,"respected":9561,"mixing":9562,"movements":9563,"Lucy":9564,"woe":9565,"Schumer":9566,"Monty":9567,"profession":9568,"Few":9569,"washing":9570,"ethnic":9571,"Kapoor":9572,"Linda":9573,"sooo":9574,"Penny":9575,"dedicated":9576,"abandoned":9577,"amalan":9578,"Furthermore":9579,"Joseph":9580,"Diesel":9581,"Ellen":9582,"Mountain":9583,"TW":9584,"Twin":9585,"jarring":9586,"sam":9587,"tank":9588,"inept":9589,"informative":9590,"whiny":9591,"mafia":9592,"urous":9593,"curse":9594,"structive":9595,"Arm":9596,"trashy":9597,"judgment":9598,"2007":9599,"Quinn":9600,"Truth":9601,"Redford":9602,"Enjoyed":9603,"invented":9604,"Judy":9605,"cookie":9606,"Trying":9607,"Sopran":9608,"Team":9609,"Legend":9610,"Lucifer":9611,"Disappointing":9612,"oriented":9613,"ardians":9614,"Ball":9615,"Dust":9616,"Hats":9617,"Rap":9618,"aire":9619,"dome":9620,"thon":9621,"incomprehensible":9622,"oured":9623,"chased":9624,"vein":9625,"versus":9626,"scape":9627,"weet":9628,"State":9629,"akota":9630,"performing":9631,"20th":9632,"fantas":9633,"moron":9634,"narrator":9635,"2004":9636,"documentaries":9637,"stranger":9638,"ACK":9639,"WW2":9640,"homopho":9641,"apocalypse":9642,"Screenplay":9643,"Predictable":9644,"Oly":9645,"eh":9646,"hatt":9647,"kiss":9648,"infant":9649,"secut":9650,"undeni":9651,"istics":9652,"fundam":9653,"displays":9654,"careers":9655,"careful":9656,"predictability":9657,"animations":9658,"hateful":9659,"priest":9660,"Pratt":9661,"sophomor":9662,"reaching":9663,"carrying":9664,"scientists":9665,"Miranda":9666,"occurred":9667,"emphasis":9668,"Akshay":9669,"absorbed":9670,"celebrity":9671,"Fortunately":9672,"\"/":9673,"Cant":9674,"Dab":9675,"QT":9676,"Si":9677,"TE":9678,"Timo":9679,"WILL":9680,"caut":9681,"hie":9682,"ras":9683,"inj":9684,"innu":9685,"isnt":9686,"itudes":9687,"bearing":9688,"unning":9689,"hoom":9690,"superman":9691,"reluct":9692,"Secret":9693,"Bean":9694,"sexually":9695,"clothing":9696,"ucker":9697,"hilariously":9698,"ussie":9699,"Terry":9700,"existing":9701,"cringing":9702,"Lovecraft":9703,"introducing":9704,"reaches":9705,"Farrell":9706,"Blake":9707,"challenged":9708,"evolve":9709,"Alexander":9710,"bridge":9711,"Country":9712,"AIN":9713,"Citizen":9714,"Catholic":9715,"Rol":9716,"iently":9717,"pher":9718,"wolves":9719,"returned":9720,"leap":9721,"unnatural":9722,"noted":9723,"decor":9724,"degrad":9725,"mann":9726,"overs":9727,"cheering":9728,"cracy":9729,"trial":9730,"Aniston":9731,"jection":9732,"marine":9733,"colla":9734,"groundbreaking":9735,"expressed":9736,"Prof":9737,"kicked":9738,"aaaa":9739,"absurdity":9740,"boost":9741,"throats":9742,"plod":9743,"glasses":9744,"Summer":9745,"eccentric":9746,"Apocal":9747,"dystopian":9748,"Hate":9749,"Jaw":9750,"MTV":9751,"Spr":9752,"Tell":9753,"Vie":9754,"dating":9755,"daring":9756,"eyed":9757,"gloss":9758,"pill":9759,"ppl":9760,"infect":9761,"isingly":9762,"arity":9763,"sometime":9764,"matically":9765,"brat":9766,"bigot":9767,"classes":9768,"closure":9769,"Box":9770,"Classic":9771,"Colbert":9772,"drawing":9773,"targeted":9774,"fifteen":9775,"patriot":9776,"loyalty":9777,"Hulk":9778,"prejudice":9779,"thetically":9780,"neighborhood":9781,"lighthearted":9782,"entitled":9783,"grotesque":9784,"Bateman":9785,"innuendo":9786,"JO":9787,"JUST":9788,"Tat":9789,"Za":9790,"tf":9791,"wrest":9792,"iner":9793,"ingu":9794,"aret":9795,"define":9796,"devices":9797,"lless":9798,"accomp":9799,"uding":9800,"leftist":9801,"jeal":9802,"Cannes":9803,"emotionless":9804,"2013":9805,"boxes":9806,"continuous":9807,"Project":9808,"awareness":9809,"salv":9810,"surrounded":9811,"resolved":9812,"announced":9813,"rewarding":9814,"plicity":9815,"Brooks":9816,"platform":9817,"inferior":9818,"Hudson":9819,"Pierce":9820,"Virgin":9821,"splendid":9822,"Dakota":9823,"Event":9824,"Hindi":9825,"Neither":9826,"gif":9827,"kar":9828,"tles":9829,"inaccuracies":9830,"remade":9831,"returning":9832,"Thing":9833,"ids":9834,"abbit":9835,"rig":9836,"digest":9837,"lake":9838,"perpet":9839,"urg":9840,"funded":9841,"overshadow":9842,"distract":9843,"idey":9844,"directions":9845,"holic":9846,"Inside":9847,"pattern":9848,"gods":9849,"cartoonish":9850,"smoke":9851,"Malko":9852,"manipulative":9853,"Trier":9854,"Support":9855,"sophomoric":9856,"Case":9857,"Ethan":9858,"Lot":9859,"Making":9860,"tat":9861,"von":9862,"assure":9863,"lyrics":9864,"illegal":9865,"forgetting":9866,"oopers":9867,"absent":9868,"delic":9869,"imitation":9870,"urity":9871,"Stri":9872,"wonders":9873,"farm":9874,"Dete":9875,"spoon":9876,"counts":9877,"soulless":9878,"Gerard":9879,"growth":9880,"OULD":9881,"slam":9882,"publicity":9883,"progressive":9884,"flows":9885,"AME":9886,"basement":9887,"insults":9888,"Philli":9889,"preferred":9890,"sucker":9891,"Spacey":9892,"Galaxy":9893,"AWFUL":9894,"Olivia":9895,"resemblance":9896,"Sophie":9897,"borderline":9898,"Dialogue":9899,"orcist":9900,"Punisher":9901,"Fat":9902,"IV":9903,"tall":9904,"isz":9905,"reject":9906,"shared":9907,"robe":9908,"polar":9909,"guided":9910,"waist":9911,"craz":9912,"starred":9913,"igned":9914,"Pegg":9915,"parties":9916,"Scot":9917,"McCon":9918,"aughey":9919,"binged":9920,"Files":9921,"connections":9922,"analys":9923,"boundaries":9924,"Silver":9925,"assault":9926,"library":9927,"inconsistencies":9928,"FIN":9929,"Non":9930,"eve":9931,"mim":9932,"squir":9933,"zation":9934,"stim":9935,"utions":9936,"peak":9937,"anyways":9938,"discer":9939,"fathom":9940,"despicable":9941,"themed":9942,"newsp":9943,"leted":9944,"medic":9945,"medieval":9946,"classical":9947,"breathe":9948,"tempted":9949,"Shane":9950,"smaller":9951,"Tomatoes":9952,"grey":9953,"2011":9954,"2009":9955,"odds":9956,"souls":9957,"gradually":9958,"Secondly":9959,"Entertaining":9960,"vulnerable":9961,"astronaut":9962,"3d":9963,"Cold":9964,"Cavi":9965,"Win":9966,"Wol":9967,"bun":9968,"elic":9969,"stan":9970,"vibr":9971,"sher":9972,"kel":9973,"keen":9974,"elite":9975,"raving":9976,"dol":9977,"pered":9978,"acqu":9979,"hog":9980,"clues":9981,"voc":9982,"seriousness":9983,"League":9984,"casm":9985,"Police":9986,"Princess":9987,"remained":9988,"Viol":9989,"flavor":9990,"millennial":9991,"yrs":9992,"debate":9993,"performers":9994,"puzzle":9995,"attracted":9996,"secure":9997,"WITH":9998,"strongest":9999,"Felt":10000,"Shyamalan":10001,"AK":10002,"Dum":10003,"Dumb":10004,"boun":10005,"etry":10006,"sab":10007,"til":10008,"activity":10009,"union":10010,"rol":10011,"scra":10012,"manu":10013,"ums":10014,"thrones":10015,"Indeed":10016,"viscer":10017,"Weisz":10018,"norm":10019,"expense":10020,"narrow":10021,"survived":10022,"Brave":10023,"screams":10024,"affects":10025,"Hannibal":10026,"Maggie":10027,"warmth":10028,"Ronan":10029,"Rodri":10030,"itizens":10031,"psychotic":10032,"polished":10033,"Five":10034,"Mess":10035,"Sor":10036,"houses":10037,"iat":10038,"pandering":10039,"sigh":10040,"vas":10041,"info":10042,"stare":10043,"tops":10044,"forgi":10045,"pover":10046,"locked":10047,"guide":10048,"boom":10049,"hibit":10050,"clone":10051,"genocide":10052,"sublime":10053,"clim":10054,"appeals":10055,"Indians":10056,"transformation":10057,"acceptance":10058,"ails":10059,"psychology":10060,"sales":10061,"tolerate":10062,"dinosaur":10063,"Production":10064,"electric":10065,"phrase":10066,"satirical":10067,"opportunities":10068,"Cavill":10069,"/\"":10070,"Adri":10071,"Dist":10072,"Rain":10073,"UE":10074,"dick":10075,"pes":10076,"pha":10077,"vors":10078,"itor":10079,"beg":10080,"bean":10081,"entity":10082,"ooby":10083,"filth":10084,"funding":10085,"traum":10086,"observ":10087,"1970":10088,"collabor":10089,"Peaks":10090,"ERO":10091,"Armen":10092,"cuz":10093,"massa":10094,"Spen":10095,"biopic":10096,"sufficient":10097,"OUR":10098,"combine":10099,"conclude":10100,"Norwe":10101,"bullets":10102,"Huge":10103,"nightmares":10104,"Talk":10105,"Downey":10106,"aesthetic":10107,"Scenes":10108,"Effects":10109,"Sellers":10110,"Cloverfield":10111,"26":10112,"Ah":10113,"Fell":10114,"Gard":10115,"Less":10116,"Reven":10117,"Roth":10118,"aving":10119,"easter":10120,"hoo":10121,"ology":10122,"chief":10123,"shades":10124,"eline":10125,"unexplained":10126,"dece":10127,"illusion":10128,"enders":10129,"wholes":10130,"weigh":10131,"mentary":10132,"understands":10133,"smug":10134,"DeNiro":10135,"Moder":10136,"Beast":10137,"steady":10138,"Isn":10139,"Goodman":10140,"DVR":10141,"Anything":10142,"purchase":10143,"Harvey":10144,"truths":10145,"limits":10146,"statements":10147,"nihil":10148,"attacked":10149,"Elli":10150,"demands":10151,"Train":10152,"irritated":10153,"swim":10154,"ripoff":10155,"recorded":10156,"punches":10157,"tuned":10158,"spiderman":10159,"Heroes":10160,"Dogs":10161,"--------------------------------":10162,"deliberately":10163,"extras":10164,"Possibly":10165,"Detective":10166,"CO":10167,"Curt":10168,"Rand":10169,"Von":10170,"WAST":10171,"rr":10172,"replic":10173,"motive":10174,"kest":10175,"persu":10176,"preposter":10177,"pros":10178,"sayers":10179,"coach":10180,"insanity":10181,"sounding":10182,"magaz":10183,"1960":10184,"Sheen":10185,"sooner":10186,"causes":10187,"Meh":10188,"photograph":10189,"bullet":10190,"treasure":10191,"atheist":10192,"Mission":10193,"broadcast":10194,"Philip":10195,"wicked":10196,"Dylan":10197,"Portman":10198,"monoton":10199,"Johansson":10200,"vapid":10201,"Hilarious":10202,"Cut":10203,"Hy":10204,"ckets":10205,"fs":10206,"iod":10207,"och":10208,"winter":10209,"incorrect":10210,"reel":10211,"toy":10212,"segment":10213,"sugar":10214,"label":10215,"poetry":10216,"plant":10217,"yours":10218,"realm":10219,"simplicity":10220,"crity":10221,"entirety":10222,"portion":10223,"runtime":10224,"styl":10225,"Leave":10226,"Leigh":10227,"Coming":10228,"truthful":10229,"terrorism":10230,"panic":10231,"comparisons":10232,"assuming":10233,"Epic":10234,"layer":10235,"fuel":10236,"Titans":10237,"hhhh":10238,"hungry":10239,"Planet":10240,"nauseating":10241,"employe":10242,"Connery":10243,"enormous":10244,"Hawk":10245,"Ol":10246,"Rian":10247,"SP":10248,"Sou":10249,"bene":10250,"lis":10251,"sadd":10252,"thors":10253,"wasnt":10254,"elve":10255,"notion":10256,"therland":10257,"desp":10258,"gency":10259,"surg":10260,"mindset":10261,"subplot":10262,"Rebel":10263,"Weak":10264,"additional":10265,"unior":10266,"paranormal":10267,"positively":10268,"suggestion":10269,"Major":10270,"?!?":10271,"empire":10272,"species":10273,"chuckles":10274,"Susp":10275,"sarcasm":10276,"Bryan":10277,"MUCH":10278,"Cry":10279,"Lane":10280,"Pers":10281,"Row":10282,"Rise":10283,"SPO":10284,"WR":10285,"citizens":10286,"href":10287,"iety":10288,"inject":10289,"lip":10290,"unsure":10291,"composed":10292,"pos":10293,"doomed":10294,"brooding":10295,"whereas":10296,"excell":10297,"settle":10298,"stopping":10299,"shoved":10300,"internal":10301,"deny":10302,"airs":10303,"picky":10304,"judged":10305,"fellas":10306,"Plenty":10307,"maxim":10308,"Saul":10309,"Alec":10310,"wildly":10311,"homosexuality":10312,"Bacon":10313,"vacation":10314,"Naomi":10315,"Iranian":10316,"____":10317,"pregnant":10318,"AVOID":10319,"Sopranos":10320,");":10321,"Cinder":10322,"Fy":10323,"Kno":10324,"Kumar":10325,"Mem":10326,"Vik":10327,"dled":10328,"pable":10329,"rats":10330,"zi":10331,"incar":10332,"injustice":10333,"incorpor":10334,"shining":10335,"erspoon":10336,"neth":10337,"amuse":10338,"urb":10339,"update":10340,"ourney":10341,"lows":10342,"gible":10343,"ranking":10344,"motions":10345,"leaders":10346,"sedu":10347,"aneously":10348,"closest":10349,"akest":10350,"subjected":10351,"straightforward":10352,"mediocrity":10353,"substant":10354,"Wilder":10355,"explanations":10356,"punish":10357,"choppy":10358,"insanely":10359,"chaotic":10360,"uddled":10361,"disrespectful":10362,"severely":10363,"isolated":10364,"disguised":10365,"wacky":10366,"Civil":10367,"claustrophobic":10368,"?\".":10369,"Aussie":10370,"Pu":10371,"Wire":10372,"WHO":10373,"YES":10374,"mult":10375,"slice":10376,"wink":10377,"anxious":10378,"Thus":10379,"lized":10380,"pez":10381,"iments":10382,"antis":10383,"tribut":10384,"Jodie":10385,"killings":10386,"cursing":10387,"placement":10388,"Period":10389,"admittedly":10390,"investment":10391,"Fargo":10392,"Bern":10393,"nuance":10394,"anticipating":10395,"AWES":10396,"guaranteed":10397,"Bridges":10398,"relentless":10399,"fantastically":10400,"Evans":10401,"adrenaline":10402,"=\"/":10403,"ET":10404,"Fif":10405,"Rent":10406,"Rag":10407,"UR":10408,"VHS":10409,"eous":10410,"echo":10411,"pon":10412,"punk":10413,"piano":10414,"wider":10415,"theories":10416,"itty":10417,"devi":10418,"deleted":10419,"races":10420,"astrop":10421,"realizing":10422,"dud":10423,"worldwide":10424,"Heaven":10425,"buried":10426,"cutter":10427,"Ross":10428,"distort":10429,"counters":10430,"respective":10431,"imagining":10432,"combines":10433,"miracle":10434,"remarks":10435,"insulted":10436,"invited":10437,"addictive":10438,"cancercancer":10439,"wealth":10440,"Luckily":10441,"discussing":10442,"/\">":10443,"monotonous":10444,"Close":10445,"Dhoom":10446,"Sep":10447,"Scor":10448,"cater":10449,"rang":10450,"sir":10451,"yaw":10452,"engl":10453,"semble":10454,"deta":10455,"opted":10456,"loom":10457,"getic":10458,"standout":10459,"classy":10460,"volume":10461,"margin":10462,"presenting":10463,"Sutherland":10464,"literature":10465,"itchen":10466,"bury":10467,"Kingdom":10468,"protest":10469,"rupted":10470,"moody":10471,"AMC":10472,"fills":10473,"flag":10474,"Fantasy":10475,"Borat":10476,"rewarded":10477,"lifted":10478,"Banglad":10479,"gaps":10480,"confront":10481,"losers":10482,"strictly":10483,"eggs":10484,"Malkovich":10485,"McConaughey":10486,"HH":10487,"TL":10488,"Wy":10489,"nude":10490,"zene":10491,"infinity":10492,"revers":10493,"idy":10494,"cker":10495,"grind":10496,"traits":10497,"Reg":10498,"Joy":10499,"excellently":10500,"nerves":10501,"colm":10502,"Lopez":10503,"exploitation":10504,"Shaun":10505,"Terri":10506,"Cox":10507,"describes":10508,"Grade":10509,"Adventure":10510,"MORE":10511,"Barbar":10512,"Ending":10513,"robber":10514,"Ridiculous":10515,"Shia":10516,"quotes":10517,"Royale":10518,"embrace":10519,"Hobbit":10520,"Brokeback":10521,"AWESOME":10522,"BL":10523,"Block":10524,"Hr":10525,"Mach":10526,"Others":10527,"Rudd":10528,"Sold":10529,"Sonic":10530,"Taken":10531,"Wrong":10532,"ZZ":10533,"Zach":10534,"dreck":10535,"toes":10536,"tomat":10537,"assum":10538,"shank":10539,"math":10540,"quarter":10541,"disconnected":10542,"realities":10543,"realizes":10544,"addin":10545,"restra":10546,"logist":10547,"Witherspoon":10548,"biblic":10549,"listened":10550,"ucci":10551,"Miami":10552,"Amanda":10553,"Bobby":10554,"ographic":10555,"dumbest":10556,"blatantly":10557,"stumbled":10558,"receiving":10559,"Frozen":10560,"financial":10561,"gadgets":10562,"Mickey":10563,"Dustin":10564,"Might":10565,"Pine":10566,"cig":10567,"dv":10568,"iator":10569,"jungle":10570,"rot":10571,"vileg":10572,"polic":10573,"weir":10574,"viewings":10575,"reader":10576,"scripting":10577,"licop":10578,"popping":10579,"biography":10580,"imaginary":10581,"Supergirl":10582,"Adult":10583,"attach":10584,"continuously":10585,"gained":10586,"liberals":10587,"provocative":10588,"Afgh":10589,"chicks":10590,"Malcolm":10591,"cellul":10592,"fixed":10593,"patriotic":10594,"borrowed":10595,"Modern":10596,"WASTE":10597,"biblical":10598,"Cy":10599,"DIS":10600,"Dirty":10601,"Len":10602,"Mah":10603,"Tiger":10604,"lab":10605,"pale":10606,"slaughter":10607,"uated":10608,"yers":10609,"ento":10610,"mode":10611,"adjust":10612,"mast":10613,"defeat":10614,"asted":10615,"weather":10616,"weakest":10617,"authors":10618,"disregard":10619,"phon":10620,"Therefore":10621,"Chop":10622,"amaze":10623,"scription":10624,"warrior":10625,"Donnie":10626,"marry":10627,"IMHO":10628,"experiencing":10629,"menacing":10630,"rooms":10631,"sickening":10632,"belle":10633,"desperation":10634,"brutally":10635,"Outstanding":10636,"discovers":10637,"grabs":10638,"fascinated":10639,"Enterprise":10640,"TERRIBLE":10641,"Nathan":10642,"immersed":10643,"Animation":10644,"Mystery":10645,"optimistic":10646,"Gabriel":10647,"supreme":10648,"Cate":10649,"Mik":10650,"Rush":10651,"UM":10652,"slea":10653,"tan":10654,"wy":10655,"thread":10656,"selection":10657,"bee":10658,"dismal":10659,"faint":10660,"Whedon":10661,"offense":10662,"dub":10663,"phant":10664,"193":10665,"umpy":10666,"grounded":10667,"scariest":10668,"distant":10669,"weekly":10670,"signs":10671,"survivors":10672,"concerning":10673,"VIEW":10674,"dazz":10675,"believability":10676,"Kenned":10677,"Susan":10678,"urai":10679,"Voy":10680,"destroys":10681,"Hallmark":10682,"empowerment":10683,"revolutionary":10684,"baffled":10685,"Songs":10686,"Independence":10687,"preposterous":10688,"Cinderella":10689,"Fed":10690,"Hand":10691,"bast":10692,"nick":10693,"ocean":10694,"sane":10695,"wagon":10696,"orn":10697,"anders":10698,"begging":10699,"unra":10700,"abusive":10701,"hai":10702,"neut":10703,"pton":10704,"ounds":10705,"readers":10706,"redundant":10707,"surpassed":10708,".........":10709,"coupled":10710,"completed":10711,"relson":10712,"Actress":10713,"midnight":10714,"Worse":10715,"ennes":10716,"gripped":10717,"Pathetic":10718,"wheel":10719,"rendition":10720,"Brosn":10721,"Raimi":10722,"Danish":10723,"fools":10724,"circle":10725,"IFF":10726,"tacky":10727,"hunter":10728,"attraction":10729,"choosing":10730,"Blanch":10731,"elaborate":10732,"Jaws":10733,"tomato":10734,"celluloid":10735,"500":10736,"Alit":10737,"Bess":10738,"Fisher":10739,"Finding":10740,"Navy":10741,"Parent":10742,"Zoo":10743,"cs":10744,"gall":10745,"lun":10746,"oil":10747,"sma":10748,"uate":10749,"ora":10750,"ches":10751,"shel":10752,"notable":10753,"nope":10754,"wee":10755,"discrimin":10756,"interests":10757,"solution":10758,"Heat":10759,"basket":10760,"rising":10761,"Bee":10762,"nerds":10763,"schlock":10764,"Within":10765,"scarier":10766,"30s":10767,"anied":10768,"Holocaust":10769,"Post":10770,"Boston":10771,"Meg":10772,"Robot":10773,"pushes":10774,"concern":10775,"distraction":10776,"escapism":10777,"Audi":10778,"veterans":10779,"Century":10780,"squee":10781,"involvement":10782,"believers":10783,"unravel":10784,"Aud":10785,"Banks":10786,"Kay":10787,"Sol":10788,"factors":10789,"hal":10790,"pum":10791,"pause":10792,"switched":10793,"tab":10794,"tens":10795,"tends":10796,"antha":10797,"reboots":10798,"arn":10799,"armed":10800,"segments":10801,"bears":10802,"Throw":10803,"ithik":10804,"rial":10805,"deaf":10806,"raising":10807,"wholly":10808,"apers":10809,"overlong":10810,"asses":10811,"backwards":10812,"clunky":10813,"simult":10814,"afford":10815,"Shan":10816,"transformers":10817,"accepting":10818,"shockingly":10819,"teaching":10820,"ICE":10821,"detect":10822,"unfolding":10823,"radical":10824,"Freddie":10825,"Scream":10826,"vilege":10827,"Israel":10828,"intricate":10829,"forgivable":10830,")!":10831,"Cour":10832,"CON":10833,"Lack":10834,"Mot":10835,"Ot":10836,"kni":10837,"mig":10838,"uity":10839,"enforce":10840,"enchant":10841,"stating":10842,"itz":10843,"mos":10844,"seld":10845,"outright":10846,"rier":10847,"raises":10848,"robbed":10849,"brown":10850,"Aladdin":10851,"Review":10852,"warzene":10853,"March":10854,"sidekick":10855,"realistically":10856,"confuse":10857,"GoT":10858,"Harold":10859,"privilege":10860,"instinct":10861,"ITE":10862,"transform":10863,"Admit":10864,"judgement":10865,"gangsters":10866,"Between":10867,"preaching":10868,"arguments":10869,"vulgarity":10870,"birthday":10871,"enthusiasm":10872,"Hotel":10873,"MIB":10874,"ideology":10875,"mockery":10876,"betrayal":10877,"forgiveness":10878,"enthralling":10879,"tactics":10880,"divorce":10881,"Klingons":10882,"Brosnan":10883,"Ame":10884,"Came":10885,"Dread":10886,"Dutch":10887,"Fass":10888,"Fair":10889,"Firth":10890,"Pain":10891,"Want":10892,"dale":10893,"equality":10894,"pins":10895,"sends":10896,"vag":10897,"vell":10898,"melan":10899,"uncle":10900,"unsatisfying":10901,"gems":10902,"feast":10903,"illing":10904,"amond":10905,"convi":10906,"preced":10907,"proving":10908,"overlook":10909,"ilda":10910,"angels":10911,"delicious":10912,"socially":10913,"releasing":10914,"Score":10915,"buildings":10916,"McKin":10917,"privileg":10918,"executive":10919,"Cole":10920,"ART":10921,"improbable":10922,"Directing":10923,"Samantha":10924,"milk":10925,"Geor":10926,"cringey":10927,"testament":10928,"perspectives":10929,"accused":10930,"Oldboy":10931,"loyd":10932,"cowboy":10933,"galaxy":10934,"accidentally":10935,"Gregor":10936,"Place":10937,"ronicles":10938,"difficulties":10939,"Words":10940,"Python":10941,"repulsive":10942,"analysis":10943,"Norwegian":10944,"wholesome":10945,"Alita":10946,"47":10947,"Agent":10948,"Bates":10949,"Brend":10950,"Ewan":10951,"Ga":10952,"Ker":10953,"Pad":10954,"Pink":10955,"Ref":10956,"slot":10957,"retelling":10958,"aly":10959,"mothers":10960,"chron":10961,"ctic":10962,"sect":10963,"verine":10964,"geared":10965,"neur":10966,"illed":10967,"inton":10968,"perception":10969,"eping":10970,"joined":10971,"overblown":10972,"fined":10973,"partly":10974,"Inception":10975,"recommending":10976,"risks":10977,"Moss":10978,"sentences":10979,"attitudes":10980,"capacity":10981,"Harrelson":10982,"LOW":10983,"southern":10984,"convincingly":10985,"Wasn":10986,"Walker":10987,"Impossible":10988,"Sara":10989,"Satan":10990,"chops":10991,"stakes":10992,"Vincent":10993,"IGHT":10994,"Alfred":10995,"visceral":10996,"Curtis":10997,"english":10998,"Gru":10999,"HD":11000,"Hust":11001,"Sof":11002,"Tw":11003,"oir":11004,"shirt":11005,"noble":11006,"weed":11007,"tee":11008,"acclaimed":11009,"offs":11010,"dubbing":11011,"timed":11012,"coon":11013,"ipid":11014,"Decent":11015,"Maria":11016,"ORY":11017,"learns":11018,"ushka":11019,"dignity":11020,"Disappointed":11021,"cliffhanger":11022,"Griff":11023,"Atlantis":11024,"HORRIBLE":11025,"recipe":11026,"accompanied":11027,"excellence":11028,"50s":11029,"Daf":11030,"Gay":11031,"Jaa":11032,"Ring":11033,"SOME":11034,"Troy":11035,"bio":11036,"cards":11037,"dil":11038,"glit":11039,"hunting":11040,"rural":11041,"retired":11042,"stark":11043,"ito":11044,"chat":11045,"forty":11046,"mega":11047,"shred":11048,"shelf":11049,"eliness":11050,"uno":11051,"sume":11052,"endrick":11053,"presum":11054,"irsty":11055,"disney":11056,"orses":11057,"ruthless":11058,"Into":11059,"underdeveloped":11060,"code":11061,"screenwriters":11062,"flood":11063,"neyed":11064,"legends":11065,"treats":11066,"Superbad":11067,"sensit":11068,"Small":11069,"flashy":11070,"Berry":11071,"Scottish":11072,"vengeance":11073,"fabric":11074,"skipping":11075,"crisp":11076,"tolerable":11077,"Hawai":11078,"Mulan":11079,"Wedding":11080,"trope":11081,"NCIS":11082,"demonstrates":11083,"Apocalypse":11084,"seldom":11085,"warzenegger":11086,"!,":11087,"Cross":11088,"Dall":11089,"Dest":11090,"Hom":11091,"Lake":11092,"Prison":11093,"bite":11094,"hats":11095,"ym":11096,"inexplic":11097,"stable":11098,"alley":11099,"abused":11100,"scam":11101,"helicop":11102,"acid":11103,"idest":11104,"laughably":11105,"ograp":11106,"mermaid":11107,"righteous":11108,"blink":11109,"cope":11110,"visions":11111,"subsequ":11112,"Seen":11113,"bothers":11114,"Beck":11115,"awfully":11116,"mony":11117,"masterfully":11118,"depends":11119,"Shark":11120,"causing":11121,"Meet":11122,"Megan":11123,"Blunt":11124,"Guardians":11125,"slave":11126,"Vikings":11127,"Murder":11128,"swing":11129,"Thriller":11130,"1994":11131,"1984":11132,"OOOO":11133,"Writer":11134,"colours":11135,"scratching":11136,"SUCK":11137,"Campbell":11138,"apologi":11139,"econom":11140,"poverty":11141,"Hrithik":11142,"Kennedy":11143,"ographer":11144,"27":11145,"Bus":11146,"Buck":11147,"Line":11148,"Mend":11149,"Sense":11150,"SUP":11151,"bins":11152,"cel":11153,"cens":11154,"wich":11155,"ensure":11156,"album":11157,"edition":11158,"behold":11159,"uneven":11160,"uninspiring":11161,"oph":11162,"pol":11163,"endured":11164,"intimate":11165,"tration":11166,"bleed":11167,"print":11168,"intoler":11169,"misfortune":11170,"maturity":11171,"trauma":11172,"origins":11173,"Joss":11174,"founded":11175,"clip":11176,"interact":11177,"Living":11178,"schools":11179,"positions":11180,"Cannot":11181,"distress":11182,"Spy":11183,"Exorcist":11184,"Conjuring":11185,"exploit":11186,"Abby":11187,"destined":11188,"transfer":11189,"Haven":11190,"ordered":11191,"Turner":11192,"Fincher":11193,"traveling":11194,"Camera":11195,"homes":11196,"Polish":11197,"Foxx":11198,"threatening":11199,"nutshell":11200,"automatically":11201,"Central":11202,"engrossed":11203,"++++":11204,"Dialogues":11205,"selected":11206,"assistant":11207,"elegant":11208,"neighbors":11209,"reruns":11210,"Aquaman":11211,"Pirates":11212,"vibrant":11213,"substantial":11214,"McKinnon":11215,"Dallas":11216,"\"-":11217,"))":11218,"2D":11219,"Cou":11220,"Halle":11221,"Kil":11222,"Lol":11223,"Todd":11224,"Tax":11225,"pis":11226,"pant":11227,"instru":11228,"chi":11229,"Ther":11230,"Thumbs":11231,"lips":11232,"sharing":11233,"ndrome":11234,"rukh":11235,"gray":11236,"emed":11237,"coz":11238,"Develop":11239,"alizing":11240,"REVIEW":11241,"Tomor":11242,"translate":11243,"Christina":11244,"2003":11245,"Finn":11246,"Alicia":11247,"Walken":11248,"frames":11249,"substit":11250,"thankful":11251,"voters":11252,"catastrop":11253,"agendas":11254,"BSG":11255,"loneliness":11256,"bullshit":11257,"communication":11258,"FUNNY":11259,"stimul":11260,"Spencer":11261,"SPOIL":11262,"Bil":11263,"DR":11264,"DID":11265,"Hur":11266,"Lie":11267,"Passion":11268,"Side":11269,"mons":11270,"ological":11271,"poop":11272,"wre":11273,"informed":11274,"pee":11275,"outdated":11276,"prev":11277,"upside":11278,"newer":11279,"newcom":11280,"worker":11281,"trap":11282,"wardrobe":11283,"Weird":11284,"smith":11285,"shoots":11286,"morally":11287,"pedest":11288,"INT":11289,"rett":11290,"fox":11291,"sympathize":11292,"Lastly":11293,"Miche":11294,"officially":11295,"categor":11296,"conveyed":11297,"Hellboy":11298,"Italy":11299,"hackneyed":11300,"predator":11301,"frequent":11302,"enthralled":11303,"Jacob":11304,"drove":11305,"Surprisingly":11306,"Pilot":11307,"Ari":11308,"FR":11309,"Pur":11310,"gul":11311,"kn":11312,"mart":11313,"mush":11314,"sof":11315,"uge":11316,"ée":11317,"inja":11318,"ista":11319,"vian":11320,"unner":11321,"apply":11322,"Stark":11323,"underground":11324,"produces":11325,"illions":11326,"Reilly":11327,"1990":11328,"monkey":11329,"Marshall":11330,"copies":11331,"anka":11332,"Mann":11333,"Carto":11334,"distingu":11335,"existential":11336,"imaginable":11337,"nuances":11338,"pathos":11339,"Crazy":11340,"compete":11341,"Masterpiece":11342,"reliable":11343,"Return":11344,"acknowledge":11345,"Ultimately":11346,"aggressive":11347,"Bergman":11348,"Tomorrow":11349,"Gro":11350,"Mill":11351,"Rel":11352,"jun":11353,"tu":11354,"tiring":11355,"retain":11356,"itter":11357,"ilarly":11358,"forbid":11359,"entered":11360,"meas":11361,"elder":11362,"macho":11363,"dive":11364,"noises":11365,"tip":11366,"condu":11367,"istent":11368,"shoulders":11369,"longing":11370,"blunt":11371,"smiles":11372,"glance":11373,"clock":11374,"intertw":11375,"portrayals":11376,"Disgust":11377,"sched":11378,"Scooby":11379,"Express":11380,"LOTR":11381,"Order":11382,"barrel":11383,"Quaid":11384,"relevance":11385,"intellectually":11386,"practice":11387,"evolved":11388,"manipulation":11389,"organization":11390,"Rogers":11391,"seamlessly":11392,"Wife":11393,"dissapointed":11394,"cohesive":11395,"Google":11396,"IOUS":11397,"tattoo":11398,"privileged":11399,"Cub":11400,"Eg":11401,"Fle":11402,"Hal":11403,"Happ":11404,"IVE":11405,"Lily":11406,"Lara":11407,"mers":11408,"inity":11409,"infl":11410,"lope":11411,"canon":11412,"emic":11413,"obli":11414,"lette":11415,"contender":11416,"Anti":11417,"paste":11418,"consideration":11419,"positives":11420,"Bride":11421,"identical":11422,"Steel":11423,"Schwarzenegger":11424,"murderer":11425,"Pros":11426,"grabbed":11427,"Pacific":11428,"Judge":11429,"demanding":11430,"applauded":11431,"alcoholic":11432,"FOX":11433,"firmly":11434,"Clarke":11435,"Afghan":11436,"Dreadful":11437,"Awards":11438,"Bran":11439,"Cher":11440,"Coppo":11441,"Fish":11442,"Hep":11443,"Liz":11444,"SA":11445,"Sleep":11446,"ZERO":11447,"bt":11448,"kitchen":11449,"loop":11450,"nations":11451,"ida":11452,"imately":11453,"consum":11454,"epit":11455,"john":11456,"becca":11457,"pric":11458,"ideals":11459,"owned":11460,"couch":11461,"coat":11462,"ashes":11463,"insipid":11464,"bucket":11465,"Forrest":11466,"nerve":11467,"lander":11468,"franchises":11469,"avoiding":11470,"Editing":11471,"ASH":11472,"13th":11473,"oddly":11474,"Elba":11475,"concerns":11476,"painted":11477,"professionals":11478,"Obama":11479,"wisdom":11480,"addressed":11481,"predic":11482,"1950s":11483,"kidnapped":11484,"plodding":11485,"simultaneously":11486,"Ay":11487,"Bun":11488,"Bab":11489,"Irel":11490,"Kra":11491,"Lem":11492,"Pick":11493,"Smo":11494,"ige":11495,"jol":11496,"wire":11497,"enna":11498,"meal":11499,"anytime":11500,"fulfilled":11501,"boards":11502,"pron":11503,"traff":11504,"disappoints":11505,"obst":11506,"solving":11507,"conditions":11508,"onson":11509,"riddled":11510,"Peck":11511,"regularly":11512,"garner":11513,"spectrum":11514,"Conan":11515,"teams":11516,"Greta":11517,"walls":11518,"SyFy":11519,"Thoroughly":11520,"arguably":11521,"organized":11522,"route":11523,"Karl":11524,"Caine":11525,"Fallen":11526,"Casino":11527,"Idris":11528,"Sheldon":11529,"Beyon":11530,"Pakistan":11531,"misogyn":11532,"Incredibly":11533,"cousin":11534,"Supporting":11535,"Suspense":11536,"Chopra":11537,"Dafoe":11538,")?":11539,"48":11540,"Doo":11541,"Ill":11542,"KING":11543,"Ni":11544,"cus":11545,"dwell":11546,"gus":11547,"wtf":11548,"enig":11549,"todays":11550,"moan":11551,"ching":11552,"leen":11553,"lian":11554,"sored":11555,"nephe":11556,"watchers":11557,"manager":11558,"ookie":11559,"dismiss":11560,"seasoned":11561,"ipes":11562,"runner":11563,"engers":11564,"garian":11565,"Sharon":11566,"ITS":11567,"appalled":11568,"baseball":11569,"spinning":11570,"mannerisms":11571,"RIP":11572,"1970s":11573,"vastly":11574,"hideous":11575,"Crash":11576,"EVERYTHING":11577,"Speaking":11578,"communicate":11579,"concentrate":11580,"vaguely":11581,"arrived":11582,"Shawshank":11583,"stupidest":11584,"Olym":11585,"hattan":11586,"beneath":11587,"Coppola":11588,".(":11589,"Body":11590,"Cars":11591,"Cos":11592,"FA":11593,"Killer":11594,"Lith":11595,"Miles":11596,"Phan":11597,"Uk":11598,"Yu":11599,"mute":11600,"mouse":11601,"pom":11602,"sending":11603,"ugen":11604,"istry":11605,"resur":11606,"request":11607,"ari":11608,"ooo":11609,"roof":11610,"tron":11611,"plotting":11612,"assy":11613,"hokey":11614,"Stick":11615,"centers":11616,"blends":11617,"ranked":11618,"Rebecca":11619,"1950":11620,"Uncle":11621,"colon":11622,"stuffed":11623,"STORY":11624,"mascul":11625,"Charlot":11626,"Gerwig":11627,"beside":11628,"dressing":11629,"Magic":11630,"Giving":11631,"options":11632,"fifth":11633,"excruciatingly":11634,"Church":11635,"gifted":11636,"Ireland":11637,"Bow":11638,"Cre":11639,"Hurt":11640,"Later":11641,"Tara":11642,"Ug":11643,"bones":11644,"cure":11645,"hance":11646,"pli":11647,"eries":11648,"recru":11649,"atics":11650,"itar":11651,"mold":11652,"vibes":11653,"shing":11654,"unit":11655,"plex":11656,"fathers":11657,"characteristics":11658,"grin":11659,"entertains":11660,"visiting":11661,"voir":11662,"guez":11663,"handling":11664,"license":11665,"skit":11666,"Gossip":11667,"Manhattan":11668,"airing":11669,"languages":11670,"clapped":11671,"wrought":11672,"slavery":11673,"petty":11674,"Feels":11675,"Madison":11676,"Times":11677,"delighted":11678,"Angelo":11679,"Craw":11680,"contempl":11681,"fifty":11682,"enthusiastic":11683,"Repub":11684,"analyze":11685,"candid":11686,"suspicious":11687,"Constantine":11688,"Ragnar":11689,"Phantom":11690,"Bri":11691,"Bull":11692,"Cran":11693,"Glover":11694,"Kash":11695,"Tele":11696,"Yout":11697,"aunt":11698,"bour":11699,"fence":11700,"ien":11701,"muddled":11702,"nis":11703,"pour":11704,"widow":11705,"static":11706,"ador":11707,"solo":11708,"charged":11709,"ishes":11710,"misguided":11711,"Inst":11712,"bral":11713,"Storm":11714,"cheating":11715,"cents":11716,"fanatic":11717,"visited":11718,"subpar":11719,"dictator":11720,"helpless":11721,"stylized":11722,"Peace":11723,"ERE":11724,"neglect":11725,"respects":11726,"Conf":11727,"depths":11728,"Terror":11729,"instit":11730,"instances":11731,"Mostly":11732,"crucial":11733,"describing":11734,"improves":11735,"introduces":11736,"gloomy":11737,"Gravity":11738,"metaphors":11739,"Hawke":11740,"Needless":11741,"Squad":11742,"fantasies":11743,"Profess":11744,"Parents":11745,"melancho":11746,"Development":11747,",'":11748,"-)":11749,"BA":11750,"Fal":11751,"Flo":11752,"PL":11753,"Spect":11754,"Sny":11755,"Tem":11756,"Us":11757,"Zack":11758,"cage":11759,"uto":11760,"inability":11761,"ancing":11762,"enhance":11763,"stor":11764,"stitch":11765,"champ":11766,"owed":11767,"riors":11768,"scoring":11769,"poke":11770,"shower":11771,"endlessly":11772,"troops":11773,"conscience":11774,"venue":11775,"olate":11776,"expects":11777,"cloud":11778,"comeback":11779,"Weaver":11780,"hyp":11781,"exceptions":11782,"McGregor":11783,"commenting":11784,"instal":11785,"pilots":11786,"snap":11787,"trusted":11788,"Julianne":11789,"Damn":11790,"prisoners":11791,"stoned":11792,"knocked":11793,"Party":11794,"drunken":11795,"significance":11796,"profoundly":11797,"translated":11798,"Kingsley":11799,"Rodriguez":11800,"maximum":11801,"Blanchett":11802,"==":11803,"Cro":11804,"Dull":11805,"EU":11806,"Eva":11807,"Hans":11808,"OL":11809,"RR":11810,"Sue":11811,"bent":11812,"bots":11813,"error":11814,"reverse":11815,"atomy":11816,"orian":11817,"sevent":11818,"aden":11819,"shod":11820,"Theory":11821,"haw":11822,"exotic":11823,"condem":11824,"quant":11825,"fulfill":11826,"ciously":11827,"disappear":11828,"holocaust":11829,"Stal":11830,"warrant":11831,"Anushka":11832,"interval":11833,"umbai":11834,"paring":11835,"pub":11836,"countryside":11837,"transformed":11838,"rendered":11839,"bottle":11840,"recording":11841,"Lifetime":11842,"1995":11843,"defense":11844,"Garfield":11845,"kien":11846,"exaggeration":11847,"Westworld":11848,"Brazilian":11849,"praying":11850,"Valley":11851,"companion":11852,"consciousness":11853,"promoted":11854,"discussed":11855,"weaknesses":11856,"Toni":11857,"Mitchell":11858,"Besson":11859,"enforcement":11860,"Ana":11861,"BG":11862,"Graph":11863,"Idi":11864,"Kick":11865,"Loc":11866,"Million":11867,"Page":11868,"Rene":11869,"citizen":11870,"dross":11871,"hart":11872,"hung":11873,"len":11874,"chris":11875,"shan":11876,"dimin":11877,"amid":11878,"endgame":11879,"ounded":11880,"anski":11881,"subscri":11882,"steer":11883,"lighten":11884,"foundation":11885,"pier":11886,"Been":11887,"sexism":11888,"1980s":11889,"shocks":11890,"election":11891,"continually":11892,"depending":11893,"Spir":11894,"Emperor":11895,"conclusions":11896,"stepped":11897,"teachers":11898,"Austen":11899,"products":11900,"Ruby":11901,"galore":11902,"Bella":11903,"damaged":11904,"bloated":11905,"Hulu":11906,"arrives":11907,"journalist":11908,"Meanwhile":11909,"Montana":11910,"contradict":11911,"Thanos":11912,"domestic":11913,"patriotism":11914,"Cartoon":11915,"Republican":11916,"Coo":11917,"Fli":11918,"Ki":11919,"Lame":11920,"Lloyd":11921,"Nation":11922,"Sen":11923,"Wright":11924,"dirt":11925,"horses":11926,"jar":11927,"lur":11928,"lins":11929,"sna":11930,"sniper":11931,"wers":11932,"aris":11933,"adminis":11934,"shap":11935,"unrelated":11936,"combo":11937,"comings":11938,"worship":11939,"promotion":11940,"misunderstood":11941,"borders":11942,"humili":11943,"trio":11944,"flies":11945,"subtly":11946,"topia":11947,"Sea":11948,"valent":11949,"breathing":11950,"monu":11951,"Rogue":11952,"Gods":11953,"orders":11954,"Brando":11955,"promin":11956,"Blind":11957,"Warner":11958,"Clay":11959,"Smart":11960,"Monday":11961,"Midnight":11962,"Hoping":11963,"squad":11964,"mobile":11965,"Interstellar":11966,"psychiat":11967,"sorrow":11968,"Entertainment":11969,"groan":11970,"convenient":11971,"advertisement":11972,"devastating":11973,"Gadot":11974,"Violence":11975,"Barbara":11976,"Hepburn":11977,"\"),":11978,">>":11979,"Apr":11980,"Eis":11981,"Easy":11982,"Evan":11983,"Gang":11984,"Hi":11985,"Hil":11986,"Him":11987,"HIGH":11988,"Mort":11989,"Push":11990,"Ur":11991,"Watt":11992,"kung":11993,"ola":11994,"sanity":11995,"incon":11996,"inhabit":11997,"arrive":11998,"ows":11999,"idious":12000,"pest":12001,"ully":12002,"netic":12003,"inters":12004,"upt":12005,"auer":12006,"disservice":12007,"accol":12008,"backed":12009,"pretends":12010,"angled":12011,"subscription":12012,"Head":12013,"Unbelievable":12014,"Pete":12015,"lando":12016,"witted":12017,"drift":12018,"remembering":12019,"Shrek":12020,"mixes":12021,"purposes":12022,"costum":12023,"bians":12024,"cringed":12025,"sensible":12026,"Monster":12027,"Melan":12028,"liberties":12029,"discovering":12030,"furi":12031,"Syd":12032,"objects":12033,"installments":12034,"Reser":12035,"Sweden":12036,"admirable":12037,"predecessors":12038,"insert":12039,"doctors":12040,"paranoia":12041,"Future":12042,"priceless":12043,"Charlotte":12044,"Snyder":12045,"49":12046,"Boll":12047,"CRE":12048,"Dal":12049,"Drive":12050,"Ned":12051,"PD":12052,"Rh":12053,"WA":12054,"Winter":12055,"ect":12056,"ptive":12057,"recreate":12058,"ila":12059,"irts":12060,"rainy":12061,"labe":12062,"amed":12063,"poison":12064,"perman":12065,"qui":12066,"services":12067,"overwhelmed":12068,"realization":12069,"ppers":12070,"acclaim":12071,"ortions":12072,"chees":12073,"Chlo":12074,"blended":12075,"20s":12076,"insom":12077,"sociop":12078,"STOP":12079,"Bronson":12080,"posters":12081,"subjective":12082,"burned":12083,"agony":12084,"sensation":12085,"Columb":12086,"grandmother":12087,"studied":12088,"sensu":12089,"Hangover":12090,"ONEY":12091,"atrocities":12092,"safely":12093,"descending":12094,"buffs":12095,"hysterically":12096,"Eastern":12097,"kissing":12098,"mouthed":12099,"Tolkien":12100,"magazine":12101,"Voyager":12102,"Admittedly":12103,"resurrect":12104,"85":12105,"?'":12106,"DJ":12107,"Karen":12108,"Kendrick":12109,"Mummy":12110,"MONEY":12111,"Uma":12112,"iuses":12113,"mare":12114,"onna":12115,"ille":12116,"Thunder":12117,"unintentionally":12118,"exhilar":12119,"lav":12120,"disci":12121,"clin":12122,"needless":12123,"amazes":12124,"lightly":12125,"click":12126,"rung":12127,"buddies":12128,"007":12129,"mitive":12130,"prize":12131,"posting":12132,"flowed":12133,"Saoir":12134,"bullying":12135,"Romance":12136,"flair":12137,"TOS":12138,"According":12139,"Rockwell":12140,"explosion":12141,"researched":12142,"Jonah":12143,"speeches":12144,"marketed":12145,"Mirren":12146,"patients":12147,"settled":12148,"giggle":12149,"stereotyped":12150,"Romanian":12151,"slept":12152,"puppets":12153,"civilization":12154,"Vegas":12155,"celebrities":12156,"phrases":12157,"isolation":12158,"zzzzzzzzzzzzzzzz":12159,"Poppins":12160,"difficulty":12161,"Humor":12162,"Welcome":12163,"transported":12164,"anxiety":12165,"precisely":12166,"rapidly":12167,"cerebral":12168,"confirmed":12169,"Timothy":12170,"Casey":12171,"delicate":12172,"pumped":12173,"Court":12174,"April":12175,"Amir":12176,"Bander":12177,"Cube":12178,"Domin":12179,"Hack":12180,"Manson":12181,"gories":12182,"slack":12183,"ugg":12184,"zard":12185,"asite":12186,"mocking":12187,"meandering":12188,"aya":12189,"unhappy":12190,"devoted":12191,"construction":12192,"apple":12193,"cially":12194,"bolic":12195,"characterisation":12196,"hoot":12197,"cream":12198,"odder":12199,"meanings":12200,"soundtracks":12201,"deciding":12202,"Somebody":12203,"paycheck":12204,"drum":12205,"summed":12206,"prompt":12207,"Christie":12208,"ibbean":12209,"burg":12210,"patron":12211,"ailed":12212,"drops":12213,"hosts":12214,"approved":12215,"Years":12216,"Woods":12217,"Damme":12218,"virtue":12219,"Palma":12220,"Freddy":12221,"Listen":12222,"participate":12223,"Clich":12224,"Fanning":12225,"decline":12226,"chooses":12227,"vigil":12228,"Shahrukh":12229,"butchered":12230,"enhanced":12231,"ambiguous":12232,"Armenian":12233,"tomatoes":12234,"Taxi":12235,"CA":12236,"Cats":12237,"Fringe":12238,"Gilliam":12239,"Nine":12240,"OVER":12241,"Open":12242,"Pand":12243,"SFX":12244,"bending":12245,"dic":12246,"ffe":12247,"phase":12248,"orite":12249,"tober":12250,"toxic":12251,"beware":12252,"aux":12253,"itect":12254,"spring":12255,"liest":12256,"Soon":12257,"controlled":12258,"Revol":12259,"Sequ":12260,"Doom":12261,"weaker":12262,"Spidey":12263,"reminding":12264,"refuge":12265,"Batwoman":12266,"Byr":12267,"attacking":12268,"intensely":12269,"disturb":12270,"indian":12271,"flowing":12272,"swallow":12273,"explosive":12274,"Garbage":12275,"Alexand":12276,"hurry":12277,"manipulated":12278,"briefly":12279,"sentimentality":12280,"Killing":12281,"1960s":12282,"feedback":12283,"Internet":12284,"replacement":12285,"pirate":12286,"Venom":12287,"Isaac":12288,"rambling":12289,"infantile":12290,"reluctant":12291,"Egyp":12292,"Saoirse":12293,"Aron":12294,"Bloom":12295,"Cass":12296,"Comb":12297,"FAR":12298,"Kaz":12299,"Molly":12300,"Orange":12301,"Took":12302,"WANT":12303,"btw":12304,"ev":12305,"evalu":12306,"jac":12307,"ongoing":12308,"vicious":12309,"Thurs":12310,"moviegoers":12311,"entering":12312,"Theater":12313,"abundance":12314,"posure":12315,"hears":12316,"enson":12317,"decency":12318,"montage":12319,"fighters":12320,"Marie":12321,"depra":12322,"linger":12323,"denomin":12324,"Caribbean":12325,"profile":12326,"Daisy":12327,"Orlando":12328,"refreshingly":12329,"strangers":12330,"Showtime":12331,"culmin":12332,"structured":12333,"assured":12334,"salt":12335,"categories":12336,"heartedly":12337,"Rogan":12338,"contribution":12339,"Carey":12340,"Zeal":12341,"hesitant":12342,"elimin":12343,"Reminds":12344,"therapy":12345,"dilemma":12346,"TWD":12347,"WRONG":12348,"dvd":12349,"Banderas":12350,"Kal":12351,"Katherine":12352,"Mumbai":12353,"PI":12354,"Por":12355,"Spain":12356,"dash":12357,"fru":12358,"nom":12359,"yard":12360,"remaking":12361,"ashi":12362,"verage":12363,"enters":12364,"shift":12365,"dev":12366,"canned":12367,"agre":12368,"owns":12369,"castle":12370,"happier":12371,"reek":12372,"bubble":12373,"porter":12374,"Dev":12375,"coln":12376,"landed":12377,"opener":12378,"Nemo":12379,"skull":12380,"hilarity":12381,"dribble":12382,"primitive":12383,"literary":12384,"gypt":12385,"Guiller":12386,"Brother":12387,"IES":12388,"Cheap":12389,"complained":12390,"Garcia":12391,"Hammer":12392,"Syl":12393,"GET":12394,"demonst":12395,"dramatically":12396,"monotone":12397,"heights":12398,"yellow":12399,"Political":12400,"Liberal":12401,"obscure":12402,"disastrous":12403,"jealous":12404,"discern":12405,"Bangladesh":12406,"Guillermo":12407,"Fem":12408,"MM":12409,"Mass":12410,"Ocean":12411,"QU":12412,"Rat":12413,"Wan":12414,"cart":12415,"gence":12416,"knight":12417,"tent":12418,"troll":12419,"threads":12420,"unconventional":12421,"irrational":12422,"defe":12423,"neider":12424,"illon":12425,"proven":12426,"overboard":12427,"disorder":12428,"dudes":12429,"afterward":12430,"ensed":12431,"empathize":12432,"emperor":12433,"downside":12434,"Social":12435,"coast":12436,"flims":12437,"submarine":12438,"Week":12439,"Demo":12440,"breed":12441,"Robo":12442,"cynic":12443,"USE":12444,"ricia":12445,"weirdness":12446,"adventurous":12447,"Class":12448,"throwback":12449,"Fiennes":12450,"implic":12451,"affection":12452,"expertly":12453,"1998":12454,"Daniels":12455,"IDS":12456,"atrocity":12457,"1977":12458,"Episodes":12459,"commitment":12460,"anuary":12461,"authority":12462,"fairytale":12463,"Writers":12464,"resembling":12465,"Survi":12466,"maintaining":12467,"Addition":12468,"Homecoming":12469,"celebrate":12470,"omeday":12471,"General":12472,"sketches":12473,"LIKE":12474,"Lincoln":12475,"Gotham":12476,"monologues":12477,"narcissistic":12478,"photographed":12479,"sleazy":12480,"pomp":12481,"Youtube":12482,"hypnot":12483,"55":12484,"6th":12485,"Clive":12486,"Daw":12487,"Dunk":12488,"Eugen":12489,"Fine":12490,"Sig":12491,"Sty":12492,"jaded":12493,"inction":12494,"attribut":12495,"ouge":12496,"asi":12497,"whites":12498,"iciently":12499,"abstr":12500,"filmo":12501,"raped":12502,"rose":12503,"heat":12504,"artwork":12505,"inks":12506,"directs":12507,"achron":12508,"giar":12509,"cracks":12510,"fian":12511,"kindness":12512,"Heck":12513,"rises":12514,"atha":12515,"critically":12516,"glaring":12517,"Arnie":12518,"skits":12519,"gravity":12520,"Shot":12521,"Brits":12522,"greedy":12523,"Code":12524,"boxing":12525,"connecting":12526,"royal":12527,"surviving":12528,"Schneider":12529,"unexpectedly":12530,"Burn":12531,"bumbling":12532,"Sunshine":12533,"Irons":12534,"conveys":12535,"ANYTHING":12536,"vacuous":12537,"addresses":12538,"astonished":12539,"fleet":12540,"distribution":12541,"ambiance":12542,"Pointless":12543,"Pattinson":12544,"Knowing":12545,"Faith":12546,"newspaper":12547,"masturb":12548,"Sofia":12549,"shoddy":12550,"denominator":12551,"Burt":12552,"DD":12553,"Dur":12554,"Doll":12555,"Escape":12556,"Hong":12557,"Hands":12558,"IP":12559,"JP":12560,"Mia":12561,"Mix":12562,"Os":12563,"Rarely":12564,"Sniper":12565,"TM":12566,"YE":12567,"bir":12568,"bread":12569,"cen":12570,"fri":12571,"nell":12572,"uber":12573,"iti":12574,"chal":12575,"seas":12576,"lighter":12577,"keeper":12578,"unaware":12579,"masters":12580,"notably":12581,"raz":12582,"divid":12583,"dod":12584,"artistry":12585,"overacted":12586,"undertones":12587,"placing":12588,"suburban":12589,"Mocking":12590,"ignoring":12591,"university":12592,"regurg":12593,"Shet":12594,"satur":12595,"aneous":12596,"confirm":12597,"distaste":12598,"marked":12599,"Host":12600,"Robbins":12601,"connects":12602,"fluid":12603,"flashes":12604,"fraud":12605,"panned":12606,"minorities":12607,"matches":12608,"Betty":12609,"homeless":12610,"chicken":12611,"Vanessa":12612,"coward":12613,"jerker":12614,"resulting":12615,"cooking":12616,"Rodden":12617,"NEW":12618,"billed":12619,"holidays":12620,"arrowing":12621,"possessed":12622,"XXXX":12623,"Francisco":12624,"naysayers":12625,"October":12626,"Bogart":12627,"fundamental":12628,"Otto":12629,"Cuba":12630,"!\".":12631,"01":12632,"Ble":12633,"Chase":12634,"GG":12635,"Gave":12636,"Juno":12637,"January":12638,"NA":12639,"PRE":12640,"Rest":12641,"Zoe":12642,"baked":12643,"cott":12644,"mort":12645,"slog":12646,"xx":12647,"infuri":12648,"anded":12649,"alert":12650,"vet":12651,"outfits":12652,"detr":12653,"comend":12654,"scattered":12655,"doom":12656,"hek":12657,"greats":12658,"umble":12659,"characterizations":12660,"twelve":12661,"Starts":12662,"plagiar":12663,"nerdy":12664,"Levy":12665,"talentless":12666,"lively":12667,"blacks":12668,"Scand":12669,"Suff":12670,"twisting":12671,"respectful":12672,"ITY":12673,"THEY":12674,"satisfactory":12675,"gripe":12676,"..........":12677,"Warrior":12678,"slaves":12679,"watered":12680,"traditions":12681,"Nightmare":12682,"applied":12683,"remarkably":12684,"trees":12685,",,,,":12686,"Russo":12687,"operation":12688,"occurs":12689,"Chucky":12690,"feeding":12691,"Producers":12692,"awaiting":12693,"concentration":12694,"Jenkins":12695,"Reno":12696,"Generation":12697,"Deepika":12698,"allegory":12699,"Wiig":12700,"homophobic":12701,"Shannon":12702,"conviction":12703,"Bing":12704,"CD":12705,"Catch":12706,"Egypt":12707,"KK":12708,"Lisa":12709,"Yep":12710,"aves":12711,"bru":12712,"junior":12713,"niss":12714,"pus":12715,"plight":12716,"relying":12717,"resemble":12718,"encounters":12719,"lete":12720,"behaving":12721,"bewilder":12722,"adopted":12723,"sues":12724,"dee":12725,"defi":12726,"destructive":12727,"doc":12728,"dope":12729,"heim":12730,"aura":12731,"werewolf":12732,"tooth":12733,"101":12734,"misplaced":12735,"amet":12736,"somethings":12737,"cheered":12738,"versat":12739,"Alas":12740,"Dece":12741,"crook":12742,"parti":12743,"IND":12744,"Brandon":12745,"winners":12746,"McG":12747,"criticized":12748,"Robinson":12749,"snappy":12750,"Patricia":12751,"shadows":12752,"investigate":12753,"discussions":12754,"crisy":12755,"Merlin":12756,"Sanjay":12757,"mumbling":12758,"maids":12759,"Jenny":12760,"Lights":12761,"dominated":12762,"smoothly":12763,"employed":12764,"promotes":12765,"leaning":12766,"blessed":12767,"principal":12768,"pooh":12769,"birds":12770,"alleged":12771,"custom":12772,"Metal":12773,"Performances":12774,"sprinkled":12775,"Scotland":12776,"sheriff":12777,"Dunkirk":12778,"Away":12779,"Crap":12780,"Dut":12781,"Ebert":12782,"FY":12783,"NAS":12784,"PTS":12785,"Tomb":12786,"Zac":12787,"dates":12788,"kne":12789,"uries":12790,"err":12791,"ench":12792,"liar":12793,"adored":12794,"ela":12795,"ablo":12796,"imple":12797,"etti":12798,"acies":12799,"fines":12800,"shoulder":12801,"drain":12802,"rightly":12803,"blum":12804,"izza":12805,"Jokes":12806,"heroism":12807,"cinematographer":12808,"shove":12809,"tempo":12810,"temper":12811,"paro":12812,"Arrested":12813,"copying":12814,"Goodfellas":12815,"0000":12816,"spirits":12817,"shameless":12818,"Daily":12819,"literal":12820,"gladly":12821,"Franken":12822,"periods":12823,"redeemable":12824,"Bros":12825,"containing":12826,"awkwardness":12827,"senior":12828,"ICK":12829,"noticeable":12830,"machines":12831,"daddy":12832,"Quest":12833,"Channing":12834,"Intel":12835,"HAHA":12836,"darkest":12837,"absorbing":12838,"resistance":12839,"Snatch":12840,"receives":12841,"Dern":12842,"Wednes":12843,"google":12844,"maniac":12845,"article":12846,"detectives":12847,"neurotic":12848,"subsequent":12849,"Kilmer":12850,"pedestrian":12851,"Cranston":12852,"Watts":12853,"Byrne":12854,"Ess":12855,"Eye":12856,"Found":12857,"Rour":12858,"Vio":12859,"Wanted":12860,"cough":12861,"jest":12862,"lend":12863,"rhe":12864,"skilled":12865,"someday":12866,"vation":12867,"vital":12868,"wore":12869,"xta":12870,"zie":12871,"ofsky":12872,"choc":12873,"leans":12874,"Thur":12875,"icy":12876,"map":12877,"expose":12878,"poser":12879,"showcases":12880,"peril":12881,"quart":12882,"agues":12883,"overbearing":12884,"spont":12885,"couldnt":12886,"grumpy":12887,"mercy":12888,"pathetically":12889,"simpli":12890,"monkeys":12891,"followers":12892,"nonstop":12893,"paren":12894,"masala":12895,"inclusion":12896,"planes":12897,"Trekk":12898,"architect":12899,"Pope":12900,"destination":12901,"burden":12902,"underest":12903,"referring":12904,"hardest":12905,"Directors":12906,"gays":12907,"sells":12908,"approx":12909,"catches":12910,"Walt":12911,"massively":12912,"regarded":12913,"Morty":12914,"thinly":12915,"virgin":12916,"1999":12917,"relatives":12918,"boobs":12919,"Waiting":12920,"Silence":12921,"contributed":12922,"awaited":12923,"determination":12924,"Stock":12925,"transparent":12926,"registered":12927,"caution":12928,"Revenge":12929,"stylistic":12930,"robbery":12931,"labeled":12932,"sociopath":12933,"Roddenberry":12934,"December":12935,"PTSD":12936,"Rourke":12937,"\"(":12938,"120":12939,"Amit":12940,"Bach":12941,"Cron":12942,"GR":12943,"Kept":12944,"Odd":12945,"Spl":12946,"TIFF":12947,"Uwe":12948,"bc":12949,"cuss":12950,"harrowing":12951,"sits":12952,"xy":12953,"inations":12954,"incomplete":12955,"ouf":12956,"aled":12957,"chie":12958,"unfamiliar":12959,"inee":12960,"disp":12961,"prude":12962,"kingdom":12963,"standalone":12964,"Chronicles":12965,"performer":12966,"pauses":12967,"basics":12968,"cord":12969,"classified":12970,"cratic":12971,"shorts":12972,"ridiculousness":12973,"toned":12974,"biograph":12975,"sweat":12976,"suffice":12977,"Superhero":12978,"sickness":12979,"religions":12980,"aiming":12981,"Wayans":12982,"tuning":12983,"Magn":12984,"surroundings":12985,"safety":12986,"semblance":12987,"patiently":12988,"prayer":12989,"rollercoaster":12990,"Born":12991,"incidents":12992,"parallels":12993,"collective":12994,"micro":12995,"thetics":12996,"expanded":12997,"Forest":12998,"knife":12999,"Fassbender":13000,"presumably":13001,"Afghanistan":13002,"flimsy":13003,"29":13004,"Count":13005,"Candy":13006,"Eight":13007,"Hindu":13008,"Kung":13009,"Lor":13010,"MAR":13011,"blog":13012,"cue":13013,"fus":13014,"eration":13015,"itarian":13016,"beard":13017,"shares":13018,"filthy":13019,"diamond":13020,"imperson":13021,"trow":13022,"trump":13023,"taint":13024,"sail":13025,"viewpoint":13026,"itsch":13027,"prince":13028,"matrix":13029,"ensen":13030,"mayhem":13031,"fanboys":13032,"superpowers":13033,"athon":13034,"closet":13035,"tember":13036,"enger":13037,"Leone":13038,"budgets":13039,"forwarding":13040,"bravery":13041,"openly":13042,"puke":13043,"ANK":13044,"150":13045,"LOST":13046,"Newman":13047,"Boss":13048,"Trilogy":13049,"Quiet":13050,"stunningly":13051,"Norway":13052,"Monsters":13053,"abyrin":13054,"Musical":13055,"troubles":13056,"bombed":13057,"Willem":13058,"appropriately":13059,"mouths":13060,"robotic":13061,"influences":13062,"evolves":13063,"Lauren":13064,"glorified":13065,"increase":13066,"endeav":13067,"Silent":13068,"benefits":13069,"vehicles":13070,"indication":13071,"shitty":13072,"dedication":13073,"methods":13074,"andalorian":13075,"Beatles":13076,"scheme":13077,"astronauts":13078,"massacre":13079,"detached":13080,"squeeze":13081,"sensitivity":13082,"instalment":13083,"Additionally":13084,"Bib":13085,"Chad":13086,"Doc":13087,"Fate":13088,"FRE":13089,"Lang":13090,"Mack":13091,"NN":13092,"Name":13093,"Tale":13094,"fodder":13095,"gli":13096,"gum":13097,"iors":13098,"mn":13099,"nm":13100,"sins":13101,"thie":13102,"anachron":13103,"reporter":13104,"unclear":13105,"idal":13106,"sued":13107,"exhibit":13108,"laz":13109,"intend":13110,"tible":13111,"pert":13112,"bodi":13113,"pathis":13114,"downfall":13115,"Asians":13116,"girlfriends":13117,"STER":13118,"Key":13119,"damned":13120,"Anybody":13121,"buildup":13122,"Comp":13123,"Comic":13124,"McDow":13125,"constit":13126,"transitions":13127,"executives":13128,"equip":13129,"Prop":13130,"Nights":13131,"experts":13132,"ethical":13133,"session":13134,"penis":13135,"rooted":13136,"Dench":13137,"communist":13138,"globe":13139,"halluc":13140,"linked":13141,"Speed":13142,"immersive":13143,"Brooklyn":13144,"deliberate":13145,"exhausting":13146,"summarize":13147,"spaceship":13148,"uniformly":13149,"woeful":13150,"undeniable":13151,"Wolverine":13152,"manufact":13153,"climactic":13154,"eastern":13155,"surgery":13156,"abstract":13157,"abyrinth":13158,".).":13159,"Ald":13160,"Band":13161,"Gump":13162,"Gaga":13163,"June":13164,"Kris":13165,"Las":13166,"Wo":13167,"Yash":13168,"aint":13169,"gel":13170,"gid":13171,"lou":13172,"sly":13173,"ugu":13174,"instein":13175,"invisible":13176,"erase":13177,"christ":13178,"verts":13179,"ionage":13180,"unbiased":13181,"demean":13182,"rocked":13183,"scandal":13184,"dock":13185,"usage":13186,"planted":13187,"igning":13188,"spine":13189,"disappeared":13190,"performs":13191,"needing":13192,"similarly":13193,"blu":13194,"blings":13195,"fier":13196,"pressing":13197,"developments":13198,"19th":13199,"morbid":13200,"ggy":13201,"Lead":13202,"syndrome":13203,"landish":13204,"shortcomings":13205,"INE":13206,"midst":13207,"purchased":13208,"bike":13209,"exploited":13210,"psyched":13211,"cheaply":13212,"Supernatural":13213,"Ground":13214,"VEN":13215,"Simpson":13216,"stray":13217,"consistency":13218,"achieves":13219,"employ":13220,"grabbing":13221,"phenomenon":13222,"juxta":13223,"repetition":13224,"Chap":13225,"Chain":13226,"quietly":13227,"Judd":13228,"Duke":13229,"Resident":13230,"Graham":13231,"spreading":13232,"eighties":13233,"Sounds":13234,"Soundtrack":13235,"Swinton":13236,"TAIN":13237,"immigration":13238,"Favorite":13239,"Latin":13240,"eternal":13241,"ingenious":13242,"ipedia":13243,"pumping":13244,"wrestling":13245,"despise":13246,"neutral":13247,"basketball":13248,"Audrey":13249,"censor":13250,"nephew":13251,"Reservoir":13252,"pompous":13253,"33":13254,"911":13255,"Cob":13256,"Creek":13257,"Hale":13258,"Ic":13259,"Kirst":13260,"LONG":13261,"Rex":13262,"SM":13263,"ku":13264,"rance":13265,"sis":13266,"slo":13267,"sung":13268,"wandering":13269,"inal":13270,"inform":13271,"incapable":13272,"escal":13273,"chord":13274,"owe":13275,"youn":13276,"shiny":13277,"abound":13278,"gear":13279,"dizzy":13280,"roe":13281,"imperfect":13282,"articul":13283,"lling":13284,"seeming":13285,"excels":13286,"productive":13287,"bush":13288,"useum":13289,"jewel":13290,"predicted":13291,"Pearl":13292,"north":13293,"powered":13294,"pursuit":13295,"similarity":13296,"psyche":13297,"Turks":13298,"niche":13299,"varied":13300,"studies":13301,"Foot":13302,"courageous":13303,"avier":13304,"widely":13305,"slide":13306,"reflected":13307,"Polanski":13308,"Boyle":13309,"threatened":13310,"Clever":13311,"Hills":13312,"glee":13313,"floating":13314,"stretches":13315,"adox":13316,"conservatives":13317,"Ashton":13318,"affairs":13319,"Gladiator":13320,"CRAP":13321,"Visuals":13322,"procedural":13323,"manifest":13324,"nurse":13325,"Crystal":13326,"amusement":13327,"punishment":13328,"September":13329,"enchanting":13330,"SUPER":13331,"Television":13332,"administration":13333,"accolades":13334,"Aronofsky":13335,"DER":13336,"Grow":13337,"Nel":13338,"Pfe":13339,"Sic":13340,"Taking":13341,"TRE":13342,"Tina":13343,"batch":13344,"dot":13345,"dwar":13346,"hater":13347,"pion":13348,"sity":13349,"scept":13350,"vfx":13351,"ange":13352,"chapt":13353,"ido":13354,"notor":13355,"geist":13356,"demise":13357,"dime":13358,"exchange":13359,"charmed":13360,"manji":13361,"agno":13362,"funeral":13363,"hishek":13364,"twin":13365,"underwater":13366,"cles":13367,"gio":13368,"crete":13369,"oda":13370,"beforehand":13371,"Reason":13372,"Union":13373,"?????":13374,"retched":13375,"masks":13376,"masquer":13377,"drab":13378,"repeats":13379,"treating":13380,"Christine":13381,"novelty":13382,"Prab":13383,"calcul":13384,"Color":13385,"Elton":13386,"grandfather":13387,"quirk":13388,"Tracy":13389,"Paranormal":13390,"mmmm":13391,"Wouldn":13392,"ðŸŒ":13393,"peaceful":13394,"switching":13395,"EVERYONE":13396,"tremendously":13397,"Ashley":13398,"exhausted":13399,"whisper":13400,"published":13401,"employees":13402,"Vikander":13403,"Chloe":13404,"Thursday":13405,"Zealand":13406,"filmography":13407,"Wednesday":13408,"chapters":13409,"93":13410,"Avoy":13411,"Differ":13412,"Mandy":13413,"Ric":13414,"Rac":13415,"Slater":13416,"Ward":13417,"afore":13418,"bump":13419,"gically":13420,"hing":13421,"wizard":13422,"⭐⭐":13423,"inflict":13424,"recover":13425,"stages":13426,"sections":13427,"verge":13428,"icap":13429,"shant":13430,"una":13431,"outer":13432,"outlandish":13433,"ripping":13434,"raine":13435,"convict":13436,"condescending":13437,"ritual":13438,"umin":13439,"theirs":13440,"owners":13441,"cese":13442,"hia":13443,"starters":13444,"centuries":13445,"foremost":13446,"nings":13447,"compon":13448,"singers":13449,"restri":13450,"flawlessly":13451,"nonex":13452,"terrified":13453,"posts":13454,"Frances":13455,"laden":13456,"Directed":13457,"ASS":13458,"feminine":13459,"travels":13460,"TOO":13461,"ICT":13462,"reckon":13463,"Sunny":13464,"suspects":13465,"coherence":13466,"evolving":13467,"Russel":13468,"Katniss":13469,"resolve":13470,"escapes":13471,"hunger":13472,"Buy":13473,"seamless":13474,"mountains":13475,"Whitaker":13476,"espionage":13477,"duplic":13478,"frozen":13479,"Antonio":13480,"Southern":13481,"elderly":13482,"exhilarating":13483,"Cliché":13484,"equipment":13485,"Iceland":13486,"(?)":13487,"8th":13488,"Cris":13489,"Eyes":13490,"Hank":13491,"Hered":13492,"LL":13493,"Mandalorian":13494,"Om":13495,"Pas":13496,"Tilda":13497,"UGH":13498,"nado":13499,"pals":13500,"sway":13501,"yl":13502,"advis":13503,"files":13504,"sucking":13505,"usty":13506,"rapt":13507,"neath":13508,"laced":13509,"goods":13510,"conce":13511,"perverse":13512,"items":13513,"newly":13514,"Chal":13515,"obscene":13516,"huh":13517,"uality":13518,"craving":13519,"vocal":13520,"voiced":13521,"insens":13522,"steel":13523,"warriors":13524,"smiled":13525,"stupidly":13526,"ridic":13527,"array":13528,"INK":13529,"brainwashed":13530,"bandwagon":13531,"royd":13532,"affecting":13533,"ACE":13534,"sixties":13535,"unfolded":13536,"POINT":13537,"Goldie":13538,"Chastain":13539,"Annabelle":13540,"tackles":13541,"maintained":13542,"escaped":13543,"Powers":13544,"puzzled":13545,"Lindsay":13546,"rehashed":13547,"Mysterio":13548,"hypocrisy":13549,"Beyonce":13550,"elevated":13551,"Patton":13552,"crammed":13553,"occupied":13554,"podcast":13555,"Blockbuster":13556,"epitome":13557,"Ugly":13558,"costuming":13559,"Dawson":13560,"quarters":13561,"?...":13562,"Apat":13563,"Cow":13564,"Hilton":13565,"Jungle":13566,"Oper":13567,"Odys":13568,"SER":13569,"cutes":13570,"iate":13571,"inep":13572,"rewrite":13573,"orphan":13574,"ales":13575,"leon":13576,"velope":13577,"butter":13578,"deon":13579,"twins":13580,"rubs":13581,"bris":13582,"wastes":13583,"paired":13584,"blond":13585,"waves":13586,"Dono":13587,"monstro":13588,"Marlon":13589,"region":13590,"!!!!!!!":13591,"effortlessly":13592,"kyo":13593,"designer":13594,"representing":13595,"spectacularly":13596,"shocker":13597,"property":13598,"Redempt":13599,"Roma":13600,"aims":13601,"delightfully":13602,"punchline":13603,"grossly":13604,"insights":13605,"Goldblum":13606,"Flor":13607,"palpable":13608,"Judging":13609,"departure":13610,"lustre":13611,"relaxing":13612,"NEED":13613,"Kylo":13614,"flew":13615,"ambition":13616,"experimental":13617,"Glenn":13618,"prejudices":13619,"zoom":13620,"dumpster":13621,"Crime":13622,"Utterly":13623,"pandemic":13624,"Performance":13625,"Roland":13626,"taboo":13627,"Creep":13628,"Pushing":13629,"distasteful":13630,"partially":13631,"\";":13632,"65":13633,"7th":13634,"Az":13635,"Baker":13636,"FI":13637,"Goose":13638,"HAS":13639,"Kun":13640,"Paren":13641,"RA":13642,"Self":13643,"Tun":13644,"coo":13645,"euro":13646,"insuffer":13647,"iser":13648,"isies":13649,"esis":13650,"moms":13651,"unseen":13652,"arest":13653,"poem":13654,"justification":13655,"worries":13656,"romcom":13657,"manic":13658,"savi":13659,"rug":13660,"underdog":13661,"screened":13662,"flip":13663,"Reviews":13664,"crat":13665,"Lohan":13666,"Liked":13667,"impressions":13668,"eventful":13669,"Shir":13670,"Expan":13671,"Holi":13672,"destiny":13673,"Warren":13674,"Gray":13675,"slash":13676,"slapped":13677,"survivor":13678,"stepping":13679,"nelly":13680,"Hardly":13681,"highlighted":13682,"tricked":13683,"drinks":13684,"kinson":13685,"strengths":13686,"longest":13687,"Leonard":13688,"August":13689,"Romania":13690,"feeble":13691,"Animal":13692,"Following":13693,"baffling":13694,"cabin":13695,"accessible":13696,"stroke":13697,"Victoria":13698,"Israeli":13699,"Villain":13700,"obligatory":13701,"Agatha":13702,"Facebook":13703,"transcend":13704,"Elliot":13705,"Hawaii":13706,"Micheal":13707,"Hilary":13708,"NASA":13709,"youngest":13710,"Redemption":13711,"Expanse":13712,"*.":13713,"Bong":13714,"Hog":13715,"Kut":13716,"Kline":13717,"Lone":13718,"Tucker":13719,"Vera":13720,"Vader":13721,"WB":13722,"Wins":13723,"Yawn":13724,"gow":13725,"swords":13726,"uu":13727,"uation":13728,"˜‚":13729,"insecure":13730,"stones":13731,"andered":13732,"asco":13733,"eds":13734,"ilia":13735,"omg":13736,"adise":13737,"whine":13738,"whack":13739,"Theat":13740,"uneducated":13741,"irteen":13742,"neo":13743,"tering":13744,"termin":13745,"amor":13746,"heter":13747,"goals":13748,"appreh":13749,"etal":13750,"accompany":13751,"characteristic":13752,"gime":13753,"surpasses":13754,"aki":13755,"colo":13756,"commendable":13757,"Alba":13758,"inski":13759,"Beth":13760,"iah":13761,"Whenever":13762,"landing":13763,"wipe":13764,"STD":13765,"namely":13766,"Carl":13767,"ATED":13768,"respectable":13769,"strained":13770,"uttered":13771,"Diaries":13772,"Whole":13773,"deadpan":13774,"household":13775,"ARD":13776,"criticizing":13777,"2002":13778,"energetic":13779,"Baron":13780,"bully":13781,"numbingly":13782,"junkie":13783,"witnessing":13784,"atheists":13785,"frightened":13786,"significantly":13787,"tolerance":13788,"desires":13789,"celebrated":13790,"courtroom":13791,"ironically":13792,"Diana":13793,"pirates":13794,"AGAIN":13795,"trademark":13796,"FECT":13797,"Technically":13798,"swimming":13799,"attachment":13800,"Disgusting":13801,"Crawford":13802,"prominent":13803,"insomnia":13804,"agrees":13805,"Pfeiffer":13806,"98":13807,"?.":13808,"Belle":13809,"Elect":13810,"Fab":13811,"Find":13812,"Kr":13813,"Napo":13814,"Oct":13815,"Tried":13816,"hiring":13817,"lat":13818,"vary":13819,"infamous":13820,"anthology":13821,"relied":13822,"onies":13823,"todd":13824,"ligible":13825,"ooh":13826,"unks":13827,"unfinished":13828,"irrever":13829,"newest":13830,"intage":13831,"plug":13832,"boggling":13833,"joyful":13834,"Stunning":13835,"paths":13836,"autistic":13837,"dialect":13838,"Reed":13839,"carbon":13840,"climatic":13841,"handles":13842,"Liu":13843,"supporters":13844,"midway":13845,"uttering":13846,"McAvoy":13847,"Hara":13848,"Shape":13849,"Brody":13850,"ternal":13851,"Saint":13852,"victory":13853,"immediate":13854,"computers":13855,"slip":13856,"puns":13857,"organic":13858,"Claude":13859,"relentlessly":13860,"whims":13861,"Tower":13862,"annoyance":13863,"Studios":13864,"DabDab":13865,"overshadowed":13866,"Scorcese":13867,"Homeland":13868,"enigmatic":13869,"discipl":13870,"fiancé":13871,"Scandina":13872,"Frankenstein":13873,"rhetor":13874,"42":13875,"Baa":13876,"Dil":13877,"OH":13878,"PA":13879,"Rated":13880,"Riley":13881,"Sach":13882,"Using":13883,"fting":13884,"glam":13885,"llo":13886,"lash":13887,"pc":13888,"pard":13889,"tte":13890,"yi":13891,"zan":13892,"token":13893,"chef":13894,"sober":13895,"composition":13896,"immoral":13897,"contempt":13898,"upbeat":13899,"overt":13900,"assess":13901,"Ins":13902,"chester":13903,"izon":13904,"sings":13905,"warfare":13906,"ocy":13907,"darkly":13908,"specul":13909,"shortly":13910,"negatives":13911,"payed":13912,"Extra":13913,"Comfort":13914,"ficially":13915,"archety":13916,"refuses":13917,"omeness":13918,"stranded":13919,"Darkness":13920,"hammy":13921,"Madsen":13922,"Sarandon":13923,"Among":13924,"tunes":13925,"Raymond":13926,"radi":13927,"hipster":13928,"edict":13929,"Cruz":13930,"hurting":13931,"Univers":13932,"deterior":13933,"sync":13934,"trendy":13935,"gigg":13936,"Brides":13937,"Congrats":13938,"sinking":13939,"lux":13940,"Medio":13941,"Kinda":13942,"Barrymore":13943,"GHT":13944,"inherent":13945,"abruptly":13946,"muscle":13947,"PERFECT":13948,"policy":13949,"Ragnarok":13950,"Melanie":13951,"vigilante":13952,"Thurman":13953,"Biblical":13954,"Apatow":13955,"monstrosity":13956,"')":13957,")</":13958,"Cir":13959,"Carly":13960,"Clan":13961,"Das":13962,"Due":13963,"Duck":13964,"Drey":13965,"Darth":13966,"Kuro":13967,"LIT":13968,"Mun":13969,"Milla":13970,"Pep":13971,"Sac":13972,"Vice":13973,"Wing":13974,"bers":13975,"lined":13976,"mr":13977,"pm":13978,"tant":13979,"vintage":13980,"reau":13981,"resent":13982,"atleast":13983,"asser":13984,"arrival":13985,"arrested":13986,"chand":13987,"lef":13988,"verbal":13989,"unsympathetic":13990,"amish":13991,"pocket":13992,"enduring":13993,"usional":13994,"contract":13995,"consequence":13996,"conjuring":13997,"joking":13998,"hile":13999,"undercover":14000,"borg":14001,"teller":14002,"Weap":14003,"cliffe":14004,"marvell":14005,"failures":14006,"Lego":14007,"Neg":14008,"annoyingly":14009,"Comics":14010,"Abhishek":14011,"grees":14012,"niece":14013,"Turn":14014,"Field":14015,"Raaz":14016,"immortal":14017,"awkwardly":14018,"pulp":14019,"behaviors":14020,"winded":14021,"elementary":14022,"dresses":14023,"glorify":14024,"interpreted":14025,"Kenneth":14026,"Hughes":14027,"mesmerized":14028,"Mila":14029,"hunters":14030,"accomplishment":14031,"Moonlight":14032,"evoke":14033,"siblings":14034,"inserted":14035,"hesitate":14036,"utilized":14037,"Straight":14038,"Tamil":14039,"mystical":14040,"glamorous":14041,"SPOILER":14042,"Egyptian":14043,"Cronenberg":14044,",...":14045,"37":14046,"Average":14047,"CL":14048,"Es":14049,"Ell":14050,"Gore":14051,"Hed":14052,"Hence":14053,"Jared":14054,"Mau":14055,"MENT":14056,"OPLE":14057,"Pes":14058,"Tud":14059,"Tree":14060,"bh":14061,"bis":14062,"las":14063,"pizza":14064,"snail":14065,"wits":14066,"wander":14067,"regime":14068,"moa":14069,"modo":14070,"unwanted":14071,"outlook":14072,"geeks":14073,"demented":14074,"ulated":14075,"hea":14076,"agency":14077,"tearing":14078,"prospect":14079,"fulfilling":14080,"funds":14081,"plethor":14082,"acus":14083,"grating":14084,"underneath":14085,"disappointments":14086,"iza":14087,"trials":14088,"triangle":14089,"Alone":14090,"Albert":14091,"friendships":14092,"reasoning":14093,"Beach":14094,"paradox":14095,"queens":14096,"cyber":14097,"earnest":14098,"Carrell":14099,"conceptions":14100,"judges":14101,"foster":14102,"narratives":14103,"clapping":14104,"Geralt":14105,"idiocy":14106,"refused":14107,"ARK":14108,"expressive":14109,"slang":14110,"Samurai":14111,"hostage":14112,"fronts":14113,"Chevy":14114,"Elle":14115,"luckily":14116,"Wilde":14117,"sources":14118,"relieved":14119,"1982":14120,"Joey":14121,"tendency":14122,"Greece":14123,"PEOPLE":14124,"Royal":14125,"ovsky":14126,"FORE":14127,"gimmicks":14128,"limitations":14129,"savage":14130,"harmless":14131,"Gilmore":14132,"Spoiler":14133,"Tonight":14134,"fisted":14135,"coincidence":14136,"bigotry":14137,"stanbul":14138,"obstacles":14139,"cynicism":14140,"saturated":14141,"fierce":14142,"Chainsaw":14143,"nonexistent":14144,"Hereditary":14145,"Parenthood":14146,"plethora":14147,"Abo":14148,"Dom":14149,"FAN":14150,"Gover":14151,"Mask":14152,"Massa":14153,"Miley":14154,"Op":14155,"Pitch":14156,"Tu":14157,"Tues":14158,"Wasted":14159,"fman":14160,"fade":14161,"lists":14162,"pad":14163,"ranted":14164,"tissues":14165,"erile":14166,"rets":14167,"revision":14168,"orchest":14169,"ented":14170,"unintelligent":14171,"unappealing":14172,"abdu":14173,"divine":14174,"rope":14175,"exit":14176,"endor":14177,"tians":14178,"perverted":14179,"tame":14180,"weep":14181,"managing":14182,"baddies":14183,"spon":14184,"diss":14185,"assed":14186,"clusion":14187,"clarity":14188,"persed":14189,"crazed":14190,"carn":14191,"Dec":14192,"attending":14193,"decently":14194,"supply":14195,"Daisies":14196,"successor":14197,"Benedict":14198,"Monroe":14199,"Farlane":14200,"Feig":14201,"lengths":14202,"Eurovision":14203,"Bette":14204,"defending":14205,"cleaning":14206,"Ruth":14207,"Hello":14208,"circus":14209,"arguing":14210,"Nolte":14211,"Written":14212,"links":14213,"crashes":14214,"admired":14215,"SGU":14216,"ACTION":14217,"squeamish":14218,"empowering":14219,"Commun":14220,"immigrants":14221,"eternity":14222,"Shades":14223,"activities":14224,"Varun":14225,"Spring":14226,"electricity":14227,"substitute":14228,"amidst":14229,"McDowell":14230,"aforementioned":14231,"Shirley":14232,"Mediocre":14233,"Creed":14234,"Dha":14235,"Emo":14236,"Efron":14237,"Earl":14238,"Kel":14239,"Late":14240,"NING":14241,"Pack":14242,"Pull":14243,"Rider":14244,"Town":14245,"Wise":14246,"bay":14247,"pans":14248,"pounding":14249,"sie":14250,"tes":14251,"vall":14252,"thugs":14253,"org":14254,"stance":14255,"strung":14256,"topped":14257,"ilation":14258,"omit":14259,"owski":14260,"icons":14261,"pep":14262,"ules":14263,"intr":14264,"tiger":14265,"taker":14266,"weary":14267,"teleg":14268,"overtones":14269,"overwrought":14270,"orean":14271,"estate":14272,"smash":14273,"volumes":14274,"1940":14275,"uniforms":14276,"Toby":14277,"societal":14278,"puerile":14279,"succ":14280,"credited":14281,"Suicide":14282,"respectively":14283,"Contin":14284,"exploding":14285,"loudly":14286,"packs":14287,"mesh":14288,"spotlight":14289,"breathless":14290,"approval":14291,"July":14292,"rewind":14293,"horrified":14294,"delusional":14295,"Parasite":14296,"approached":14297,"favourites":14298,"ESS":14299,"crowded":14300,"qualify":14301,"records":14302,"ethics":14303,"Hamill":14304,"stoner":14305,"exaggerating":14306,"Nonetheless":14307,"Rubbish":14308,"Stevens":14309,"Katie":14310,"Bahubali":14311,"Hillary":14312,"dumped":14313,"rampant":14314,"1969":14315,"Sophia":14316,"gigantic":14317,"Bridge":14318,"Birds":14319,"dramatized":14320,"possession":14321,"Dynam":14322,"encountered":14323,"Snipes":14324,"Arabic":14325,"Narcos":14326,"Demi":14327,"idelines":14328,"Spartacus":14329,"Tatum":14330,"incarnation":14331,"incorporated":14332,"Mikkel":14333,"divided":14334,"biographical":14335,"Kirsten":14336,"Universal":14337,"Kurosa":14338,"telegraph":14339,"43":14340,"Bi":14341,"Cary":14342,"Cyr":14343,"Done":14344,"Fitz":14345,"Filled":14346,"Gere":14347,"Jas":14348,"Kang":14349,"Prest":14350,"Ti":14351,"Tark":14352,"Wik":14353,"doo":14354,"mand":14355,"rabbit":14356,"tub":14357,"uh":14358,"thumb":14359,"reserv":14360,"stig":14361,"itel":14362,"toe":14363,"lex":14364,"uneasy":14365,"idences":14366,"abh":14367,"majest":14368,"deft":14369,"coma":14370,"exposure":14371,"intim":14372,"conform":14373,"canny":14374,"overhyped":14375,"spice":14376,"assign":14377,"Init":14378,"Stories":14379,"underwhelmed":14380,"gile":14381,"surgeon":14382,"centre":14383,"Heard":14384,"relating":14385,"ventures":14386,"rides":14387,"cinematographic":14388,"freaks":14389,"morph":14390,"Together":14391,"Tokyo":14392,"tedium":14393,"menace":14394,"gram":14395,"ATION":14396,"swept":14397,"cruise":14398,"Warning":14399,"studded":14400,"jumpy":14401,"improving":14402,"subtleties":14403,"tested":14404,"quirks":14405,"feminists":14406,"crossing":14407,"ooooo":14408,"BET":14409,"conflicted":14410,"Offic":14411,"healing":14412,"1989":14413,"Paltrow":14414,"Tycoon":14415,"eaten":14416,"celebration":14417,"Planned":14418,"Glass":14419,"Favreau":14420,"DS9":14421,"injury":14422,"craziness":14423,"Hawkins":14424,"Dalton":14425,"Intellig":14426,"Different":14427,"Kutcher":14428,"Above":14429,"Cul":14430,"Card":14431,"DAY":14432,"Hid":14433,"Istanbul":14434,"LS":14435,"MANY":14436,"Spot":14437,"Tran":14438,"Touch":14439,"Video":14440,"Wit":14441,"bol":14442,"coff":14443,"fizz":14444,"greg":14445,"russ":14446,"tweak":14447,"reserved":14448,"ati":14449,"stran":14450,"stairs":14451,"itage":14452,"adel":14453,"forgiving":14454,"rict":14455,"irresponsible":14456,"composer":14457,"lace":14458,"imated":14459,"noisy":14460,"perplex":14461,"whodun":14462,"upsetting":14463,"prised":14464,"Butter":14465,"matin":14466,"geniuses":14467,"excuses":14468,"este":14469,"subtext":14470,"insign":14471,"medy":14472,"Seat":14473,"Anime":14474,"predictably":14475,"Martian":14476,"Argent":14477,"ANG":14478,"READ":14479,"certaint":14480,"typing":14481,"Keith":14482,"McQueen":14483,"McAdams":14484,"Connelly":14485,"dealer":14486,"soup":14487,"Edge":14488,"redeemed":14489,"ASAP":14490,"Jumanji":14491,"noteworthy":14492,"panther":14493,"Mads":14494,"approaching":14495,"Angela":14496,"defining":14497,"suspected":14498,"Magu":14499,"splatter":14500,"competence":14501,"increasing":14502,"Genius":14503,"Croft":14504,"Zombies":14505,"Madea":14506,"arrogance":14507,"eloqu":14508,"oids":14509,"Lowe":14510,"legitimate":14511,"Indy":14512,"fantastical":14513,"LGBTQ":14514,"Kathy":14515,"sacrifices":14516,"shifts":14517,"Armstrong":14518,"Rapace":14519,"degrading":14520,"Virginia":14521,"collaboration":14522,"Brendan":14523,"catastrophe":14524,"seventies":14525,"Sigourney":14526,"Odyssey":14527,"Donovan":14528,"Florida":14529,"(!)":14530,"+.":14531,"<<":14532,"Dane":14533,"Gig":14534,"Mile":14535,"Native":14536,"Purge":14537,"PRO":14538,"Sud":14539,"Tessa":14540,"bars":14541,"dent":14542,"dling":14543,"hers":14544,"lush":14545,"tany":14546,"twe":14547,"zman":14548,"thirsty":14549,"inhuman":14550,"reign":14551,"enity":14552,"stically":14553,"esomeness":14554,"modi":14555,"modest":14556,"omani":14557,"veiled":14558,"liver":14559,"shor":14560,"shes":14561,"elit":14562,"unsatisfied":14563,"idential":14564,"ablan":14565,"riet":14566,"imbec":14567,"amat":14568,"pockets":14569,"seeks":14570,"dos":14571,"agal":14572,"agas":14573,"bob":14574,"displaying":14575,"yea":14576,"playful":14577,"phia":14578,"icky":14579,"hipp":14580,"excre":14581,"Noomi":14582,"waking":14583,"trigg":14584,"leton":14585,"warranted":14586,"bug":14587,"additions":14588,"Marg":14589,"crop":14590,"Lock":14591,"parag":14592,"pictured":14593,"tracking":14594,"supports":14595,"DVDs":14596,"agonizing":14597,"avoids":14598,"Lovely":14599,"Seasons":14600,
[...]
