{"[UNK]":0,"[SEP]":1,"[PAD]":2,"\u0003":3,"!":4,"\"":5,"#":6,"$":7,"%":8,"&":9,"'":10,"(":11,")":12,"*":13,"+":14,",":15,"-":16,".":17,"/":18,"0":19,"1":20,"2":21,"3":22,"4":23,"5":24,"6":25,"7":26,"8":27,"9":28,":":29,";":30,"<":31,"=":32,">":33,"?":34,"@":35,"A":36,"B":37,"C":38,"D":39,"E":40,"F":41,"G":42,"H":43,"I":44,"J":45,"K":46,"L":47,"M":48,"N":49,"O":50,"P":51,"Q":52,"R":53,"S":54,"T":55,"U":56,"V":57,"W":58,"X":59,"Y":60,"Z":61,"[":62,"\\":63,"]":64,"^":65,"_":66,"`":67,"a":68,"b":69,"c":70,"d":71,"e":72,"f":73,"g":74,"h":75,"i":76,"j":77,"k":78,"l":79,"m":80,"n":81,"o":82,"p":83,"q":84,"r":85,"s":86,"t":87,"u":88,"v":89,"w":90,"x":91,"y":92,"z":93,"{":94,"|":95,"}":96,"~":97,"":98,"":99,"":100,"":101,"":102,"":103,"":104,"":105,"":106,"":107,"¡":108,"¢":109,"£":110,"¤":111,"¥":112,"¦":113,"§":114,"¨":115,"©":116,"ª":117,"«":118,"¬":119,"­":120,"®":121,"¯":122,"°":123,"±":124,"²":125,"³":126,"´":127,"µ":128,"¶":129,"·":130,"¸":131,"¹":132,"º":133,"»":134,"¼":135,"½":136,"¾":137,"¿":138,"À":139,"Á":140,"Â":141,"Ã":142,"Ä":143,"Å":144,"Ç":145,"È":146,"É":147,"Ë":148,"Í":149,"Î":150,"Ï":151,"Ò":152,"Ó":153,"Õ":154,"Ö":155,"×":156,"Ø":157,"Ü":158,"ß":159,"à":160,"á":161,"â":162,"ã":163,"ä":164,"å":165,"æ":166,"ç":167,"è":168,"é":169,"ê":170,"ë":171,"ì":172,"í":173,"î":174,"ï":175,"ð":176,"ñ":177,"ó":178,"ô":179,"õ":180,"ö":181,"ø":182,"ú":183,"û":184,"ü":185,"ý":186,"ā":187,"č":188,"ē":189,"ğ":190,"ī":191,"İ":192,"ı":193,"Ł":194,"ł":195,"ń":196,"ō":197,"Œ":198,"œ":199,"Ş":200,"ş":201,"Š":202,"š":203,"Ţ":204,"Ÿ":205,"ź":206,"Ż":207,"ż":208,"Ž":209,"ž":210,"ƒ":211,"ˆ":212,"˙":213,"˜":214,"Ι":215,"е":216,"с":217,"ј":218,"ا":219,"ب":220,"د":221,"س":222,"غ":223,"ق":224,"ก":225,"ง":226,"ย":227,"ร":228,"ა":229,"ბ":230,"ი":231,"ლ":232,"ო":233,"რ":234,"ღ":235,"ჯ":236,"ậ":237,"ố":238,"​":239,"‍":240,"‎":241,"–":242,"—":243,"―":244,"‘":245,"’":246,"‚":247,"“":248,"”":249,"„":250,"†":251,"‡":252,"•":253,"…":254,"‪":255,"‬":256,"‰":257,"′":258,"‹":259,"›":260,"※":261,"€":262,"№":263,"™":264,"−":265,"⎯":266,"★":267,"☆":268,"☠":269,"☹":270,"☺":271,"♀":272,"♂":273,"♠":274,"♡":275,"♥":276,"⚫":277,"⛈":278,"✅":279,"✊":280,"✌":281,"✔":282,"✨":283,"❌":284,"❓":285,"❕":286,"❣":287,"❤":288,"⭐":289,"ツ":290,"単":291,"채":292,"":293,"️":294,"﻿":295,"，":296,"：":297,"🅱":298,"🇮":299,"🇯":300,"🇱":301,"🇳":302,"🇵":303,"🇷":304,"🇸":305,"🇺":306,"🌚":307,"🌞":308,"🌟":309,"🌴":310,"🍀":311,"🍅":312,"🍯":313,"🍻":314,"🍿":315,"🎈":316,"🎤":317,"🎥":318,"🎬":319,"🎭":320,"🎯":321,"🎸":322,"🏅":323,"🏆":324,"🏡":325,"🏻":326,"🏼":327,"🏽":328,"🏾":329,"🏿":330,"🐂":331,"🐈":332,"🐊":333,"🐕":334,"🐵":335,"🐻":336,"👀":337,"👁":338,"👈":339,"👊":340,"👌":341,"👍":342,"👎":343,"👏":344,"👐":345,"👑":346,"👗":347,"👙":348,"👠":349,"👥":350,"👨":351,"👩":352,"👼":353,"👽":354,"💁":355,"💃":356,"💅":357,"💐":358,"💓":359,"💔":360,"💕":361,"💖":362,"💗":363,"💙":364,"💜":365,"💞":366,"💟":367,"💣":368,"💥":369,"💩":370,"💪":371,"💯":372,"💰":373,"💸":374,"💺":375,"📍":376,"🔥":377,"🔪":378,"🔫":379,"🖤":380,"😀":381,"😁":382,"😂":383,"😃":384,"😄":385,"😅":386,"😆":387,"😇":388,"😉":389,"😊":390,"😋":391,"😌":392,"😍":393,"😎":394,"😏":395,"😐":396,"😑":397,"😒":398,"😔":399,"😕":400,"😖":401,"😗":402,"😘":403,"😚":404,"😛":405,"😜":406,"😝":407,"😠":408,"😡":409,"😢":410,"😣":411,"😤":412,"😥":413,"😬":414,"😭":415,"😱":416,"😲":417,"😳":418,"😴":419,"😶":420,"😸":421,"😿":422,"🙁":423,"🙂":424,"🙄":425,"🙈":426,"🙊":427,"🙌":428,"🙏":429,"🚀":430,"🚫":431,"🤐":432,"🤓":433,"🤔":434,"🤙":435,"🤞":436,"🤠":437,"🤢":438,"🤣":439,"🤦":440,"🤷":441,"🦄":442,"th":443,"in":444,"er":445,"an":446,"the":447,"is":448,"re":449,"on":450,"at":451,"en":452,"ing":453,"ou":454,"or":455,"st":456,"it":457,"and":458,"al":459,"to":460,"es":461,"as":462,"ed":463,"ar":464,"of":465,"mo":466,"ly":467,"ch":468,"le":469,"vi":470,"ct":471,"se":472,"be":473,"il":474,"om":475,"ve":476,"Th":477,"this":478,"vie":479,"ow":480,"ot":481,"li":482,"ut":483,"ver":484,"ad":485,"wh":486,"movie":487,"ic":488,"that":489,"was":490,"act":491,"for":492,"ent":493,"you":494,"me":495,"ion":496,"gh":497,"sh":498,"ay":499,"ke":500,"el":501,"oo":502,"ere":503,"The":504,"ith":505,"..":506,"un":507,"one":508,"id":509,"ld":510,"ab":511,"ha":512,"with":513,"are":514,"pe":515,"but":516,"ce":517,"out":518,"so":519,"fil":520,"ma":521,"not":522,"film":523,"ge":524,"all":525,"su":526,"ri":527,"ally":528,"ome":529,"ir":530,"de":531,"ust":532,"ers":533,"ra":534,"ul":535,"op":536,"ould":537,"ne":538,"fe":539,"ter":540,"atch":541,"have":542,"com":543,"di":544,"very":545,"ro":546,"ill":547,"ood":548,"ex":549,"watch":550,"It":551,"sc":552,"la":553,"thing":554,"im":555,"ck":556,"am":557,"like":558,"po":559,"lo":560,"some":561,"ant":562,"no":563,"ght":564,"show":565,"any":566,"see":567,"do":568,"end":569,"ory":570,"just":571,"ast":572,"ell":573,"wor":574,"int":575,"ther":576,"ess":577,"reat":578,"rom":579,"This":580,"good":581,"he":582,"ti":583,"us":584,"my":585,"char":586,"pl":587,"story":588,"tr":589,"art":590,"con":591,"if":592,"per":593,"they":594,"nd":595,"ta":596,"pre":597,"ur":598,"can":599,"charact":600,"who":601,"we":602,"go":603,"ven":604,"from":605,"about":606,"ist":607,"ep":608,"ap":609,"up":610,"ous":611,"au":612,"get":613,"what":614,"more":615,"way":616,"has":617,"ive":618,"ment":619,"ol":620,"ough":621,"ation":622,"ig":623,"ine":624,"by":625,"time":626,"qu":627,"ind":628,"really":629,"man":630,"jo":631,"ook":632,"great":633,"ag":634,"ate":635,"te":636,"will":637,"ies":638,"...":639,"rit":640,"would":641,"able":642,"pro":643,"now":644,"sa":645,"ard":646,"did":647,"ople":648,"view":649,"ful":650,"there":651,"ong":652,"der":653,"other":654,"ink":655,"don":656,"people":657,"were":658,"our":659,"um":660,"pt":661,"et":662,"whi":663,"how":664,"fun":665,"ser":666,"every":667,"ity":668,"bad":669,"ite":670,"uch":671,"ble":672,"over":673,"his":674,"your":675,"than":676,"had":677,"ure":678,"bec":679,"bet":680,"even":681,"ci":682,"vies":683,"ever":684,"gu":685,"ss":686,"her":687,"think":688,"ple":689,"irst":690,"movies":691,"acting":692,"much":693,"characters":694,"ound":695,"well":696,"bo":697,"most":698,"sp":699,"ause":700,"dis":701,"could":702,"fa":703,"Wh":704,"its":705,"ade":706,"scen":707,"pect":708,"only":709,"make":710,"too":711,"first":712,"ence":713,"ll":714,"ight":715,"real":716,"thr":717,"because":718,"ny":719,"kes":720,"pr":721,"point":722,"ars":723,"king":724,"does":725,"know":726,"low":727,"look":728,"writ":729,"des":730,"!!":731,"been":732,"say":733,"joy":734,"sel":735,"pp":736,"ors":737,"plot":738,"rect":739,"ish":740,"ack":741,"want":742,"ff":743,"ore":744,"ty":745,"their":746,"which":747,"10":748,"If":749,"watching":750,"made":751,"review":752,"iso":753,"ac":754,"ain":755,"when":756,"enjoy":757,"better":758,"ide":759,"lit":760,"own":761,"age":762,"ved":763,"fter":764,"min":765,"ves":766,"ason":767,"love":768,"episo":769,"fect":770,"tain":771,"off":772,"action":773,"seen":774,"feel":775,"character":776,"them":777,"ie":778,"ort":779,"ye":780,"tw":781,"direct":782,"into":783,"series":784,"many":785,"ving":786,"best":787,"ass":788,"ho":789,"fin":790,"aw":791,"self":792,"ated":793,"ical":794,"ru":795,"part":796,"But":797,"vel":798,"lie":799,"play":800,"less":801,"should":802,"then":803,"And":804,"mis":805,"ious":806,"funny":807,"In":808,"du":809,"tle":810,"expect":811,"ph":812,"ice":813,"ces":814,"cast":815,"new":816,"ought":817,"ertain":818,"ating":819,"ans":820,"ick":821,"lot":822,"There":823,"read":824,"try":825,"stand":826,"mat":827,"br":828,"ame":829,"gr":830,"after":831,"hi":832,"never":833,"back":834,"St":835,"red":836,"actors":837,"work":838,"hor":839,"ense":840,"something":841,"cl":842,"life":843,"under":844,"ting":845,"tra":846,"orig":847,"ud":848,"inal":849,"also":850,"old":851,"day":852,"seem":853,"through":854,"ens":855,"erest":856,"ach":857,"scenes":858,"going":859,"ugh":860,"won":861,"ary":862,"ef":863,"pla":864,"belie":865,"interest":866,"ry":867,"comm":868,"being":869,"here":870,"original":871,"didn":872,"tim":873,"laugh":874,"happ":875,"where":876,"dra":877,"again":878,"ance":879,"ually":880,"comed":881,"ose":882,"nt":883,"ction":884,"gi":885,"bor":886,"she":887,"line":888,"ue":889,"gen":890,"thought":891,"sur":892,"ber":893,"peci":894,"nothing":895,"tal":896,"che":897,"....":898,"got":899,"ark":900,"exc":901,"long":902,"start":903,"og":904,"little":905,"films":906,"wast":907,"ise":908,"give":909,"ase":910,"ster":911,"ak":912,"cent":913,"high":914,"ily":915,"Ch":916,"ten":917,"mer":918,"ire":919,"ute":920,"episode":921,"cre":922,"perfor":923,"fore":924,"need":925,"why":926,"reviews":927,"rible":928,"two":929,"times":930,"est":931,"though":932,"such":933,"worth":934,"may":935,"watched":936,"appoint":937,"right":938,"zing":939,"entertain":940,"ning":941,"still":942,"these":943,"diff":944,"scre":945,"You":946,"makes":947,"boring":948,"pa":949,"ript":950,"those":951,"disappoint":952,"performan":953,"pret":954,"ps":955,"sim":956,"ild":957,"lack":958,"em":959,"ang":960,"done":961,").":962,"ama":963,"same":964,"him":965,"cou":966,"ob":967,"comedy":968,"bit":969,"find":970,"ments":971,"mind":972,"season":973,"tur":974,"doesn":975,"bl":976,"script":977,"ror":978,"comple":979,"down":980,"cine":981,"big":982,"ave":983,"sit":984,"few":985,"oney":986,"far":987,"actually":988,"fan":989,"interesting":990,"pers":991,"So":992,"ions":993,"produ":994,"ng":995,"book":996,"No":997,"fam":998,"comp":999,"whole":1000,"sure":1001,"ree":1002,"shows":1003,"set":1004,"ations":1005,"co":1006,"rong":1007,"utes":1008,"What":1009,"commend":1010,"hu":1011,"od":1012,"ked":1013,"hum":1014,"ways":1015,"ward":1016,"sol":1017,"iz":1018,"money":1019,"vers":1020,"take":1021,"minutes":1022,"illi":1023,"enough":1024,"before":1025,"vis":1026,"ably":1027,"wood":1028,"effect":1029,"screen":1030,"hard":1031,"ual":1032,"aut":1033,"cra":1034,"world":1035,"cept":1036,"differ":1037,"ins":1038,"wa":1039,"ran":1040,"hour":1041,"mus":1042,"tri":1043,"another":1044,"saw":1045,"fi":1046,"recommend":1047,"let":1048,"ics":1049,"understand":1050,"super":1051,"amazing":1052,"waste":1053,"ult":1054,"creat":1055,"things":1056,"last":1057,"fli":1058,"ash":1059,"tell":1060,"ced":1061,"perfect":1062,"ft":1063,"anything":1064,"kind":1065,"keep":1066,"rating":1067,"main":1068,"come":1069,"raph":1070,"les":1071,"must":1072,"kid":1073,"without":1074,"mot":1075,"years":1076,"ool":1077,"vo":1078,"20":1079,"sub":1080,"scene":1081,"He":1082,"ys":1083,"person":1084,"TV":1085,"dial":1086,"complete":1087,"worst":1088,"finite":1089,"riend":1090,"They":1091,"Al":1092,"As":1093,"while":1094,"loved":1095,"wonder":1096,"How":1097,"pretty":1098,"ial":1099,"ater":1100,"put":1101,"fel":1102,"sense":1103,"Not":1104,"hope":1105,"horror":1106,"different":1107,"mag":1108,"friend":1109,"finitely":1110,"press":1111,"ending":1112,"surpr":1113,"solute":1114,"turn":1115,"cont":1116,"fact":1117,"wait":1118,"olly":1119,"med":1120,"happen":1121,"iful":1122,"director":1123,"Re":1124,"top":1125,"sing":1126,"cle":1127,"beaut":1128,"ste":1129,"episodes":1130,"bas":1131,"ip":1132,"believe":1133,"poor":1134,"light":1135,"audi":1136,"pie":1137,"Jo":1138,"irl":1139,"felt":1140,"ince":1141,"everything":1142,"arly":1143,"fort":1144,"wom":1145,"rel":1146,"Amer":1147,"dy":1148,"vious":1149,"Americ":1150,"war":1151,"ines":1152,"cond":1153,"ollywood":1154,"enjoyed":1155,"making":1156,"ative":1157,"job":1158,"Don":1159,"writing":1160,"lead":1161,"effects":1162,"ren":1163,"music":1164,"vent":1165,"We":1166,"year":1167,"everyone":1168,"isn":1169,"quite":1170,"reme":1171,"bu":1172,"ween":1173,"found":1174,"always":1175,"All":1176,"ress":1177,"istic":1178,"tru":1179,"care":1180,"wasn":1181,"sm":1182,"family":1183,"between":1184,"My":1185,"slow":1186,"absolute":1187,"add":1188,"emot":1189,"beautiful":1190,"sed":1191,"speci":1192,"looking":1193,"por":1194,"ale":1195,"ian":1196,"ional":1197,"ness":1198,"car":1199,"used":1200,"least":1201,"ellent":1202,"icul":1203,"ically":1204,"xt":1205,"upid":1206,"girl":1207,"humor":1208,"De":1209,"Just":1210,"reason":1211,"anyone":1212,"sequ":1213,"star":1214,"seems":1215,"definitely":1216,"vil":1217,"cor":1218,"ris":1219,"cess":1220,"alf":1221,"away":1222,"dict":1223,"For":1224,"mean":1225,"led":1226,"ery":1227,"kill":1228,"almost":1229,"around":1230,"ons":1231,"gue":1232,"mess":1233,"class":1234,"stupid":1235,"ath":1236,"bably":1237,"ks":1238,"terrible":1239,"left":1240,"trying":1241,"went":1242,"piece":1243,"ately":1244,"audience":1245,"na":1246,"might":1247,"drama":1248,"ext":1249,"Se":1250,"seeing":1251,"peri":1252,"Mo":1253,"ying":1254,"child":1255,"),":1256,"pi":1257,"cli":1258,"second":1259,"val":1260,"Hollywood":1261,"performance":1262,"beg":1263,"ings":1264,"That":1265,"half":1266,"sound":1267,"fant":1268,"else":1269,"next":1270,"surpris":1271,"since":1272,"both":1273,"fol":1274,"use":1275,"entertaining":1276,"comes":1277,"liked":1278,"raphy":1279,"disappointed":1280,"excellent":1281,"Be":1282,"unt":1283,"true":1284,"\".":1285,"att":1286,"dec":1287,"role":1288,"sex":1289,"hero":1290,"sent":1291,"fl":1292,"dialo":1293,"ner":1294,"ilar":1295,"hel":1296,"vol":1297,"written":1298,"ible":1299,"ider":1300,"velop":1301,"stu":1302,"hist":1303,"call":1304,"probably":1305,"awful":1306,"special":1307,"--":1308,"rid":1309,"ms":1310,"ality":1311,"entire":1312,"son":1313,"sci":1314,"ign":1315,"crit":1316,"kids":1317,"develop":1318,"fav":1319,"pecially":1320,"poss":1321,"yet":1322,"stead":1323,"Star":1324,"cri":1325,"heart":1326,"each":1327,"onest":1328,"especially":1329,"port":1330,"ia":1331,"rest":1332,"gets":1333,"je":1334,"said":1335,"An":1336,"wrong":1337,"absolutely":1338,"human":1339,"ull":1340,"ile":1341,"thrill":1342,"serious":1343,"era":1344,"predict":1345,"completely":1346,"idea":1347,"gl":1348,"ither":1349,"Some":1350,"actor":1351,"fully":1352,"illiant":1353,"young":1354,"nice":1355,"stop":1356,"cam":1357,"cinemat":1358,"oth":1359,"ply":1360,"19":1361,"lines":1362,"hours":1363,"ond":1364,"gether":1365,"clo":1366,"sho":1367,"deser":1368,"appe":1369,"shot":1370,"oc":1371,"Every":1372,"ney":1373,"TH":1374,"couldn":1375,"together":1376,"res":1377,"gener":1378,"someone":1379,"bre":1380,"ones":1381,"mar":1382,"ists":1383,"mon":1384,"ism":1385,"tray":1386,"ences":1387,"bly":1388,"fre":1389,"wanted":1390,"run":1391,"log":1392,"night":1393,"full":1394,"word":1395,"hand":1396,"ready":1397,"moments":1398,"credi":1399,"cut":1400,"cap":1401,"ography":1402,"tem":1403,"Mar":1404,"lic":1405,"fight":1406,"ited":1407,"follow":1408,"polit":1409,"anim":1410,"IM":1411,"os":1412,"usu":1413,"cons":1414,"sad":1415,"brilliant":1416,"mor":1417,"jokes":1418,"yes":1419,"came":1420,"sty":1421,"dialogue":1422,"lig":1423,"imag":1424,"cur":1425,"inter":1426,"place":1427,"plain":1428,"Un":1429,"tit":1430,"ix":1431,"portray":1432,"predictable":1433,"begin":1434,"!!!":1435,"ject":1436,"experi":1437,"performances":1438,"col":1439,"truly":1440,"guy":1441,"head":1442,"certain":1443,"maybe":1444,"dark":1445,"pow":1446,"To":1447,"Pe":1448,"American":1449,"reg":1450,"body":1451,"non":1452,"rather":1453,"ped":1454,"simply":1455,"cinema":1456,"One":1457,"gave":1458,"eng":1459,"After":1460,"honest":1461,"vable":1462,"fail":1463,"??":1464,"form":1465,"bud":1466,"als":1467,"storyline":1468,"gar":1469,"uring":1470,"eas":1471,"opin":1472,"Le":1473,"viol":1474,"prop":1475,"sup":1476,"ird":1477,"iting":1478,"deli":1479,"arr":1480,"uni":1481,"umb":1482,"cr":1483,"wal":1484,"gg":1485,"ted":1486,"hn":1487,"production":1488,"spe":1489,"side":1490,"having":1491,"tic":1492,"coming":1493,"hop":1494,"getting":1495,"ron":1496,"Lo":1497,"looks":1498,"cing":1499,"sy":1500,"once":1501,"suppo":1502,"cour":1503,"esome":1504,"favor":1505,"played":1506,"astic":1507,"soci":1508,"myself":1509,"ER":1510,"guess":1511,"based":1512,"cho":1513,"Well":1514,"instead":1515,"When":1516,"Great":1517,"rele":1518,"version":1519,"bra":1520,"expected":1521,"nor":1522,"theater":1523,"ich":1524,"forward":1525,"rated":1526,"ames":1527,"takes":1528,"mber":1529,"obvious":1530,"hate":1531,"que":1532,"present":1533,"par":1534,"men":1535,"She":1536,"stars":1537,"Ro":1538,"wish":1539,"already":1540,"hy":1541,"yourself":1542,"John":1543,"fans":1544,"NO":1545,"talent":1546,"Dis":1547,"master":1548,"Li":1549,"Do":1550,"tot":1551,"either":1552,"opinion":1553,"On":1554,"proble":1555,"land":1556,"chan":1557,"strong":1558,"spo":1559,"However":1560,"totally":1561,"cinematography":1562,"goes":1563,"pare":1564,"direction":1565,"ele":1566,"etc":1567,"itself":1568,"horrible":1569,"IN":1570,"short":1571,"susp":1572,"worse":1573,"incredi":1574,"list":1575,"trail":1576,"ended":1577,"ned":1578,"power":1579,"open":1580,"sat":1581,"course":1582,"doing":1583,"fall":1584,"io":1585,"believable":1586,"budget":1587,"anno":1588,"ane":1589,"given":1590,"tempt":1591,"except":1592,"others":1593,"women":1594,"ah":1595,"pu":1596,"thinking":1597,"male":1598,"sch":1599,"decent":1600,"realistic":1601,"history":1602,"crap":1603,"conf":1604,"\",":1605,"wit":1606,"impress":1607,"ross":1608,"At":1609,"miss":1610,"quality":1611,"contin":1612,"ken":1613,"using":1614,"extreme":1615,"wonderful":1616,"allow":1617,"teen":1618,"Ne":1619,"Its":1620,"ories":1621,"started":1622,"Even":1623,"friends":1624,"Why":1625,"ature":1626,"cks":1627,"Chris":1628,"iculous":1629,"face":1630,"ts":1631,"past":1632,"IMD":1633,"parts":1634,"fortun":1635,"level":1636,"fer":1637,"stru":1638,"gest":1639,"awesome":1640,"fantastic":1641,"cy":1642,"Over":1643,"days":1644,"surprised":1645,"intel":1646,"style":1647,"classic":1648,"ming":1649,"actress":1650,"beginning":1651,"exp":1652,"until":1653,"With":1654,"expecting":1655,"along":1656,"writers":1657,"law":1658,"throughout":1659,"sul":1660,"experience":1661,"flix":1662,"unch":1663,"cu":1664,"finish":1665,"guys":1666,"dep":1667,"live":1668,"kept":1669,"Ar":1670,"ention":1671,"quest":1672,"pict":1673,"attempt":1674,"ret":1675,"possible":1676,"pass":1677,"feeling":1678,"ek":1679,"woman":1680,"ler":1681,"cannot":1682,"vin":1683,"ship":1684,"cop":1685,"ridiculous":1686,"camera":1687,"supposed":1688,"sk":1689,"neg":1690,"score":1691,"Watch":1692,"children":1693,"giving":1694,"couple":1695,"fresh":1696,"Net":1697,"fair":1698,"during":1699,"May":1700,"genre":1701,"CG":1702,"event":1703,"chance":1704,"write":1705,"ased":1706,"three":1707,"ouch":1708,"visual":1709,"rent":1710,"fine":1711,"ates":1712,"sequel":1713,"stuff":1714,"acted":1715,"Is":1716,"ote":1717,"ared":1718,"uck":1719,"consider":1720,"Very":1721,"stories":1722,"huge":1723,"hilar":1724,"ouse":1725,"help":1726,"track":1727,"wi":1728,"ST":1729,"black":1730,"gra":1731,"vid":1732,"Yes":1733,"dri":1734,"posit":1735,"boy":1736,"school":1737,"plays":1738,"ingly":1739,"stay":1740,"ities":1741,"saying":1742,"clich":1743,"type":1744,"omb":1745,"ton":1746,"ump":1747,"pot":1748,"suc":1749,"ger":1750,"supp":1751,"overall":1752,"pop":1753,"God":1754,"enjoyable":1755,"bage":1756,"close":1757,"annoying":1758,"seemed":1759,"lost":1760,"Also":1761,"00":1762,"ali":1763,"suspense":1764,"invol":1765,"orry":1766,"Good":1767,"ear":1768,"expectations":1769,"import":1770,"cer":1771,"ace":1772,"Netflix":1773,"fut":1774,"ord":1775,"zy":1776,"AN":1777,"ground":1778,"ined":1779,"aring":1780,"preci":1781,"ank":1782,"RE":1783,"rek":1784,"Go":1785,"extremely":1786,"ize":1787,"aking":1788,"void":1789,"mas":1790,"highly":1791,"fast":1792,"touch":1793,"Br":1794,"pay":1795,"lan":1796,"antly":1797,"illy":1798,"garbage":1799,"took":1800,"hilarious":1801,"feels":1802,"IMDb":1803,"however":1804,"bro":1805,"pain":1806,"message":1807,"remember":1808,"ential":1809,"please":1810,"violence":1811,".\"":1812,"Act":1813,"thriller":1814,"CGI":1815,"fran":1816,"dou":1817,"development":1818,"name":1819,"trailer":1820,"ling":1821,"ream":1822,"dr":1823,"incl":1824,"**":1825,"home":1826,"ots":1827,"happened":1828,"ese":1829,"typ":1830,"bring":1831,"cool":1832,"telling":1833,"bored":1834,"parent":1835,"today":1836,"issu":1837,"vide":1838,"mit":1839,"oud":1840,"support":1841,"favorite":1842,"cked":1843,"ages":1844,"af":1845,"negative":1846,"Can":1847,"OK":1848,"vision":1849,"fortunately":1850,"weak":1851,"simple":1852,"First":1853,"reality":1854,"leave":1855,"scar":1856,"selves":1857,"Man":1858,"lish":1859,"ular":1860,"Disney":1861,"den":1862,"coun":1863,"certainly":1864,"attention":1865,"save":1866,"cred":1867,"Sc":1868,"Maybe":1869,"flick":1870,"song":1871,"become":1872,"ake":1873,"spir":1874,"Overall":1875,"spoil":1876,"future":1877,"tail":1878,"single":1879,"Ke":1880,"political":1881,"looked":1882,"win":1883,"gives":1884,"entertainment":1885,"ident":1886,"DV":1887,"relation":1888,"mid":1889,"seriously":1890,"pac":1891,"av":1892,"ON":1893,"adult":1894,"ino":1895,"wife":1896,"ures":1897,"Car":1898,"plan":1899,"matter":1900,"ility":1901,"Sh":1902,"haps":1903,"die":1904,"ends":1905,"sever":1906,"mention":1907,"Su":1908,"twist":1909,"hit":1910,"aver":1911,"critics":1912,"deep":1913,"scary":1914,"playing":1915,"mark":1916,"moder":1917,"dam":1918,"dist":1919,"haven":1920,"myster":1921,"tried":1922,"igh":1923,"wouldn":1924,"Sp":1925,"theat":1926,"appreci":1927,"cult":1928,"30":1929,"pleas":1930,"yond":1931,"heard":1932,"situ":1933,"roll":1934,"mal":1935,"Now":1936,"zz":1937,"AT":1938,"rate":1939,"bb":1940,"case":1941,"needs":1942,"intellig":1943,"Ple":1944,"Any":1945,"DVD":1946,"US":1947,"exact":1948,"happens":1949,"chang":1950,"emotional":1951,"Per":1952,"leg":1953,"prof":1954,"IS":1955,"viewer":1956,"Wars":1957,"ition":1958,"build":1959,"comic":1960,"Ex":1961,"!!!!":1962,"ok":1963,"antic":1964,"wise":1965,"necess":1966,"pace":1967,"books":1968,"masterpiece":1969,"lea":1970,"count":1971,"lect":1972,"modern":1973,"remind":1974,"previous":1975,"white":1976,"concept":1977,"called":1978,"ered":1979,"happy":1980,"change":1981,"Com":1982,"eyes":1983,"Please":1984,"forget":1985,"ker":1986,"works":1987,"moment":1988,"against":1989,"usual":1990,"cas":1991,"wasted":1992,"rist":1993,"While":1994,"problem":1995,"ided":1996,"taking":1997,"loc":1998,"cause":1999,"respect":2000,"week":2001,"lid":2002,"air":2003,"although":2004,"lear":2005,"detail":2006,"game":2007,"ination":2008,"Mich":2009,"spect":2010,"cover":2011,"sum":2012,"turned":2013,"hind":2014,"Marvel":2015,"AL":2016,"told":2017,"ley":2018,"particul":2019,"beyond":2020,"Wor":2021,"average":2022,"small":2023,"foc":2024,"tech":2025,"ni":2026,"ized":2027,"doub":2028,"fic":2029,"stra":2030,"uss":2031,"exam":2032,"villa":2033,"iness":2034,"words":2035,"laughing":2036,"female":2037,"leep":2038,"atur":2039,"ards":2040,"effort":2041,"ratings":2042,"deserves":2043,"mix":2044,"utter":2045,"important":2046,"hold":2047,"ired":2048,"Ser":2049,"wn":2050,"waiting":2051,"Jack":2052,"Char":2053,"dull":2054,"augh":2055,"Movie":2056,"Mc":2057,"mise":2058,"often":2059,"potential":2060,"lives":2061,"Trek":2062,"matic":2063,"several":2064,"ific":2065,"move":2066,"pur":2067,"shame":2068,"directing":2069,"conne":2070,"writer":2071,"cost":2072,"agree":2073,"viewers":2074,"Da":2075,"sort":2076,"roles":2077,"deliver":2078,"lame":2079,"aster":2080,"15":2081,"dumb":2082,"ety":2083,"mistry":2084,"Har":2085,"bi":2086,"jor":2087,"similar":2088,"bing":2089,"usually":2090,"Di":2091,"reading":2092,"Con":2093,"meaning":2094,"success":2095,"aged":2096,"net":2097,"behind":2098,"franch":2099,"chemistry":2100,"0s":2101,"Ste":2102,"Tom":2103,"lots":2104,"Will":2105,"Oscar":2106,"dialog":2107,"twists":2108,"emotion":2109,"Who":2110,"ING":2111,"dead":2112,"directed":2113,"ator":2114,"verse":2115,"cliché":2116,"ket":2117,"pri":2118,"quick":2119,"themselves":2120,"From":2121,"blood":2122,"trash":2123,"superb":2124,"cking":2125,"taken":2126,"thetic":2127,"explo":2128,"asy":2129,"arch":2130,"casting":2131,"knew":2132,"alone":2133,"ago":2134,"premise":2135,"incredible":2136,"Brit":2137,"poorly":2138,"dle":2139,"swe":2140,"pick":2141,"exactly":2142,"Eng":2143,"soundtrack":2144,"ani":2145,"animation":2146,"NOT":2147,"title":2148,"gs":2149,"pite":2150,"involved":2151,"forced":2152,"flaw":2153,"solid":2154,"known":2155,"unique":2156,"aren":2157,"honestly":2158,"psy":2159,"ky":2160,"itch":2161,"glad":2162,"sometimes":2163,"Bad":2164,"clever":2165,"ael":2166,"hell":2167,"comment":2168,"liter":2169,"prom":2170,"ues":2171,"hol":2172,"positive":2173,"franchise":2174,"Ab":2175,"Sha":2176,"father":2177,"remake":2178,"worthy":2179,"wards":2180,"Ho":2181,"lock":2182,"humour":2183,"yp":2184,"major":2185,"fiction":2186,"talking":2187,"soon":2188,"easy":2189,"brain":2190,"turns":2191,"Oh":2192,"ric":2193,"recent":2194,"Ter":2195,"cheap":2196,"hoping":2197,"deal":2198,"sorry":2199,"ering":2200,"ats":2201,"Indi":2202,"Really":2203,"depth":2204,"minute":2205,"aspect":2206,"finally":2207,"exe":2208,"grou":2209,"sult":2210,"none":2211,"standing":2212,"silly":2213,"late":2214,"range":2215,"house":2216,"ero":2217,"gre":2218,"pil":2219,"dest":2220,"keeps":2221,"terri":2222,"decided":2223,"necessary":2224,"laughs":2225,"break":2226,"jud":2227,"himself":2228,"IT":2229,"cry":2230,"explain":2231,"perfectly":2232,"inst":2233,"ension":2234,"starts":2235,"Mr":2236,"tele":2237,"Nothing":2238,"blow":2239,"anda":2240,"kers":2241,"death":2242,"science":2243,"room":2244,"loud":2245,"Christi":2246,"Po":2247,"clear":2248,"Michael":2249,"team":2250,"THE":2251,"LO":2252,"thy":2253,"New":2254,"laughed":2255,"pure":2256,"sequences":2257,"Of":2258,"weird":2259,"subject":2260,"Like":2261,"bat":2262,"typical":2263,".....":2264,"ational":2265,"People":2266,"ca":2267,"ised":2268,"post":2269,"bother":2270,"thor":2271,"exist":2272,"evil":2273,"easily":2274,"video":2275,"bal":2276,"fo":2277,"esy":2278,"bur":2279,"truth":2280,"actual":2281,"fig":2282,"abo":2283,"doubt":2284,"fell":2285,"ured":2286,"obviously":2287,"events":2288,"excited":2289,"band":2290,"gon":2291,"enn":2292,"ude":2293,"fit":2294,"aste":2295,"narr":2296,"ina":2297,"issues":2298,"wer":2299,"repe":2300,"disappointing":2301,"example":2302,"James":2303,"agon":2304,"Bo":2305,"ides":2306,"girls":2307,"clearly":2308,"intri":2309,"suff":2310,"Or":2311,"setting":2312,"straight":2313,"later":2314,"apt":2315,"En":2316,"flat":2317,"ount":2318,"smart":2319,"bunch":2320,"arely":2321,"Ger":2322,"stick":2323,"histor":2324,"enty":2325,"country":2326,"total":2327,"const":2328,"emotions":2329,"key":2330,"includ":2331,"Fil":2332,"pack":2333,"disappointment":2334,"langu":2335,"sou":2336,"Me":2337,"Although":2338,"Then":2339,"satis":2340,"han":2341,"trans":2342,"voice":2343,"num":2344,"convin":2345,"mostly":2346,"cla":2347,"ding":2348,"joke":2349,"due":2350,"moving":2351,"execut":2352,"natur":2353,"gy":2354,"stun":2355,"personal":2356,"Let":2357,"fantasy":2358,"cial":2359,"needed":2360,"surprise":2361,"201":2362,"early":2363,"mi":2364,"pathetic":2365,"exciting":2366,"created":2367,"treat":2368,"cheesy":2369,"lice":2370,"und":2371,"picture":2372,"gri":2373,"famil":2374,"OR":2375,"ref":2376,"pilot":2377,"mystery":2378,"admit":2379,"points":2380,"question":2381,"........":2382,"middle":2383,"Bl":2384,"rede":2385,"wants":2386,"graph":2387,"els":2388,"Most":2389,"spent":2390,"shi":2391,"Lu":2392,"avoid":2393,"stere":2394,"Black":2395,"row":2396,"ze":2397,"wo":2398,"rodu":2399,"lar":2400,"television":2401,"Tr":2402,"anger":2403,"group":2404,"cru":2405,"pat":2406,"idi":2407,"ising":2408,"showing":2409,"cring":2410,"interested":2411,"appreciate":2412,"above":2413,"talk":2414,"ony":2415,"mosp":2416,"pped":2417,"possi":2418,"listen":2419,"His":2420,"arant":2421,"tries":2422,"space":2423,"background":2424,"aughter":2425,"free":2426,"gone":2427,"edge":2428,"America":2429,"ride":2430,"stereot":2431,"filled":2432,"meet":2433,"amp":2434,"literally":2435,"oose":2436,"iv":2437,"90":2438,"Christ":2439,"tiv":2440,"atmosp":2441,"comments":2442,"ison":2443,"ring":2444,"descri":2445,"seat":2446,"amount":2447,"language":2448,"feature":2449,"uses":2450,"aging":2451,"cers":2452,"nie":2453,"final":2454,"society":2455,"ideas":2456,"Co":2457,"Love":2458,"usion":2459,"VER":2460,"advent":2461,"200":2462,"Em":2463,"English":2464,"py":2465,"lim":2466,"missed":2467,"50":2468,"daughter":2469,"orge":2470,"theme":2471,"ball":2472,"god":2473,"Everything":2474,"intelligent":2475,"grow":2476,"mother":2477,"says":2478,"AR":2479,"brought":2480,"gore":2481,"makers":2482,"bar":2483,"refer":2484,"perhaps":2485,"screenplay":2486,"incredibly":2487,"Bat":2488,"nam":2489,"critic":2490,"elements":2491,"sug":2492,"100":2493,"accept":2494,"bust":2495,"bert":2496,"erial":2497,"check":2498,"editing":2499,"British":2500,"novel":2501,"sexual":2502,"carto":2503,"War":2504,"appear":2505,"express":2506,"suggest":2507,"ents":2508,"Gu":2509,"ining":2510,"Super":2511,"har":2512,"Rob":2513,"near":2514,"logy":2515,"stud":2516,"Story":2517,"superhero":2518,"LE":2519,"Ha":2520,"slight":2521,"sets":2522,"Unfortunately":2523,"box":2524,"pointless":2525,"anymore":2526,"dramatic":2527,"gust":2528,"iously":2529,"material":2530,"Season":2531,"becomes":2532,"powerful":2533,"bed":2534,"ched":2535,"blic":2536,"seasons":2537,"vice":2538,"rac":2539,"relationship":2540,"sick":2541,"musical":2542,"dru":2543,"lad":2544,"ask":2545,"Ma":2546,"mur":2547,"ged":2548,"appeal":2549,"sign":2550,"actions":2551,"social":2552,"medio":2553,"relig":2554,"spend":2555,"order":2556,"shots":2557,"hype":2558,"Pa":2559,"dream":2560,"paced":2561,"natural":2562,"fake":2563,"create":2564,"jump":2565,"pose":2566,"opening":2567,"supporting":2568,"means":2569,"ried":2570,"viewing":2571,"propag":2572,"Gr":2573,"value":2574,"elling":2575,"current":2576,"ability":2577,"songs":2578,"Cl":2579,"vest":2580,"holes":2581,"accent":2582,"otic":2583,"Fran":2584,"uine":2585,"imagine":2586,"learn":2587,"mes":2588,"impro":2589,"basically":2590,"speak":2591,"visuals":2592,"design":2593,"logical":2594,"VE":2595,"scare":2596,"pping":2597,"tale":2598,"icult":2599,"across":2600,"omin":2601,"romance":2602,"gun":2603,"difficult":2604,"Ed":2605,"ier":2606,"mb":2607,"content":2608,"culture":2609,"reviewers":2610,"paid":2611,"adapt":2612,"watchable":2613,"producers":2614,"Acting":2615,"general":2616,"released":2617,"hot":2618,"walked":2619,"Je":2620,"stunning":2621,"complex":2622,"memor":2623,"within":2624,"shown":2625,"docu":2626,"romantic":2627,"worked":2628,"genuine":2629,"capt":2630,"portrayed":2631,"Tur":2632,"eye":2633,"ail":2634,"intrigu":2635,"shoot":2636,"unity":2637,"drop":2638,"failed":2639,"fest":2640,"pull":2641,"Christian":2642,"bbish":2643,"King":2644,"hook":2645,"Qu":2646,"equ":2647,"propaganda":2648,"ices":2649,"period":2650,"sl":2651,"site":2652,"nonsense":2653,"atmosphere":2654,"Sam":2655,"badly":2656,"correct":2657,"Too":2658,"somewhat":2659,"throw":2660,"crazy":2661,"fying":2662,"pho":2663,"zomb":2664,"hear":2665,"crew":2666,"rend":2667,"oun":2668,"whe":2669,"eld":2670,"ene":2671,"unlike":2672,"missing":2673,"extra":2674,"third":2675,"stre":2676,"creep":2677,"rage":2678,"redeem":2679,"tired":2680,"prot":2681,"beautifully":2682,"wr":2683,"mediocre":2684,"gonna":2685,"rench":2686,"oh":2687,"crime":2688,"state":2689,"Direct":2690,"sla":2691,"sens":2692,"80":2693,"outstanding":2694,"including":2695,"accur":2696,"document":2697,"knows":2698,"OU":2699,"gay":2700,"lik":2701,"shed":2702,"greatest":2703,"fighting":2704,"living":2705,"By":2706,"LY":2707,"Thank":2708,"deserve":2709,"Bro":2710,"emb":2711,"Ad":2712,"SE":2713,"four":2714,"roy":2715,"brings":2716,"anks":2717,"sold":2718,"epic":2719,"search":2720,"host":2721,"cei":2722,"impressed":2723,"continue":2724,"ister":2725,"milli":2726,"gan":2727,"atta":2728,"convincing":2729,"High":2730,"round":2731,"happening":2732,"ently":2733,"Best":2734,"tension":2735,"var":2736,"continu":2737,"Sim":2738,"despite":2739,"credits":2740,"villain":2741,"meant":2742,"problems":2743,"particularly":2744,"connect":2745,"Ra":2746,"inary":2747,"iss":2748,"strange":2749,"refresh":2750,"David":2751,"views":2752,"Cap":2753,"filmed":2754,"comb":2755,"likable":2756,"taste":2757,"entertained":2758,"'.":2759,"outh":2760,"rich":2761,"cant":2762,"talented":2763,"invest":2764,"introdu":2765,"ival":2766,"sell":2767,"ury":2768,"subtle":2769,"Only":2770,"ban":2771,"wan":2772,"survi":2773,"release":2774,"gress":2775,"somehow":2776,"unless":2777,"directors":2778,"adults":2779,"cute":2780,"ping":2781,"parents":2782,"spot":2783,"rubbish":2784,"berg":2785,"mil":2786,"ceed":2787,"Fi":2788,"till":2789,"ug":2790,"EN":2791,"disgust":2792,"arrass":2793,"leads":2794,"Other":2795,"hus":2796,"oring":2797,"lin":2798,"Ge":2799,"intense":2800,"concl":2801,"Was":2802,"imp":2803,"stereotyp":2804,"number":2805,"az":2806,"?!":2807,"creative":2808,"12":2809,"scenery":2810,"quickly":2811,"Pr":2812,"force":2813,"ral":2814,"thers":2815,"Film":2816,"plenty":2817,"possibly":2818,"ius":2819,"flu":2820,"Nor":2821,"towards":2822,"husband":2823,"choice":2824,"represent":2825,"embarrass":2826,"ensive":2827,"ships":2828,"ik":2829,"running":2830,"oughly":2831,"buy":2832,"Sure":2833,"rec":2834,"ica":2835,"okay":2836,"Ali":2837,"gues":2838,"depress":2839,"painful":2840,"longer":2841,"adventure":2842,"Ben":2843,"whatever":2844,"progra":2845,"purpose":2846,"umes":2847,"foot":2848,"Hor":2849,"situations":2850,"BC":2851,"imm":2852,"project":2853,"anti":2854,"police":2855,"became":2856,"colle":2857,"ied":2858,"Did":2859,"urt":2860,"public":2861,"tern":2862,"Bra":2863,"jour":2864,"portrayal":2865,"leaves":2866,"appro":2867,"plots":2868,"cringe":2869,"Sm":2870,"strugg":2871,",\"":2872,"added":2873,"step":2874,"Mon":2875,"breath":2876,"killed":2877,"focus":2878,"iar":2879,"insp":2880,"unbelievable":2881,"distur":2882,"Pl":2883,"urther":2884,"Hope":2885,"catch":2886,"Wal":2887,"apart":2888,"justice":2889,"Definitely":2890,"cal":2891,"profess":2892,"date":2893,"working":2894,"screening":2895,"questions":2896,"claim":2897,"These":2898,"tv":2899,"impressive":2900,"mass":2901,"</":2902,"contain":2903,"packed":2904,"cartoon":2905,"realize":2906,"awk":2907,"finished":2908,"Sch":2909,"nearly":2910,"hood":2911,"adv":2912,"fron":2913,"omen":2914,"craft":2915,"Russ":2916,"aby":2917,"canc":2918,"stern":2919,"murder":2920,"II":2921,"Pro":2922,"violent":2923,"13":2924,"ula":2925,"regard":2926,"Her":2927,"IE":2928,"unk":2929,"fails":2930,"situation":2931,"dog":2932,"ances":2933,"unnecessary":2934,"Col":2935,"universe":2936,"wrote":2937,"Des":2938,"Sci":2939,"pra":2940,"developed":2941,"tract":2942,"protagon":2943,"normal":2944,"soph":2945,"flash":2946,"Peter":2947,"fra":2948,"odd":2949,"Indian":2950,"whether":2951,"town":2952,"animated":2953,"bel":2954,"compare":2955,"Che":2956,"bot":2957,"contro":2958,"historical":2959,"regret":2960,"ries":2961,"table":2962,"refreshing":2963,"Gre":2964,"max":2965,"dim":2966,"ctor":2967,"Sand":2968,"accurate":2969,"ib":2970,"engaging":2971,"aught":2972,"familiar":2973,"subst":2974,"indi":2975,"stri":2976,"Ama":2977,"ians":2978,"OM":2979,"among":2980,"gotten":2981,"Spider":2982,"Aw":2983,"nel":2984,"tom":2985,"recommended":2986,"ants":2987,"psycho":2988,"fr":2989,"pres":2990,"wanting":2991,"magic":2992,"produced":2993,"spectac":2994,"apparent":2995,"compared":2996,"ially":2997,"leading":2998,"ordinary":2999,"Big":3000,"changed":3001,"zero":3002,"str":3003,"confusing":3004,"older":3005,"Tru":3006,"bus":3007,"Dark":3008,"ulti":3009,"contri":3010,"comedies":3011,".)":3012,"load":3013,"test":3014,"Dead":3015,"kick":3016,"Everyone":3017,"hat":3018,"ager":3019,"common":3020,"hopes":3021,"Adam":3022,"comfort":3023,"belief":3024,":)":3025,"Look":3026,"soul":3027,"El":3028,"ously":3029,"CH":3030,"Ju":3031,"ives":3032,"arantino":3033,"photo":3034,"Ang":3035,"ogy":3036,"marvel":3037,"genius":3038,"figure":3039,"five":3040,"GO":3041,"ub":3042,"rew":3043,"theatre":3044,"details":3045,"lies":3046,"unfortunately":3047,"pet":3048,"zed":3049,"unrealistic":3050,"horri":3051,"inspir":3052,"costumes":3053,"Mel":3054,"Vi":3055,"asc":3056,"ogn":3057,"copy":3058,"gain":3059,"reve":3060,"sleep":3061,"thank":3062,"decis":3063,"hated":3064,"Tarantino":3065,"stal":3066,"erson":3067,"ctive":3068,"ender":3069,"wondering":3070,"uc":3071,"ener":3072,"Dan":3073,"Seriously":3074,"Show":3075,"avy":3076,"consist":3077,"documentary":3078,"lying":3079,"dont":3080,"bes":3081,"ott":3082,"delivers":3083,"sym":3084,"race":3085,"ivity":3086,"hooked":3087,"career":3088,"walk":3089,"creepy":3090,"personally":3091,"resp":3092,"Far":3093,"achie":3094,"gry":3095,"fire":3096,"nature":3097,"rap":3098,"Fin":3099,"thoroughly":3100,"sn":3101,"program":3102,"uro":3103,"anyway":3104,"ays":3105,"tort":3106,"faith":3107,"compelling":3108,"AS":3109,"Where":3110,"requ":3111,"sweet":3112,"asleep":3113,"utterly":3114,"multi":3115,"sters":3116,"grand":3117,"biggest":3118,"cul":3119,"Im":3120,"moved":3121,"gged":3122,"recogn":3123,"andom":3124,"Never":3125,"rup":3126,"ses":3127,"ilogy":3128,"credit":3129,"inno":3130,"BO":3131,"IL":3132,"Wow":3133,"politics":3134,"otherwise":3135,"Robert":3136,"relate":3137,"awkward":3138,"luck":3139,"dies":3140,"Ry":3141,"Sad":3142,"reach":3143,"indust":3144,"ruined":3145,"Instead":3146,"Paul":3147,"ths":3148,"boys":3149,"tells":3150,"40":3151,"tone":3152,"ital":3153,"medi":3154,"falls":3155,"eron":3156,"managed":3157,"Ano":3158,"progress":3159,"inc":3160,"eless":3161,"lacks":3162,"entious":3163,"nore":3164,"vot":3165,"See":3166,"Another":3167,"ifer":3168,"redeeming":3169,"MO":3170,"shock":3171,"mad":3172,"board":3173,"narrative":3174,"teach":3175,"ging":3176,"ham":3177,"beat":3178,"weren":3179,"stream":3180,"complain":3181,"ties":3182,"result":3183,"tears":3184,"office":3185,"mood":3186,"depict":3187,"Bar":3188,"mir":3189,"earth":3190,"Absolute":3191,"battle":3192,"slightly":3193,"deed":3194,"sitting":3195,"showed":3196,"ient":3197,"popular":3198,"fool":3199,"Christmas":3200,"intriguing":3201,"EVER":3202,"illiam":3203,"pacing":3204,"doll":3205,"cat":3206,"fear":3207,"further":3208,"graphy":3209,"comedic":3210,"fied":3211,"reasons":3212,"kills":3213,"ceived":3214,"Sorry":3215,"note":3216,"ening":3217,"kinda":3218,"Ok":3219,"ution":3220,"boot":3221,"desper":3222,"describe":3223,"Honest":3224,"likes":3225,"inspired":3226,"water":3227,"impossible":3228,"pieces":3229,"AD":3230,"barely":3231,"mote":3232,"neither":3233,"AM":3234,"Last":3235,"flow":3236,"Because":3237,"ades":3238,"witch":3239,"upon":3240,"Perhaps":3241,"specially":3242,"push":3243,"executed":3244,"ior":3245,"cinematic":3246,"Ri":3247,"Red":3248,"pan":3249,"Park":3250,"provo":3251,"disaster":3252,"corn":3253,"11":3254,"proper":3255,"Fe":3256,"Mus":3257,"Sa":3258,"chall":3259,"trilogy":3260,"Jim":3261,"bla":3262,"opport":3263,"perspect":3264,"agend":3265,"basic":3266,"theaters":3267,"phys":3268,"dialogues":3269,"Loved":3270,"touching":3271,"leaving":3272,"particular":3273,"hen":3274,"random":3275,"trust":3276,"quir":3277,"DC":3278,"fasc":3279,"ively":3280,"terror":3281,"following":3282,"fairly":3283,"Batman":3284,"Many":3285,"tar":3286,"Kevin":3287,"large":3288,"city":3289,"notch":3290,"pretentious":3291,"pul":3292,"oppo":3293,"brut":3294,"ampire":3295,"journey":3296,"places":3297,"draw":3298,"witty":3299,"3D":3300,"Aust":3301,"More":3302,"ded":3303,"elled":3304,"?\"":3305,"Fo":3306,"heroes":3307,"younger":3308,"udo":3309,"studi":3310,"industry":3311,"Honestly":3312,"dem":3313,"',":3314,"THIS":3315,"Mad":3316,"actresses":3317,"liber":3318,"knowing":3319,"shallow":3320,"ultim":3321,"ush":3322,"grit":3323,"generation":3324,"scares":3325,"dish":3326,"conclusion":3327,"sen":3328,"vict":3329,"account":3330,"bear":3331,"likely":3332,"empt":3333,"nail":3334,"disturbing":3335,"front":3336,"Mor":3337,"apo":3338,"shouldn":3339,"flaws":3340,"fill":3341,"names":3342,"rie":3343,"bul":3344,"Mur":3345,"memorable":3346,"aspects":3347,"adaptation":3348,"gang":3349,"rious":3350,"wanna":3351,"Still":3352,"relationships":3353,"thats":3354,"nowhere":3355,"emp":3356,"confused":3357,"Smith":3358,"Tra":3359,"sucks":3360,"mbers":3361,"Save":3362,"trad":3363,"Here":3364,"Ye":3365,"standard":3366,"damn":3367,"Ryan":3368,"smo":3369,"concer":3370,"everybody":3371,"killing":3372,"Lee":3373,"commer":3374,"1st":3375,"onder":3376,"considering":3377,"judge":3378,"del":3379,"ateur":3380,"mistake":3381,"scream":3382,"twice":3383,"drawn":3384,"compar":3385,"gers":3386,"Give":3387,"ech":3388,"moves":3389,"plus":3390,"media":3391,"absur":3392,"bland":3393,"rare":3394,"destroy":3395,"mentioned":3396,"zombie":3397,"gent":3398,"tough":3399,"decide":3400,"ify":3401,"scenar":3402,"laughter":3403,"William":3404,"lets":3405,"Americans":3406,"reminds":3407,"Ti":3408,"color":3409,"ises":3410,"heavy":3411,"inside":3412,"???":3413,"issue":3414,"World":3415,"million":3416,"irrit":3417,"trou":3418,"relev":3419,"breaking":3420,"reminded":3421,"feelings":3422,"alien":3423,"delivered":3424,"ather":3425,"block":3426,"thin":3427,"Jason":3428,"Par":3429,"themes":3430,"sequence":3431,"intelligence":3432,"graphic":3433,"Bond":3434,"Men":3435,"paint":3436,"Wood":3437,"mental":3438,"depend":3439,"Ber":3440,"Bill":3441,"ba":3442,"propri":3443,"German":3444,"BS":3445,"Out":3446,"imagination":3447,"itary":3448,"Mart":3449,"walking":3450,"approach":3451,"HO":3452,"lose":3453,"ds":3454,"vote":3455,"higher":3456,"Rom":3457,"Tim":3458,"gory":3459,"Bru":3460,"bomb":3461,"Having":3462,"femin":3463,"Scott":3464,"Night":3465,"dread":3466,"match":3467,"core":3468,"appears":3469,"formula":3470,"spirit":3471,"leng":3472,"Af":3473,"hardly":3474,"wed":3475,"izing":3476,"gover":3477,"Wil":3478,"appropri":3479,"seless":3480,"entirely":3481,"hands":3482,"dimens":3483,"suit":3484,"path":3485,"Charact":3486,"absurd":3487,"French":3488,"Pat":3489,"angry":3490,"exception":3491,"iment":3492,"Step":3493,"substance":3494,"terms":3495,"agenda":3496,"sil":3497,"travel":3498,"Mat":3499,"smile":3500,"ED":3501,"western":3502,"struct":3503,"connection":3504,"Two":3505,"amateur":3506,"thinks":3507,"occas":3508,"reveal":3509,"raid":3510,"mixed":3511,"terrific":3512,"comfortable":3513,"ters":3514,"Thr":3515,"storytelling":3516,"considered":3517,"spectacular":3518,"mm":3519,"venge":3520,"minor":3521,"award":3522,"audiences":3523,"brother":3524,"field":3525,"perspective":3526,"ourit":3527,"moral":3528,"stem":3529,"thrown":3530,"Bet":3531,"Euro":3532,"Hard":3533,"cross":3534,"vir":3535,"references":3536,"disgusting":3537,"protagonist":3538,"anced":3539,"beha":3540,"sounds":3541,"!\"":3542,"aa":3543,"dry":3544,"disc":3545,"Exc":3546,"Jones":3547,"fla":3548,"assu":3549,"ung":3550,"rip":3551,"killer":3552,"nu":3553,"app":3554,"vert":3555,"End":3556,"constantly":3557,"!)":3558,"aim":3559,"offer":3560,"professional":3561,"ape":3562,"ashing":3563,"surprisingly":3564,"mission":3565,"unexpected":3566,"building":3567,"70":3568,"yed":3569,"stood":3570,"oooo":3571,"whose":3572,"discover":3573,"lacking":3574,"humanity":3575,"members":3576,"acc":3577,"insult":3578,"onic":3579,"delight":3580,"iny":3581,"sw":3582,"loss":3583,"mally":3584,"phen":3585,"answ":3586,"AND":3587,"favourit":3588,"Absolutely":3589,"bs":3590,"values":3591,"spoilers":3592,"techno":3593,"grab":3594,"60":3595,"formation":3596,"anime":3597,"een":3598,"folks":3599,"changes":3600,"dimensional":3601,"Jenn":3602,"gic":3603,"Brad":3604,"VIE":3605,"cious":3606,"suppose":3607,"Bruce":3608,"hair":3609,"loves":3610,"overrated":3611,"flict":3612,"trailers":3613,"numb":3614,"adds":3615,"stuck":3616,"teenage":3617,"Highly":3618,"remark":3619,"secre":3620,"news":3621,"captiv":3622,"SO":3623,"games":3624,"immedi":3625,"ppy":3626,"recently":3627,"constant":3628,"famous":3629,"titles":3630,"intellect":3631,"phenomen":3632,"ns":3633,"ilo":3634,"apparently":3635,"surely":3636,"beauty":3637,"Way":3638,"iced":3639,"thus":3640,"premi":3641,"sake":3642,"wasting":3643,"crimin":3644,"George":3645,"Spi":3646,"opportunity":3647,"ES":3648,"Ep":3649,"ander":3650,"faces":3651,"Would":3652,"charming":3653,"Ale":3654,"za":3655,"Captain":3656,"insul":3657,"Jennifer":3658,"Cam":3659,"Law":3660,"Mi":3661,"TO":3662,"cir":3663,"eper":3664,"unfunny":3665,"irty":3666,"apan":3667,"aware":3668,"crow":3669,"affect":3670,"afraid":3671,"street":3672,"motiv":3673,"ished":3674,"enjoying":3675,"skip":3676,"grace":3677,"indeed":3678,"niest":3679,"Bur":3680,"successful":3681,"lay":3682,"soever":3683,"loving":3684,"qual":3685,"understanding":3686,"system":3687,"da":3688,"member":3689,"rupt":3690,"tran":3691,"laughable":3692,"Sar":3693,"exper":3694,"awards":3695,"mature":3696,"putting":3697,"pleasantly":3698,"Ph":3699,"iers":3700,"ost":3701,"Director":3702,"whatsoever":3703,"Terrible":3704,"caught":3705,"fold":3706,"mbl":3707,"attempts":3708,"hom":3709,"punch":3710,"lier":3711,"Cine":3712,"carry":3713,"spec":3714,"religious":3715,"ges":3716,"prefer":3717,"courage":3718,"slowly":3719,"IC":3720,"nud":3721,"vidu":3722,"visually":3723,"fault":3724,"motion":3725,"Dr":3726,"arc":3727,"Those":3728,"recor":3729,"enced":3730,"lazy":3731,"relevant":3732,"Such":3733,"avi":3734,"van":3735,"thanks":3736,"ody":3737,"Anyway":3738,"Amazing":3739,"AC":3740,"Day":3741,"bits":3742,"fash":3743,"meets":3744,"photography":3745,"Boring":3746,"Lit":3747,"fu":3748,"reck":3749,"base":3750,"dan":3751,"blown":3752,"fascin":3753,"offic":3754,"difference":3755,"shocked":3756,"business":3757,"ilt":3758,"presented":3759,"nical":3760,"surprising":3761,"behavi":3762,"educ":3763,"met":3764,"Beaut":3765,"empty":3766,"excuse":3767,"girlfriend":3768,"frust":3769,"nomin":3770,"manages":3771,"held":3772,"Avoid":3773,"acts":3774,"overly":3775,"thrilling":3776,"drug":3777,"wars":3778,"grat":3779,"comput":3780,"succeed":3781,"individu":3782,"Frank":3783,"favourite":3784,"Bre":3785,"Ac":3786,"Jes":3787,"sucked":3788,"funniest":3789,"generally":3790,"orgeous":3791,"military":3792,"wind":3793,"explan":3794,"victim":3795,"Europe":3796,"Get":3797,"yn":3798,"ork":3799,"grew":3800,"BE":3801,"reboot":3802,"summer":3803,"ube":3804,"attract":3805,"notice":3806,"spin":3807,"creating":3808,"Jackson":3809,"wel":3810,"wall":3811,"199":3812,"Once":3813,"Russian":3814,"soap":3815,"product":3816,"deserved":3817,"explos":3818,"asha":3819,"mins":3820,"offensive":3821,"Life":3822,"appropriate":3823,"wow":3824,"forgettable":3825,"stereotypes":3826,"fashion":3827,"Japan":3828,"pse":3829,"Rock":3830,"Action":3831,"Dani":3832,"acy":3833,"Enjoy":3834,"Dra":3835,"Fun":3836,"mouth":3837,"sal":3838,"vul":3839,"outside":3840,"comics":3841,"stopped":3842,"eth":3843,"scient":3844,"vampire":3845,"aside":3846,"turning":3847,"Kid":3848,"scared":3849,"agger":3850,"wooden":3851,"control":3852,"lessly":3853,"Steve":3854,"LOVE":3855,"genuinely":3856,"facts":3857,"multiple":3858,"remote":3859,"somewhere":3860,"nudity":3861,"filming":3862,"gem":3863,"ified":3864,"sadly":3865,"popcorn":3866,"Anyone":3867,"Martin":3868,"depressing":3869,"artistic":3870,"?)":3871,"sour":3872,"intended":3873,"conflict":3874,"shocking":3875,"allowed":3876,"torture":3877,"Wonder":3878,"anted":3879,"ledge":3880,"blockbust":3881,"Ghost":3882,"century":3883,"tre":3884,"wash":3885,"personality":3886,"follows":3887,"Despite":3888,"stage":3889,"target":3890,"><":3891,"Could":3892,"Han":3893,"kish":3894,"atter":3895,"ites":3896,"asked":3897,"ID":3898,"satisfying":3899,"Sandler":3900,"ju":3901,"promising":3902,"agers":3903,"company":3904,"House":3905,"rey":3906,"immediately":3907,"Sun":3908,"mach":3909,"Angel":3910,"umbl":3911,"minator":3912,"aked":3913,"Excellent":3914,"Though":3915,"lived":3916,"logic":3917,"2nd":3918,"Sal":3919,"aga":3920,"ghost":3921,"train":3922,"bringing":3923,"pleasant":3924,"YOU":3925,"six":3926,"provoking":3927,"ague":3928,"addition":3929,"improve":3930,"gorgeous":3931,"sto":3932,"share":3933,"ademy":3934,"dance":3935,"Hol":3936,"inv":3937,"miser":3938,"cancel":3939,"praise":3940,"advert":3941,"convers":3942,"Girl":3943,"dden":3944,"sess":3945,"dete":3946,"psychological":3947,"ands":3948,"charm":3949,"singing":3950,"sister":3951,"below":3952,"nostal":3953,"grown":3954,"balance":3955,"chick":3956,"excite":3957,"pathy":3958,"AY":3959,"fab":3960,"East":3961,"ðŸ":3962,"Had":3963,"ax":3964,"lover":3965,"clean":3966,"climax":3967,"itt":3968,"def":3969,"grad":3970,"pleasure":3971,"clichés":3972,"Watching":3973,"drugs":3974,"hang":3975,"arth":3976,"yeah":3977,"grade":3978,"surprises":3979,"element":3980,"local":3981,"danger":3982,"defin":3983,"vengers":3984,"pract":3985,"impact":3986,"Am":3987,"inner":3988,"DO":3989,"Off":3990,"Tot":3991,"passion":3992,"various":3993,"MOVIE":3994,"cate":3995,"pen":3996,"wide":3997,"Juli":3998,"revol":3999,"sitcom":4000,"baby":4001,"research":4002,"unfold":4003,"assic":4004,"wont":4005,"Finally":4006,"hid":4007,"hasn":4008,"choices":4009,"Gar":4010,"remain":4011,"becoming":4012,"starting":4013,"channel":4014,"reflect":4015,"tun":4016,"Thanks":4017,"iller":4018,"position":4019,"earlier":4020,"authen":4021,"monster":4022,"achieve":4023,"abs":4024,"blind":4025,"Cra":4026,"bri":4027,"revenge":4028,"illa":4029,"ellar":4030,"placed":4031,"highlight":4032,"brilliantly":4033,"cold":4034,"ka":4035,"manner":4036,"umps":4037,"......":4038,"forever":4039,"deeply":4040,"Time":4041,"uff":4042,"ww":4043,"stret":4044,"ization":4045,"childhood":4046,"govern":4047,"suspect":4048,"45":4049,"Saw":4050,"ases":4051,"realism":4052,"80s":4053,"chase":4054,"ups":4055,"Being":4056,"humans":4057,"computer":4058,"Ray":4059,"andy":4060,"icking":4061,"pile":4062,"Does":4063,"ALL":4064,"gripping":4065,"Old":4066,"nicely":4067,"CU":4068,"gross":4069,"junk":4070,"received":4071,"ald":4072,"rock":4073,"soldiers":4074,"rob":4075,"dragged":4076,"rushed":4077,"backs":4078,"excitement":4079,"hill":4080,"rarely":4081,"va":4082,"init":4083,"onto":4084,"teenagers":4085,"planet":4086,"influ":4087,"related":4088,"majority":4089,"dig":4090,"lovely":4091,"locations":4092,"phenomenal":4093,"PO":4094,"Tor":4095,"chill":4096,"uninteresting":4097,"nobody":4098,"repetit":4099,"ugly":4100,"sudden":4101,"trick":4102,"coher":4103,"rence":4104,"Ob":4105,"ildish":4106,"serv":4107,"prison":4108,"crying":4109,"authentic":4110,"Tit":4111,"mary":4112,"suck":4113,"inese":4114,"cares":4115,"imagin":4116,"impression":4117,"loose":4118,"counter":4119,"promise":4120,"atic":4121,"cele":4122,"Turkish":4123,"fly":4124,"itive":4125,"stands":4126,"continues":4127,"Poor":4128,"ana":4129,"sli":4130,"whel":4131,"Are":4132,"Both":4133,"road":4134,"finding":4135,"network":4136,"respons":4137,"Fest":4138,"hip":4139,"trip":4140,"inspiring":4141,"realized":4142,"drink":4143,"Jon":4144,"maker":4145,"herself":4146,"philo":4147,"slap":4148,"scenario":4149,"dad":4150,"gold":4151,"irritating":4152,"fights":4153,"explained":4154,"Stephen":4155,"technology":4156,"Each":4157,"ee":4158,"ga":4159,"ilities":4160,"arent":4161,"origin":4162,"tedious":4163,"levels":4164,"Spiel":4165,"born":4166,"sequels":4167,"frank":4168,"Up":4169,"ONE":4170,"mine":4171,"rd":4172,"originality":4173,"struggle":4174,"Que":4175,"wil":4176,"information":4177,"ulous":4178,"minim":4179,"gling":4180,"Without":4181,"villains":4182,"picked":4183,"tho":4184,"stunt":4185,"amusing":4186,"sexy":4187,"aliens":4188,"quirky":4189,",,":4190,"Dam":4191,"HBO":4192,"UT":4193,"return":4194,"suspenseful":4195,"length":4196,"ahead":4197,"ruin":4198,"anticip":4199,"Ham":4200,"iet":4201,"pun":4202,"vor":4203,"chore":4204,"root":4205,"dreadful":4206,"Cage":4207,"rad":4208,"wart":4209,"surround":4210,"finds":4211,"brutal":4212,"Afric":4213,"York":4214,"advice":4215,"teens":4216,"Cast":4217,"dress":4218,"chop":4219,"childish":4220,"powers":4221,"ultimately":4222,"Have":4223,"inted":4224,"fits":4225,"wing":4226,"bigger":4227,"warming":4228,"graphics":4229,"Mag":4230,"eks":4231,"philosoph":4232,"iro":4233,"challeng":4234,"Kore":4235,"Plot":4236,"biz":4237,"thes":4238,"proves":4239,"sport":4240,"ctions":4241,"insight":4242,"cape":4243,"ki":4244,"wild":4245,"choose":4246,"anywhere":4247,"puts":4248,"Eli":4249,"Fant":4250,"Gold":4251,"Pri":4252,"Pol":4253,"aky":4254,"complic":4255,"features":4256,"religion":4257,"ints":4258,"Stre":4259,"hadn":4260,"followed":4261,"hyped":4262,"Lon":4263,"skills":4264,"safe":4265,"FX":4266,"UN":4267,"WW":4268,"rick":4269,"Fam":4270,"spl":4271,"proud":4272,"months":4273,"secret":4274,"Spielberg":4275,"Nic":4276,"RI":4277,"edy":4278,"elle":4279,"produce":4280,"normally":4281,"drivel":4282,"iff":4283,"ignore":4284,"shooting":4285,"Den":4286,"Mark":4287,"atro":4288,"adays":4289,"scars":4290,"Harry":4291,"ston":4292,"entially":4293,"charis":4294,"relat":4295,"escape":4296,"loy":4297,"nold":4298,"stayed":4299,"avail":4300,"evol":4301,"invent":4302,"commit":4303,"keeping":4304,"India":4305,"alive":4306,"shad":4307,"uncomfortable":4308,"distr":4309,"crappy":4310,"cliche":4311,"cried":4312,"fascinating":4313,"guessing":4314,"studio":4315,"Bla":4316,"Especially":4317,"whom":4318,"ples":4319,"drag":4320,"Chinese":4321,"Bas":4322,"Mal":4323,"Ram":4324,"Sy":4325,"arily":4326,"mainly":4327,"hopefully":4328,"Worst":4329,"ai":4330,"hey":4331,"plaus":4332,"amazed":4333,"producer":4334,"legend":4335,"college":4336,"Richar":4337,"opposite":4338,"Alex":4339,"Rid":4340,"kins":4341,"warm":4342,"hearted":4343,"THING":4344,"haters":4345,"Beautiful":4346,"udes":4347,"magn":4348,"presence":4349,"liberal":4350,"evid":4351,"fat":4352,"vs":4353,"deeper":4354,"000":4355,"Boy":4356,"blah":4357,"government":4358,"orm":4359,"mom":4360,"197":4361,"Yeah":4362,"itude":4363,"kets":4364,"awn":4365,"party":4366,"Bob":4367,"Gi":4368,"stink":4369,"Which":4370,"ticket":4371,"hes":4372,"theless":4373,"alle":4374,"prepare":4375,"speech":4376,"Canad":4377,"pulled":4378,"explanation":4379,"Game":4380,"Yet":4381,"thous":4382,"Sadly":4383,"Episo":4384,"ems":4385,"speaking":4386,"contains":4387,"Lots":4388,"hits":4389,"humorous":4390,"bright":4391,"erely":4392,"unting":4393,"lower":4394,"Thor":4395,"desc":4396,"Lost":4397,"hurt":4398,"ashamed":4399,"crowd":4400,"18":4401,"OF":4402,"arre":4403,"oft":4404,"sembl":4405,"Chan":4406,"creators":4407,"REAL":4408,"connected":4409,"Jess":4410,"relie":4411,"aries":4412,"compla":4413,"minis":4414,"answer":4415,"passed":4416,"driven":4417,"energy":4418,"Take":4419,"cars":4420,"edi":4421,"racist":4422,"contrived":4423,"require":4424,"Fer":4425,"ilst":4426,"filmmakers":4427,"versity":4428,"USA":4429,"Jesus":4430,"MCU":4431,"None":4432,"object":4433,"udos":4434,"Bollywood":4435,"Kate":4436,"cup":4437,"rive":4438,"animals":4439,"Robin":4440,"equally":4441,"died":4442,"preview":4443,"commun":4444,"mindless":4445,"IMDB":4446,"Austral":4447,"fal":4448,"ened":4449,"exagger":4450,"willing":4451,"critical":4452,"location":4453,"Shame":4454,"gritty":4455,"London":4456,"Part":4457,"UK":4458,"obsess":4459,"types":4460,"Characters":4461,"Japanese":4462,"mory":4463,"intent":4464,"dynam":4465,"ski":4466,"seconds":4467,"emotionally":4468,"Festival":4469,"Thom":4470,"former":4471,"wonderfully":4472,"monsters":4473,"ficial":4474,"Jur":4475,"memory":4476,"noticed":4477,"terribly":4478,"Fox":4479,"3rd":4480,"Pre":4481,"Space":4482,"food":4483,"gag":4484,"independ":4485,"standards":4486,"preach":4487,"insane":4488,"flicks":4489,"corny":4490,"eventually":4491,"brothers":4492,"intellectual":4493,"Daniel":4494,"Pi":4495,"format":4496,"witness":4497,"commercial":4498,"bought":4499,"rema":4500,"envi":4501,"drive":4502,"Khan":4503,"porn":4504,"student":4505,"rors":4506,"comparison":4507,"Hen":4508,"Sk":4509,"tight":4510,"satisfied":4511,"decision":4512,"blockbuster":4513,"Rus":4514,"cell":4515,"pal":4516,"uit":4517,"nier":4518,"Gal":4519,"stellar":4520,"cher":4521,"cock":4522,"effective":4523,"heads":4524,"Green":4525,"available":4526,"Lau":4527,"glor":4528,"paying":4529,"zzzz":4530,"trouble":4531,"bility":4532,"ima":4533,"ford":4534,"accom":4535,"phone":4536,"detective":4537,"alling":4538,"gia":4539,"hur":4540,"asp":4541,"Okay":4542,"Richard":4543,"Dep":4544,"ray":4545,"ya":4546,"chuck":4547,"conve":4548,"crafted":4549,"Since":4550,"tor":4551,"knowledge":4552,"traged":4553,"appy":4554,"scripts":4555,"Sometimes":4556,"marke":4557,"sky":4558,"focused":4559,"bloody":4560,"limited":4561,"images":4562,"parody":4563,"Hu":4564,"hon":4565,"tense":4566,"provid":4567,"execution":4568,"growing":4569,"Fl":4570,"dated":4571,"preh":4572,"service":4573,"adding":4574,"harsh":4575,"remotely":4576,"Family":4577,"Cru":4578,"blame":4579,"gut":4580,"anity":4581,"chur":4582,"belong":4583,"forgotten":4584,"198":4585,"satire":4586,"desperate":4587,"Ru":4588,"itional":4589,"exic":4590,"understood":4591,"pair":4592,"Max":4593,"liners":4594,"bore":4595,"White":4596,"politically":4597,"falling":4598,"footage":4599,"bottom":4600,"dancing":4601,"Mac":4602,"Mexic":4603,"lacked":4604,"weekend":4605,"idiots":4606,"Alien":4607,"Williams":4608,"frankly":4609,"Abra":4610,"enter":4611,"painfully":4612,"install":4613,"Little":4614,"25":4615,"Mary":4616,"Person":4617,"bian":4618,"saved":4619,"named":4620,"massive":4621,"Probably":4622,"coherent":4623,"environ":4624,"Amy":4625,"Iron":4626,"hh":4627,"zil":4628,"lovers":4629,"nowadays":4630,"mysterious":4631,"Plus":4632,"bizarre":4633,"****":4634,"frame":4635,"Ir":4636,"LA":4637,"WH":4638,"xious":4639,"threat":4640,"IG":4641,"Steven":4642,"captivating":4643,"Pan":4644,"South":4645,"cash":4646,"Their":4647,"opera":4648,"green":4649,"capable":4650,"portraying":4651,"anybody":4652,"Keep":4653,"families":4654,"14":4655,"Earth":4656,"Oscars":4657,"Rose":4658,"anu":4659,"proved":4660,"Mir":4661,"zen":4662,"lol":4663,"lighting":4664,"lady":4665,"extraordinary":4666,"oul":4667,"superior":4668,"biased":4669,"accompl":4670,"store":4671,"reviewer":4672,"Watched":4673,"Vis":4674,"addict":4675,"tire":4676,"ificent":4677,"source":4678,"City":4679,"Hel":4680,"La":4681,"cable":4682,"prequ":4683,"binge":4684,"sta":4685,"weight":4686,"author":4687,"Terminator":4688,"................":4689,"investig":4690,"Hopefully":4691,"remarkable":4692,"GE":4693,"trek":4694,"fairy":4695,"Actually":4696,"Cameron":4697,"ena":4698,"funnier":4699,"minded":4700,"covery":4701,"Guy":4702,"Cle":4703,"demon":4704,"community":4705,"subtitles":4706,"stupidity":4707,"gging":4708,"winning":4709,"explosions":4710,"16":4711,"Cha":4712,"Pac":4713,"Witch":4714,"cow":4715,"text":4716,"corpor":4717,"interpret":4718,"Johnny":4719,"complicated":4720,"UST":4721,"devil":4722,"finale":4723,"timing":4724,"ipul":4725,"appealing":4726,"Avengers":4727,"Jane":4728,"gate":4729,"accents":4730,"streng":4731,"shadow":4732,"Kat":4733,"fing":4734,"built":4735,"generic":4736,"undred":4737,"embarrassing":4738,"Again":4739,"ben":4740,"kno":4741,"anal":4742,"helped":4743,"exceptional":4744,"Otherwise":4745,"plausible":4746,"BBC":4747,"Naz":4748,"boo":4749,"glo":4750,"Johnson":4751,"appearance":4752,"guns":4753,"West":4754,"national":4755,"heal":4756,"helps":4757,"alloween":4758,"decisions":4759,"Lord":4760,"Pix":4761,"Van":4762,"rig":4763,"depi":4764,"friendship":4765,"topic":4766,"rolling":4767,"collection":4768,"raw":4769,"insulting":4770,"Jessica":4771,"hr":4772,"compe":4773,"minds":4774,"technical":4775,"idiotic":4776,"virt":4777,"circ":4778,"Jurassic":4779,"useless":4780,"vate":4781,"ency":4782,"unwatchable":4783,"bute":4784,"Movies":4785,"holds":4786,"burn":4787,"Hell":4788,"mble":4789,"irth":4790,"arts":4791,"racism":4792,"mare":4793,"asking":4794,"via":4795,"goof":4796,"manipul":4797,"dramas":4798,"festival":4799,"combination":4800,"repetitive":4801,"zon":4802,"ablish":4803,"intention":4804,"urs":4805,"prote":4806,"steal":4807,"decade":4808,"ders":4809,"process":4810,"homo":4811,"busters":4812,"attractive":4813,"fabulous":4814,"ja":4815,"statement":4816,"Brazil":4817,"qualities":4818,"Must":4819,"TR":4820,"nation":4821,"saga":4822,"rell":4823,"argu":4824,"thoughts":4825,"umbs":4826,"behavior":4827,"Pal":4828,"Pitt":4829,"hundred":4830,"appla":4831,"sterday":4832,"experienced":4833,"lucky":4834,"web":4835,"messages":4836,"meaningful":4837,"latest":4838,"WAT":4839,"nal":4840,"chos":4841,"quiet":4842,"ograph":4843,"Seth":4844,"Trump":4845,"Joe":4846,"Second":4847,"portrays":4848,"tragedy":4849,"fright":4850,"door":4851,"believ":4852,"suffer":4853,"vit":4854,"saving":4855,"price":4856,"Allen":4857,"occur":4858,"commentary":4859,"breathtaking":4860,"Wa":4861,"athe":4862,"endless":4863,"spy":4864,"creativity":4865,"regular":4866,"nominated":4867,"gratuit":4868,"NY":4869,"Ron":4870,"Bay":4871,"establish":4872,"changing":4873,"Episode":4874,"false":4875,"ara":4876,"evening":4877,"supernatural":4878,"boredom":4879,"learned":4880,"remains":4881,"Cor":4882,"Jud":4883,"Much":4884,"vast":4885,"stated":4886,"deter":4887,"serial":4888,"failure":4889,"fet":4890,"Sarah":4891,"cise":4892,"oper":4893,"fix":4894,"strongly":4895,"Come":4896,"meta":4897,"depart":4898,"dislike":4899,"blowing":4900,"relatable":4901,"Henry":4902,"manage":4903,"achel":4904,"24":4905,"ggling":4906,"asing":4907,"compet":4908,"disagree":4909,"ignor":4910,"appreciated":4911,"bearable":4912,"Ba":4913,"bound":4914,"tend":4915,"\")":4916,"Mid":4917,"resol":4918,"posed":4919,"warned":4920,"corrupt":4921,"twisted":4922,"signific":4923,"introduced":4924,"AW":4925,"OO":4926,"rul":4927,"unknown":4928,"opt":4929,"Anna":4930,"brief":4931,"Nol":4932,"Nice":4933,"organ":4934,"itation":4935,"umped":4936,"Uni":4937,"Halloween":4938,"Lars":4939,"PC":4940,"park":4941,"indul":4942,"capture":4943,"Hun":4944,"jer":4945,"foreign":4946,"cruel":4947,"besides":4948,"physical":4949,"Academy":4950,"weeks":4951,"Harris":4952,"Kill":4953,"Pret":4954,"drun":4955,"shine":4956,"offers":4957,"Brilliant":4958,"attack":4959,"eat":4960,"ration":4961,"stic":4962,"iles":4963,"(\"":4964,"IF":4965,"Nick":4966,"dare":4967,"melo":4968,"appeared":4969,"edited":4970,"vibe":4971,"omination":4972,"ading":4973,"clue":4974,"ception":4975,"sentiment":4976,"skin":4977,"zombies":4978,"innocent":4979,"Krist":4980,"cgi":4981,"ooper":4982,"survive":4983,"Better":4984,"Personally":4985,"Ty":4986,"mill":4987,"tive":4988,"provide":4989,"angle":4990,"tural":4991,"destroyed":4992,"aven":4993,"somebody":4994,"context":4995,"broken":4996,"Stewart":4997,"Trans":4998,"Woody":4999,"independent":5000,"edom":5001,"beth":5002,"contem":5003,"discuss":5004,"premiere":5005,"HA":5006,"offended":5007,"halfway":5008,"suffering":5009,"Pixar":5010,"crude":5011,"Matt":5012,"Sher":5013,"gle":5014,"mild":5015,"nut":5016,"sides":5017,"tt":5018,"Charlie":5019,"vulgar":5020,"shar":5021,"everywhere":5022,"iest":5023,"lesson":5024,"magical":5025,"Writ":5026,"Your":5027,"lust":5028,"sight":5029,"perfection":5030,"mainstream":5031,"teenager":5032,"accident":5033,"Office":5034,"Hill":5035,"neigh":5036,"Str":5037,"peace":5038,"seemingly":5039,"----":5040,"captured":5041,"mistakes":5042,"involving":5043,"Horrible":5044,"numbers":5045,"EL":5046,"gal":5047,"rina":5048,"flop":5049,"runs":5050,"Perfect":5051,"repeated":5052,"Music":5053,"Bel":5054,"Full":5055,"Run":5056,"hearing":5057,"Int":5058,"sheer":5059,"hoped":5060,"dollars":5061,"relief":5062,"gratuitous":5063,"itions":5064,"ady":5065,"asty":5066,"ache":5067,"begins":5068,"winner":5069,"dealing":5070,".,":5071,"Gra":5072,"nic":5073,"factor":5074,"assume":5075,"magnificent":5076,"Frid":5077,"rix":5078,"feat":5079,"idiot":5080,"horribly":5081,"fare":5082,"lax":5083,"tack":5084,"scripted":5085,"ANY":5086,"Awful":5087,"suddenly":5088,"dirty":5089,"nes":5090,"tons":5091,"army":5092,"irk":5093,"expectation":5094,"underrated":5095,"waited":5096,"curious":5097,"chose":5098,"calling":5099,"fortunate":5100,"Luke":5101,"stereotypical":5102,"cris":5103,"anne":5104,"altern":5105,"Chuck":5106,"formers":5107,"combined":5108,"consistent":5109,"whelming":5110,"flo":5111,"wreck":5112,"ators":5113,"Ford":5114,"credible":5115,"Christop":5116,"WATCH":5117,"Niro":5118,"sin":5119,"ann":5120,"rian":5121,"necessarily":5122,"gender":5123,"stom":5124,"lied":5125,"ishing":5126,"began":5127,"inosa":5128,"Worth":5129,"Enter":5130,"Ka":5131,"hide":5132,"agent":5133,"yesterday":5134,"tragic":5135,"2019":5136,"thrillers":5137,"196":5138,"tedly":5139,"meaningless":5140,"imaginative":5141,"marketing":5142,"lon":5143,"ued":5144,"pictures":5145,"broad":5146,"profound":5147,"millions":5148,"bag":5149,"indie":5150,"iling":5151,"starring":5152,"delivery":5153,"About":5154,"repeat":5155,"controvers":5156,"concerned":5157,"Abrams":5158,"depiction":5159,"Mars":5160,"Und":5161,"yr":5162,"cha":5163,"compreh":5164,"plane":5165,"camp":5166,"Horror":5167,"Obvious":5168,"99":5169,"Sky":5170,"pity":5171,"paper":5172,"ville":5173,"17":5174,"Ken":5175,"Knight":5176,"Pot":5177,"outs":5178,"olf":5179,"pati":5180,"dreams":5181,"card":5182,"students":5183,"Truly":5184,"Miss":5185,"Oli":5186,"Pho":5187,"TER":5188,"incre":5189,"issa":5190,"ende":5191,"icle":5192,"pleased":5193,"complaining":5194,"Lawrence":5195,"Eastwood":5196,"uel":5197,"maint":5198,"colour":5199,"Christopher":5200,"App":5201,"fy":5202,"resul":5203,"plete":5204,"prin":5205,"record":5206,"machine":5207,"Fantastic":5208,"chosen":5209,"BUT":5210,"forgot":5211,"ortion":5212,"Comedy":5213,"Friday":5214,"ners":5215,"lam":5216,"comparing":5217,"memories":5218,"screaming":5219,"hidden":5220,"Back":5221,"Sta":5222,"loo":5223,"rous":5224,"relax":5225,"prove":5226,"served":5227,"guarant":5228,"image":5229,"oman":5230,"user":5231,"include":5232,"costs":5233,"Ig":5234,"vides":5235,"doctor":5236,"cases":5237,"figured":5238,"expression":5239,"Free":5240,"Vin":5241,"nap":5242,"trend":5243,"disbelief":5244,"voices":5245,"Almost":5246,"Sur":5247,"bon":5248,"bang":5249,"jay":5250,"worry":5251,"answers":5252,"pray":5253,"accu":5254,"circum":5255,"thro":5256,"reaction":5257,"liking":5258,"shaky":5259,"heck":5260,"everyday":5261,"treated":5262,"environment":5263,"maintain":5264,"hating":5265,"resembl":5266,"orable":5267,"abor":5268,"ift":5269,"upset":5270,"hole":5271,"blue":5272,"izes":5273,"illion":5274,"Du":5275,"dom":5276,"lor":5277,"Ital":5278,"serve":5279,"!!!!!":5280,"leader":5281,"bothered":5282,"apocal":5283,"Mer":5284,"wis":5285,"remakes":5286,"associ":5287,"youth":5288,"finest":5289,"prepared":5290,"Long":5291,"Rachel":5292,"andon":5293,"toler":5294,"spending":5295,"spoiler":5296,"ountain":5297,"stunts":5298,"Bes":5299,"Hop":5300,"Joker":5301,"attitude":5302,"syn":5303,"annoyed":5304,"angles":5305,"Lucas":5306,"expressions":5307,"True":5308,"Queen":5309,"BT":5310,"gru":5311,"deb":5312,"tear":5313,"Someone":5314,"freedom":5315,"handed":5316,"Spiderman":5317,"Lyn":5318,"MA":5319,"Top":5320,"switch":5321,"asure":5322,"previews":5323,"therefore":5324,"clothes":5325,"tonight":5326,"Battle":5327,"criticism":5328,"stomach":5329,"Min":5330,"OD":5331,"escap":5332,"buff":5333,"feminist":5334,"stretch":5335,"Sil":5336,"Wall":5337,"tripe":5338,"Sus":5339,"jointed":5340,"vari":5341,"nostalgia":5342,"RA":5343,"Twil":5344,"llen":5345,"cops":5346,"individual":5347,"Obviously":5348,"ano":5349,"classics":5350,"Unlike":5351,"experiences":5352,"ichol":5353,"roller":5354,"flawless":5355,"Basically":5356,"icide":5357,"forth":5358,"rog":5359,"handle":5360,"hyster":5361,"Fr":5362,"demo":5363,"expl":5364,"desire":5365,"nightmare":5366,"2018":5367,"Superman":5368,"Twilight":5369,"Res":5370,"Val":5371,"ey":5372,"sole":5373,"phy":5374,"relative":5375,"THAT":5376,"included":5377,"struggles":5378,"flashbacks":5379,"circumst":5380,"Bul":5381,"Rick":5382,"Shi":5383,"hall":5384,"ji":5385,"Asian":5386,"internet":5387,"Blood":5388,"African":5389,"Nichol":5390,"rely":5391,"whilst":5392,"heavi":5393,"provides":5394,"guest":5395,"market":5396,"Breaking":5397,"welcome":5398,"hun":5399,"enge":5400,"central":5401,"sensitive":5402,"Rod":5403,"uous":5404,"indu":5405,"agre":5406,"landsc":5407,"fictional":5408,"strength":5409,"ION":5410,"SR":5411,"bond":5412,"online":5413,"noon":5414,"Sean":5415,"opinions":5416,"captures":5417,"occasion":5418,"installment":5419,"poster":5420,"speed":5421,"Jeff":5422,"embarrassed":5423,"Check":5424,"Melissa":5425,"rant":5426,"vy":5427,"uted":5428,"inte":5429,"Stone":5430,"darker":5431,"Willis":5432,"demand":5433,"slapstick":5434,"PLE":5435,"cook":5436,"mend":5437,"skept":5438,"unusual":5439,"noxious":5440,"blat":5441,"Phil":5442,"category":5443,"gags":5444,"vac":5445,"lif":5446,"racial":5447,"losing":5448,"udd":5449,"creates":5450,"creatures":5451,"VERY":5452,"Ghostbusters":5453,"atives":5454,"shines":5455,"artist":5456,"ousy":5457,"oles":5458,"giant":5459,"Ree":5460,"Rey":5461,"colors":5462,"engaged":5463,"bbed":5464,"countries":5465,"acceptable":5466,"Looking":5467,"Paris":5468,"Gib":5469,"hab":5470,"squ":5471,"debut":5472,"flawed":5473,"Del":5474,"Kudos":5475,"PG":5476,"feed":5477,"weap":5478,"Complete":5479,"cultural":5480,"Ap":5481,"San":5482,"batt":5483,"tast":5484,"ifi":5485,"Stan":5486,"excess":5487,"decades":5488,"techni":5489,"properly":5490,"benef":5491,"Pretty":5492,"Jam":5493,"pecial":5494,"onsens":5495,"cliches":5496,"currently":5497,"invested":5498,"''":5499,"fif":5500,"gin":5501,"pool":5502,"zilla":5503,"scale":5504,"sacri":5505,"warn":5506,"efforts":5507,"Bef":5508,"Dou":5509,"Gen":5510,"Rog":5511,"bab":5512,"page":5513,"otten":5514,"spider":5515,"touches":5516,"Emma":5517,"Fire":5518,"Has":5519,"Moo":5520,"dinosa":5521,"gment":5522,"soft":5523,"intrigue":5524,"SEE":5525,"Patrick":5526,"Before":5527,"candy":5528,"disjointed":5529,"brave":5530,"struggling":5531,"miserably":5532,"UL":5533,"ko":5534,"Think":5535,"iring":5536,"performed":5537,"coaster":5538,"Death":5539,"tickets":5540,"study":5541,"Eliza":5542,"atrocious":5543,"Nolan":5544,"Brie":5545,"asher":5546,"ram":5547,"viewed":5548,"described":5549,"Wilson":5550,"Moore":5551,"Billy":5552,"lection":5553,"hack":5554,"function":5555,"Clint":5556,"Mike":5557,"NE":5558,"Pic":5559,"stone":5560,"bell":5561,"oph":5562,"perform":5563,"downhill":5564,"Keanu":5565,"dangerous":5566,"Totally":5567,"Korean":5568,"BLE":5569,"Satur":5570,"itiz":5571,"shall":5572,"Christians":5573,"cancelled":5574,"Jedi":5575,"bank":5576,"sey":5577,"warning":5578,"Anne":5579,"Something":5580,"Russell":5581,"Cons":5582,"rout":5583,"erous":5584,"Things":5585,"obnoxious":5586,"lights":5587,"spoof":5588,"importantly":5589,"sophistic":5590,"depicted":5591,"Murphy":5592,"aimed":5593,"Gree":5594,"Orig":5595,"sun":5596,"inct":5597,"iled":5598,"Funny":5599,"heavily":5600,"Cla":5601,"Hugh":5602,"Waste":5603,"ato":5604,"edgy":5605,"veh":5606,"ado":5607,"maid":5608,"assion":5609,"rights":5610,"address":5611,"Perry":5612,"Danny":5613,"ILL":5614,"Kristen":5615,"Under":5616,"DE":5617,"rat":5618,"tial":5619,"pretend":5620,"prior":5621,"patri":5622,"Au":5623,"Hitch":5624,"Pow":5625,"Tri":5626,"fed":5627,"urge":5628,"horrend":5629,"Real":5630,"stays":5631,"sharp":5632,"Gibson":5633,"Woman":5634,"robot":5635,"psych":5636,"amateurish":5637,"criminal":5638,"onsensical":5639,"Fu":5640,"Right":5641,"TF":5642,"WO":5643,"unoriginal":5644,"ption":5645,"Special":5646,"link":5647,"send":5648,"thumbs":5649,"ghter":5650,"rio":5651,"umber":5652,"blew":5653,"amazingly":5654,"Leon":5655,"Arth":5656,"intrigued":5657,"traditional":5658,"protect":5659,"Evil":5660,"bow":5661,"gas":5662,"intens":5663,"arted":5664,"boss":5665,"cameos":5666,"Simply":5667,"bill":5668,"spre":5669,"ops":5670,"twenty":5671,"sett":5672,"!!!!!!!!":5673,"Saturday":5674,"Imag":5675,"Try":5676,"edit":5677,"separ":5678,"cancer":5679,"Inter":5680,"Force":5681,"popul":5682,"Should":5683,"sexuality":5684,"canceled":5685,"rules":5686,"fle":5687,"forces":5688,"irm":5689,"contra":5690,"wearing":5691,"quit":5692,"proof":5693,"brand":5694,"talks":5695,"caric":5696,"Actors":5697,"double":5698,"spoiled":5699,"believably":5700,"Bor":5701,"Kar":5702,"sle":5703,"thew":5704,"aron":5705,"hash":5706,"rush":5707,"visit":5708,"creation":5709,"generous":5710,"driving":5711,"slasher":5712,"responsible":5713,"church":5714,"flying":5715,"noir":5716,"worthwhile":5717,"struction":5718,"boyfriend":5719,"existence":5720,"representation":5721,"arently":5722,"Na":5723,"merely":5724,"nia":5725,"nasty":5726,"auto":5727,"drags":5728,"talents":5729,"allows":5730,"supposedly":5731,"scores":5732,"Godzilla":5733,"touched":5734,"Carthy":5735,"Add":5736,"GRE":5737,"Hero":5738,"Te":5739,"sar":5740,"essence":5741,"gotta":5742,"stereoty":5743,"thusi":5744,"Fred":5745,"Rating":5746,"SU":5747,"naked":5748,"skill":5749,"versions":5750,"summary":5751,"convinced":5752,"required":5753,"Roman":5754,"Besides":5755,"Zomb":5756,"lift":5757,"outing":5758,"dialogs":5759,"Ignore":5760,"Cr":5761,"lately":5762,"wra":5763,"mob":5764,"afternoon":5765,"stume":5766,"crash":5767,"***":5768,"McCarthy":5769,"Sunday":5770,"Home":5771,"Ky":5772,"List":5773,"gig":5774,"stat":5775,"rival":5776,"cameo":5777,"Series":5778,"reference":5779,"regarding":5780,"answered":5781,"Reeves":5782,"></":5783,"Ca":5784,"Jer":5785,"Produ":5786,"enix":5787,"compan":5788,"JJ":5789,"Sing":5790,"yer":5791,"didnt":5792,"married":5793,"????":5794,"provided":5795,"Bu":5796,"CK":5797,"shut":5798,"unbearable":5799,"scr":5800,"aston":5801,"worried":5802,"quot":5803,"makeup":5804,"productions":5805,"rolls":5806,"transl":5807,"speaks":5808,"Morgan":5809,"European":5810,"Potter":5811,"eight":5812,"formed":5813,"deals":5814,"basis":5815,"terrifying":5816,"regardless":5817,"Amazon":5818,"Depp":5819,"PE":5820,"fles":5821,"mate":5822,"andering":5823,"bles":5824,"personalities":5825,"Thrones":5826,"victims":5827,"competent":5828,"Lynch":5829,"BAD":5830,"nonsensical":5831,"poo":5832,"pointed":5833,"identity":5834,"movement":5835,"existent":5836,"Canadian":5837,"PS":5838,"Vo":5839,"reminis":5840,"river":5841,"fellow":5842,"conversation":5843,"Australian":5844,"circumstances":5845,"BI":5846,"Sound":5847,"brit":5848,"exceed":5849,"overdone":5850,"disgrace":5851,"steals":5852,"carried":5853,"covered":5854,"breaks":5855,"sympathy":5856,"voted":5857,"revealed":5858,"tremend":5859,"celebr":5860,"Dar":5861,"kin":5862,"ls":5863,"sinc":5864,"diversity":5865,"finity":5866,"dying":5867,"Arnold":5868,"rolled":5869,"Awesome":5870,"90s":5871,"Make":5872,"dama":5873,"ambit":5874,"tie":5875,"goers":5876,"spark":5877,"matters":5878,"Larson":5879,"contrast":5880,"caricature":5881,"CW":5882,"Scre":5883,"__":5884,"plo":5885,"aks":5886,"Howard":5887,"cording":5888,"earned":5889,"ANT":5890,"innov":5891,"homage":5892,"poign":5893,"imagery":5894,"EVERY":5895,"challenge":5896,"drunk":5897,"Elizabeth":5898,"CI":5899,"Cooper":5900,"Jake":5901,"ura":5902,"isher":5903,"ensemble":5904,"cuts":5905,"applaud":5906,"Ant":5907,"Lou":5908,"Next":5909,"gree":5910,"pred":5911,"producing":5912,"caring":5913,"clichéd":5914,"contribut":5915,"descript":5916,"Apparently":5917,"RO":5918,"pit":5919,"esque":5920,"Reg":5921,"naive":5922,"Apart":5923,"pic":5924,"ancy":5925,"reward":5926,"enthusi":5927,"alright":5928,"whats":5929,"greatly":5930,"mini":5931,"Josh":5932,"risk":5933,"campy":5934,"favorites":5935,"explic":5936,"horrific":5937,"fooled":5938,"pushing":5939,"bull":5940,"erie":5941,"unpredictable":5942,"lessons":5943,"dude":5944,"precious":5945,"historically":5946,"introduction":5947,"Julia":5948,"Baby":5949,"blast":5950,"toi":5951,"west":5952,"indic":5953,"partner":5954,"compelled":5955,"kinds":5956,"topics":5957,"puzz":5958,"Cinemat":5959,"Brid":5960,"Mind":5961,"Sw":5962,"Tony":5963,"dar":5964,"ease":5965,"inn":5966,"seven":5967,"essentially":5968,"enjoyment":5969,"resident":5970,"elect":5971,"numerous":5972,"ladies":5973,"jumping":5974,"Phoenix":5975,"Jamie":5976,"Dog":5977,"zel":5978,"lem":5979,"sees":5980,"beloved":5981,"adm":5982,"rain":5983,"fee":5984,"ptic":5985,"facial":5986,"crack":5987,"Discovery":5988,"Michelle":5989,"England":5990,"designed":5991,"survival":5992,"charisma":5993,"exaggerated":5994,"Pict":5995,"Bird":5996,"area":5997,"faced":5998,"olds":5999,"originals":6000,"downright":6001,"Hey":6002,"destro":6003,"continued":6004,"Fiction":6005,"Picard":6006,"attr":6007,"cials":6008,"thrills":6009,"males":6010,"holding":6011,"listening":6012,"ibility":6013,"emphas":6014,"REALLY":6015,"bic":6016,"replace":6017,"trop":6018,"glued":6019,"builds":6020,"prime":6021,"swearing":6022,"Jean":6023,"dropped":6024,"loyal":6025,"horrendous":6026,"Ash":6027,"dys":6028,"island":6029,"abuse":6030,"filmmaker":6031,"Stay":6032,"costume":6033,"porary":6034,"closer":6035,"Matrix":6036,"Dial":6037,"Hanks":6038,"Nat":6039,"Tal":6040,"resc":6041,"consc":6042,"igno":6043,"trave":6044,"Leg":6045,"protagonists":6046,"dynamic":6047,"skeptical":6048,"Lady":6049,"Spe":6050,"Same":6051,"Stop":6052,"awe":6053,"anish":6054,"toward":6055,"usive":6056,"handled":6057,"woke":6058,"incident":6059,"goofy":6060,"intensity":6061,"Cent":6062,"NG":6063,"TS":6064,"eager":6065,"ws":6066,"vili":6067,"Three":6068,"ogical":6069,"bitter":6070,"creature":6071,"cartoons":6072,"Didn":6073,"Arthur":6074,"Hist":6075,"holi":6076,"tribute":6077,"minimum":6078,"GREAT":6079,"++":6080,"70s":6081,"LD":6082,"birth":6083,"veter":6084,"ridiculously":6085,"equal":6086,"sympathetic":6087,"juven":6088,"Thomas":6089,"flesh":6090,"DON":6091,"SG":6092,"Scar":6093,"gam":6094,"snow":6095,"conserv":6096,"blend":6097,"narration":6098,"Freeman":6099,"Haw":6100,"NBC":6101,"ored":6102,"Noah":6103,"friendly":6104,"Cruise":6105,"Made":6106,"arti":6107,"ketch":6108,"initial":6109,"hunt":6110,"forms":6111,"bodies":6112,"brick":6113,".......":6114,"steam":6115,"animal":6116,"2017":6117,"teacher":6118,"fetched":6119,"\"?":6120,"Ak":6121,"Iran":6122,"Ku":6123,"Ms":6124,"XX":6125,"orter":6126,"club":6127,"superficial":6128,"daily":6129,"Street":6130,"thony":6131,"elly":6132,"outrage":6133,"irt":6134,"border":6135,"reasonable":6136,"formulaic":6137,"Matthew":6138,"complaint":6139,"competit":6140,"metaph":6141,"mildly":6142,"toilet":6143,"KE":6144,"tly":6145,"stain":6146,"haunting":6147,"feet":6148,"buying":6149,"affair":6150,"continuity":6151,"conversations":6152,"robots":6153,"Pacino":6154,"Got":6155,"rise":6156,"riage":6157,"horse":6158,"bled":6159,"Eddie":6160,"experiment":6161,"absor":6162,"influence":6163,"Clo":6164,"Half":6165,"rough":6166,"stress":6167,"omed":6168,"ques":6169,"checking":6170,"carries":6171,"paralle":6172,"Roy":6173,"marks":6174,"Quite":6175,"Brothers":6176,"structure":6177,"frustrating":6178,"Transformers":6179,"Cinematography":6180,"Hall":6181,"Ros":6182,"cket":6183,"report":6184,"icip":6185,"convent":6186,"court":6187,"purely":6188,"football":6189,"Bravo":6190,"Mil":6191,"Swed":6192,"cies":6193,"tick":6194,"construct":6195,"Anderson":6196,"dramat":6197,"Forget":6198,"Anthony":6199,"cutting":6200,"spoken":6201,"alike":6202,"remembered":6203,"netflix":6204,"OME":6205,"pseudo":6206,":/":6207,"Hot":6208,"Plan":6209,"eating":6210,"nause":6211,"ole":6212,"rep":6213,"ilty":6214,"Alan":6215,"valu":6216,"includes":6217,"HOW":6218,"Salman":6219,"department":6220,"Crow":6221,"Down":6222,"Fast":6223,"Tay":6224,"illogical":6225,"lovable":6226,"Unless":6227,"clichÃ":6228,"Shakes":6229,"settings":6230,"mesmer":6231,"Ridley":6232,"Imagine":6233,"Jen":6234,"Jord":6235,"lousy":6236,"cia":6237,"pson":6238,"sadness":6239,"Disappoint":6240,"immers":6241,"drinking":6242,"Italian":6243,"Ted":6244,"arter":6245,"shark":6246,"comical":6247,"ief":6248,"brow":6249,"Western":6250,"heartwarming":6251,"month":6252,"North":6253,"Burton":6254,"specific":6255,"Hitchcock":6256,"Kim":6257,"Mis":6258,"bath":6259,"gor":6260,"glim":6261,"mu":6262,"aded":6263,"abilities":6264,"ceive":6265,"trite":6266,"highest":6267,"lesbian":6268,"glass":6269,"collect":6270,"commercials":6271,"interpretation":6272,"battles":6273,"Dor":6274,"Whe":6275,"WOR":6276,"nit":6277,"oe":6278,"encourage":6279,"unlikable":6280,"amir":6281,"isters":6282,"interaction":6283,"arrow":6284,"ACT":6285,"eson":6286,"frequ":6287,"rented":6288,"Carrey":6289,"Spanish":6290,"SH":6291,"Wat":6292,"vague":6293,"shop":6294,"eland":6295,"raised":6296,"thern":6297,"Luc":6298,"pulls":6299,"agreed":6300,"Fre":6301,"FOR":6302,"Gy":6303,"recall":6304,"captain":6305,"legal":6306,"Cost":6307,"recognize":6308,"window":6309,"Craig":6310,"lifting":6311,"reminiscent":6312,"Bang":6313,"jumps":6314,"filler":6315,"degree":6316,"wear":6317,"goal":6318,"arded":6319,"borrow":6320,"Recommend":6321,"fallen":6322,"concepts":6323,"communic":6324,"poignant":6325,"Cong":6326,"blo":6327,"dd":6328,"gn":6329,"rop":6330,"vity":6331,"omy":6332,"outcome":6333,"term":6334,"Seems":6335,"favour":6336,"Holmes":6337,"Damon":6338,"sophisticated":6339,"Original":6340,"abortion":6341,"display":6342,"particip":6343,"udic":6344,"genres":6345,"Parker":6346,"nailed":6347,"scientific":6348,"distracting":6349,"SRK":6350,"Shakespe":6351,"AST":6352,"Ever":6353,"umph":6354,"credibility":6355,"dollar":6356,"senseless":6357,"Wayne":6358,"Er":6359,"nically":6360,"unable":6361,"greater":6362,"reviewed":6363,"lifetime":6364,"possess":6365,"expensive":6366,"desperately":6367,"Blair":6368,"CE":6369,"Care":6370,"bum":6371,"alco":6372,"meh":6373,"unfortunate":6374,"picks":6375,"nails":6376,"ignorant":6377,".'":6378,"Dun":6379,"Fall":6380,"Gener":6381,"Ul":6382,"mut":6383,"tham":6384,"arrog":6385,"rave":6386,"concent":6387,"tea":6388,"awa":6389,"advanced":6390,"Interest":6391,"juvenile":6392,"Cli":6393,"CBS":6394,"Lind":6395,"Ver":6396,"Washing":6397,"WAY":6398,"tour":6399,"apes":6400,"serves":6401,"angers":6402,"engross":6403,"grave":6404,"ultimate":6405,"Pen":6406,"Ren":6407,"vince":6408,"wick":6409,"chap":6410,"acle":6411,"thoughtful":6412,"empathy":6413,"NOTHING":6414,"significant":6415,"option":6416,"WOW":6417,"):":6418,"Greg":6419,"MI":6420,"aqu":6421,"realise":6422,"brilli":6423,"soldier":6424,"depicts":6425,"accomplish":6426,"Av":6427,"Hit":6428,"Rep":6429,"Slow":6430,"redu":6431,"assa":6432,"model":6433,"ilton":6434,"ables":6435,"ifically":6436,"195":6437,"morning":6438,"advise":6439,"thousands":6440,"Wait":6441,"Sherlock":6442,"Washington":6443,"Bot":6444,"sor":6445,"soo":6446,"isms":6447,"atar":6448,"adorable":6449,"unbelievably":6450,"backdrop":6451,"letting":6452,"bbing":6453,"novels":6454,"silent":6455,"tune":6456,"Based":6457,"Die":6458,"Fan":6459,"Miller":6460,"MUST":6461,"mile":6462,"watches":6463,"dogs":6464,"ourne":6465,"awake":6466,"Remember":6467,"enemy":6468,"Cinema":6469,"officer":6470,"obsessed":6471,"\"...":6472,"Light":6473,"fish":6474,"sne":6475,"inch":6476,"tied":6477,"bucks":6478,"darkness":6479,"Except":6480,"focuses":6481,"miserable":6482,"250":6483,"Bell":6484,"Gl":6485,"Master":6486,"Our":6487,"bie":6488,"gap":6489,"racy":6490,"intro":6491,"civili":6492,"talked":6493,"treatment":6494,"Direction":6495,"Character":6496,"frightening":6497,"guarantee":6498,"relatively":6499,"FBI":6500,"bashing":6501,"mic":6502,"sque":6503,"ept":6504,"mans":6505,"cient":6506,"cared":6507,"pushed":6508,"passes":6509,"Whoever":6510,"mbol":6511,"umbling":6512,"requires":6513,"Irish":6514,"prequel":6515,"knock":6516,"Sab":6517,"soooo":6518,"sketch":6519,"ita":6520,"filmmaking":6521,"ourselves":6522,"spital":6523,"surreal":6524,"akens":6525,"balanced":6526,"2016":6527,"Viet":6528,"gangster":6529,"Endgame":6530,"motivation":6531,"determin":6532,"Jordan":6533,"ABC":6534,"Dol":6535,"revel":6536,"sea":6537,"adap":6538,"enjoys":6539,"rule":6540,"ashed":6541,"extent":6542,"cliff":6543,"balls":6544,"Through":6545,"Flash":6546,"udicrous":6547,"brilliance":6548,"ego":6549,"uninspired":6550,"lore":6551,"artsy":6552,"whoever":6553,"mentally":6554,"offered":6555,"simpl":6556,"martial":6557,"Doctor":6558,"occasional":6559,"thology":6560,"Universe":6561,"contemporary":6562,"Les":6563,"aired":6564,"pup":6565,"rical":6566,"goodness":6567,"inder":6568,"---":6569,"delightful":6570,"individuals":6571,"choreography":6572,"evidence":6573,"scratch":6574,"Hul":6575,"IQ":6576,"latter":6577,"orient":6578,"ideo":6579,"condition":6580,"sounded":6581,"Anim":6582,"symbol":6583,"delivering":6584,"surrounding":6585,"Nazi":6586,"Shakespeare":6587,"ov":6588,"anic":6589,"icles":6590,"shell":6591,"likeable":6592,"loses":6593,"guilty":6594,"bold":6595,"elsewhere":6596,"stylish":6597,"rental":6598,"fitting":6599,"improved":6600,"OMG":6601,"Total":6602,"Dow":6603,"domin":6604,"lu":6605,"inappropriate":6606,"asks":6607,"haha":6608,"combat":6609,"cheer":6610,"undance":6611,"smooth":6612,"sentimental":6613,"Entertain":6614,"vehicle":6615,"Call":6616,"Usu":6617,"Wick":6618,"cence":6619,"db":6620,"foul":6621,"ios":6622,"yptic":6623,"chair":6624,"lowing":6625,"politic":6626,"broke":6627,"videos":6628,"Davis":6629,"Hardy":6630,"stole":6631,"practically":6632,"philosophy":6633,"thousand":6634,"virtually":6635,"description":6636,"://":6637,"AX":6638,"Certain":6639,"sink":6640,"station":6641,"noise":6642,"weal":6643,"disrespect":6644,"orsese":6645,"kidding":6646,"medical":6647,"capital":6648,"importance":6649,"learning":6650,"immense":6651,"emplo":6652,"umbled":6653,"originally":6654,"indulgent":6655,"Harrison":6656,"conscious":6657,"Dad":6658,"SS":6659,"Went":6660,"nine":6661,"rum":6662,"unconvincing":6663,"exer":6664,"antagon":6665,"overwhelming":6666,"thru":6667,"Godfather":6668,"ypse":6669,"advance":6670,"recognition":6671,"Taylor":6672,"Tube":6673,"atory":6674,"surface":6675,"Young":6676,"Dont":6677,"redem":6678,"educated":6679,"philosophical":6680,"finger":6681,"PER":6682,"utch":6683,"Whate":6684,"1000":6685,"beings":6686,"Child":6687,"slightest":6688,"throwing":6689,"claimed":6690,"progresses":6691,"LOVED":6692,"France":6693,"FO":6694,"cis":6695,"hint":6696,"htt":6697,"alot":6698,"vices":6699,"semi":6700,"exas":6701,"afterwards":6702,"comedian":6703,"relent":6704,"Donald":6705,"marriage":6706,"sports":6707,"Rambo":6708,";)":6709,"Jar":6710,"WAS":6711,"incoherent":6712,"rehash":6713,"mel":6714,"elo":6715,"promot":6716,"players":6717,"rank":6718,"cycl":6719,"profanity":6720,"previously":6721,"Germany":6722,"Samuel":6723,"gentle":6724,"Whatever":6725,"Fol":6726,"Water":6727,"jack":6728,"threw":6729,"sec":6730,"suicide":6731,"endure":6732,"fund":6733,"props":6734,"Scorsese":6735,"Tyler":6736,"Pla":6737,"isa":6738,"admir":6739,"iron":6740,"immature":6741,"directly":6742,"checked":6743,"center":6744,"jobs":6745,"curi":6746,"nostalgic":6747,"axy":6748,"innovative":6749,"ASE":6750,"Son":6751,"Set":6752,"aust":6753,"cake":6754,"ique":6755,"wen":6756,"reput":6757,"prise":6758,"cheese":6759,"creator":6760,"carefully":6761,"Emily":6762,"atherine":6763,"neighbor":6764,"results":6765,"blatant":6766,"tremendous":6767,":-":6768,"AV":6769,"Ve":6770,"dinner":6771,"tian":6772,"convince":6773,"uplifting":6774,"spite":6775,"ffle":6776,"ruins":6777,"harder":6778,"wondered":6779,"monot":6780,"hopeless":6781,"wished":6782,"Brown":6783,"hatred":6784,"wannabe":6785,"guts":6786,"Statham":6787,"stereotype":6788,"Games":6789,"ears":6790,"ala":6791,"chases":6792,"beit":6793,"diverse":6794,"Andrew":6795,"2020":6796,"volta":6797,"United":6798,"apocalyptic":6799,"LI":6800,"Lan":6801,"ME":6802,"replaced":6803,"vile":6804,"entin":6805,"swear":6806,"inspiration":6807,"vampires":6808,"intentionally":6809,"established":6810,"Either":6811,"IR":6812,"Port":6813,"bid":6814,"mod":6815,"lyn":6816,"forgiven":6817,"osity":6818,"bias":6819,"Blade":6820,"Blue":6821,"2001":6822,"Grand":6823,"attached":6824,"improvement":6825,"convey":6826,"corporate":6827,"Jr":6828,"Sn":6829,"TNG":6830,"bumps":6831,"tube":6832,"asion":6833,"elf":6834,"brid":6835,"Stupid":6836,"believed":6837,"messed":6838,"instantly":6839,"luster":6840,"endearing":6841,"occasionally":6842,"Gary":6843,"Zero":6844,"ludicrous":6845,"eric":6846,"meth":6847,"shaking":6848,"rape":6849,"laid":6850,"reviewing":6851,"tracks":6852,"Deep":6853,"Moon":6854,"heartfelt":6855,"interactions":6856,"honesty":6857,"explore":6858,"Play":6859,"smoking":6860,"streets":6861,"Air":6862,"Cas":6863,"Dick":6864,"Gri":6865,"ught":6866,"eness":6867,"encounter":6868,"mock":6869,"secur":6870,"lize":6871,"haunt":6872,"ural":6873,"Andy":6874,"Stall":6875,"confron":6876,"appalling":6877,"Mexican":6878,"associated":6879,"Dialo":6880,"Aamir":6881,"Gun":6882,"Veron":6883,"redi":6884,"devoid":6885,"lowest":6886,"misleading":6887,"empower":6888,"sentence":6889,"Liam":6890,"distri":6891,"slop":6892,"ENT":6893,"Wonderful":6894,"Picture":6895,"Happy":6896,"evo":6897,"si":6898,"thet":6899,"exists":6900,"justify":6901,"prejud":6902,"adequ":6903,"inson":6904,"resist":6905,"IMAX":6906,"buddy":6907,"opened":6908,"involve":6909,"Boys":6910,"Simon":6911,"Murray":6912,"Title":6913,"riveting":6914,"Skip":6915,"analy":6916,"Buff":6917,"Ext":6918,"Pul":6919,"Wish":6920,"hollywood":6921,"rates":6922,"stale":6923,"ads":6924,"suits":6925,"illness":6926,"voluted":6927,"univers":6928,"Need":6929,"Franco":6930,"charismatic":6931,"floor":6932,"HU":6933,"Sum":6934,"betray":6935,"alled":6936,"irrelevant":6937,"YouTube":6938,"Myster":6939,"imagined":6940,"passing":6941,"suitable":6942,"Kids":6943,"revolution":6944,"minimal":6945,"accuracy":6946,"renew":6947,"enthr":6948,"idence":6949,"ours":6950,"ounding":6951,"international":6952,"severe":6953,"instance":6954,"immick":6955,"Travolta":6956,"ignored":6957,"Bottom":6958,"redemption":6959,"ARE":6960,"Pred":6961,"lone":6962,"oid":6963,"tiny":6964,"unfair":6965,"ifying":6966,"urban":6967,"2015":6968,"freaking":6969,"presents":6970,"identify":6971,"suffers":6972,"Drama":6973,"chapter":6974,"Sony":6975,"jaw":6976,"wig":6977,"ingredi":6978,"ils":6979,"ella":6980,"decl":6981,"oples":6982,"storylines":6983,"consequences":6984,"prede":6985,"tales":6986,"merit":6987,"unlikely":6988,"unlikeable":6989,"beliefs":6990,"AMA":6991,"hanging":6992,"initially":6993,"hundreds":6994,"Greek":6995,"Id":6996,"gimmick":6997,"tones":6998,"albeit":6999,"asts":7000,"conspir":7001,"promo":7002,"assass":7003,"Nobody":7004,"Art":7005,"planned":7006,"advant":7007,"GOOD":7008,"succeeds":7009,"celebrit":7010,"controversial":7011,"Friend":7012,"rebel":7013,"seats":7014,"ulations":7015,"prevent":7016,"quote":7017,"developing":7018,"engage":7019,"baff":7020,"discovered":7021,"staff":7022,"History":7023,"predecess":7024,"Dian":7025,"Gor":7026,"Jac":7027,"bare":7028,"ec":7029,"vom":7030,"boat":7031,"hospital":7032,"miscast":7033,"compli":7034,"Lewis":7035,"Atl":7036,"washed":7037,"anticipation":7038,"ardi":7039,"seam":7040,"lifel":7041,"imate":7042,"compassion":7043,"xture":7044,"selling":7045,"masses":7046,"loads":7047,"loaded":7048,"stretched":7049,"wrapped":7050,"22":7051,"21st":7052,"aid":7053,"sme":7054,"unforgettable":7055,"suited":7056,"spell":7057,"ruining":7058,"Stu":7059,"wake":7060,"Aside":7061,"decides":7062,"correctness":7063,"ounce":7064,"depressed":7065,"Russia":7066,"colorful":7067,"Toro":7068,"princi":7069,"throat":7070,"variety":7071,"dinosaurs":7072,"Interesting":7073,"4th":7074,"Sto":7075,"french":7076,"gro":7077,"reactions":7078,"encies":7079,"abys":7080,"dear":7081,"raunch":7082,"ultra":7083,"scifi":7084,"heaven":7085,"convoluted":7086,"yourselves":7087,"Heath":7088,"Neeson":7089,"detailed":7090,"private":7091,"Grant":7092,"disgusted":7093,"Jimmy":7094,"www":7095,"patience":7096,"Veronica":7097,"Dy":7098,"Low":7099,"NL":7100,"Sin":7101,"jam":7102,"pir":7103,"ini":7104,"onse":7105,"arri":7106,"chant":7107,"ifies":7108,"plains":7109,"fired":7110,"presentation":7111,"Bring":7112,"Edward":7113,"Quentin":7114,"Colin":7115,"faithful":7116,"dedic":7117,"achievement":7118,"belongs":7119,"Bible":7120,"Crit":7121,"EX":7122,"Led":7123,"Med":7124,"Rings":7125,"Texas":7126,"lord":7127,"removed":7128,"lean":7129,"forgive":7130,"dozen":7131,"inding":7132,"teeth":7133,"selfish":7134,"rude":7135,"hire":7136,"triumph":7137,"misses":7138,"planning":7139,"posted":7140,"patient":7141,"Walking":7142,"president":7143,"Barry":7144,"300":7145,"Brian":7146,"Lin":7147,"President":7148,"uk":7149,"select":7150,"shit":7151,"imdb":7152,"istan":7153,"heroine":7154,"mixture":7155,"affected":7156,"Zombie":7157,"tropes":7158,"Stallone":7159,"AP":7160,"Apo":7161,"Glad":7162,"NEVER":7163,"TIM":7164,"zes":7165,"inaccurate":7166,"diction":7167,"join":7168,"guard":7169,"according":7170,"States":7171,"clum":7172,"underlying":7173,"generations":7174,"gger":7175,"Comm":7176,"ification":7177,"successfully":7178,"suffered":7179,"Emp":7180,"achieved":7181,"fashioned":7182,"Ferrell":7183,"preachy":7184,"Oliver":7185,"explor":7186,"!).":7187,"?).":7188,"Dream":7189,"Land":7190,"Women":7191,"stiff":7192,"omer":7193,"implausible":7194,"China":7195,"screw":7196,"kidnap":7197,"stein":7198,"masterful":7199,"struck":7200,"Brook":7201,"batman":7202,"musicals":7203,"Caprio":7204,"Seeing":7205,"unfolds":7206,"zzzzzzzz":7207,"Fight":7208,"FUL":7209,"Ira":7210,"Sex":7211,"awhile":7212,"uty":7213,"anta":7214,"believing":7215,"accepted":7216,"feminism":7217,"hysterical":7218,"weapons":7219,"Cat":7220,"Eric":7221,"butt":7222,"destruction":7223,"backstory":7224,"embra":7225,"portra":7226,"Carol":7227,"dropping":7228,"aughters":7229,"challenging":7230,"Channel":7231,"IGH":7232,"Reynold":7233,"Consider":7234,"Kin":7235,"Rem":7236,"bone":7237,"ffect":7238,"isol":7239,"ota":7240,"ader":7241,"adoles":7242,"peoples":7243,"ripped":7244,"lasted":7245,"extended":7246,"folk":7247,"confusion":7248,"staying":7249,"naturally":7250,"Trust":7251,"specifically":7252,"landscape":7253,"Book":7254,"Dare":7255,"Fro":7256,"Luck":7257,"Mul":7258,"cab":7259,"mash":7260,"rhy":7261,"errors":7262,"isation":7263,"limit":7264,"artists":7265,"ette":7266,"develops":7267,"deserving":7268,"Script":7269,"atmospher":7270,"superheroes":7271,"streaming":7272,"terrorist":7273,"Kidman":7274,"WWII":7275,"hrs":7276,"status":7277,"simplistic":7278,"Empire":7279,"Ret":7280,"bless":7281,"labor":7282,"rink":7283,"stro":7284,"inevit":7285,"overcome":7286,"feld":7287,"Joaqu":7288,"porno":7289,"crimes":7290,"resour":7291,"largely":7292,"spiritual":7293,"Mexico":7294,"itizen":7295,"admire":7296,"exercise":7297,"AA":7298,"Award":7299,"Sop":7300,"Six":7301,"Wed":7302,"bble":7303,"daughters":7304,"mountain":7305,"picking":7306,"andal":7307,"beating":7308,"ada":7309,"turkey":7310,"hardcore":7311,"Rober":7312,"hitting":7313,"Jackie":7314,"LOT":7315,"votes":7316,"studios":7317,"Denzel":7318,"Clearly":7319,"excessive":7320,"travesty":7321,"SI":7322,"fate":7323,"sisters":7324,"tact":7325,"aser":7326,"vich":7327,"iconic":7328,"kings":7329,"coura":7330,"fancy":7331,"woods":7332,"2000":7333,"brains":7334,"Island":7335,"countless":7336,"Charlize":7337,"explaining":7338,"adventures":7339,"fourth":7340,"END":7341,"represented":7342,"mirror":7343,"Kubrick":7344,"Reynolds":7345,"Bale":7346,"Bourne":7347,"Hay":7348,"Log":7349,"Psy":7350,"aes":7351,"ware":7352,"wolf":7353,"chain":7354,"abandon":7355,"pets":7356,"ami":7357,"polish":7358,"suspend":7359,"explored":7360,"instant":7361,"response":7362,"dressed":7363,"population":7364,"Scarlet":7365,"competition":7366,"http":7367,"curiosity":7368,"UP":7369,"clow":7370,"jumped":7371,"ancient":7372,"icing":7373,"poet":7374,"poses":7375,"trapped":7376,"cheek":7377,"messy":7378,"glory":7379,"morons":7380,"Carp":7381,"stunned":7382,"Adams":7383,"RIBLE":7384,"legendary":7385,"corruption":7386,"inducing":7387,"functional":7388,":(":7389,"Driver":7390,"Kind":7391,"Pure":7392,"Sho":7393,"bird":7394,"emer":7395,"explains":7396,"amal":7397,"los":7398,"quis":7399,"umble":7400,"ideal":7401,"phr":7402,"headed":7403,"legacy":7404,"ennis":7405,"GOT":7406,"draws":7407,"criminals":7408,"committed":7409,"Pulp":7410,"CT":7411,"rational":7412,"relies":7413,"abomination":7414,"worthless":7415,"cinemas":7416,"solve":7417,"flight":7418,"differently":7419,"camer":7420,"hypo":7421,"attempting":7422,"mysteries":7423,"caused":7424,"searching":7425,"Sandra":7426,"scenarios":7427,"scientist":7428,"holiday":7429,"Grace":7430,"Tre":7431,"Ze":7432,"hence":7433,"aton":7434,"alleg":7435,"entry":7436,"shape":7437,"raise":7438,"mented":7439,"simp":7440,"visible":7441,"venture":7442,"desert":7443,"weakness":7444,"village":7445,"2014":7446,"Golden":7447,"Visually":7448,"prequels":7449,"gruesome":7450,"conservative":7451,"Sabrina":7452,"abysmal":7453,"Put":7454,"ibly":7455,"sno":7456,"zo":7457,"moon":7458,"areas":7459,"dose":7460,"pless":7461,"whenever":7462,"horrors":7463,"superbly":7464,"interviews":7465,"locaust":7466,"kicks":7467,"Panther":7468,"PLEASE":7469,"CIA":7470,"Der":7471,"Jere":7472,"Kong":7473,"goose":7474,"thick":7475,"lia":7476,"sus":7477,"exter":7478,"ummy":7479,"training":7480,"gian":7481,"Stargate":7482,"campa":7483,"morality":7484,"expand":7485,"legit":7486,"Shaw":7487,"judging":7488,"burst":7489,"subtlety":7490,"ghosts":7491,"choreograph":7492,"Buffy":7493,"ZING":7494,"fart":7495,"orc":7496,"nose":7497,"spare":7498,"similarities":7499,"embarrassment":7500,"marvelous":7501,"reached":7502,"honor":7503,"Kyle":7504,"constructed":7505,"Bi":7506,"Final":7507,"Hems":7508,"cali":7509,"eerie":7510,"mund":7511,"pin":7512,"liever":7513,"users":7514,"myth":7515,"ciating":7516,"access":7517,"Intern":7518,"reads":7519,"happiness":7520,"farce":7521,"smiling":7522,"calls":7523,"walker":7524,"fluff":7525,"Grey":7526,"silence":7527,"Holland":7528,"challenges":7529,"rescue":7530,"Vietnam":7531,"Hemsworth":7532,"Bry":7533,"Gos":7534,"Sat":7535,"Vampire":7536,"gla":7537,"recei":7538,"opic":7539,"believes":7540,"hub":7541,"audio":7542,"Justin":7543,"heroic":7544,"hearts":7545,"deliber":7546,"groups":7547,"Jewish":7548,"reveals":7549,"discus":7550,"Girls":7551,"spread":7552,"advantage":7553,"Joaquin":7554,"Dennis":7555,"Penn":7556,"TA":7557,"theory":7558,"esh":7559,"shake":7560,"upcoming":7561,"promote":7562,"centric":7563,"thrilled":7564,"headache":7565,"theatrical":7566,"Couldn":7567,"YOUR":7568,"chuckle":7569,"benefit":7570,"Screen":7571,".</":7572,"Hoff":7573,"Rome":7574,"WTF":7575,"aff":7576,"hates":7577,"wins":7578,"moti":7579,"vic":7580,"vey":7581,"oppress":7582,"umbo":7583,"bleak":7584,"spook":7585,"disgu":7586,"differences":7587,"recommendation":7588,"Everybody":7589,"wishing":7590,"typically":7591,"harm":7592,"Broad":7593,"motivations":7594,"advertising":7595,"slick":7596,"Nicole":7597,"tiresome":7598,"health":7599,"arrogant":7600,"reputation":7601,"Iraq":7602,"!?":7603,"COM":7604,"FUN":7605,"Mom":7606,"Pop":7607,"Wi":7608,"fice":7609,"tin":7610,"vig":7611,"ira":7612,"opens":7613,"goer":7614,"greatness":7615,"sav":7616,"Whit":7617,"academy":7618,"Chic":7619,"compens":7620,"staring":7621,"failing":7622,"helping":7623,"Const":7624,"claims":7625,"pathize":7626,"vulner":7627,"tricks":7628,"accomplished":7629,"cardboard":7630,"Usually":7631,"Ledger":7632,"campaign":7633,"Gil":7634,"Hood":7635,"Kurt":7636,"Ten":7637,"Teen":7638,"avid":7639,"tha":7640,"choo":7641,"measure":7642,"keys":7643,"Infinity":7644,"dragging":7645,"nah":7646,"closed":7647,"sensational":7648,"immig":7649,"III":7650,"Science":7651,"Awakens":7652,"habit":7653,"Crowe":7654,"Gyllen":7655,"ffleck":7656,"Hoffman":7657,"Boo":7658,"Hart":7659,"Kelly":7660,"bollywood":7661,"sons":7662,"anor":7663,"lest":7664,"section":7665,"omor":7666,"une":7667,"filling":7668,"tered":7669,"conceived":7670,"cos":7671,"attempted":7672,"amongst":7673,"frustrated":7674,"nominations":7675,"Certainly":7676,"method":7677,"security":7678,"Further":7679,"Ind":7680,"SNL":7681,"VFX":7682,"lly":7683,"nar":7684,"pitch":7685,"geek":7686,"ularly":7687,"neat":7688,"height":7689,"badass":7690,"bling":7691,"blur":7692,"Belie":7693,"Road":7694,"subjects":7695,"represents":7696,"inspire":7697,"Predator":7698,"Kirk":7699,"Main":7700,"Song":7701,"Shel":7702,"tz":7703,"recycl":7704,"alie":7705,"viet":7706,"ental":7707,"seeking":7708,"minus":7709,"uded":7710,"effectively":7711,"walks":7712,"Granted":7713,"ILM":7714,"terrorists":7715,"education":7716,"digital":7717,"chilling":7718,"golden":7719,"Australia":7720,"Roberts":7721,"Coun":7722,"Lar":7723,"Sir":7724,"tong":7725,"arm":7726,"behave":7727,"icient":7728,"haal":7729,"ills":7730,"ante":7731,"plat":7732,"...\"":7733,"fame":7734,"offering":7735,"command":7736,"difficul":7737,"humble":7738,"Jolie":7739,"closing":7740,"cynical":7741,"Lets":7742,"consistently":7743,"Streep":7744,"Costner":7745,"ingredients":7746,"AMAZING":7747,"Carpenter":7748,"35":7749,"Four":7750,"Fore":7751,"olo":7752,"wound":7753,"receive":7754,"arl":7755,"league":7756,"omi":7757,"hired":7758,"plague":7759,"akin":7760,"copied":7761,"sorts":7762,"Turkey":7763,"projects":7764,"Bradley":7765,"Hamilton":7766,"stinker":7767,"Runner":7768,"Whether":7769,"TIME":7770,"$$":7771,"Cri":7772,"Hob":7773,"Lion":7774,"Lef":7775,"Los":7776,"Nar":7777,"firm":7778,"goo":7779,"rotten":7780,"dire":7781,"essential":7782,"dissa":7783,"endings":7784,"mask":7785,"reflection":7786,"possibility":7787,"journal":7788,"minority":7789,"explicit":7790,"Gene":7791,"dump":7792,"gift":7793,"task":7794,"wrench":7795,"forcing":7796,"extr":7797,"charge":7798,"ruciating":7799,"player":7800,"excruciating":7801,"angst":7802,"nights":7803,"Rogen":7804,"Arab":7805,"Going":7806,"ONG":7807,"south":7808,"physically":7809,"stock":7810,"melodrama":7811,"Bullock":7812,"Power":7813,"outrageous":7814,"adapted":7815,"Extreme":7816,"21":7817,"Affleck":7818,"Cu":7819,"Ta":7820,"cities":7821,"adore":7822,"cean":7823,"rior":7824,"irony":7825,"ett":7826,"overacting":7827,"Bey":7828,"engine":7829,"hyper":7830,"stronger":7831,"madness":7832,"rooting":7833,"evident":7834,"global":7835,"destroying":7836,"metaphor":7837,"Avatar":7838,"Bon":7839,"Cali":7840,"Mother":7841,"ueless":7842,"believer":7843,"ambi":7844,"antics":7845,"pled":7846,"trade":7847,"grate":7848,"buck":7849,"fortune":7850,"spoiling":7851,"ika":7852,"Victor":7853,"layers":7854,"babies":7855,"anormal":7856,"MAN":7857,"Spo":7858,"aper":7859,"dge":7860,"gie":7861,"incess":7862,"ilted":7863,"Theron":7864,"spots":7865,"writes":7866,"casts":7867,"horrid":7868,"insist":7869,"morals":7870,"focusing":7871,"Tommy":7872,"OUT":7873,"contained":7874,"innocence":7875,"Muslim":7876,"ungle":7877,"Given":7878,"featuring":7879,"conventional":7880,"exploration":7881,"Jeremy":7882,"During":7883,"Kane":7884,"fx":7885,"iven":7886,"mere":7887,"beats":7888,"unpleasant":7889,"nod":7890,"aces":7891,"chest":7892,"aken":7893,"factory":7894,"Isra":7895,"cleverly":7896,"complexity":7897,"sleeping":7898,"hesit":7899,"BOR":7900,"Dia":7901,"agh":7902,"aur":7903,"dun":7904,"fond":7905,"trolls":7906,"enlight":7907,"stol":7908,"chasing":7909,"aman":7910,"serving":7911,"ranks":7912,"resort":7913,"handsome":7914,"ahl":7915,"allowing":7916,"Neil":7917,"LOL":7918,"figures":7919,"pulling":7920,"Rather":7921,"Looks":7922,"techniques":7923,"artificial":7924,"Bal":7925,"FILM":7926,"Sup":7927,"bia":7928,"tro":7929,"vous":7930,"inser":7931,"onde":7932,"worn":7933,"conven":7934,"acity":7935,"fia":7936,"renting":7937,"clips":7938,"ypical":7939,"miles":7940,"steps":7941,"revolves":7942,"hurts":7943,"solely":7944,"raunchy":7945,"atmospheric":7946,"Chicago":7947,"Easter":7948,"Fort":7949,"HS":7950,"Kings":7951,"stit":7952,"chron":7953,"unimaginative":7954,"happily":7955,"centered":7956,"Note":7957,"Scen":7958,"Superb":7959,"expert":7960,"Doesn":7961,"Roseanne":7962,"chaos":7963,"Jose":7964,"Patt":7965,"Ton":7966,"Ut":7967,"dre":7968,"infeld":7969,"returns":7970,"disliked":7971,"misery":7972,"Devil":7973,"Toy":7974,"elev":7975,"banter":7976,"Helen":7977,"veteran":7978,"glimpse":7979,"choreographed":7980,"tongue":7981,"stolen":7982,"Cus":7983,"Ven":7984,"cand":7985,"sand":7986,"rocks":7987,"loser":7988,"agan":7989,"plastic":7990,"aka":7991,"Leo":7992,"Firstly":7993,"greed":7994,"questionable":7995,"avoided":7996,"ringe":7997,"equival":7998,"Aliens":7999,"Indiana":8000,"opposed":8001,"premier":8002,"highlights":8003,"Thompson":8004,"discussion":8005,"separate":8006,"Clooney":8007,"adolescent":8008,"Hunt":8009,"Lat":8010,"NT":8011,"esp":8012,"peror":8013,"orton":8014,"ensible":8015,"anged":8016,"cram":8017,"iley":8018,"casual":8019,"Raj":8020,"strict":8021,"WHY":8022,"Hunger":8023,"Completely":8024,"Apple":8025,"Furious":8026,"oms":8027,"active":8028,"haust":8029,"definite":8030,"americ":8031,"hase":8032,"umar":8033,"doesnt":8034,"lackluster":8035,"worlds":8036,"dystop":8037,"nett":8038,"historic":8039,"Mean":8040,"ounced":8041,"snoo":8042,"Liter":8043,"Recommended":8044,"adequate":8045,"lonely":8046,"Cur":8047,"GH":8048,"eli":8049,"ium":8050,"infer":8051,"ont":8052,"pec":8053,"tax":8054,"timeless":8055,"assist":8056,"persons":8057,"fantast":8058,"Annie":8059,"shoes":8060,"generated":8061,"arring":8062,"Point":8063,"sticks":8064,"meeting":8065,"accurately":8066,"School":8067,"tradition":8068,"Strong":8069,"Jerry":8070,"Gyllenhaal":8071,"Califor":8072,"75":8073,"FE":8074,"Fav":8075,"cust":8076,"narc":8077,"nomination":8078,"erotic":8079,"isons":8080,"Thought":8081,"button":8082,"illust":8083,"exhaust":8084,"usions":8085,"contr":8086,"occup":8087,"nibal":8088,"grim":8089,"calm":8090,"split":8091,"distribut":8092,"International":8093,"LG":8094,"Pet":8095,"Wel":8096,"athing":8097,"pants":8098,"argue":8099,"joker":8100,"aker":8101,"explores":8102,"banal":8103,"demons":8104,"reflects":8105,"chopath":8106,"Nazis":8107,"Shield":8108,"settling":8109,"Bush":8110,"Gab":8111,"Hum":8112,"fist":8113,"yell":8114,"react":8115,"enem":8116,"uns":8117,"setup":8118,"legs":8119,"technically":8120,"DiCaprio":8121,"existed":8122,"2012":8123,"intentional":8124,"routine":8125,"exceeded":8126,"Diaz":8127,"enemies":8128,"60s":8129,"Rol":8130,"egg":8131,"fought":8132,"tad":8133,"xic":8134,"ona":8135,"encing":8136,"iter":8137,"beer":8138,"shy":8139,"females":8140,"saves":8141,"characterization":8142,"grasp":8143,"buzz":8144,"appreciation":8145,"introduce":8146,"Schind":8147,"brutality":8148,"crossed":8149,"succeeded":8150,"Rocky":8151,"sitcoms":8152,"alternative":8153,"ambitious":8154,"resources":8155,"Bald":8156,"Fans":8157,"Mu":8158,"Ral":8159,"WE":8160,"Wes":8161,"Zone":8162,"inconsistent":8163,"ata":8164,"alt":8165,"ardo":8166,"lime":8167,"divor":8168,"heist":8169,"realised":8170,"phones":8171,"forest":8172,"Compare":8173,"hollow":8174,"brainless":8175,"satisfy":8176,"pressure":8177,"Korea":8178,"companies":8179,"Hitler":8180,"clumsy":8181,"mundane":8182,"Hud":8183,"JW":8184,"Owen":8185,"meat":8186,"excl":8187,"seek":8188,"hem":8189,"consu":8190,"uristic":8191,"mankind":8192,"pretending":8193,"nerd":8194,"onda":8195,"suspic":8196,"listed":8197,"Islam":8198,"Enough":8199,"blical":8200,"Deadpool":8201,"glorious":8202,"Hopkins":8203,"conspiracy":8204,"Daredevil":8205,"Utter":8206,"equivalent":8207,"Camp":8208,"Dave":8209,"Drew":8210,"Ian":8211,"Jan":8212,"Say":8213,"Vill":8214,"dro":8215,"kh":8216,"lum":8217,"ario":8218,"admission":8219,"ironic":8220,"ament":8221,"mythology":8222,"contest":8223,"vised":8224,"heartbreaking":8225,"queen":8226,"lawyer":8227,"examples":8228,"dynamics":8229,"investigation":8230,"sacrifice":8231,"astonishing":8232,"Retur":8233,"wrenching":8234,"BB":8235,"Dem":8236,"Nancy":8237,"Vince":8238,"Word":8239,"cative":8240,"imo":8241,"thal":8242,"theus":8243,"reli":8244,"storm":8245,"youtube":8246,"exposition":8247,"olas":8248,"letter":8249,"Read":8250,"atho":8251,"Beyond":8252,"licity":8253,"easier":8254,"ERS":8255,"Charles":8256,"larger":8257,"hotel":8258,"continuation":8259,"transport":8260,"inventive":8261,"Visual":8262,"Katrina":8263,"sarcast":8264,"Natalie":8265,"Gordon":8266,"portrait":8267,"quisite":8268,"Effect":8269,"bber":8270,"rings":8271,"isy":8272,"refund":8273,"itar":8274,"arms":8275,"ili":8276,"iders":8277,"Stars":8278,"laws":8279,"Army":8280,"cliched":8281,"Anyways":8282,"doubts":8283,"Mrs":8284,"depression":8285,"Russians":8286,"GOD":8287,"grity":8288,"BEST":8289,"remaining":8290,"addicted":8291,"integrity":8292,"tastes":8293,"Extremely":8294,"LGBT":8295,"Ralph":8296,"Def":8297,"Rad":8298,"khan":8299,"encoura":8300,"util":8301,"mail":8302,"olves":8303,"span":8304,"facing":8305,"dubbed":8306,"stops":8307,"masterpieces":8308,"featured":8309,"Makes":8310,"physics":8311,"Casting":8312,"parallel":8313,"Watson":8314,"smell":8315,")...":8316,"28":8317,"AG":8318,"Unt":8319,"Vaugh":8320,"yelling":8321,"oop":8322,"idel":8323,"ometheus":8324,"iger":8325,"clueless":8326,"riding":8327,"lands":8328,"chances":8329,"STAR":8330,"niper":8331,"psychopath":8332,"criticize":8333,"murdered":8334,"apolo":8335,"Canada":8336,"Nicholas":8337,"sloppy":8338,"!.":8339,"Eas":8340,"Jay":8341,"MY":8342,"native":8343,"sive":8344,"zzy":8345,"strate":8346,"altogether":8347,"lims":8348,"actic":8349,"actica":8350,"tag":8351,"ouses":8352,"deriv":8353,"angel":8354,"Nope":8355,"rested":8356,"glas":8357,"regards":8358,"retro":8359,"potentially":8360,"blows":8361,"deaths":8362,"Cohen":8363,"bombs":8364,"invasion":8365,"chills":8366,"complaints":8367,"resolution":8368,"lifeless":8369,"BORING":8370,"AF":8371,"Alice":8372,"EP":8373,"Live":8374,"Laugh":8375,"nity":8376,"ativity":8377,"enorm":8378,"aling":8379,"forman":8380,"optim":8381,"launch":8382,"astron":8383,"iston":8384,"agents":8385,"cheated":8386,"lasts":8387,"subplots":8388,"truck":8389,"valid":8390,"attend":8391,"sexist":8392,"1980":8393,"profit":8394,"Expect":8395,"murders":8396,"signed":8397,"adaptations":8398,"accounts":8399,"virus":8400,"official":8401,"advertise":8402,"Polit":8403,"Middle":8404,"sincerely":8405,"antagonist":8406,"Friends":8407,"Chi":8408,"Fa":8409,"Ran":8410,"fro":8411,"nay":8412,"pig":8413,"thood":8414,"uration":8415,"wet":8416,"upper":8417,"sson":8418,"trained":8419,"craw":8420,"hopeful":8421,"closely":8422,"Conn":8423,"Guess":8424,"SciFi":8425,"spectacle":8426,"busy":8427,"defined":8428,"radio":8429,"objective":8430,"Douglas":8431,"HUGE":8432,"Considering":8433,"sarcastic":8434,"Ass":8435,"Cop":8436,"Met":8437,"Ritch":8438,"Snow":8439,"zer":8440,"stare":8441,"unreal":8442,"fac":8443,"eleg":8444,"confident":8445,"cultures":8446,"summar":8447,"crush":8448,"Prometheus":8449,"Surely":8450,"Nevertheless":8451,"medium":8452,"hubali":8453,"Literally":8454,"atholic":8455,"Along":8456,"Mitch":8457,"kis":8458,"pages":8459,"eral":8460,"rein":8461,"riel":8462,"timeline":8463,"proced":8464,"displayed":8465,"finan":8466,"cracking":8467,"moronic":8468,"Carter":8469,"satisf":8470,"2008":8471,"praised":8472,"tortured":8473,"Nicolas":8474,"WHAT":8475,"Surpr":8476,"technique":8477,"picable":8478,"Swedish":8479,"Schindler":8480,"Ag":8481,"Ele":8482,"Know":8483,"Pun":8484,"Vir":8485,"dup":8486,"juring":8487,"uct":8488,"yo":8489,"stilted":8490,"metal":8491,"sums":8492,"impec":8493,"precise":8494,"acknow":8495,"lifestyle":8496,"linear":8497,"sites":8498,"Solo":8499,"screenwriter":8500,"uniform":8501,"faster":8502,"ATE":8503,"ennial":8504,"attacks":8505,"Normally":8506,"thankfully":8507,"definition":8508,"providing":8509,"damage":8510,"Believe":8511,"dreary":8512,"Easily":8513,"!),":8514,"5th":8515,"Cho":8516,"Holly":8517,"Wolf":8518,"nan":8519,"sided":8520,"wrap":8521,"inher":8522,"undoub":8523,"exposed":8524,"sco":8525,"tier":8526,"cohes":8527,"handful":8528,"register":8529,"Keaton":8530,"theatres":8531,"Films":8532,"Titanic":8533,"responsibility":8534,"Private":8535,"website":8536,"repeatedly":8537,"demographic":8538,"valuable":8539,"reduced":8540,"AI":8541,"Cre":8542,"Pak":8543,"Sundance":8544,"bilities":8545,"billion":8546,"glowing":8547,"zone":8548,"ligh":8549,"unky":8550,"racing":8551,"territ":8552,"serie":8553,"cret":8554,"turing":8555,"Johan":8556,"IMO":8557,"retarded":8558,"struggled":8559,"voting":8560,"transp":8561,"Africa":8562,"stinks":8563,"intentions":8564,"crisis":8565,"opsis":8566,"frequently":8567,"Congrat":8568,"Throughout":8569,"immensely":8570,"Baldwin":8571,"Goth":8572,"Kath":8573,"Nik":8574,"Sever":8575,"tape":8576,"proceed":8577,"isogy":8578,"screens":8579,"trivi":8580,"Alf":8581,"grip":8582,"disturbed":8583,"Walter":8584,"depicting":8585,"tradi":8586,"Frankly":8587,"anticipated":8588,"splend":8589,"formative":8590,"................................":8591,"Roger":8592,"dysfunctional":8593,"Ritchie":8594,"95":8595,"Aqu":8596,"Aaron":8597,"HOR":8598,"OP":8599,"PR":8600,"SW":8601,"Squ":8602,"T2":8603,"ime":8604,"revi":8605,"ando":8606,"iler":8607,"whim":8608,"ooding":8609,"posing":8610,"essa":8611,"...)":8612,"mistaken":8613,"oblig":8614,"turd":8615,"directorial":8616,"restaur":8617,"titled":8618,"driver":8619,"!!!!!!":8620,"covers":8621,"networks":8622,"promised":8623,"Poss":8624,"possibilities":8625,"Coen":8626,"Mont":8627,"horrifying":8628,"River":8629,"Austin":8630,"practical":8631,"homosexual":8632,"alternate":8633,"tasteless":8634,"sneak":8635,"Left":8636,"iveness":8637,"Cal":8638,"Gone":8639,"Tow":8640,"sappy":8641,"inane":8642,"terminator":8643,"interview":8644,"parano":8645,"NOW":8646,"involves":8647,"supported":8648,"undant":8649,"2005":8650,"Club":8651,"Francis":8652,"strip":8653,"troubled":8654,"attered":8655,"advertised":8656,"authenticity":8657,"witnessed":8658,"neighb":8659,"fleshed":8660,"caliber":8661,"Blan":8662,"Kling":8663,"Mery":8664,"Typical":8665,"cro":8666,"lens":8667,"oon":8668,"alo":8669,"unanswered":8670,"neck":8671,"doct":8672,"mentality":8673,"spaces":8674,"psons":8675,"appearing":8676,"Shah":8677,"repeating":8678,"senses":8679,"popularity":8680,"Germans":8681,"Angelina":8682,"loosely":8683,"Prime":8684,"melodramatic":8685,"undoubtedly":8686,"National":8687,"hanger":8688,"mist":8689,"ponder":8690,"anx":8691,"states":8692,"cted":8693,"whis":8694,"shay":8695,"butch":8696,"poon":8697,"justified":8698,"contradi":8699,"mani":8700,"ortal":8701,"smarter":8702,"killers":8703,"licate":8704,"cringy":8705,"Saving":8706,"penny":8707,"Skywalker":8708,"mesmerizing":8709,"engrossing":8710,"haunted":8711,"derivative":8712,"Meryl":8713,"\").":8714,"Catherine":8715,"WI":8716,"duty":8717,"rer":8718,"som":8719,"thed":8720,"devast":8721,"ulate":8722,"mates":8723,"Soviet":8724,"Joan":8725,"spoke":8726,"Scary":8727,"ONLY":8728,"Short":8729,"correctly":8730,"catching":8731,"motivated":8732,"Upon":8733,"Stanley":8734,"renewed":8735,"vomit":8736,"Critics":8737,"Pier":8738,"Sit":8739,"hints":8740,"pand":8741,"thm":8742,"stab":8743,"unnecessarily":8744,"nods":8745,"plate":8746,"iffer":8747,"understated":8748,"berry":8749,"renal":8750,"ocide":8751,"negativity":8752,"inspirational":8753,"Nicholson":8754,"Regard":8755,"Scarlett":8756,"cameras":8757,"California":8758,"DI":8759,"Dawn":8760,"HE":8761,"Py":8762,"Santa":8763,"TT":8764,"dum":8765,"eff":8766,"etern":8767,"jail":8768,"kudos":8769,"misogy":8770,"patch":8771,"toys":8772,"sham":8773,"heap":8774,"pregn":8775,"Butler":8776,"Start":8777,"comedians":8778,"understandable":8779,"reasonably":8780,"Seinfeld":8781,"useful":8782,"confess":8783,"suggested":8784,"Robbie":8785,"programming":8786,"comparable":8787,"argument":8788,"synopsis":8789,"Ricky":8790,"poetic":8791,"Father":8792,"MU":8793,"NC":8794,"Pass":8795,"Wild":8796,"cous":8797,"dust":8798,"gments":8799,"nels":8800,"rics":8801,"enberg":8802,"string":8803,"verted":8804,"boots":8805,"dragon":8806,"screwed":8807,"Heart":8808,"Dean":8809,"Marc":8810,"grief":8811,"painting":8812,"faults":8813,"Toronto":8814,"nuts":8815,"--------":8816,"bathroom":8817,"motives":8818,"AB":8819,"Pil":8820,"SHOW":8821,"Ugh":8822,"bin":8823,"econ":8824,"sche":8825,"vain":8826,"thirty":8827,"ert":8828,"asingly":8829,"motive":8830,"Third":8831,"oops":8832,"ria":8833,"riot":8834,"aggress":8835,"civil":8836,"Incredi":8837,"duo":8838,"sheep":8839,"blank":8840,"izable":8841,"Always":8842,"Justice":8843,"Beat":8844,"nervous":8845,"Margot":8846,"Today":8847,"passable":8848,"ALLY":8849,"promises":8850,"News":8851,"transition":8852,"strings":8853,"behaviour":8854,"Angeles":8855,"Witcher":8856,"cruelty":8857,"comprehensible":8858,"caricatures":8859,"models":8860,"narciss":8861,"Vaughn":8862,"Cool":8863,"Dies":8864,"Oc":8865,"Pie":8866,"SC":8867,"Tam":8868,"kicking":8869,"nur":8870,"inf":8871,"lee":8872,"sha":8873,"notes":8874,"tery":8875,"therap":8876,"romp":8877,"pride":8878,"desired":8879,"owner":8880,"Ann":8881,"suspension":8882,"futuristic":8883,"refuse":8884,"Clark":8885,"adaption":8886,"Simple":8887,"?!?!":8888,"rapid":8889,"matched":8890,"furious":8891,"conflicts":8892,"obsession":8893,"Hunter":8894,"princess":8895,"sacrific":8896,"Singh":8897,"Fut":8898,"Mason":8899,"Rotten":8900,"rin":8901,"yawn":8902,"stir":8903,"shout":8904,"shouting":8905,"immer":8906,"intric":8907,"Whilst":8908,"casted":8909,"nevertheless":8910,"merits":8911,"blonde":8912,"fighter":8913,"relations":8914,"Sub":8915,"Performan":8916,"dimension":8917,"strike":8918,"programme":8919,"progression":8920,"vais":8921,"bonus":8922,"Remind":8923,"Cusack":8924,"Until":8925,"CAN":8926,"IO":8927,"Isa":8928,"Were":8929,"cats":8930,"yy":8931,"reson":8932,"ingen":8933,"stron":8934,"tool":8935,"asm":8936,"bey":8937,"lap":8938,"imit":8939,"taught":8940,"spends":8941,"Chur":8942,"Solid":8943,"corner":8944,"marily":8945,"crass":8946,"Arrow":8947,"pays":8948,"package":8949,"racies":8950,"throws":8951,"continuing":8952,"exceptionally":8953,"westerns":8954,"captivated":8955,"Galactica":8956,"Battlestar":8957,"symbolism":8958,"Logan":8959,"spooky":8960,"recycled":8961,"Clar":8962,"Hath":8963,"Ice":8964,"Tar":8965,"avengers":8966,"incompetent":8967,"retire":8968,"toss":8969,"lion":8970,"shorter":8971,"elabor":8972,"sue":8973,"scri":8974,"ambig":8975,"hobic":8976,"woven":8977,"programs":8978,"hammer":8979,"occasions":8980,"revealing":8981,"jerk":8982,"accuracies":8983,"editor":8984,"alcohol":8985,"determined":8986,"Leslie":8987,"american":8988,"territory":8989,"Ci":8990,"DS":8991,"Money":8992,"Wahl":8993,"athan":8994,"lers":8995,"wack":8996,"repul":8997,"supre":8998,"scra":8999,"doors":9000,"bye":9001,"Incredible":9002,"grass":9003,"Stra":9004,"downs":9005,"izations":9006,"cycle":9007,"Actor":9008,"Carrie":9009,"pleasing":9010,"Holy":9011,"nonetheless":9012,"banned":9013,"wedding":9014,"silver":9015,"whelmed":9016,"Beautifully":9017,"cells":9018,"Mirror":9019,"scope":9020,"BIG":9021,"Face":9022,"Ko":9023,"Tech":9024,"san":9025,"alas":9026,"abrupt":9027,"sustain":9028,"device":9029,"showcase":9030,"ssip":9031,"phony":9032,"bitch":9033,"slower":9034,"THER":9035,"monolo":9036,"Room":9037,"drown":9038,"Emmy":9039,"Broke":9040,"claiming":9041,"flashback":9042,"numbing":9043,"layered":9044,"evolution":9045,"ELL":9046,"clown":9047,"Several":9048,"Age":9049,"CSI":9050,"Goo":9051,"Jude":9052,"Oz":9053,"Vol":9054,"bable":9055,"cé":9056,"gather":9057,"ume":9058,"ugs":9059,"vap":9060,"rever":9061,"stup":9062,"libr":9063,"roots":9064,"sprink":9065,"acing":9066,"offend":9067,"grot":9068,"entertainer":9069,"pressed":9070,"Joel":9071,"logies":9072,"capturing":9073,"Peele":9074,"satir":9075,"mentioning":9076,"Harley":9077,"archy":9078,"amounts":9079,"Christianity":9080,"apartment":9081,"professor":9082,"Vijay":9083,"Shows":9084,"recognized":9085,"witches":9086,"Berlin":9087,"Dragon":9088,"defend":9089,"ignorance":9090,"HAVE":9091,"increasingly":9092,"Leonardo":9093,"musc":9094,"glamor":9095,"BR":9096,"Bol":9097,"Bos":9098,"Won":9099,"duration":9100,"gad":9101,"tender":9102,"wave":9103,"staged":9104,"lican":9105,"whining":9106,"icon":9107,"shif":9108,"unsettling":9109,"exquisite":9110,"imi":9111,"wears":9112,"prostit":9113,"overlooked":9114,"disease":9115,"izard":9116,"iano":9117,"ridden":9118,"Serbian":9119,"Charmed":9120,"Gervais":9121,"strangely":9122,"cringeworthy":9123,"transc":9124,"frustration":9125,"Oldman":9126,"wilder":9127,"speechless":9128,"integr":9129,"sincere":9130,"Anton":9131,"Legend":9132,"eagerly":9133,"goosebumps":9134,"grateful":9135,"snooze":9136,"trivial":9137,"Job":9138,"Pir":9139,"Sell":9140,"Shad":9141,"bible":9142,"cere":9143,"jan":9144,"rants":9145,"sword":9146,"reci":9147,"nest":9148,"wayne":9149,"guilt":9150,"pointing":9151,"minal":9152,"Andre":9153,"granted":9154,"motor":9155,"voy":9156,"iped":9157,"Somehow":9158,"194":9159,"scored":9160,"respond":9161,"teaches":9162,"beaten":9163,"opportun":9164,"officers":9165,"Garner":9166,"Laurie":9167,"fingers":9168,"occurred":9169,"Firefly":9170,"Louis":9171,"darn":9172,"Ultim":9173,"politicians":9174,"Broadway":9175,"Congratulations":9176,"FF":9177,"Stran":9178,"WAR":9179,"bby":9180,"eed":9181,"sill":9182,"size":9183,"vine":9184,"thom":9185,"enhan":9186,"chor":9187,"vivid":9188,"beach":9189,"iding":9190,"dilem":9191,"phan":9192,"workers":9193,"illian":9194,"persona":9195,"secondary":9196,"Bean":9197,"morrow":9198,"styles":9199,"publ":9200,"finishing":9201,"buster":9202,"Julie":9203,"Moreover":9204,"secrets":9205,"influenced":9206,"atoes":9207,"translation":9208,"wealthy":9209,"Strange":9210,"Fel":9211,"Sid":9212,"ez":9213,"mou":9214,"ule":9215,"rewatch":9216,"adrenal":9217,"geon":9218,"detract":9219,"displays":9220,"biting":9221,"extre":9222,"heading":9223,"annoy":9224,"witched":9225,"earn":9226,"commented":9227,"Blu":9228,"appearances":9229,"Guys":9230,"Cheers":9231,"Jonathan":9232,"Predict":9233,"Laura":9234,"Writing":9235,"sinister":9236,"guests":9237,"landscapes":9238,"Carell":9239,"inevitable":9240,"Psycho":9241,"Gosling":9242,"Screenplay":9243,"compensate":9244,"satisfaction":9245,"Wahlberg":9246,"Dab":9247,"Dexter":9248,"Fury":9249,"Ja":9250,"Lilly":9251,"Pay":9252,"Seven":9253,"cave":9254,"lane":9255,"informative":9256,"offee":9257,"whiny":9258,"weet":9259,"aud":9260,"timely":9261,"umer":9262,"overused":9263,"understatement":9264,"alongside":9265,"payoff":9266,"spirited":9267,"Shining":9268,"shameful":9269,"dumbed":9270,"primarily":9271,"dealt":9272,"existing":9273,"burning":9274,"grows":9275,"suggests":9276,"Thankfully":9277,"striking":9278,"randomly":9279,"NYC":9280,"controversy":9281,"exploring":9282,"Joseph":9283,"Hook":9284,"Hilar":9285,"Norton":9286,"Shy":9287,"bash":9288,"mish":9289,"pump":9290,"wine":9291,"thon":9292,"inconsist":9293,"degrad":9294,"download":9295,"lasting":9296,"Aniston":9297,"shoe":9298,"curse":9299,"wishes":9300,"confir":9301,"structive":9302,"helpful":9303,"drives":9304,"mixing":9305,"backgrounds":9306,"profession":9307,"recognizable":9308,"mmm":9309,"Break":9310,"blockbusters":9311,"insightful":9312,"torn":9313,"healthy":9314,"stealing":9315,"steaming":9316,"Fortun":9317,"impeccable":9318,"restaurant":9319,"silliness":9320,"\"!":9321,"Dust":9322,"Days":9323,"Ellen":9324,"Glo":9325,"SF":9326,"TW":9327,"Var":9328,"east":9329,"mud":9330,"rome":9331,"zens":9332,"inj":9333,"remove":9334,"myst":9335,"plans":9336,"percent":9337,"disast":9338,"acles":9339,"couples":9340,"Myers":9341,"distance":9342,"judgment":9343,"woe":9344,"Storyline":9345,"Jews":9346,"reaching":9347,"progressed":9348,"nuclear":9349,"targeted":9350,"passionate":9351,"hiding":9352,"Poorly":9353,"Castle":9354,"Stranger":9355,"Kapoor":9356,"Claire":9357,"pitiful":9358,"absorbed":9359,"Penny":9360,"promoting":9361,"Studi":9362,"Apocal":9363,"Larry":9364,"dystopian":9365,"Diesel":9366,"Ban":9367,"Bud":9368,"Creat":9369,"fur":9370,"fuss":9371,"hatt":9372,"ske":9373,"iner":9374,"endo":9375,"andro":9376,"tomorrow":9377,"adul":9378,"astounding":9379,"Started":9380,"2010":9381,"sexually":9382,"freak":9383,"animations":9384,"guessed":9385,"Liber":9386,"confidence":9387,"movements":9388,"questioning":9389,"pattern":9390,"2006":9391,"Prince":9392,"Monty":9393,"belly":9394,"Foster":9395,"carrying":9396,"Beauty":9397,"Jesse":9398,"absence":9399,"resembles":9400,"oriented":9401,":-)":9402,"Furthermore":9403,"Bate":9404,"Cant":9405,"Eve":9406,"Mountain":9407,"Year":9408,"aire":9409,"bender":9410,"drew":9411,"hil":9412,"mond":9413,"phe":9414,"tank":9415,"Thing":9416,"activ":9417,"amused":9418,"congrat":9419,"eps":9420,"manga":9421,"overshadow":9422,"discovery":9423,"accomp":9424,"ieval":9425,"holy":9426,"comprom":9427,"letdown":9428,"Reading":9429,"attended":9430,"Network":9431,"wives":9432,"counting":9433,"priest":9434,"Britain":9435,"2007":9436,"Quinn":9437,"rounded":9438,"Truth":9439,"Stiller":9440,"nuanced":9441,"arcs":9442,"Human":9443,"comprehend":9444,"Olivia":9445,"____":9446,"WORST":9447,"celebrity":9448,"predecessor":9449,"compliment":9450,"ardians":9451,"rhythm":9452,"Ev":9453,"Gad":9454,"JUST":9455,"Rap":9456,"Sally":9457,"caut":9458,"gard":9459,"kiss":9460,"oscar":9461,"thless":9462,"thearted":9463,"arse":9464,"beast":9465,"watcher":9466,"updated":9467,"descent":9468,"despair":9469,"Stand":9470,"pses":9471,"obsc":9472,"factual":9473,"climate":9474,"sadistic":9475,"momentum":9476,"primary":9477,"Lovecraft":9478,"2004":9479,"designs":9480,"contribute":9481,"kicked":9482,"ACK":9483,"WW2":9484,"invented":9485,"skipped":9486,"BTW":9487,"cancercancer":9488,"Team":9489,"Akshay":9490,"Disappointing":9491,"universal":9492,"contrary":9493,"Bog":9494,"Clover":9495,"ELY":9496,"Mic":9497,"Rich":9498,"gins":9499,"ras":9500,"inaccuracies":9501,"edon":9502,"Than":9503,"mechan":9504,"sorely":9505,"idey":9506,"merc":9507,"izz":9508,"Pegg":9509,"channels":9510,"Jackman":9511,"documentaries":9512,"Simpsons":9513,"Pratt":9514,"Spike":9515,"ethnic":9516,"distracted":9517,"Galaxy":9518,"applause":9519,"Rodri":9520,"weapon":9521,"plod":9522,"Diane":9523,"eccentric":9524,"abandoned":9525,"amalan":9526,"Constant":9527,"inferior":9528,"Compared":9529,"23":9530,"Catholic":9531,"Dwayne":9532,"Zo":9533,"dating":9534,"wrest":9535,"inept":9536,"aters":9537,"sticking":9538,"secut":9539,"vein":9540,"addiction":9541,"unden":9542,"pod":9543,"istics":9544,"mann":9545,"overs":9546,"hoom":9547,"anson":9548,"matically":9549,"underwhelming":9550,"performing":9551,"coinc":9552,"submit":9553,"contact":9554,"fantas":9555,"hateful":9556,"spoon":9557,"deadly":9558,"narrator":9559,"Project":9560,"lengthy":9561,"educational":9562,"Judy":9563,"emphasis":9564,"Hulk":9565,"Fortunately":9566,"3d":9567,"?),":9568,"Fonda":9569,"Spart":9570,"SJW":9571,"iently":9572,"eling":9573,"unning":9574,"digest":9575,"dozens":9576,"fundam":9577,"fathom":9578,"lesser":9579,"cheering":9580,"Reese":9581,"critique":9582,"generate":9583,"logically":9584,"releases":9585,"covering":9586,"ussie":9587,"psychology":9588,"Redford":9589,"salv":9590,"washing":9591,"glasses":9592,"assault":9593,"revelation":9594,"neighborhood":9595,"dedicated":9596,"astronaut":9597,"grotesque":9598,"Fear":9599,"IV":9600,"Ly":9601,"Oly":9602,"Twin":9603,"WILL":9604,"dumber":9605,"tree":9606,"infect":9607,"inger":9608,"noted":9609,"decor":9610,"urity":9611,"quer":9612,"spit":9613,"distract":9614,"Independ":9615,"rison":9616,"Moder":9617,"breathe":9618,"moron":9619,"colla":9620,"ERO":9621,"hugely":9622,"respected":9623,"emotionless":9624,"trashy":9625,"Colbert":9626,"strikes":9627,"stranger":9628,"Few":9629,"drawing":9630,"scientists":9631,"Malko":9632,"demonstr":9633,"Trying":9634,"attracted":9635,"loyalty":9636,"sooo":9637,"Children":9638,"assassin":9639,"Sopran":9640,"orcist":9641,"Bateman":9642,"Drac":9643,"Hats":9644,"JO":9645,"Roth":9646,"dome":9647,"elic":9648,"easter":9649,"iat":9650,"jarring":9651,"pher":9652,"von":9653,"arity":9654,"chased":9655,"entit":9656,"sher":9657,"keen":9658,"oopers":9659,"fears":9660,"polar":9661,"anyways":9662,"ums":9663,"trial":9664,"classes":9665,"mighty":9666,"jection":9667,"Shar":9668,"aughey":9669,"continuous":9670,"introducing":9671,"foolish":9672,"smoke":9673,"assumed":9674,"challenged":9675,"Blake":9676,"Dialogue":9677,"splendid":9678,"undeni":9679,"Fat":9680,"Lam":9681,"gif":9682,"ppl":9683,"sigh":9684,"tf":9685,"infant":9686,"incomprehensible":9687,"assure":9688,"ilight":9689,"forgetting":9690,"tage":9691,"twilight":9692,"hibit":9693,"solved":9694,"singer":9695,"predictability":9696,"clothing":9697,"Box":9698,"cringing":9699,"catchy":9700,"praising":9701,"Spacey":9702,"throats":9703,"apocalypse":9704,"Trier":9705,"borderline":9706,"Lucifer":9707,"Summer":9708,"extras":9709,"Hudson":9710,"lighthearted":9711,"\"/":9712,"Ball":9713,"Cry":9714,"Case":9715,"Hate":9716,"QT":9717,"Tat":9718,"Tol":9719,"coffee":9720,"eg":9721,"eyed":9722,"gloss":9723,"uma":9724,"vors":9725,"reject":9726,"oured":9727,"bearing":9728,"idow":9729,"aret":9730,"arty":9731,"wonders":9732,"20th":9733,"careful":9734,"tempted":9735,"casm":9736,"McCon":9737,"Connor":9738,"Files":9739,"Norwe":9740,"Farrell":9741,"Berg":9742,"Hannibal":9743,"gradually":9744,"Maggie":9745,"evolve":9746,"Linda":9747,"Downey":9748,"Regardless":9749,"strongest":9750,"26":9751,"Cavi":9752,"MTV":9753,"Non":9754,"Sel":9755,"Soph":9756,"Win":9757,"eve":9758,"fs":9759,"isnt":9760,"utions":9761,"elite":9762,"ustrop":9763,"robe":9764,"scape":9765,"persu":9766,"funded":9767,"waist":9768,"sublime":9769,"Dete":9770,"starred":9771,"Thats":9772,"seriousness":9773,"appeals":9774,"hilariously":9775,"Cannes":9776,"reminder":9777,"Police":9778,"Orville":9779,"Lucy":9780,"Classic":9781,"OULD":9782,"Prof":9783,"Schumer":9784,"sophomor":9785,"Angels":9786,"Viol":9787,"Muslims":9788,"absurdity":9789,"awareness":9790,"Hannah":9791,"imaginable":9792,"boost":9793,"psychotic":9794,"Planet":9795,"employe":9796,"secure":9797,"Possibly":9798,"Hathaway":9799,"Fy":9800,"Hindi":9801,"Spr":9802,"Wind":9803,"Za":9804,"dick":9805,"rab":9806,"returned":9807,"stan":9808,"itudes":9809,"ids":9810,"devices":9811,"sometime":9812,"pered":9813,"manu":9814,"sayers":9815,"State":9816,"farm":9817,"craz":9818,"careers":9819,"igned":9820,"closure":9821,"marine":9822,"binged":9823,"Terry":9824,"2013":9825,"slam":9826,"cartoonish":9827,"Timo":9828,"nuance":9829,"preferred":9830,"Miranda":9831,"manipulative":9832,"resolved":9833,"AWFUL":9834,"Silver":9835,"bridge":9836,"Virgin":9837,"Cavill":9838,"Dak":9839,"Event":9840,"Less":9841,"bun":9842,"houses":9843,"tles":9844,"absent":9845,"brat":9846,"brooding":9847,"leted":9848,"ysis":9849,"reluct":9850,"Dear":9851,"DeNiro":9852,"runtime":9853,"parties":9854,"ucker":9855,"Shane":9856,"distinct":9857,"biopic":9858,"2011":9859,"boxes":9860,"publicity":9861,"screams":9862,"invited":9863,"Alexander":9864,"homopho":9865,"millennial":9866,"performers":9867,"itizens":9868,"puzzle":9869,"thetically":9870,"Cold":9871,"Citizen":9872,"Making":9873,"Reven":9874,"pandering":9875,"squir":9876,"zation":9877,"engl":9878,"leap":9879,"forgi":9880,"mafia":9881,"raving":9882,"rol":9883,"imitation":9884,"dol":9885,"perpet":9886,"yours":9887,"holic":9888,"Inside":9889,"Indeed":9890,"Secret":9891,"consists":9892,"groundbreaking":9893,"grey":9894,"transformation":9895,"expressed":9896,"combine":9897,"AME":9898,"comparisons":9899,"remained":9900,"sucker":9901,"surrounded":9902,"announced":9903,"cookie":9904,"spiderman":9905,"sarcasm":9906,"rewarding":9907,"Entertaining":9908,"Country":9909,"Support":9910,"library":9911,"Dracula":9912,"Sophie":9913,"CO":9914,"FIN":9915,"Lot":9916,"OID":9917,"Rand":9918,"Vie":9919,"daring":9920,"eh":9921,"isingly":9922,"returning":9923,"eline":9924,"unnatural":9925,"peak":9926,"define":9927,"lake":9928,"urous":9929,"weigh":9930,"directions":9931,"hog":9932,"clues":9933,"genocide":9934,"steady":9935,"jeal":9936,"claustrop":9937,"progressive":9938,"swim":9939,"Philli":9940,"punches":9941,"sales":9942,"hungry":9943,"patriot":9944,"Punisher":9945,"Sellers":9946,"sophomoric":9947,"Ethan":9948,"Hawk":9949,"Tell":9950,"mim":9951,"sab":9952,"til":9953,"vas":9954,"wolves":9955,"zi":9956,"info":9957,"innu":9958,"remade":9959,"stim":9960,"tops":9961,"lyrics":9962,"neth":9963,"illusion":9964,"label":9965,"pol":9966,"update":9967,"pros":9968,"guide":9969,"guided":9970,"lless":9971,"thrones":9972,"desp":9973,"despicable":9974,"whereas":9975,"classical":9976,"leftist":9977,"aneously":9978,"expense":9979,"Scot":9980,"purchase":9981,"2009":9982,"limits":9983,"demands":9984,"Enjoyed":9985,"Philip":9986,"fifteen":9987,"dinosaur":9988,"nauseating":9989,"prejudice":9990,"Frozen":9991,"aesthetic":9992,"Johansson":9993,"MUCH":9994,"Felt":9995,"Predictable":9996,"Shyamalan":9997,"inconsistencies":9998,"Cloverfield":9999,");":10000,"AK":10001,"Curt":10002,"Row":10003,"Rise":10004,"WHO":10005,"pill":10006,"isz":10007,"reun":10008,"ingu":10009,"alter":10010,"unsure":10011,"unexplained":10012,"sugar":10013,"rambl":10014,"locked":10015,"urg":10016,"wholes":10017,"mentary":10018,"discer":10019,"themed":10020,"traum":10021,"uding":10022,"bigot":10023,"Rebel":10024,"1970":10025,"imagining":10026,"Peaks":10027,"presenting":10028,"Arm":10029,"Armen":10030,"Goodman":10031,"Gerard":10032,"growth":10033,"acceptance":10034,"attacked":10035,"Princess":10036,"Plenty":10037,"souls":10038,"flows":10039,"aaaa":10040,"affects":10041,"recorded":10042,"Huge":10043,"nightmares":10044,"enormous":10045,"Modern":10046,"Adri":10047,"Cinder":10048,"Dumb":10049,"Five":10050,"Jaw":10051,"Kumar":10052,"Neither":10053,"Rian":10054,"WAST":10055,"citizens":10056,"tall":10057,"toy":10058,"chief":10059,"shared":10060,"dece":10061,"boom":10062,"acqu":10063,"unior":10064,"Sheen":10065,"deny":10066,"DVR":10067,"Spen":10068,"respective":10069,"Harvey":10070,"positively":10071,"sufficient":10072,"soulless":10073,"Meh":10074,"survived":10075,"Train":10076,"flavor":10077,"ripoff":10078,"boundaries":10079,"broadcast":10080,"resemblance":10081,"vacation":10082,"AVOID":10083,"polished":10084,"Effects":10085,"WITH":10086,"Hilarious":10087,"Detective":10088,"Dakota":10089,"innuendo":10090,"Gard":10091,"Lane":10092,"Rain":10093,"UE":10094,"VHS":10095,"iod":10096,"sam":10097,"tat":10098,"incar":10099,"bean":10100,"illegal":10101,"adjust":10102,"activity":10103,"kel":10104,"filth":10105,"enders":10106,"getic":10107,"funding":10108,"newsp":10109,"coach":10110,"medieval":10111,"clim":10112,"crity":10113,"cursing":10114,"cuz":10115,"massa":10116,"counts":10117,"Coming":10118,"Tomatoes":10119,"moody":10120,"desperation":10121,"provocative":10122,"bullets":10123,"Bern":10124,"grabs":10125,"Alec":10126,"insults":10127,"layer":10128,"explanations":10129,"lifted":10130,"relentless":10131,"monoton":10132,"Portman":10133,"Brooks":10134,"embrace":10135,"vulnerable":10136,"Pierce":10137,"Cut":10138,"Dist":10139,"Ol":10140,"Pu":10141,"Rent":10142,"Sou":10143,"Sonic":10144,"Wire":10145,"boun":10146,"pon":10147,"injustice":10148,"anxious":10149,"vibr":10150,"lip":10151,"versus":10152,"ghan":10153,"shining":10154,"notion":10155,"opted":10156,"iments":10157,"amuse":10158,"pover":10159,"antis":10160,"plant":10161,"auth":10162,"ets":10163,"Stri":10164,"settle":10165,"understands":10166,"voc":10167,"medic":10168,"Weisz":10169,"styl":10170,"League":10171,"norm":10172,"rooms":10173,"truthful":10174,"gods":10175,"protest":10176,"Adventure":10177,"continuously":10178,"treasure":10179,"robber":10180,"Titans":10181,"wildly":10182,"Ridiculous":10183,"cellul":10184,"Ronan":10185,"yrs":10186,"severely":10187,"deliberately":10188,"Scenes":10189,"Dustin":10190,"/\"":10191,"ET":10192,"Kno":10193,"Mem":10194,"Si":10195,"Sor":10196,"Wol":10197,"kar":10198,"rang":10199,"inject":10200,"wasnt":10201,"shades":10202,"pez":10203,"devi":10204,"preposter":10205,"standout":10206,"mindset":10207,"Jodie":10208,"killings":10209,"imaginary":10210,"collabor":10211,"ordin":10212,"airs":10213,"smaller":10214,"nihil":10215,"sooner":10216,"Indians":10217,"truths":10218,"narrow":10219,"admittedly":10220,"describes":10221,"suggestion":10222,"mediocrity":10223,"?!?":10224,"odds":10225,"species":10226,"fascinated":10227,"choppy":10228,"tolerate":10229,"electric":10230,"Talk":10231,"++++":10232,"wicked":10233,"disrespectful":10234,"confront":10235,"isolated":10236,"Bryan":10237,"Gabriel":10238,"vapid":10239,"opportunities":10240,"Malkovich":10241,"McConaughey":10242,"Aussie":10243,"Fell":10244,"Mach":10245,"SPO":10246,"Vik":10247,"WR":10248,"YES":10249,"hoo":10250,"lun":10251,"ology":10252,"winter":10253,"incorrect":10254,"ento":10255,"stumbled":10256,"toes":10257,"entity":10258,"elve":10259,"ooby":10260,"hai":10261,"doomed":10262,"gency":10263,"cracy":10264,"subplot":10265,"relson":10266,"entirety":10267,"shoved":10268,"Anything":10269,"Period":10270,"Shaun":10271,"judged":10272,"Robot":10273,"investment":10274,"substant":10275,"ucci":10276,"reaches":10277,"terrorism":10278,"bullet":10279,"irritated":10280,"basement":10281,"anticipating":10282,"Susp":10283,"Nathan":10284,"Production":10285,"immersed":10286,"losers":10287,"simplicity":10288,"eggs":10289,"Connery":10290,"Sopranos":10291,"AIN":10292,"BL":10293,"CR":10294,"Dhoom":10295,"aving":10296,"bene":10297,"ckets":10298,"etry":10299,"echo":10300,"iator":10301,"piano":10302,"sadd":10303,"itty":10304,"kest":10305,"uncle":10306,"idy":10307,"feast":10308,"lows":10309,"Inception":10310,"dud":10311,"reader":10312,"viscer":10313,"insanity":10314,"superman":10315,"Donnie":10316,"leaders":10317,"addin":10318,"licop":10319,"Lopez":10320,"grounded":10321,"southern":10322,"Cox":10323,"Major":10324,"ails":10325,"statements":10326,"Elli":10327,"MORE":10328,"Barbar":10329,"AMC":10330,"discovers":10331,"warmth":10332,"addictive":10333,"homosexuality":10334,"Bridges":10335,"Royale":10336,"gaps":10337,"disguised":10338,"Songs":10339,"Hobbit":10340,"satirical":10341,"celluloid":10342,"Ah":10343,"Hr":10344,"Kay":10345,"Mess":10346,"Sep":10347,"Taken":10348,"dale":10349,"dled":10350,"pes":10351,"pable":10352,"pale":10353,"ablo":10354,"deleted":10355,"viewings":10356,"dismal":10357,"disregard":10358,"realm":10359,"realizing":10360,"realizes":10361,"Chop":10362,"coupled":10363,"buried":10364,"sounding":10365,"Beast":10366,"experiencing":10367,"paranormal":10368,"Ross":10369,"Isn":10370,"akest":10371,"Shan":10372,"exploitation":10373,"Terri":10374,"listened":10375,"survivors":10376,"Brave":10377,"panic":10378,"Saul":10379,"Wilder":10380,"connections":10381,"assuming":10382,"Ending":10383,"tuned":10384,"chuckles":10385,"ographic":10386,"uddled":10387,"Heroes":10388,"quotes":10389,"Iranian":10390,"strictly":10391,"wacky":10392,"entitled":10393,"monotonous":10394,"Fisher":10395,"Hy":10396,"SP":10397,"Sold":10398,"Tw":10399,"cig":10400,"href":10401,"ocean":10402,"pha":10403,"tan":10404,"itor":10405,"assum":10406,"vileg":10407,"segment":10408,"lized":10409,"urb":10410,"ourney":10411,"realities":10412,"simult":10413,"Heaven":10414,"magaz":10415,"sedu":10416,"classy":10417,"volume":10418,"portion":10419,"closest":10420,"counters":10421,"Worse":10422,"anied":10423,"itchen":10424,"subjected":10425,"causes":10426,"sickening":10427,"Raimi":10428,"Fargo":10429,"remarks":10430,"Epic":10431,"Miami":10432,"Amanda":10433,"Fantasy":10434,"Secondly":10435,"tacky":10436,"escapism":10437,"Naomi":10438,"Dogs":10439,"Hawai":10440,"Hallmark":10441,"borrowed":10442,"Brokeback":10443,"adrenaline":10444,"Cinderella":10445,"?\".":10446,"Mah":10447,"Rag":10448,"Scor":10449,"cs":10450,"emo":10451,"nude":10452,"rats":10453,"sir":10454,"sane":10455,"slice":10456,"uate":10457,"uated":10458,"wider":10459,"yaw":10460,"thread":10461,"infinity":10462,"revers":10463,"enforce":10464,"ilia":10465,"melan":10466,"cker":10467,"polic":10468,"noble":10469,"pton":10470,"overlong":10471,"faint":10472,"asses":10473,"Therefore":10474,"surg":10475,"surpassed":10476,".........":10477,"observ":10478,"tribut":10479,"additional":10480,"placement":10481,"Leave":10482,"Leigh":10483,"30s":10484,"Harrelson":10485,"straightforward":10486,"Pathetic":10487,"rendition":10488,"attach":10489,"combines":10490,"maxim":10491,"Outstanding":10492,"fuel":10493,"Bacon":10494,"Mission":10495,"fantastically":10496,"Blo":10497,"Fed":10498,"Finding":10499,"Parent":10500,"Wrong":10501,"cater":10502,"dv":10503,"din":10504,"jungle":10505,"och":10506,"sma":10507,"switched":10508,"zene":10509,"antha":10510,"tomat":10511,"races":10512,"clone":10513,"interests":10514,"gible":10515,"coon":10516,"worldwide":10517,"ranking":10518,"Weak":10519,"smug":10520,"193":10521,"1960":10522,"logist":10523,"internal":10524,"realistically":10525,"distant":10526,"Holocaust":10527,"conclude":10528,"concerning":10529,"accused":10530,"unfolding":10531,"fixed":10532,"debate":10533,"enthusiasm":10534,"forgiveness":10535,"Wedding":10536,"tactics":10537,"phrase":10538,"Python":10539,"english":10540,"authors":10541,"=\"/":10542,"Alit":10543,"Brend":10544,"Close":10545,"Firth":10546,"Rudd":10547,"UM":10548,"Von":10549,"eous":10550,"factors":10551,"mult":10552,"slea":10553,"slaughter":10554,"vag":10555,"poetry":10556,"therland":10557,"tee":10558,"phant":10559,"redundant":10560,"clunky":10561,"excell":10562,"amaze":10563,"colm":10564,"popping":10565,"midnight":10566,"weekly":10567,"biography":10568,"picky":10569,"bury":10570,"fellas":10571,"Grade":10572,"Brosn":10573,"photograph":10574,"Bobby":10575,"insanely":10576,"accidentally":10577,"Kenned":10578,"guaranteed":10579,"Susan":10580,"birthday":10581,"empowerment":10582,"involvement":10583,"baffled":10584,"Luckily":10585,"discussing":10586,"platform":10587,"Alfred":10588,"intricate":10589,"elaborate":10590,"Civil":10591,"gadgets":10592,"accompanied":10593,"Norwegian":10594,"WASTE":10595,"/\">":10596,"50s":10597,"Bess":10598,"Cate":10599,"DIS":10600,"Hand":10601,"Hal":10602,"Might":10603,"Others":10604,"PP":10605,"UR":10606,"Wy":10607,"Want":10608,"bast":10609,"iety":10610,"kn":10611,"wy":10612,"incorpor":10613,"enchant":10614,"anders":10615,"armed":10616,"mos":10617,"mode":10618,"chi":10619,"Thus":10620,"outright":10621,"notable":10622,"gems":10623,"rier":10624,"deaf":10625,"ravel":10626,"wee":10627,"quarter":10628,"dub":10629,"gray":10630,"angels":10631,"scription":10632,"motions":10633,"Aladdin":10634,"Decent":10635,"Develop":10636,"Moss":10637,"cutter":10638,"IMHO":10639,"socially":10640,"depends":10641,"Actress":10642,"afford":10643,"literature":10644,"ART":10645,"improbable":10646,"Samantha":10647,"Walker":10648,"Danish":10649,"shockingly":10650,"fills":10651,"Between":10652,"dazz":10653,"punish":10654,"believability":10655,"Shia":10656,"Audi":10657,"Voy":10658,"rewarded":10659,"destroys":10660,"Hotel":10661,"forgivable":10662,"Bates":10663,"Block":10664,"Banks":10665,"Cy":10666,"Dread":10667,"Fif":10668,"HH":10669,"Pers":10670,"Passion":10671,"Ref":10672,"Sense":10673,"pause":10674,"slot":10675,"unravel":10676,"sume":10677,"pos":10678,"preced":10679,"cially":10680,"disney":10681,"brown":10682,"scripting":10683,"Joy":10684,"rising":10685,"bothers":10686,"nerves":10687,"menacing":10688,"umpy":10689,"GoT":10690,"distort":10691,"legends":10692,"Harold":10693,"privile":10694,"destined":10695,"ennes":10696,"gripped":10697,"ORY":10698,"accepting":10699,"Vikings":10700,"Berry":10701,"VIEW":10702,"insulted":10703,"Malcolm":10704,"preaching":10705,"patriotic":10706,"MIB":10707,"Mystery":10708,"revolutionary":10709,"selected":10710,"Israel":10711,"Words":10712,"dumbest":10713,"NCIS":10714,"Evans":10715,"Mickey":10716,"tomato":10717,"privilege":10718,"CON":10719,"Dirty":10720,"Ker":10721,"Mik":10722,"Navy":10723,"Ring":10724,"equality":10725,"fri":10726,"gall":10727,"hats":10728,"oil":10729,"rot":10730,"tens":10731,"wink":10732,"stable":10733,"aly":10734,"semble":10735,"ithik":10736,"rial":10737,"deta":10738,"robbed":10739,"illing":10740,"amond":10741,"wholly":10742,"weakest":10743,"disconnected":10744,"phon":10745,"backwards":10746,"completed":10747,"cope":10748,"Heat":10749,"Beck":10750,"nerds":10751,"mony":10752,"privileg":10753,"exploit":10754,"OUR":10755,"Adult":10756,"belle":10757,"gained":10758,"rupted":10759,"fools":10760,"pushes":10761,"brutally":10762,"empire":10763,"fabric":10764,"categor":10765,"chops":10766,"atheist":10767,"AWES":10768,"galaxy":10769,"blatantly":10770,"Banglad":10771,"squee":10772,"enthralling":10773,"receiving":10774,"pregnant":10775,"repulsive":10776,"Apocalypse":10777,"Independence":10778,"Alita":10779,"Brosnan":10780,")!":10781,"==":10782,"Pain":10783,"Rush":10784,"Sol":10785,"TL":10786,"Zoo":10787,"hal":10788,"lab":10789,"pins":10790,"wagon":10791,"chat":10792,"ches":10793,"segments":10794,"bears":10795,"shank":10796,"aboo":10797,"math":10798,"geared":10799,"nope":10800,"asted":10801,"ndrome":10802,"weir":10803,"weather":10804,"offense":10805,"traits":10806,"subsequ":10807,"ipid":10808,"excellently":10809,"releasing":10810,"Within":10811,"positions":10812,"Sutherland":10813,"Meg":10814,"Superbad":10815,"signs":10816,"Geor":10817,"cringey":10818,"concern":10819,"Scottish":10820,"loyd":10821,"analysis":10822,"chaotic":10823,"Central":10824,"Disappointed":10825,"Animation":10826,"wealth":10827,"Dylan":10828,"FUNNY":10829,"financial":10830,"Blanch":10831,"aggressive":10832,"claustrophobic":10833,"Curtis":10834,"wholesome":10835,"preposterous":10836,"AWESOME":10837,"500":10838,"Kend":10839,"Lie":10840,"Pine":10841,"ZERO":10842,"gus":10843,"glit":10844,"rr":10845,"rural":10846,"theories":10847,"retelling":10848,"orrow":10849,"stating":10850,"seld":10851,"selection":10852,"Throw":10853,"lips":10854,"shel":10855,"shred":10856,"unner":10857,"unsatisfying":10858,"outdated":10859,"erspoon":10860,"composed":10861,"illed":10862,"endured":10863,"helicop":10864,"convi":10865,"istent":10866,"proving":10867,"print":10868,"fined":10869,"maturity":10870,"worker":10871,"wardrobe":10872,"Review":10873,"stopping":10874,"neyed":10875,"forming":10876,"Shark":10877,"Tomorrow":10878,"Guardians":10879,"Admit":10880,"sympathize":10881,"perspectives":10882,"judgement":10883,"chicks":10884,"practice":10885,"dignity":10886,"radical":10887,"vulgarity":10888,"Griff":10889,"enthralled":10890,"Atlantis":10891,"IGHT":10892,"optimistic":10893,"HORRIBLE":10894,"Klingons":10895,"recipe":10896,"Aud":10897,"Bran":10898,"Came":10899,"Dutch":10900,"Hom":10901,"Lack":10902,"Ot":10903,"Pad":10904,"Tiger":10905,"Zach":10906,"bio":10907,"dreck":10908,"pound":10909,"uity":10910,"yers":10911,"orn":10912,"uneven":10913,"abusive":10914,"mast":10915,"neur":10916,"perception":10917,"overblown":10918,"partly":10919,"readers":10920,"grind":10921,"seasoned":10922,"blink":10923,"Bee":10924,"March":10925,"delicious":10926,"anka":10927,"scariest":10928,"Boston":10929,"executive":10930,"Supergirl":10931,"Haven":10932,"learns":10933,"Directing":10934,"sensit":10935,"Alicia":10936,"Small":10937,"flag":10938,"circle":10939,"homes":10940,"cowboy":10941,"colours":10942,"automatically":10943,"Freddie":10944,"communication":10945,"Masterpiece":10946,"assistant":10947,"econom":10948,"zenegger":10949,"Ame":10950,"Cher":10951,"Daf":10952,"Ga":10953,"Gru":10954,"HD":10955,"Hur":10956,"Halle":10957,"Ni":10958,"Side":10959,"Troy":10960,"cel":10961,"mig":10962,"mush":10963,"pis":10964,"wich":10965,"instru":10966,"reboots":10967,"ito":10968,"arn":10969,"vian":10970,"shirt":10971,"pee":10972,"joined":10973,"overlook":10974,"becca":10975,"acid":10976,"acclaimed":10977,"ruthless":10978,"trap":10979,"begging":10980,"sentences":10981,"awfully":10982,"restra":10983,"marry":10984,"sidekick":10985,"confuse":10986,"Witherspoon":10987,"Exorcist":10988,"causing":10989,"transformers":10990,"milk":10991,"frames":10992,"teaching":10993,"miracle":10994,"Murder":10995,"conveyed":10996,"arguments":10997,"tolerable":10998,"hunter":10999,"SUCK":11000,"attraction":11001,"Century":11002,"engrossed":11003,"cliffhanger":11004,"Dialogues":11005,"betrayal":11006,"Mulan":11007,"cohesive":11008,"Clarke":11009,"Spencer":11010,"Development":11011,"Cou":11012,"Fair":11013,"Jaa":11014,"cards":11015,"ige":11016,"tends":11017,"edition":11018,"behold":11019,"shelf":11020,"lope":11021,"weed":11022,"eping":11023,"igner":11024,"irsty":11025,"orses":11026,"Into":11027,"emic":11028,"warrior":11029,"Forrest":11030,"shoots":11031,"scarier":11032,"Spy":11033,"McKin":11034,"Cole":11035,"Editing":11036,"Turner":11037,"Kingdom":11038,"Wasn":11039,"Schwar":11040,"flashy":11041,"testament":11042,"thankful":11043,"Afghan":11044,"pathos":11045,"vengeance":11046,"swing":11047,"Camera":11048,"detect":11049,"Oldboy":11050,"evolved":11051,"SyFy":11052,"manipulation":11053,"organization":11054,"crisp":11055,"Place":11056,"choosing":11057,"Sheldon":11058,"Hrithik":11059,"simultaneously":11060,"seldom":11061,"!,":11062,"Bil":11063,"Body":11064,"Cour":11065,"Cross":11066,"Hep":11067,"Pur":11068,"Pink":11069,"SA":11070,"dil":11071,"hunting":11072,"kni":11073,"wre":11074,"ée":11075,"inexplic":11076,"alley":11077,"moan":11078,"ctic":11079,"bee":11080,"Ther":11081,"verine":11082,"forbid":11083,"eliness":11084,"scam":11085,"apers":11086,"Whedon":11087,"offs":11088,"intoler":11089,"underground":11090,"illions":11091,"bucket":11092,"risks":11093,"clip":11094,"attitudes":11095,"flood":11096,"capacity":11097,"intertw":11098,"lander":11099,"alizing":11100,"Score":11101,"Abby":11102,"Meet":11103,"Thriller":11104,"Sara":11105,"umbles":11106,"Foxx":11107,"Writer":11108,"Vincent":11109,"hackneyed":11110,"veterans":11111,"ideology":11112,"mockery":11113,"Satan":11114,"difficulties":11115,"divorce":11116,"drove":11117,"Jaws":11118,"Chopra":11119,"Kennedy":11120,"\"-":11121,"))":11122,"48":11123,"Awards":11124,"DID":11125,"Eg":11126,"Line":11127,"Mot":11128,"SOME":11129,"bite":11130,"jun":11131,"nis":11132,"sends":11133,"ym":11134,"ista":11135,"retired":11136,"ora":11137,"stark":11138,"itz":11139,"mothers":11140,"sect":11141,"sored":11142,"defe":11143,"neut":11144,"watchers":11145,"noises":11146,"ilda":11147,"coat":11148,"visions":11149,"Reilly":11150,"Rebecca":11151,"guez":11152,"Marshall":11153,"engers":11154,"Living":11155,"Mann":11156,"buildings":11157,"Conjuring":11158,"instinct":11159,"Post":11160,"Blunt":11161,"Christina":11162,"barrel":11163,"ordered":11164,"Madison":11165,"liberals":11166,"traveling":11167,"nuances":11168,"walls":11169,"Polish":11170,"distraction":11171,"stakes":11172,"Hellboy":11173,"OOOO":11174,"IFF":11175,"TERRIBLE":11176,"EVERYTHING":11177,"FOX":11178,"Wife":11179,"IOUS":11180,"supreme":11181,"substantial":11182,"Dreadful":11183,"47":11184,"Bus":11185,"Gro":11186,"Len":11187,"Lem":11188,"Prison":11189,"Rel":11190,"aunt":11191,"inja":11192,"retain":11193,"ensure":11194,"orian":11195,"album":11196,"uninspiring":11197,"abused":11198,"raises":11199,"canon":11200,"ookie":11201,"discrimin":11202,"underdeveloped":11203,"origins":11204,"ograp":11205,"mermaid":11206,"recommending":11207,"ipes":11208,"monkey":11209,"interact":11210,"rett":11211,"schools":11212,"Gossip":11213,"biblical":11214,"franchises":11215,"transfer":11216,"wheel":11217,"slavery":11218,"oddly":11219,"voters":11220,"gangsters":11221,"relevance":11222,"intellectually":11223,"Thoroughly":11224,"Pacific":11225,"compete":11226,"loneliness":11227,"loop":11228,"urai":11229,"Gregor":11230,"scratching":11231,"believers":11232,"Return":11233,"acknowledge":11234,"Google":11235,"plodding":11236,"demonstrates":11237,"visceral":11238,"privileged":11239,"McKinnon":11240,"ographer":11241,"27":11242,"2D":11243,">>":11244,"Buck":11245,"Gay":11246,"Kil":11247,"Later":11248,"Lake":11249,"Lara":11250,"jol":11251,"lins":11252,"ological":11253,"punk":11254,"sof":11255,"tiring":11256,"uge":11257,"itter":11258,"mold":11259,"forty":11260,"mega":11261,"imately":11262,"tip":11263,"conscience":11264,"apply":11265,"pric":11266,"misfortune":11267,"dubbing":11268,"newer":11269,"Stark":11270,"righteous":11271,"coz":11272,"insipid":11273,"lette":11274,"nerve":11275,"portrayals":11276,"Peck":11277,"pedest":11278,"Disgust":11279,"paste":11280,"REVIEW":11281,"Sharon":11282,"distress":11283,"Megan":11284,"2003":11285,"13th":11286,"concerns":11287,"Miche":11288,"skipping":11289,"nutshell":11290,"Borat":11291,"dissapointed":11292,"trope":11293,"apologi":11294,"elegant":11295,"Squad":11296,"reruns":11297,"Rodriguez":11298,"Ari":11299,"FR":11300,"IVE":11301,"Lol":11302,"Mend":11303,"bones":11304,"nick":11305,"recru":11306,"vell":11307,"ida":11308,"nephe":11309,"dimin":11310,"charged":11311,"bleed":11312,"owned":11313,"centers":11314,"obst":11315,"produces":11316,"solution":11317,"contender":11318,"Joss":11319,"founded":11320,"smiles":11321,"morally":11322,"schlock":11323,"STORY":11324,"Steel":11325,"instal":11326,"teams":11327,"treats":11328,"convincingly":11329,"ibilities":11330,"Austen":11331,"painted":11332,"officially":11333,"dressing":11334,"1984":11335,"hhhh":11336,"arguably":11337,"vastly":11338,"options":11339,"Enterprise":11340,"demanding":11341,"Pirates":11342,"stimul":11343,"SPOIL":11344,"Suspense":11345,"melancho":11346,"Bun":11347,"Ewan":11348,"Hust":11349,"Happ":11350,"Todd":11351,"mons":11352,"oir":11353,"pant":11354,"wire":11355,"informed":11356,"istry":11357,"request":11358,"sevent":11359,"Thumbs":11360,"meas":11361,"sharing":11362,"elder":11363,"haw":11364,"macho":11365,"consum":11366,"upside":11367,"john":11368,"boards":11369,"plotting":11370,"assy":11371,"hokey":11372,"timed":11373,"laughably":11374,"ashes":11375,"comeback":11376,"helpless":11377,"glance":11378,"continually":11379,"commenting":11380,"instances":11381,"LOW":11382,"LOTR":11383,"translate":11384,"avoiding":11385,"Quaid":11386,"Pros":11387,"Elba":11388,"Fincher":11389,"Feel":11390,"Feels":11391,"ICE":11392,"Obama":11393,"threatening":11394,"wisdom":11395,"enthusiastic":11396,"bullshit":11397,"promoted":11398,"Jacob":11399,"Beyon":11400,"Campbell":11401,"Mitchell":11402,"Aquaman":11403,"misogyn":11404,"cousin":11405,"Pilot":11406,"Ultimately":11407,"Olym":11408,"poverty":11409,"excellence":11410,".(":11411,"Ay":11412,"Agent":11413,"Bab":11414,"Cub":11415,"Doo":11416,"Ill":11417,"OL":11418,"Sof":11419,"Tax":11420,"Wright":11421,"Yu":11422,"dwell":11423,"mute":11424,"tu":11425,"wtf":11426,"infl":11427,"reel":11428,"reverse":11429,"arian":11430,"vibes":11431,"meal":11432,"uno":11433,"raising":11434,"intimate":11435,"tration":11436,"prev":11437,"newcom":11438,"Stick":11439,"Chron":11440,"disappoints":11441,"emed":11442,"visiting":11443,"dictator":11444,"Been":11445,"colon":11446,"masterfully":11447,"INT":11448,"positives":11449,"Cannot":11450,"Scooby":11451,"spectrum":11452,"pilots":11453,"existential":11454,"crucial":11455,"bottle":11456,"Impossible":11457,"agendas":11458,"liberties":11459,"BSG":11460,"Times":11461,"professionals":11462,"delighted":11463,"1995":11464,"Brazilian":11465,"fifty":11466,"psychiat":11467,"translated":11468,"vaguely":11469,"hattan":11470,"gifted":11471,"Parents":11472,")?":11473,"49":11474,"Bri":11475,"Dest":11476,"Irel":11477,"Kick":11478,"KING":11479,"Miles":11480,"Rene":11481,"Tele":11482,"Ug":11483,"Yout":11484,"cens":11485,"kitchen":11486,"mers":11487,"inity":11488,"todays":11489,"ari":11490,"ilarly":11491,"entered":11492,"shap":11493,"ully":11494,"netic":11495,"dive":11496,"presum":11497,"longing":11498,"blends":11499,"code":11500,"subpar":11501,"basket":11502,"Weird":11503,"1990":11504,"1950":11505,"1980s":11506,"clock":11507,"handling":11508,"sched":11509,"neglect":11510,"distingu":11511,"promin":11512,"depths":11513,"instit":11514,"describing":11515,"Emperor":11516,"slave":11517,"murderer":11518,"Greta":11519,"substit":11520,"Finn":11521,"Lastly":11522,"ushka":11523,"baseball":11524,"spinning":11525,"Angelo":11526,"Craw":11527,"stoned":11528,"fifth":11529,"Rogers":11530,"addressed":11531,"predator":11532,"Speaking":11533,"alcoholic":11534,"Repub":11535,"Entertainment":11536,"Needless":11537,"candid":11538,"Surprisingly":11539,"neighbors":11540,"enforcement":11541,"Dafoe":11542,"Hepburn":11543,"Ana":11544,"DJ":11545,"Eva":11546,"Killer":11547,"bt":11548,"bour":11549,"bins":11550,"bots":11551,"cure":11552,"hung":11553,"jar":11554,"mart":11555,"sending":11556,"uto":11557,"inability":11558,"atics":11559,"Theory":11560,"poke":11561,"anytime":11562,"inton":11563,"troops":11564,"olate":11565,"characteristics":11566,"humili":11567,"screenwriters":11568,"ranked":11569,"warrant":11570,"conditions":11571,"Maria":11572,"license":11573,"regularly":11574,"garner":11575,"exceptions":11576,"copies":11577,"consideration":11578,"Manhattan":11579,"Spir":11580,"Charlot":11581,"ITS":11582,"Gerwig":11583,"Walken":11584,"ASH":11585,"mannerisms":11586,"prisoners":11587,"Damn":11588,"objects":11589,"Judge":11590,"drunken":11591,"contempl":11592,"Gravity":11593,"route":11594,"companion":11595,"poop":11596,"applauded":11597,"Hawke":11598,"XXXX":11599,"1950s":11600,"seamlessly":11601,"groan":11602,"zzzzzzzzzzzzzzzz":11603,"firmly":11604,"excruciatingly":11605,"Meanwhile":11606,"reliable":11607,"Pakistan":11608,"paranoia":11609,"Church":11610,"vibrant":11611,"Schwarzenegger":11612,"-)":11613,"Bull":11614,"Easy":11615,"Fle":11616,"Fish":11617,"Graph":11618,"Hi":11619,"Loc":11620,"Nation":11621,"Pick":11622,"Smo":11623,"TE":11624,"WANT":11625,"lis":11626,"mouse":11627,"nations":11628,"pom":11629,"incon":11630,"error":11631,"stor":11632,"stitch":11633,"worship":11634,"manager":11635,"disappear":11636,"shoulders":11637,"misunderstood":11638,"bral":11639,"traff":11640,"blunt":11641,"visited":11642,"trio":11643,"lighten":11644,"sexism":11645,"riddled":11646,"runner":11647,"depending":11648,"skit":11649,"identical":11650,"Terror":11651,"fox":11652,"catast":11653,"discovering":11654,"1994":11655,"defense":11656,"Magic":11657,"RIP":11658,"Party":11659,"praying":11660,"Italy":11661,"Valley":11662,"kidnapped":11663,"journalist":11664,"convenient":11665,"Incredibly":11666,"Ireland":11667,"Cran":11668,"Coppo":11669,"CRA":11670,"Fli":11671,"Fass":11672,"Fringe":11673,"GG":11674,"Lloyd":11675,"Mill":11676,"Sleep":11677,"SFX":11678,"Tara":11679,"cage":11680,"hance":11681,"muddled":11682,"sid":11683,"slack":11684,"ugen":11685,"enig":11686,"toon":11687,"ows":11688,"lian":11689,"aden":11690,"solo":11691,"devoted":11692,"roof":11693,"exhilar":11694,"exotic":11695,"shower":11696,"endlessly":11697,"inters":11698,"condu":11699,"qui":11700,"services":11701,"anski":11702,"grin":11703,"trauma":11704,"borders":11705,"cheating":11706,"angled":11707,"flies":11708,"voir":11709,"Seen":11710,"Anti":11711,"interval":11712,"garian":11713,"umbai":11714,"Bride":11715,"Conf":11716,"languages":11717,"clapped":11718,"Mostly":11719,"improves":11720,"Melan":11721,"recording":11722,"Crazy":11723,"hideous":11724,"feedback":11725,"Crash":11726,"metaphors":11727,"Fanning":11728,"Idris":11729,"weaknesses":11730,"suspicious":11731,"precisely":11732,"devastating":11733,"fantasies":11734,"Violence":11735,"Besson":11736,"Blanchett":11737,"Cro":11738,"Dall":11739,"Hurt":11740,"Kash":11741,"Lith":11742,"Lily":11743,"Liz":11744,"Million":11745,"RR":11746,"Spect":11747,"Tem":11748,"bent":11749,"dirt":11750,"pour":11751,"sna":11752,"inhabit":11753,"ancing":11754,"atomy":11755,"ching":11756,"ador":11757,"endgame":11758,"epit":11759,"fulfilled":11760,"plex":11761,"dismiss":11762,"fathers":11763,"idest":11764,"holocaust":11765,"rukh":11766,"Inst":11767,"Storm":11768,"empathize":11769,"obli":11770,"subscri":11771,"onson":11772,"stylized":11773,"Uncle":11774,"Unbelievable":11775,"Peace":11776,"sociop":11777,"ERE":11778,"paring":11779,"Rogue":11780,"mascul":11781,"remembering":11782,"patron":11783,"cringed":11784,"Julianne":11785,"Giving":11786,"knocked":11787,"significance":11788,"Bella":11789,"profoundly":11790,"slept":11791,"mobile":11792,"Caine":11793,"Sweden":11794,"frequent":11795,"arrived":11796,"Eastern":11797,"Future":11798,"domestic":11799,"Bergman":11800,"Supporting":11801,"tattoo":11802,"beneath":11803,"Republican":11804,",'":11805,"Apr":11806,"CA":11807,"Cos":11808,"Hans":11809,"Karen":11810,"Molly":11811,"gul":11812,"ptive":11813,"eries":11814,"resur":11815,"enna":11816,"enhance":11817,"arrive":11818,"chris":11819,"oming":11820,"owed":11821,"lified":11822,"unit":11823,"defeat":11824,"scoring":11825,"poison":11826,"tron":11827,"aux":11828,"fulfill":11829,"pron":11830,"ideals":11831,"misguided":11832,"chees":11833,"entertains":11834,"subtly":11835,"smith":11836,"breathing":11837,"stuffed":11838,"drift":11839,"Shrek":11840,"Express":11841,"mixes":11842,"burned":11843,"Clay":11844,"beside":11845,"trusted":11846,"studied":11847,"gloomy":11848,"Midnight":11849,"organized":11850,"patients":11851,"Internet":11852,"Scream":11853,"Fallen":11854,"Clich":11855,"admirable":11856,"analyze":11857,"decline":11858,"celebrities":11859,"difficulty":11860,"Toni":11861,"Barbara":11862,"maximum":11863,"Admittedly":11864,"priceless":11865,"Coppola":11866,"Dallas":11867,"Amir":11868,"Evan":11869,"Flo":11870,"Page":11871,"Rh":11872,"Sue":11873,"Uk":11874,"nom":11875,"sniper":11876,"ugg":11877,"onna":11878,"static":11879,"aris":11880,"champ":11881,"leen":11882,"Thunder":11883,"verage":11884,"shan":11885,"unrelated":11886,"construction":11887,"venue":11888,"quant":11889,"directs":11890,"expects":11891,"Chlo":11892,"20s":11893,"lightly":11894,"monu":11895,"Nemo":11896,"dribble":11897,"orders":11898,"mitive":11899,"Order":11900,"drops":11901,"sensation":11902,"hosts":11903,"attacking":11904,"refreshingly":11905,"introduces":11906,"Smart":11907,"Monday":11908,"indian":11909,"grabbed":11910,"Daniels":11911,"researched":11912,"Garcia":11913,"Mirren":11914,"manipulated":11915,"Romanian":11916,"Listen":11917,"predic":11918,"consciousness":11919,"Casino":11920,"discussed":11921,"insert":11922,"kissing":11923,"rapidly":11924,"confirmed":11925,"Casey":11926,"Kendrick":11927,"April":11928,"85":11929,"Coo":11930,"FA":11931,"HIGH":11932,"JP":11933,"Mia":11934,"Ned":11935,"Rat":11936,"Zack":11937,"bread":11938,"cus":11939,"ect":11940,"fence":11941,"kung":11942,"meandering":11943,"shing":11944,"abstr":11945,"ciously":11946,"disorder":11947,"ishes":11948,"Stal":11949,"steer":11950,"hyp":11951,"Arrested":11952,"hilarity":11953,"weaker":11954,"McGregor":11955,"prize":11956,"Warner":11957,"rendered":11958,"Byr":11959,"conclusions":11960,"explosive":11961,"Hangover":11962,"Syl":11963,"squad":11964,"Karl":11965,"damaged":11966,"communicate":11967,"concentrate":11968,"civilization":11969,"Hulu":11970,"monotone":11971,"predecessors":11972,"Poppins":11973,"transported":11974,"ambiguous":11975,"TWD":11976,"Armenian":11977,"Ragnar":11978,"CRE":11979,"DD":11980,"Drive":11981,"Gang":11982,"Him":11983,"NA":11984,"PRE":11985,"Took":11986,"WA":11987,"Watt":11988,"citizen":11989,"fru":11990,"horses":11991,"remaking":11992,"toxic":11993,"ashi":11994,"ooo":11995,"irts":11996,"delicate":11997,"labe":11998,"perman":11999,"canned":12000,"auer":12001,"promotion":12002,"realization":12003,"ppers":12004,"accol":12005,"backed":12006,"clin":12007,"achron":12008,"cream":12009,"couch":12010,"Revol":12011,"foundation":12012,"Sea":12013,"click":12014,"breed":12015,"buddies":12016,"pub":12017,"STOP":12018,"drum":12019,"Spidey":12020,"respects":12021,"Conan":12022,"transformed":12023,"stepped":12024,"ibbean":12025,"sensu":12026,"ONEY":12027,"commitment":12028,"fairytale":12029,"fleet":12030,"bloated":12031,"participate":12032,"sorrow":12033,"arrives":12034,"Shawshank":12035,"heights":12036,"Kingsley":12037,"Political":12038,"contradict":12039,"patriotism":12040,"Shannon":12041,"Charlotte":12042,"BG":12043,"Bow":12044,"Cars":12045,"Fal":12046,"Kra":12047,"Lame":12048,"MONEY":12049,"PD":12050,"Us":12051,"dross":12052,"evalu":12053,"jac":12054,"knight":12055,"lur":12056,"pumped":12057,"uber":12058,"yard":12059,"recreate":12060,"mocking":12061,"ila":12062,"ille":12063,"Thurs":12064,"unaware":12065,"unintentionally":12066,"riors":12067,"rainy":12068,"lav":12069,"amid":12070,"condem":12071,"apple":12072,"itect":12073,"characterisation":12074,"castle":12075,"ensed":12076,"cents":12077,"Soon":12078,"insom":12079,"subscription":12080,"pier":12081,"shocks":12082,"landed":12083,"election":12084,"airing":12085,"Daisy":12086,"primitive":12087,"subjective":12088,"posters":12089,"burg":12090,"countryside":12091,"wrought":12092,"sensible":12093,"Columb":12094,"petty":12095,"bullying":12096,"Romance":12097,"Lifetime":12098,"Rockwell":12099,"Jonah":12100,"Syd":12101,"Alexand":12102,"speeches":12103,"marketed":12104,"authority":12105,"Survi":12106,"maintaining":12107,"Hoping":12108,"buffs":12109,"Interstellar":12110,"absorbing":12111,"replic":12112,"General":12113,"LIKE":12114,"ambiance":12115,"narcissistic":12116,"cerebral":12117,"Profess":12118,"Voyager":12119,"tomatoes":12120,"55":12121,"EU":12122,"Glover":12123,"Mummy":12124,"Phan":12125,"Push":12126,"Ur":12127,"Winter":12128,"aves":12129,"cen":12130,"ffe":12131,"anna":12132,"asi":12133,"adminis":12134,"comings":12135,"astound":12136,"condesc":12137,"upt":12138,"overacted":12139,"hoot":12140,"amazes":12141,"solving":12142,"Head":12143,"Heck":12144,"bubble":12145,"Mocking":12146,"crook":12147,"opener":12148,"007":12149,"Caribbean":12150,"distaste":12151,"purposes":12152,"bians":12153,"literary":12154,"underest":12155,"refuge":12156,"ailed":12157,"snap":12158,"grandmother":12159,"complained":12160,"Years":12161,"flair":12162,"appalled":12163,"unexpectedly":12164,"1998":12165,"products":12166,"atrocity":12167,"1970s":12168,"demonst":12169,"coward":12170,"Palma":12171,"Rogan":12172,"giggle":12173,"Deepika":12174,"isolation":12175,"phrases":12176,"advertisement":12177,"therapy":12178,"Reminds":12179,"Isaac":12180,"Boll":12181,"disastrous":12182,"Thanos":12183,"sheriff":12184,"Timothy":12185,"magazine":12186,"?'":12187,"Dull":12188,"Hack":12189,"Idi":12190,"Mack":12191,"Mix":12192,"Mumbai":12193,"Orange":12194,"Spain":12195,"bending":12196,"hart":12197,"len":12198,"ola":12199,"pus":12200,"sanity":12201,"tent":12202,"widow":12203,"threads":12204,"asite":12205,"shod":12206,"shift":12207,"unhappy":12208,"abundance":12209,"sues":12210,"destructive":12211,"dod":12212,"aura":12213,"overwhelmed":12214,"disci":12215,"disservice":12216,"liest":12217,"cloud":12218,"giar":12219,"pretends":12220,"emperor":12221,"fanatic":12222,"suburban":12223,"porter":12224,"valent":12225,"soundtracks":12226,"Anushka":12227,"rung":12228,"Robo":12229,"witted":12230,"Brando":12231,"twisting":12232,"Brits":12233,"prompt":12234,"posting":12235,"agony":12236,"satisfactory":12237,"Blind":12238,"Warrior":12239,"royal":12240,"approved":12241,"teachers":12242,"panned":12243,"TOS":12244,"Burn":12245,"furi":12246,"explosion":12247,"safely":12248,"atrocities":12249,"1977":12250,"NEW":12251,"Carey":12252,"sketches":12253,"chooses":12254,"Faith":12255,"butchered":12256,"stupidest":12257,"dilemma":12258,"Gadot":12259,"obscure":12260,"Constantine":12261,"infantile":12262,"sleazy":12263,"Egyp":12264,"Youtube":12265,"Phantom":12266,"Cats":12267,"Dal":12268,"Ki":12269,"Katherine":12270,"MM":12271,"Pand":12272,"Sen":12273,"Uma":12274,"cart":12275,"dic":12276,"mum":12277,"plight":12278,"wers":12279,"wore":12280,"xta":12281,"zard":12282,"zie":12283,"err":12284,"attribut":12285,"orite":12286,"anded":12287,"beware":12288,"lighter":12289,"adopted":12290,"enters":12291,"aya":12292,"abound":12293,"raved":12294,"amed":12295,"artistry":12296,"owns":12297,"ortions":12298,"shoulder":12299,"afterward":12300,"plagiar":12301,"blended":12302,"decency":12303,"deciding":12304,"glaring":12305,"Somebody":12306,"Marie":12307,"coln":12308,"satur":12309,"gravity":12310,"Gods":12311,"Scand":12312,"Cartoon":12313,"profile":12314,"Comp":12315,"summed":12316,"Pope":12317,"intensely":12318,"Monster":12319,"Woods":12320,"matches":12321,"structured":12322,"assured":12323,"homeless":12324,"According":12325,"Sunshine":12326,"Garbage":12327,"Hammer":12328,"heartedly":12329,"hurry":12330,"Ruby":12331,"Westworld":12332,"virtue":12333,"briefly":12334,"HAHA":12335,"Writers":12336,"galore":12337,"Reser":12338,"settled":12339,"astonished":12340,"holidays":12341,"promotes":12342,"Vegas":12343,"pirate":12344,"andalorian":12345,"Pattinson":12346,"Humor":12347,"yellow":12348,"Knowing":12349,"enhanced":12350,"Scotland":12351,"robbery":12352,"Cuba":12353,"6th":12354,"Aron":12355,"Burt":12356,"Crap":12357,"Daw":12358,"Eis":12359,"FY":12360,"Fine":12361,"Gilliam":12362,"Nine":12363,"dates":12364,"gence":12365,"phase":12366,"xx":12367,"leans":12368,"vicious":12369,"whites":12370,"keeper":12371,"filmo":12372,"raped":12373,"neider":12374,"combo":12375,"illon":12376,"doom":12377,"inks":12378,"overboard":12379,"bolic":12380,"spring":12381,"dudes":12382,"amet":12383,"undertones":12384,"odder":12385,"kindness":12386,"controlled":12387,"ignoring":12388,"montage":12389,"fighters":12390,"regurg":12391,"university":12392,"lively":12393,"Bronson":12394,"spirits":12395,"reminding":12396,"Brother":12397,"implic":12398,"containing":12399,"strangers":12400,"Showtime":12401,"salt":12402,"relatives":12403,"Episodes":12404,"conveys":12405,"installments":12406,"globe":12407,"1960s":12408,"resulting":12409,"hysterically":12410,"stereotyped":12411,"Homecoming":12412,"Jenkins":12413,"Doll":12414,"Lincoln":12415,"Welcome":12416,"naysayers":12417,"registered":12418,"doctors":12419,"anxiety":12420,"mouthed":12421,"fundamental":12422,"Crystal":12423,"WRONG":12424,"subsequent":12425,"sociopath":12426,"resurrect":12427,"\"),":12428,"01":12429,"Band":12430,"Bander":12431,"Cron":12432,"Comb":12433,"Kal":12434,"Lisa":12435,"Manson":12436,"Os":12437,"OVER":12438,"Sny":12439,"baked":12440,"bumbling":12441,"nell":12442,"uries":12443,"tober":12444,"choc":12445,"liar":12446,"iciently":12447,"outfits":12448,"dev":12449,"defi":12450,"comend":12451,"divid":12452,"hek":12453,"hears":12454,"werewolf":12455,"prince":12456,"acies":12457,"enson":12458,"placing":12459,"rightly":12460,"pauses":12461,"cracks":12462,"topia":12463,"Weaver":12464,"atha":12465,"Sequ":12466,"talentless":12467,"Suff":12468,"USE":12469,"respectful":12470,"Christie":12471,"LOST":12472,"suffice":12473,"Guiller":12474,"boxing":12475,"Class":12476,"redeemable":12477,"connects":12478,"connecting":12479,"Fiennes":12480,"disturb":12481,"Schneider":12482,"flowing":12483,"flowed":12484,"senior":12485,"Betty":12486,"Garfield":12487,"reflected":12488,"Quest":12489,"safety":12490,"Channing":12491,"Irons":12492,"anuary":12493,"investigate":12494,"boobs":12495,"jerker":12496,"Killing":12497,"resembling":12498,"maids":12499,"Producers":12500,"omeday":12501,"blessed":12502,"allegory":12503,"hesitant":12504,"Revenge":12505,"newspaper":12506,"Afghanistan":12507,"pomp":12508,"Byrne":12509,"Guillermo":12510,"Away":12511,"Ble":12512,"Cube":12513,"Eugen":12514,"Fem":12515,"NAS":12516,"PL":12517,"Por":12518,"Zoe":12519,"bir":12520,"ginal":12521,"iuses":12522,"junior":12523,"anachron":12524,"ongoing":12525,"encounters":12526,"Thur":12527,"adored":12528,"entering":12529,"pest":12530,"map":12531,"notably":12532,"exhibit":12533,"scattered":12534,"heat":12535,"trow":12536,"proven":12537,"acclaim":12538,"cheered":12539,"needless":12540,"Social":12541,"flims":12542,"basics":12543,"Week":12544,"Dece":12545,"rises":12546,"meanings":12547,"heroism":12548,"ggy":12549,"Doom":12550,"lando":12551,"Arnie":12552,"skull":12553,"THEY":12554,"adventurous":12555,"Batwoman":12556,"criticized":12557,"religions":12558,"surviving":12559,"massively":12560,"abyrin":12561,"unkirk":12562,"Cheap":12563,"Saoir":12564,"traditions":12565,"applied":12566,"swallow":12567,"experts":12568,"ICK":12569,"juxta":12570,"kien":12571,"evolves":12572,"Boyle":12573,"Chastain":12574,"Vanessa":12575,"addresses":12576,"billed":12577,"Addition":12578,"celebrate":12579,"arrowing":12580,"determination":12581,"Wednes":12582,"Zeal":12583,"alleged":12584,"Venom":12585,"Latin":12586,"elimin":12587,"Pointless":12588,"Gotham":12589,"monologues":12590,"sprinkled":12591,"astronauts":12592,"reluctant":12593,"dvd":12594,"Otto":12595,"Court":12596,"abstract":12597,"hypnot":12598,"33":12599,"CD":12600,"FAR":12601,"Uwe":12602,"Zac":12603,"gel":12604,"gories":12605,"jaded":12606,"skilled":12607,"vital":12608,"thie":12609,"relying":12610,"ench":12611,"ouge":12612,"iti":12613,"seas":12614,"masters":12615,"gear":12616,"irrational":12617,"laz":12618,"artwork":12619,"uming":12620,"fines":12621,"coast":12622,"izza":12623,"Alas":12624,"girlfriends":12625,"Dev":12626,"classified":12627,"athon":12628,"critically":12629,"19th":12630,"Shet":12631,"INE":12632,"shorts":12633,"openly":12634,"confirm":12635,"ANK":12636,"denomin":12637,"Key":12638,"Comic":12639,"architect":12640,"ITY":12641,"weirdness":12642,"..........":12643,"Supernatural":12644,"Robinson":12645,"Ground":12646,"Simpson":12647,"consistency":12648,"achieves":12649,"snappy":12650,"awkwardness":12651,"bombed":12652,"expertly":12653,"mouths":12654,"trees":12655,"IDS":12656,"chicken":12657,"daddy":12658,"glorified":12659,"Waiting":12660,"Intel":12661,"endeav":12662,"vacuous":12663,"Soundtrack":12664,"replacement":12665,"Jenny":12666,"Lights":12667,"Metal":12668,"ipedia":12669,"DabDab":12670,"manufact":12671,"stylistic":12672,"Bangladesh":12673,"squeeze":12674,"neurotic":12675,"instalment":12676,"shoddy":12677,"Banderas":12678,"December":12679,"abyrinth":12680,"120":12681,"BA":12682,"Bach":12683,"Dunkirk":12684,"Hil":12685,"January":12686,"KK":12687,"Kaz":12688,"Mass":12689,"Natur":12690,"PI":12691,"Rest":12692,"Sty":12693,"YE":12694,"btw":12695,"blog":12696,"eer":12697,"jest":12698,"lend":12699,"mumbling":12700,"slog":12701,"troll":12702,"alert":12703,"behaving":12704,"vet":12705,"icy":12706,"filthy":12707,"notor":12708,"detr":12709,"posure":12710,"heim":12711,"couldnt":12712,"hia":12713,"mercy":12714,"performer":12715,"downside":12716,"reek":12717,"submarine":12718,"Demo":12719,"jewel":12720,"tempo":12721,"temper":12722,"budgets":12723,"syndrome":12724,"paro":12725,"blacks":12726,"0000":12727,"Goodfellas":12728,"masala":12729,"paycheck":12730,"inclusion":12731,"bike":12732,"greedy":12733,"equip":12734,"gays":12735,"fraud":12736,"stray":12737,"Patric":12738,"affection":12739,"machines":12740,"session":12741,"robotic":12742,"Magn":12743,"exaggeration":12744,"Chucky":12745,"Merlin":12746,"Silent":12747,"feeding":12748,"eighties":12749,"contributed":12750,"dramatically":12751,"puppets":12752,"dominated":12753,"Stock":12754,"receives":12755,"vigil":12756,"google":12757,"custom":12758,"Francisco":12759,"nurse":12760,"woeful":12761,"eastern":12762,"rambling":12763,"discern":12764,"Bloom":12765,"conviction":12766,"Taxi":12767,"Saoirse":12768,"denominator":12769,"29":12770,"Clive":12771,"Count":12772,"Eye":12773,"Eyes":12774,"Hong":12775,"Ic":12776,"Kris":12777,"Kept":12778,"Mandalorian":12779,"Pfe":12780,"Sig":12781,"Sniper":12782,"iors":12783,"mort":12784,"xy":12785,"inction":12786,"reporter":12787,"aled":12788,"chie":12789,"moviegoers":12790,"Theat":12791,"rapt":12792,"dizzy":12793,"imple":12794,"dope":12795,"intend":12796,"convict":12797,"agues":12798,"sail":12799,"spont":12800,"101":12801,"twelve":12802,"Starts":12803,"somethings":12804,"drain":12805,"mayhem":12806,"nings":12807,"pathis":12808,"blum":12809,"studies":12810,"paren":12811,"IND":12812,"cynic":12813,"Brandon":12814,"linger":12815,"midst":12816,"planes":12817,"marked":12818,"niche":12819,"Daily":12820,"gladly":12821,"burden":12822,"transitions":12823,"gypt":12824,"Code":12825,"periods":12826,"throwback":12827,"slaves":12828,"fluid":12829,"flashes":12830,"Nightmare":12831,"Willem":12832,"ACE":12833,"ðŸŒ":12834,"categories":12835,"Dench":12836,"communist":12837,"Lauren":12838,"quietly":12839,"occurs":12840,"sentimentality":12841,"discussions":12842,"increase":12843,"Silence":12844,"Rodden":12845,"benefits":12846,"vehicles":12847,"Freddy":12848,"contribution":12849,"incidents":12850,"possessed":12851,"concentration":12852,"leaning":12853,"procedural":12854,"uniformly":12855,"Montana":12856,"caution":12857,"Bogart":12858,"wrestling":12859,"Tolkien":12860,"jealous":12861,"masturb":12862,"Cranston":12863,"Watts":12864,"Snyder":12865,"Amit":12866,"DR":12867,"Dur":12868,"Domin":12869,"Eight":12870,"Hands":12871,"June":12872,"Lang":12873,"MAR":12874,"Open":12875,"Odys":12876,"bc":12877,"cough":12878,"dash":12879,"ev":12880,"ku":12881,"ofsky":12882,"chapt":12883,"lete":12884,"verts":12885,"youn":12886,"shes":12887,"unbiased":12888,"diamond":12889,"imperson":12890,"poem":12891,"showcases":12892,"pert":12893,"peril":12894,"greats":12895,"etti":12896,"bodi":12897,"characterizations":12898,"obscene":12899,"fian":12900,"nerdy":12901,"cinematographer":12902,"followers":12903,"Whenever":12904,"landish":12905,"puke":12906,"copying":12907,"skits":12908,"Shot":12909,"damned":12910,"McG":12911,"Trekk":12912,"shameless":12913,"exploited":12914,"psyched":12915,"stunningly":12916,"catches":12917,"Walt":12918,"culmin":12919,"watered":12920,"troubles":12921,"Nights":12922,"mmmm":12923,"remarkably":12924,"slide":12925,"semblance":12926,"Russo":12927,"Chap":12928,"operation":12929,"peaceful":12930,"rollercoaster":12931,"Resident":12932,"hunger":12933,"Sanjay":12934,"awaiting":12935,"smoothly":12936,"employed":12937,"expanded":12938,"Wiig":12939,"exhausted":12940,"distribution":12941,"spaceship":12942,"October":12943,"Liberal":12944,"Hawaii":12945,"sensitivity":12946,"pedestrian":12947,"Chronicles":12948,"Television":12949,"exhilarating":12950,"chapters":12951,"Bing":12952,"Catch":12953,"Gave":12954,"IP":12955,"Mort":12956,"PTS":12957,"Rex":12958,"Spl":12959,"Taking":12960,"bru":12961,"harrowing":12962,"ien":12963,"sity":12964,"someday":12965,"ati":12966,"esis":12967,"chord":12968,"sections":12969,"beard":12970,"bewilder":12971,"shiny":12972,"Theater":12973,"una":12974,"unfamiliar":12975,"unconventional":12976,"dee":12977,"raz":12978,"roe":12979,"rose":12980,"scandal":12981,"planted":12982,"overbearing":12983,"grumpy":12984,"fier":12985,"superpowers":12986,"Jokes":12987,"monkeys":12988,"morbid":12989,"Pearl":12990,"enger":12991,"Levy":12992,"powered":12993,"winners":12994,"buildup":12995,"150":12996,"sweat":12997,"cheaply":12998,"terrified":12999,"Orlando":13000,"executives":13001,"sickness":13002,"approx":13003,"regarded":13004,"Color":13005,"Elton":13006,"virgin":13007,"aiming":13008,"Wayans":13009,"affecting":13010,"1999":13011,"ethical":13012,"sixties":13013,"influences":13014,"repetition":13015,"coherence":13016,"rooted":13017,"Polanski":13018,"patiently":13019,"Duke":13020,"Speed":13021,"awaited":13022,"ironically":13023,"Snatch":13024,"principal":13025,"Brooklyn":13026,"stroke":13027,"Dern":13028,"frozen":13029,"Shahrukh":13030,"pandemic":13031,"pumping":13032,"employees":13033,"despise":13034,"photographed":13035,"enchanting":13036,"detectives":13037,"labeled":13038,"Thursday":13039,"Additionally":13040,"Wednesday":13041,"equipment":13042,"Patricia":13043,"Iceland":13044,"Chase":13045,"Doc":13046,"Ess":13047,"Ebert":13048,"Escape":13049,"Found":13050,"Gaga":13051,"Mandy":13052,"Rarely":13053,"Tina":13054,"Yep":13055,"batch":13056,"cue":13057,"cott":13058,"gum":13059,"sly":13060,"vation":13061,"wizard":13062,"infuri":13063,"stages":13064,"escal":13065,"velope":13066,"utt":13067,"shant":13068,"unclear":13069,"outlandish":13070,"sued":13071,"exchange":13072,"doc":13073,"romcom":13074,"arters":13075,"inee":13076,"ritual":13077,"spine":13078,"disp":13079,"disappeared":13080,"tooth":13081,"fanboys":13082,"compon":13083,"huh":13084,"singers":13085,"cord":13086,"tember":13087,"Leone":13088,"toned":13089,"effortlessly":13090,"flawlessly":13091,"kyo":13092,"nonex":13093,"destination":13094,"gripe":13095,"referring":13096,"Quiet":13097,"Bros":13098,"varied":13099,"sells":13100,"spectacularly":13101,"grandfather":13102,"Musical":13103,"quirk":13104,"Morty":13105,"appropriately":13106,"minorities":13107,"delightfully":13108,"phenomenon":13109,"shares":13110,"shadows":13111,"resolve":13112,"Graham":13113,"switching":13114,"cooking":13115,"Romania":13116,"Kylo":13117,"Buy":13118,"affairs":13119,"Lindsay":13120,"Reno":13121,"thetics":13122,"Gladiator":13123,"methods":13124,"AGAIN":13125,"summarize":13126,"manifest":13127,"eternal":13128,"scheme":13129,"Performances":13130,"detached":13131,"Kilmer":13132,"nephew":13133,"Crawford":13134,"Chloe":13135,"flimsy":13136,"PTSD":13137,"Ald":13138,"Egypt":13139,"FRE":13140,"Gump":13141,"Hale":13142,"Name":13143,"Ocean":13144,"Paren":13145,"Rab":13146,"Rac":13147,"Wo":13148,"Yash":13149,"cuss":13150,"dwar":13151,"gid":13152,"las":13153,"muse":13154,"sins":13155,"uation":13156,"ugu":13157,"eration":13158,"iser":13159,"recover":13160,"ales":13161,"chal":13162,"elson":13163,"outer":13164,"geist":13165,"ripping":13166,"dime":13167,"imperfect":13168,"poser":13169,"tially":13170,"tible":13171,"pering":13172,"taint":13173,"viewpoint":13174,"hishek":13175,"itsch":13176,"owners":13177,"standalone":13178,"cles":13179,"underwater":13180,"excels":13181,"centuries":13182,"Chal":13183,"oda":13184,"versat":13185,"Alba":13186,"pressing":13187,"predicted":13188,"shove":13189,"bravery":13190,"forwarding":13191,"aneous":13192,"Anybody":13193,"psyche":13194,"literal":13195,"repeats":13196,"treating":13197,"hardest":13198,"Directors":13199,"survivor":13200,"Prab":13201,"bully":13202,"Roma":13203,"Chain":13204,"Judging":13205,"Born":13206,"ambition":13207,"Ashton":13208,"collective":13209,"micro":13210,"deliberate":13211,"immigration":13212,"Forest":13213,"trademark":13214,"obligatory":13215,"maniac":13216,"Antonio":13217,"massacre":13218,"Vikander":13219,"knife":13220,"prominent":13221,"Cliché":13222,"distasteful":13223,"filmography":13224,"Pfeiffer":13225,"Roddenberry":13226,"8th":13227,"93":13228,"911":13229,"Avoy":13230,"Hank":13231,"Jai":13232,"Jungle":13233,"Juno":13234,"Kirst":13235,"Lor":13236,"MS":13237,"Milla":13238,"QU":13239,"Sic":13240,"Tomb":13241,"afore":13242,"dot":13243,"fus":13244,"fting":13245,"mn":13246,"niss":13247,"pion":13248,"rhe":13249,"slo":13250,"sits":13251,"taboo":13252,"vfx":13253,"˜‚":13254,"insuffer":13255,"resemble":13256,"ouf":13257,"christ":13258,"leon":13259,"idal":13260,"arest":13261,"heter":13262,"trump":13263,"article":13264,"lling":13265,"kingdom":13266,"misplaced":13267,"gio":13268,"surpasses":13269,"performs":13270,"blu":13271,"inski":13272,"vocal":13273,"Reason":13274,"stupidly":13275,"climatic":13276,"closet":13277,"Pete":13278,"?????":13279,"Lead":13280,"cratic":13281,"ridiculousness":13282,"eventful":13283,"STER":13284,"biograph":13285,"Newman":13286,"Boss":13287,"Superhero":13288,"Robbins":13289,"VEN":13290,"energetic":13291,"Paranormal":13292,"feminine":13293,"tuning":13294,"tricked":13295,"evolving":13296,"GET":13297,"strengths":13298,"glee":13299,"ANYTHING":13300,"prayer":13301,"stretches":13302,"adox":13303,"Powers":13304,"indication":13305,"resistance":13306,"birds":13307,"elevated":13308,"exhausting":13309,"itarian":13310,"ingenious":13311,"amusement":13312,"Sofia":13313,"pompous":13314,"*.":13315,"Candy":13316,"FI":13317,"Fate":13318,"Oct":13319,"Odd":13320,"Tale":13321,"Vio":13322,"Wanted":13323,"Yawn":13324,"euro":13325,"gow":13326,"hing":13327,"kne":13328,"lou":13329,"nado":13330,"yi":13331,"inations":13332,"instein":13333,"invisible":13334,"resent":13335,"whack":13336,"ionage":13337,"unfinished":13338,"butter":13339,"deon":13340,"demean":13341,"usage":13342,"plug":13343,"umin":13344,"items":13345,"newly":13346,"crete":13347,"paired":13348,"pathetically":13349,"productive":13350,"craving":13351,"Asians":13352,"iah":13353,"monstro":13354,"Union":13355,"nonstop":13356,"Lohan":13357,"north":13358,"Liu":13359,"Liked":13360,"shortcomings":13361,"decently":13362,"retched":13363,"drab":13364,"McDow":13365,"pursuit":13366,"purchased":13367,"archety":13368,"Host":13369,"Christine":13370,"2002":13371,"laden":13372,"royd":13373,"Monsters":13374,"ASS":13375,"Wouldn":13376,"courageous":13377,"ICT":13378,"avier":13379,",,,,":13380,"Damme":13381,"threatened":13382,"crisy":13383,"maintained":13384,"escapes":13385,"Leonard":13386,"flew":13387,"Sounds":13388,"Brides":13389,"darkest":13390,"feeble":13391,"immersive":13392,"seamless":13393,"pirates":13394,"limitations":13395,"Biblical":13396,"Favorite":13397,"occupied":13398,"Villain":13399,"Visuals":13400,"Creep":13401,"Performance":13402,"homophobic":13403,"climactic":13404,"Southern":13405,"September":13406,"Audrey":13407,"accolades":13408,"condescending":13409,"Reservoir":13410,"Aronofsky":13411,"youngest":13412,"!\".":13413,"(?)":13414,")</":13415,"65":13416,"98":13417,"Cris":13418,"Hence":13419,"Las":13420,"Om":13421,"Rour":13422,"TRE":13423,"TIFF":13424,"aint":13425,"gli":13426,"hiring":13427,"rance":13428,"incapable":13429,"erase":13430,"orphan":13431,"moms":13432,"adise":13433,"icap":13434,"ela":13435,"files":13436,"neo":13437,"tering":13438,"composition":13439,"rocked":13440,"laced":13441,"appreh":13442,"manic":13443,"funeral":13444,"spon":13445,"seeming":13446,"happier":13447,"starters":13448,"similarly":13449,"downfall":13450,"dialect":13451,"smiled":13452,"developments":13453,"restri":13454,"Marlon":13455,"darkly":13456,"region":13457,"array":13458,"masquer":13459,"Holi":13460,"brainwashed":13461,"grees":13462,"posts":13463,"Trilogy":13464,"Frances":13465,"Turks":13466,"Foot":13467,"thinly":13468,"grabbing":13469,"numbingly":13470,"widely":13471,"hipster":13472,"surroundings":13473,"kinson":13474,"edict":13475,"witnessing":13476,"significantly":13477,"NEED":13478,"Greece":13479,"August":13480,"linked":13481,"spreading":13482,"SUPER":13483,"celebrated":13484,"parallels":13485,"Diana":13486,"mountains":13487,"accessible":13488,"Gilmore":13489,"Crime":13490,"Beyonce":13491,"Israeli":13492,"Utterly":13493,"Tower":13494,"overshadowed":13495,"undeniable":13496,"Disgusting":13497,"elderly":13498,"Ugly":13499,"enigmatic":13500,"insomnia":13501,"Dawson":13502,"Rourke":13503,"<<":13504,"Az":13505,"Average":13506,"Cow":13507,"Cass":13508,"Das":13509,"Es":13510,"Goose":13511,"Kung":13512,"NN":13513,"Ric":13514,"dumped":13515,"fodder":13516,"iate":13517,"scept":13518,"rewrite":13519,"relied":13520,"andered":13521,"asco":13522,"unseen":13523,"unks":13524,"raine":13525,"expose":13526,"amor":13527,"justification":13528,"hea":13529,"etal":13530,"rug":13531,"rubs":13532,"matrix":13533,"hile":13534,"Stunning":13535,"clusion":13536,"ensen":13537,"izon":13538,"autistic":13539,"insens":13540,"warriors":13541,"flare":13542,"handles":13543,"partially":13544,"schmal":13545,"STD":13546,"ANG":13547,"Shir":13548,"ATED":13549,"ficially":13550,"bandwagon":13551,"constit":13552,"transform":13553,"refused":13554,"ARK":13555,"Norway":13556,"stranded":13557,"shocker":13558,"travels":13559,"noticeable":13560,"Sunny":13561,"unfolded":13562,"slip":13563,"puns":13564,"Clever":13565,"frightened":13566,"departure":13567,"Bahubali":13568,"floating":13569,"escaped":13570,"tremendously":13571,"puzzled":13572,"conservatives":13573,"lux":13574,"rehashed":13575,"Following":13576,"baffling":13577,"dedication":13578,"Commun":13579,"Sophia":13580,"TAIN":13581,"dumpster":13582,"Victoria":13583,"Patton":13584,"FECT":13585,"Roland":13586,"inherent":13587,"transparent":13588,"glamorous":13589,"injury":13590,"surgery":13591,"neutral":13592,"censor":13593,"presumably":13594,"administration":13595,"Scandina":13596,"Cronenberg":13597,"NASA":13598,"\";":13599,"Baker":13600,"Creek":13601,"Due":13602,"Hered":13603,"Jared":13604,"Kut":13605,"Kline":13606,"LIT":13607,"OPLE":13608,"Slater":13609,"VO":13610,"ZZ":13611,"coo":13612,"hater":13613,"lined":13614,"nm":13615,"pad":13616,"pals":13617,"sway":13618,"sung":13619,"wandering":13620,"incomplete":13621,"inflict":13622,"insecure":13623,"ange":13624,"atleast":13625,"modest":13626,"lex":13627,"verbal":13628,"sucking":13629,"newest":13630,"termin":13631,"immoral":13632,"dock":13633,"goods":13634,"articul":13635,"conce":13636,"whodun":13637,"igning":13638,"quarters":13639,"boggling":13640,"twin":13641,"Init":13642,"bris":13643,"needing":13644,"beforehand":13645,"triangle":13646,"flip":13647,"voiced":13648,"sings":13649,"steel":13650,"cliffe":13651,"volumes":13652,"ocy":13653,"uniforms":13654,"masks":13655,"Comics":13656,"Hara":13657,"Whole":13658,"Shape":13659,"household":13660,"destiny":13661,"narratives":13662,"calcul":13663,"IES":13664,"horrified":13665,"employ":13666,"Wilde":13667,"Bette":13668,"Hardly":13669,"punchline":13670,"reckon":13671,"computers":13672,"penis":13673,"highlighted":13674,"Cruz":13675,"Stevens":13676,"lustre":13677,"Hills":13678,"tackles":13679,"tolerance":13680,"sync":13681,"PEOPLE":13682,"EVERYONE":13683,"experimental":13684,"Generation":13685,"Animal":13686,"Mysterio":13687,"hesitate":13688,"espionage":13689,"crammed":13690,"whims":13691,"Tamil":13692,"Straight":13693,"Technically":13694,"muscle":13695,"published":13696,"degrading":13697,"Studios":13698,"podcast":13699,"swimming":13700,"Homeland":13701,"CRAP":13702,"Fassbender":13703,"Pushing":13704,"Zealand":13705,"fierce":13706,"nonexistent":13707,"Parenthood":13708,"monstrosity":13709,"Bong":13710,"Baa":13711,"Done":13712,"Elect":13713,"Hog":13714,"Hindu":13715,"LONG":13716,"Mun":13717,"Pitch":13718,"Purge":13719,"Rider":13720,"Riley":13721,"SER":13722,"Tun":13723,"UGH":13724,"Wik":13725,"bump":13726,"llo":13727,"sis":13728,"sie":13729,"swords":13730,"tant":13731,"yl":13732,"thir":13733,"inform":13734,"isies":13735,"revision":13736,"stones":13737,"arrival":13738,"chand":13739,"owe":13740,"uneducated":13741,"demise":13742,"imper":13743,"contempt":13744,"goals":13745,"overt":13746,"designer":13747,"joyful":13748,"cese":13749,"underdog":13750,"gime":13751,"wastes":13752,"aki":13753,"paths":13754,"screened":13755,"waves":13756,"teller":13757,"Dec":13758,"Martian":13759,"lical":13760,"Tokyo":13761,"INK":13762,"namely":13763,"supporters":13764,"Carl":13765,"Carrell":13766,"!!!!!!!":13767,"strained":13768,"uttered":13769,"McAvoy":13770,"Diaries":13771,"expressive":13772,"harat":13773,"Gray":13774,"Franken":13775,"Brody":13776,"Prop":13777,"representing":13778,"stepping":13779,"omeness":13780,"Darkness":13781,"Elf":13782,"Elle":13783,"rewind":13784,"awkwardly":13785,"hammy":13786,"Baron":13787,"Parks":13788,"Feig":13789,"victory":13790,"Sarandon":13791,"tunes":13792,"suspects":13793,"grossly":13794,"drinks":13795,"Goldblum":13796,"exaggerating":13797,"Russel":13798,"1982":13799,"Katie":13800,"Judd":13801,"Tycoon":13802,"desires":13803,"agrees":13804,"Hughes":13805,"mesmerized":13806,"PERFECT":13807,"Snipes":13808,"empowering":13809,"Barrymore":13810,"Kinda":13811,"Agatha":13812,"Beatles":13813,"Wolverine":13814,"policy":13815,"attachment":13816,"punishment":13817,"Micheal":13818,"Melanie":13819,"epitome":13820,"saturated":13821,"Thurman":13822,"Odyssey":13823,"Abo":13824,"Apat":13825,"DER":13826,"Differ":13827,"Emo":13828,"Gore":13829,"Grow":13830,"Jas":13831,"LL":13832,"Mask":13833,"Op":13834,"Oper":13835,"Pas":13836,"TM":13837,"Vera":13838,"Wing":13839,"bay":13840,"mr":13841,"mand":13842,"pizza":13843,"vary":13844,"zan":13845,"thugs":13846,"inep":13847,"reau":13848,"onies":13849,"asser":13850,"moa":13851,"verge":13852,"ented":13853,"unintelligent":13854,"ido":13855,"exit":13856,"imated":13857,"weep":13858,"weary":13859,"upbeat":13860,"agno":13861,"baddies":13862,"theirs":13863,"accompany":13864,"characteristic":13865,"twins":13866,"assed":13867,"disappointments":13868,"commendable":13869,"friendships":13870,"Seat":13871,"ridic":13872,"Lego":13873,"specul":13874,"puer":13875,"cyber":13876,"supply":13877,"midway":13878,"McAdams":13879,"exploding":13880,"loudly":13881,"clapping":13882,"idiocy":13883,"novelty":13884,"Benedict":13885,"immortal":13886,"Saint":13887,"relieved":13888,"Flor":13889,"Annabelle":13890,"longest":13891,"Kenneth":13892,"relaxing":13893,"Swinton":13894,"hunters":13895,"Royal":13896,"courtroom":13897,"Mila":13898,"Glenn":13899,"encountered":13900,"prejudices":13901,"cabin":13902,"Whitaker":13903,"fisted":13904,"transcend":13905,"coincidence":13906,"incarnation":13907,"Elliot":13908,"Blockbuster":13909,"SPOILER":13910,"seventies":13911,"catastrop":13912,"Egyptian":13913,"Belle":13914,"Dha":13915,"Fab":13916,"HAS":13917,"Kun":13918,"Kang":13919,"Rated":13920,"Self":13921,"Tark":13922,"Tree":13923,"Tried":13924,"WB":13925,"gren":13926,"glam":13927,"lat":13928,"topped":13929,"eds":13930,"arrested":13931,"forgiving":13932,"noisy":13933,"contract":13934,"tame":13935,"tearing":13936,"savi":13937,"diss":13938,"prude":13939,"clarity":13940,"chester":13941,"foremost":13942,"colo":13943,"iza":13944,"subtext":13945,"Alone":13946,"medy":13947,"Dono":13948,"Beth":13949,"landing":13950,"shortly":13951,"Neg":13952,"negatives":13953,"annoyingly":13954,"Extra":13955,"respectable":13956,"uttering":13957,"similarity":13958,"Abhishek":13959,"judges":13960,"foster":13961,"niece":13962,"signature":13963,"Samurai":13964,"spotlight":13965,"Monroe":13966,"Madsen":13967,"elementary":13968,"junkie":13969,"POINT":13970,"palpable":13971,"Katniss":13972,"Nolte":13973,"halluc":13974,"Claude":13975,"gigg":13976,"celebration":13977,"dramatized":13978,"Planned":13979,"accomplishment":13980,"FORE":13981,"evoke":13982,"shitty":13983,"Sixth":13984,"Narcos":13985,"utilized":13986,"abruptly":13987,"Hawkins":13988,"obstacles":13989,"puerile":13990,"\"(":13991,"42":13992,"43":13993,"Card":13994,"Cob":13995,"Carly":13996,"Dom":13997,"Ell":13998,"Hilton":13999,"Kr":14000,"Lone":14001,"Napo":14002,"OH":14003,"Prest":14004,"Sac":14005,"Sach":14006,"Tu":14007,"Vice":14008,"Ward":14009,"laser":14010,"snail":14011,"wits":14012,"infamous":14013,"anthology":14014,"regime":14015,"stance":14016,"toe":14017,"unwanted":14018,"abh":14019,"abdu":14020,"irrever":14021,"neath":14022,"rope":14023,"pocket":14024,"tiger":14025,"perverse":14026,"Butter":14027,"grating":14028,"este":14029,"uality":14030,"Heard":14031,"Albert":14032,"Weap":14033,"crat":14034,"tedium":14035,"queens":14036,"Neigh":14037,"Argent":14038,"wipe":14039,"Suicide":14040,"ATION":14041,"Expan":14042,"criticizing":14043,"slang":14044,"Directed":14045,"stereotyping":14046,"ternal":14047,"regretted":14048,"nelly":14049,"fires":14050,"Redempt":14051,"quirks":14052,"lengths":14053,"aims":14054,"immediate":14055,"records":14056,"sources":14057,"cleaning":14058,"Hamill":14059,"1989":14060,"interpreted":14061,"Paltrow":14062,"competence":14063,"Univers":14064,"Written":14065,"crashes":14066,"pooh":14067,"admired":14068,"Birds":14069,"Ashley":14070,"pornography":14071,"Favreau":14072,"encouraging":14073,"Kathy":14074,"DS9":14075,"annoyance":14076,"mystical":14077,"rabbit":14078,"helicopter":14079,"Spirit":14080,"discipl":14081,"Chainsaw":14082,"Kutcher":14083,"Above":14084,"Expanse":14085,"')":14086,"(!)":14087,".).":14088,"7th":14089,"?,":14090,"?...":14091,"Cul":14092,"FAN":14093,"Kel":14094,"LS":14095,"PA":14096,"Pack":14097,"Pull":14098,"Sud":14099,"Spot":14100,"Tall":14101,"Touch":14102,"Tilda":14103,"Wu":14104,"Wins":14105,"bol":14106,"binding":14107,"gically":14108,"hers":14109,"ii":14110,"lists":14111,"pm":14112,"pard":14113,"pounding":14114,"ranted":14115,"tany":14116,"wander":14117,"inhuman":14118,"orchest":14119,"itel":14120,"token":14121,"iless":14122,"owski":14123,"advis":14124,"irresponsible":14125,"usty":14126,"ules":14127,"coma":14128,"amish":14129,"dos":14130,"worries":14131,"heels":14132,"charmed":14133,"perverted":14134,"taker":14135,"managing":14136,"joins":14137,"agas":14138,"assess":14139,"undercover":14140,"gile":14141,"persed":14142,"insign":14143,"Reed":14144,"ventures":14145,"smash":14146,"carbon":14147,"humorless":14148,"attending":14149,"predictably":14150,"societal":14151,"paradox":14152,"impressions":14153,"passengers":14154,"succ":14155,"payed":14156,"Conclusion":14157,"successor":14158,"refuses":14159,"Lovely":14160,"Edge":14161,"slash":14162,"Raaz":14163,"fronts":14164,"luckily":14165,"pulp":14166,"pulse":14167,"Tracy":14168,"crowded":14169,"qualify":14170,"Raymond":14171,"radi":14172,"insights":14173,"honour":14174,"churning":14175,"Rubbish":14176,"circus":14177,"Joey":14178,"deterior":14179,"tackle":14180,"1969":14181,"rampant":14182,"bankrupt":14183,"links":14184,"Zombies":14185,"Bridge":14186,"Madea":14187,"ovsky":14188,"gimmicks":14189,"hypocrisy":14190,"immigrants":14191,"GHT":14192,"Radcliffe":14193,"crawl":14194,"duped":14195,"Facebook":14196,"Varun":14197,"Rapace":14198,"craziness":14199,"Brendan":14200,"intertwined":14201,"basketball":14202,"amidst":14203,"chocolate":14204,"divided":14205,"Hilary":14206,"Theatre":14207,"psychedelic":14208,"aforementioned":14209,"rhetor":14210,"Shirley":14211,"Redemption":14212,"44":14213,"?.":14214,"Cir":14215,"Cary":14216,"Duck":14217,"Efron":14218,"Gig":14219,"Kuro":14220,"Labyrinth":14221,"Pep":14222,"Rim":14223,"Town":14224,"Tud":14225,"Winst":14226,"bh":14227,"bers":14228,"dent":14229,"dling":14230,"dangers":14231,"lining":14232,"pans":14233,"russ":14234,"tte":14235,"tweak":14236,"tub":14237,"uh":14238,"stig":14239,"stran":14240,"stairs":14241,"modo":14242,"lef":14243,"ilation":14244,"omit":14245,"ligible":14246,"adel":14247,"uncan":14248,"unsympathetic":14249,"petit":14250,"supr":14251,"rict":14252,"degrees":14253,"seeks":14254,"enduring":14255,"intage":14256,"consequence":14257,"quasi":14258,"manji":14259,"fulfilling":14260,"spice":14261,"orean":14262,"acus":14263,"phia":14264,"daytime":14265,"borg":14266,"centre":14267,"blings":14268,"blond":14269,"trigger":14270,"relating":14271,"bush":14272,"athers":14273,"Beach":14274,"marathon":14275,"freaks":14276,"morph":14277,"Together":14278,"Lev":14279,"menace":14280,"certaint":14281,"Keith":14282,"spector":14283,"swept":14284,"dealer":14285,"smartly":14286,"Warren":14287,"Field":14288,"Cheesy":14289,"Parasite":14290,"bait":14291,"approached":14292,"TOO":14293,"meticulous":14294,"winded":14295,"Getting":14296,"ethics":14297,"Angela":14298,"planets":14299,"hurting":14300,"Hello":14301,"tendency":14302,"organic":14303,"eaten":14304,"skinny":14305,"DEAD":14306,"electron":14307,"Congrats":14308,"possession":14309,"Daddy":14310,"Lowe":14311,"oppression":14312,"enlighten":14313,"Tonight":14314,"Venice":14315,"Creed":14316,"Gothic":14317,"shifts":14318,"Studio":14319,"salvage":14320,"Tatum":14321,"stanbul":14322,"polite":14323,"Scorcese":14324,"Branagh":14325,"substitute":14326,"Ragnarok":14327,"Intellig":14328,"vigilante":14329,"cynicism":14330,"fiancé":14331,"Hereditary":14332,"Apatow":14333,"Seattle":14334,"37":14335,"Cook":14336,"Chad":14337,"Clan":14338,"DAY":14339,"Find":14340,"Gall":14341,"HATE":14342,"Jill":14343,"Jump":14344,"Late":14345,"Mau":14346,"PT":14347,"Tues":14348,"Vers":14349,"Vader":14350,"Yi":14351,"coff":14352,"doo":14353,"dul":14354,"dess":14355,"tes":14356,"rets":14357,"reserved":14358,"resume":14359,"todd":14360,"esomeness":14361,"omg":14362,"whine":14363,"unappealing":14364,"unacceptable":14365,"pep":14366,"sover":14367,"majest":14368,"geeks":14369,"demented":14370,"ulated":14371,"imbec":14372,"tians":14373,"usional":14374,"consult":14375,"persever":14376,"overwrought":14377,"plethor":14378,"yea":14379,"Noomi":14380,"trials":14381,"trigg":14382,"leton":14383,"lesbians":14384,"Reviews":14385,"warfare":14386,"bug":14387,"corpse":14388,"Begins":14389,"mario":14390,"marvell":14391,"Toby":14392,"failures":14393,"earnest":14394,"credited":14395,"moderately":14396,"respectively":14397,"airplane":14398,"McQueen":14399,"Daisies":14400,"agonizing":14401,"Boot":14402,"Geralt":14403,"studded":14404,"mesh":14405,"Turn":14406,"slapped":14407,"subtleties":14408,"Brain":14409,"approval":14410,"fragile":14411,"Farlane":14412,"Ryder":14413,"ADE":14414,"panther":14415,"property":14416,"fascist":14417,"Mads":14418,"crossing":14419,"favourites":14420,"premiered":14421,"behaviors":14422,"BET":14423,"defending":14424,"defining":14425,"splatter":14426,"stoner":14427,"glorify":14428,"aspiring":14429,"Ruth":14430,"arguing":14431,"operas":14432,"trendy":14433,"Hopper":14434,"Genius":14435,"squeamish":14436,"relentlessly":14437,"eloqu":14438,"Dynam":14439,"legitimate":14440,"harmless":14441,"vulnerability":14442,"fantastical":14443,"mishmash":14444,"activities":14445,"Spartacus":14446,"incorporated":14447,"Mikkel":14448,"stimulating":14449,"Beyoncé":14450,"Renee":14451,"Robocop":14452,"Kirsten":14453,"Universal":14454,"plethora":14455,",...":14456,"BRA":14457,"CL":14458,"Cum":14459,"Chapp":14460,"Dil":14461,"Dane":14462,"Drey":14463,"Darth":14464,"Dillon":14465,"Earl":14466,"Filled":14467,"Hed":14468,"Male":14469,"MANY":14470,"Nye":14471,"Nelson":14472,"Using":14473,"Vic":14474,"Wit":14475,"Wasted":14476,"bally":14477,"brush":14478,"cutes":14479,"dang":14480,"gart":14481,"hul":14482,"lure":14483,"lunch":14484,"pc":14485,"vintage":14486,"woo":14487,"zman":14488,"rev":14489,"reserv":14490,"reception":14491,"atable":14492,"stack":14493,"stically":14494,"strung":14495,"modi":14496,"chef":14497,"veer":14498,"liver":14499,"kelo":14500,"erek":14501,"idential":14502,"sober":14503,"rag":14504,"exposure":14505,"lage":14506,"impy":14507,"pockets":14508,"endor":14509,"upsetting":14510,"agency":14511,"overhyped":14512,"overtones":14513,"spi":14514,"acade":14515,"rubber":14516,"matin":14517,"underneath":14518,"plagu":14519,"surpass":14520,"surgeon":14521,"excre":14522,"Chand":14523,"foreshadow":14524,"estate":14525,"crazed":14526,"magically":14527,"controll":14528,"condensed":14529,"reasoning":14530,"Bear":14531,"rides":14532,"camps":14533,"cinematographic":14534,"missions":14535,"supports":14536,"tails":14537,"Keira":14538,"zzie":14539,"Comed":14540,"costuming":14541,"deadpan":14542,"ITE":14543,"packs":14544,"hostage":14545,"murderers":14546,"framed":14547,"belt":14548,"tested":14549,"crosses":14550,"ooooo":14551,"Blah":14552,"conveying":14553,"depictions":14554,"jazz":14555,"indulgence":14556,"jerking":14557,"stretching":14558,"habits":14559,"!!!!!!!!!!!!!!!!":14560,"emphasize":14561,"sooooo":14562,"hopelessly":14563,"Arabic":14564,"acknowled":14565,"Riverdale":14566,"retirement":14567,"Shades":14568,"Virginia":14569,"yawning":14570,"dubious":14571,"shaped":14572,"Rhys":14573,"regurgit":14574,"pathise":14575,"McDowell":14576,"Florida":14577,"Kurosa":14578,"ABS":14579,"Bart":14580,"Cards":14581,"Cyr":14582,"DY":14583,"Gover":14584,"Hid":14585,"HAR":14586,"Istanbul":14587,"Mam":14588,"NING":14589,"Pes":14590,"Prom":14591,"Rip":14592,"Tran":14593,"Tucker":14594,"Video":14595,"Vito":14596,"Wong":14597,"Yor":14598,"dit":14599,"fade":14600,"sale":14601,"umentary":14602,"yle":14603,"thirsty":14604,"org":14605,"whist":14606,"icons":14607,"shore":14608,"ooh":14609,"union":14610,"idan":14611,"devot":14612,"deception":14613,"lace":14614,"amped":14615,"poll":14616,"conjuring":14617,"persecut":14618,"perplex":14619,"iggs":14620,"teleg":14621,"displaying":14622,"!!)":14623,"10s":14624,"assign":14625,"assigned":14626,"playful":14627,"cler":14628,"geniuses":14629,"Whats":14630,"Asia":14631,"warranted":14632,"slows":14633,"nazi":14634,"climb":14635,
[...]
